{
  "version": "1.0",
  "truncation": null,
  "padding": null,
  "added_tokens": [
    {
      "id": 0,
      "content": "<unk|LLM-jp>",
      "single_word": false,
      "lstrip": false,
      "rstrip": false,
      "normalized": false,
      "special": true
    },
    {
      "id": 1,
      "content": "<s|LLM-jp>",
      "single_word": false,
      "lstrip": false,
      "rstrip": false,
      "normalized": false,
      "special": true
    },
    {
      "id": 2,
      "content": "</s|LLM-jp>",
      "single_word": false,
      "lstrip": false,
      "rstrip": false,
      "normalized": false,
      "special": true
    },
    {
      "id": 3,
      "content": "<mask|LLM-jp>",
      "single_word": false,
      "lstrip": false,
      "rstrip": false,
      "normalized": false,
      "special": true
    },
    {
      "id": 4,
      "content": "<pad|LLM-jp>",
      "single_word": false,
      "lstrip": false,
      "rstrip": false,
      "normalized": false,
      "special": true
    },
    {
      "id": 5,
      "content": "<CLS|LLM-jp>",
      "single_word": false,
      "lstrip": false,
      "rstrip": false,
      "normalized": false,
      "special": true
    },
    {
      "id": 6,
      "content": "<SEP|LLM-jp>",
      "single_word": false,
      "lstrip": false,
      "rstrip": false,
      "normalized": false,
      "special": true
    },
    {
      "id": 7,
      "content": "<EOD|LLM-jp>",
      "single_word": false,
      "lstrip": false,
      "rstrip": false,
      "normalized": false,
      "special": true
    }
  ],
  "normalizer": {
    "type": "Sequence",
    "normalizers": [
      {
        "type": "Replace",
        "pattern": {
          "Regex": "^"
        },
        "content": "▁"
      },
      {
        "type": "Replace",
        "pattern": {
          "Regex": "\\n▁"
        },
        "content": "\n"
      },
      {
        "type": "Replace",
        "pattern": {
          "Regex": " "
        },
        "content": "▁"
      }
    ]
  },
  "pre_tokenizer": null,
  "post_processor": {
    "type": "TemplateProcessing",
    "single": [
      {
        "Sequence": {
          "id": "A",
          "type_id": 0
        }
      },
      {
        "SpecialToken": {
          "id": "<EOD|LLM-jp>",
          "type_id": 0
        }
      }
    ],
    "pair": [
      {
        "Sequence": {
          "id": "A",
          "type_id": 0
        }
      },
      {
        "SpecialToken": {
          "id": "<EOD|LLM-jp>",
          "type_id": 0
        }
      },
      {
        "Sequence": {
          "id": "B",
          "type_id": 1
        }
      },
      {
        "SpecialToken": {
          "id": "<EOD|LLM-jp>",
          "type_id": 1
        }
      }
    ],
    "special_tokens": {
      "<EOD|LLM-jp>": {
        "id": "<EOD|LLM-jp>",
        "ids": [
          7
        ],
        "tokens": [
          "<EOD|LLM-jp>"
        ]
      }
    }
  },
  "decoder": {
    "type": "Sequence",
    "decoders": [
      {
        "type": "ByteFallback"
      },
      {
        "type": "Replace",
        "pattern": {
          "Regex": "▁"
        },
        "content": " "
      },
      {
        "type": "Fuse"
      },
      {
        "type": "Replace",
        "pattern": {
          "Regex": "\\n"
        },
        "content": "\n "
      },
      {
        "type": "Replace",
        "pattern": {
          "Regex": "^ "
        },
        "content": ""
      }
    ]
  },
  "model": {
    "type": "Unigram",
    "unk_id": 0,
    "vocab": [
      [
        "<unk|LLM-jp>",
        -80.0
      ],
      [
        "<s|LLM-jp>",
        -80.0
      ],
      [
        "</s|LLM-jp>",
        -80.0
      ],
      [
        "<mask|LLM-jp>",
        -80.0
      ],
      [
        "<pad|LLM-jp>",
        -80.0
      ],
      [
        "<CLS|LLM-jp>",
        -80.0
      ],
      [
        "<SEP|LLM-jp>",
        -80.0
      ],
      [
        "<EOD|LLM-jp>",
        -80.0
      ],
      [
        "▁▁▁▁▁▁▁▁▁▁▁▁▁▁▁▁▁▁▁▁▁▁▁▁",
        -80.0
      ],
      [
        "▁▁▁▁▁▁▁▁▁▁▁▁▁▁▁▁▁▁▁▁▁▁▁",
        -80.0
      ],
      [
        "▁▁▁▁▁▁▁▁▁▁▁▁▁▁▁▁▁▁▁▁▁▁",
        -80.0
      ],
      [
        "▁▁▁▁▁▁▁▁▁▁▁▁▁▁▁▁▁▁▁▁▁",
        -80.0
      ],
      [
        "▁▁▁▁▁▁▁▁▁▁▁▁▁▁▁▁▁▁▁▁",
        -80.0
      ],
      [
        "▁▁▁▁▁▁▁▁▁▁▁▁▁▁▁▁▁▁▁",
        -80.0
      ],
      [
        "▁▁▁▁▁▁▁▁▁▁▁▁▁▁▁▁▁▁",
        -80.0
      ],
      [
        "▁▁▁▁▁▁▁▁▁▁▁▁▁▁▁▁▁",
        -80.0
      ],
      [
        "▁▁▁▁▁▁▁▁▁▁▁▁▁▁▁▁",
        -80.0
      ],
      [
        "▁▁▁▁▁▁▁▁▁▁▁▁▁▁▁",
        -80.0
      ],
      [
        "▁▁▁▁▁▁▁▁▁▁▁▁▁▁",
        -80.0
      ],
      [
        "▁▁▁▁▁▁▁▁▁▁▁▁▁",
        -80.0
      ],
      [
        "▁▁▁▁▁▁▁▁▁▁▁▁",
        -80.0
      ],
      [
        "▁▁▁▁▁▁▁▁▁▁▁",
        -80.0
      ],
      [
        "▁▁▁▁▁▁▁▁▁▁",
        -80.0
      ],
      [
        "▁▁▁▁▁▁▁▁▁",
        -80.0
      ],
      [
        "▁▁▁▁▁▁▁▁",
        -80.0
      ],
      [
        "▁▁▁▁▁▁▁",
        -80.0
      ],
      [
        "▁▁▁▁▁▁",
        -80.0
      ],
      [
        "▁▁▁▁▁",
        -80.0
      ],
      [
        "▁▁▁▁",
        -80.0
      ],
      [
        "▁▁▁",
        -80.0
      ],
      [
        "▁▁",
        -80.0
      ],
      [
        "▁",
        -80.0
      ],
      [
        "\n",
        -80.0
      ],
      [
        "<0x00>",
        -80.0
      ],
      [
        "<0x01>",
        -80.0
      ],
      [
        "<0x02>",
        -80.0
      ],
      [
        "<0x03>",
        -80.0
      ],
      [
        "<0x04>",
        -80.0
      ],
      [
        "<0x05>",
        -80.0
      ],
      [
        "<0x06>",
        -80.0
      ],
      [
        "<0x07>",
        -80.0
      ],
      [
        "<0x08>",
        -80.0
      ],
      [
        "<0x09>",
        -80.0
      ],
      [
        "<0x0A>",
        -80.0
      ],
      [
        "<0x0B>",
        -80.0
      ],
      [
        "<0x0C>",
        -80.0
      ],
      [
        "<0x0D>",
        -80.0
      ],
      [
        "<0x0E>",
        -80.0
      ],
      [
        "<0x0F>",
        -80.0
      ],
      [
        "<0x10>",
        -80.0
      ],
      [
        "<0x11>",
        -80.0
      ],
      [
        "<0x12>",
        -80.0
      ],
      [
        "<0x13>",
        -80.0
      ],
      [
        "<0x14>",
        -80.0
      ],
      [
        "<0x15>",
        -80.0
      ],
      [
        "<0x16>",
        -80.0
      ],
      [
        "<0x17>",
        -80.0
      ],
      [
        "<0x18>",
        -80.0
      ],
      [
        "<0x19>",
        -80.0
      ],
      [
        "<0x1A>",
        -80.0
      ],
      [
        "<0x1B>",
        -80.0
      ],
      [
        "<0x1C>",
        -80.0
      ],
      [
        "<0x1D>",
        -80.0
      ],
      [
        "<0x1E>",
        -80.0
      ],
      [
        "<0x1F>",
        -80.0
      ],
      [
        "<0x20>",
        -80.0
      ],
      [
        "<0x21>",
        -80.0
      ],
      [
        "<0x22>",
        -80.0
      ],
      [
        "<0x23>",
        -80.0
      ],
      [
        "<0x24>",
        -80.0
      ],
      [
        "<0x25>",
        -80.0
      ],
      [
        "<0x26>",
        -80.0
      ],
      [
        "<0x27>",
        -80.0
      ],
      [
        "<0x28>",
        -80.0
      ],
      [
        "<0x29>",
        -80.0
      ],
      [
        "<0x2A>",
        -80.0
      ],
      [
        "<0x2B>",
        -80.0
      ],
      [
        "<0x2C>",
        -80.0
      ],
      [
        "<0x2D>",
        -80.0
      ],
      [
        "<0x2E>",
        -80.0
      ],
      [
        "<0x2F>",
        -80.0
      ],
      [
        "<0x30>",
        -80.0
      ],
      [
        "<0x31>",
        -80.0
      ],
      [
        "<0x32>",
        -80.0
      ],
      [
        "<0x33>",
        -80.0
      ],
      [
        "<0x34>",
        -80.0
      ],
      [
        "<0x35>",
        -80.0
      ],
      [
        "<0x36>",
        -80.0
      ],
      [
        "<0x37>",
        -80.0
      ],
      [
        "<0x38>",
        -80.0
      ],
      [
        "<0x39>",
        -80.0
      ],
      [
        "<0x3A>",
        -80.0
      ],
      [
        "<0x3B>",
        -80.0
      ],
      [
        "<0x3C>",
        -80.0
      ],
      [
        "<0x3D>",
        -80.0
      ],
      [
        "<0x3E>",
        -80.0
      ],
      [
        "<0x3F>",
        -80.0
      ],
      [
        "<0x40>",
        -80.0
      ],
      [
        "<0x41>",
        -80.0
      ],
      [
        "<0x42>",
        -80.0
      ],
      [
        "<0x43>",
        -80.0
      ],
      [
        "<0x44>",
        -80.0
      ],
      [
        "<0x45>",
        -80.0
      ],
      [
        "<0x46>",
        -80.0
      ],
      [
        "<0x47>",
        -80.0
      ],
      [
        "<0x48>",
        -80.0
      ],
      [
        "<0x49>",
        -80.0
      ],
      [
        "<0x4A>",
        -80.0
      ],
      [
        "<0x4B>",
        -80.0
      ],
      [
        "<0x4C>",
        -80.0
      ],
      [
        "<0x4D>",
        -80.0
      ],
      [
        "<0x4E>",
        -80.0
      ],
      [
        "<0x4F>",
        -80.0
      ],
      [
        "<0x50>",
        -80.0
      ],
      [
        "<0x51>",
        -80.0
      ],
      [
        "<0x52>",
        -80.0
      ],
      [
        "<0x53>",
        -80.0
      ],
      [
        "<0x54>",
        -80.0
      ],
      [
        "<0x55>",
        -80.0
      ],
      [
        "<0x56>",
        -80.0
      ],
      [
        "<0x57>",
        -80.0
      ],
      [
        "<0x58>",
        -80.0
      ],
      [
        "<0x59>",
        -80.0
      ],
      [
        "<0x5A>",
        -80.0
      ],
      [
        "<0x5B>",
        -80.0
      ],
      [
        "<0x5C>",
        -80.0
      ],
      [
        "<0x5D>",
        -80.0
      ],
      [
        "<0x5E>",
        -80.0
      ],
      [
        "<0x5F>",
        -80.0
      ],
      [
        "<0x60>",
        -80.0
      ],
      [
        "<0x61>",
        -80.0
      ],
      [
        "<0x62>",
        -80.0
      ],
      [
        "<0x63>",
        -80.0
      ],
      [
        "<0x64>",
        -80.0
      ],
      [
        "<0x65>",
        -80.0
      ],
      [
        "<0x66>",
        -80.0
      ],
      [
        "<0x67>",
        -80.0
      ],
      [
        "<0x68>",
        -80.0
      ],
      [
        "<0x69>",
        -80.0
      ],
      [
        "<0x6A>",
        -80.0
      ],
      [
        "<0x6B>",
        -80.0
      ],
      [
        "<0x6C>",
        -80.0
      ],
      [
        "<0x6D>",
        -80.0
      ],
      [
        "<0x6E>",
        -80.0
      ],
      [
        "<0x6F>",
        -80.0
      ],
      [
        "<0x70>",
        -80.0
      ],
      [
        "<0x71>",
        -80.0
      ],
      [
        "<0x72>",
        -80.0
      ],
      [
        "<0x73>",
        -80.0
      ],
      [
        "<0x74>",
        -80.0
      ],
      [
        "<0x75>",
        -80.0
      ],
      [
        "<0x76>",
        -80.0
      ],
      [
        "<0x77>",
        -80.0
      ],
      [
        "<0x78>",
        -80.0
      ],
      [
        "<0x79>",
        -80.0
      ],
      [
        "<0x7A>",
        -80.0
      ],
      [
        "<0x7B>",
        -80.0
      ],
      [
        "<0x7C>",
        -80.0
      ],
      [
        "<0x7D>",
        -80.0
      ],
      [
        "<0x7E>",
        -80.0
      ],
      [
        "<0x7F>",
        -80.0
      ],
      [
        "<0x80>",
        -80.0
      ],
      [
        "<0x81>",
        -80.0
      ],
      [
        "<0x82>",
        -80.0
      ],
      [
        "<0x83>",
        -80.0
      ],
      [
        "<0x84>",
        -80.0
      ],
      [
        "<0x85>",
        -80.0
      ],
      [
        "<0x86>",
        -80.0
      ],
      [
        "<0x87>",
        -80.0
      ],
      [
        "<0x88>",
        -80.0
      ],
      [
        "<0x89>",
        -80.0
      ],
      [
        "<0x8A>",
        -80.0
      ],
      [
        "<0x8B>",
        -80.0
      ],
      [
        "<0x8C>",
        -80.0
      ],
      [
        "<0x8D>",
        -80.0
      ],
      [
        "<0x8E>",
        -80.0
      ],
      [
        "<0x8F>",
        -80.0
      ],
      [
        "<0x90>",
        -80.0
      ],
      [
        "<0x91>",
        -80.0
      ],
      [
        "<0x92>",
        -80.0
      ],
      [
        "<0x93>",
        -80.0
      ],
      [
        "<0x94>",
        -80.0
      ],
      [
        "<0x95>",
        -80.0
      ],
      [
        "<0x96>",
        -80.0
      ],
      [
        "<0x97>",
        -80.0
      ],
      [
        "<0x98>",
        -80.0
      ],
      [
        "<0x99>",
        -80.0
      ],
      [
        "<0x9A>",
        -80.0
      ],
      [
        "<0x9B>",
        -80.0
      ],
      [
        "<0x9C>",
        -80.0
      ],
      [
        "<0x9D>",
        -80.0
      ],
      [
        "<0x9E>",
        -80.0
      ],
      [
        "<0x9F>",
        -80.0
      ],
      [
        "<0xA0>",
        -80.0
      ],
      [
        "<0xA1>",
        -80.0
      ],
      [
        "<0xA2>",
        -80.0
      ],
      [
        "<0xA3>",
        -80.0
      ],
      [
        "<0xA4>",
        -80.0
      ],
      [
        "<0xA5>",
        -80.0
      ],
      [
        "<0xA6>",
        -80.0
      ],
      [
        "<0xA7>",
        -80.0
      ],
      [
        "<0xA8>",
        -80.0
      ],
      [
        "<0xA9>",
        -80.0
      ],
      [
        "<0xAA>",
        -80.0
      ],
      [
        "<0xAB>",
        -80.0
      ],
      [
        "<0xAC>",
        -80.0
      ],
      [
        "<0xAD>",
        -80.0
      ],
      [
        "<0xAE>",
        -80.0
      ],
      [
        "<0xAF>",
        -80.0
      ],
      [
        "<0xB0>",
        -80.0
      ],
      [
        "<0xB1>",
        -80.0
      ],
      [
        "<0xB2>",
        -80.0
      ],
      [
        "<0xB3>",
        -80.0
      ],
      [
        "<0xB4>",
        -80.0
      ],
      [
        "<0xB5>",
        -80.0
      ],
      [
        "<0xB6>",
        -80.0
      ],
      [
        "<0xB7>",
        -80.0
      ],
      [
        "<0xB8>",
        -80.0
      ],
      [
        "<0xB9>",
        -80.0
      ],
      [
        "<0xBA>",
        -80.0
      ],
      [
        "<0xBB>",
        -80.0
      ],
      [
        "<0xBC>",
        -80.0
      ],
      [
        "<0xBD>",
        -80.0
      ],
      [
        "<0xBE>",
        -80.0
      ],
      [
        "<0xBF>",
        -80.0
      ],
      [
        "<0xC0>",
        -80.0
      ],
      [
        "<0xC1>",
        -80.0
      ],
      [
        "<0xC2>",
        -80.0
      ],
      [
        "<0xC3>",
        -80.0
      ],
      [
        "<0xC4>",
        -80.0
      ],
      [
        "<0xC5>",
        -80.0
      ],
      [
        "<0xC6>",
        -80.0
      ],
      [
        "<0xC7>",
        -80.0
      ],
      [
        "<0xC8>",
        -80.0
      ],
      [
        "<0xC9>",
        -80.0
      ],
      [
        "<0xCA>",
        -80.0
      ],
      [
        "<0xCB>",
        -80.0
      ],
      [
        "<0xCC>",
        -80.0
      ],
      [
        "<0xCD>",
        -80.0
      ],
      [
        "<0xCE>",
        -80.0
      ],
      [
        "<0xCF>",
        -80.0
      ],
      [
        "<0xD0>",
        -80.0
      ],
      [
        "<0xD1>",
        -80.0
      ],
      [
        "<0xD2>",
        -80.0
      ],
      [
        "<0xD3>",
        -80.0
      ],
      [
        "<0xD4>",
        -80.0
      ],
      [
        "<0xD5>",
        -80.0
      ],
      [
        "<0xD6>",
        -80.0
      ],
      [
        "<0xD7>",
        -80.0
      ],
      [
        "<0xD8>",
        -80.0
      ],
      [
        "<0xD9>",
        -80.0
      ],
      [
        "<0xDA>",
        -80.0
      ],
      [
        "<0xDB>",
        -80.0
      ],
      [
        "<0xDC>",
        -80.0
      ],
      [
        "<0xDD>",
        -80.0
      ],
      [
        "<0xDE>",
        -80.0
      ],
      [
        "<0xDF>",
        -80.0
      ],
      [
        "<0xE0>",
        -80.0
      ],
      [
        "<0xE1>",
        -80.0
      ],
      [
        "<0xE2>",
        -80.0
      ],
      [
        "<0xE3>",
        -80.0
      ],
      [
        "<0xE4>",
        -80.0
      ],
      [
        "<0xE5>",
        -80.0
      ],
      [
        "<0xE6>",
        -80.0
      ],
      [
        "<0xE7>",
        -80.0
      ],
      [
        "<0xE8>",
        -80.0
      ],
      [
        "<0xE9>",
        -80.0
      ],
      [
        "<0xEA>",
        -80.0
      ],
      [
        "<0xEB>",
        -80.0
      ],
      [
        "<0xEC>",
        -80.0
      ],
      [
        "<0xED>",
        -80.0
      ],
      [
        "<0xEE>",
        -80.0
      ],
      [
        "<0xEF>",
        -80.0
      ],
      [
        "<0xF0>",
        -80.0
      ],
      [
        "<0xF1>",
        -80.0
      ],
      [
        "<0xF2>",
        -80.0
      ],
      [
        "<0xF3>",
        -80.0
      ],
      [
        "<0xF4>",
        -80.0
      ],
      [
        "<0xF5>",
        -80.0
      ],
      [
        "<0xF6>",
        -80.0
      ],
      [
        "<0xF7>",
        -80.0
      ],
      [
        "<0xF8>",
        -80.0
      ],
      [
        "<0xF9>",
        -80.0
      ],
      [
        "<0xFA>",
        -80.0
      ],
      [
        "<0xFB>",
        -80.0
      ],
      [
        "<0xFC>",
        -80.0
      ],
      [
        "<0xFD>",
        -80.0
      ],
      [
        "<0xFE>",
        -80.0
      ],
      [
        "<0xFF>",
        -80.0
      ],
      [
        "_",
        -5.158874034881592
      ],
      [
        "0",
        -5.758016109466553
      ],
      [
        ",",
        -5.625586032867432
      ],
      [
        "(",
        -5.829798221588135
      ],
      [
        "1",
        -5.61555290222168
      ],
      [
        "x",
        -7.199371814727783
      ],
      [
        "2",
        -5.895418167114258
      ],
      [
        ";",
        -5.516629219055176
      ],
      [
        ")",
        -6.054111957550049
      ],
      [
        ".",
        -5.717578887939453
      ],
      [
        "▁*",
        -6.01597785949707
      ],
      [
        "3",
        -6.427077770233154
      ],
      [
        "▁=",
        -6.260251998901367
      ],
      [
        ");",
        -6.3549699783325195
      ],
      [
        "s",
        -6.540777206420898
      ],
      [
        "4",
        -6.613041877746582
      ],
      [
        "6",
        -6.7025980949401855
      ],
      [
        "8",
        -6.678603172302246
      ],
      [
        "->",
        -6.964869022369385
      ],
      [
        "5",
        -6.783736228942871
      ],
      [
        "▁#",
        -6.107442855834961
      ],
      [
        "t",
        -7.667654991149902
      ],
      [
        "▁{",
        -5.638024806976318
      ],
      [
        "7",
        -6.969901084899902
      ],
      [
        "▁*/",
        -6.373942852020264
      ],
      [
        "9",
        -6.567049980163574
      ],
      [
        "▁the",
        -6.478839874267578
      ],
      [
        "▁(",
        -6.571065902709961
      ],
      [
        ":",
        -6.290493011474609
      ],
      [
        "if",
        -7.250548839569092
      ],
      [
        "[",
        -7.690825939178467
      ],
      [
        "▁//",
        -6.721107006072998
      ],
      [
        "p",
        -8.15147590637207
      ],
      [
        "define",
        -7.508922100067139
      ],
      [
        "}",
        -6.198497772216797
      ],
      [
        "▁}",
        -5.653429985046387
      ],
      [
        "\\",
        -8.427322387695312
      ],
      [
        "d",
        -8.265931129455566
      ],
      [
        "n",
        -8.130083084106445
      ],
      [
        "*",
        -7.074298858642578
      ],
      [
        "-",
        -6.843072891235352
      ],
      [
        "i",
        -8.391183853149414
      ],
      [
        "\"",
        -7.678918838500977
      ],
      [
        "c",
        -8.408639907836914
      ],
      [
        "::",
        -8.200655937194824
      ],
      [
        ">",
        -7.320697784423828
      ],
      [
        "f",
        -8.598322868347168
      ],
      [
        "▁\"",
        -7.369537830352783
      ],
      [
        "h",
        -7.6381001472473145
      ],
      [
        "C",
        -8.421788215637207
      ],
      [
        "▁/*",
        -7.015066146850586
      ],
      [
        "S",
        -8.20458698272705
      ],
      [
        "/",
        -7.800273895263672
      ],
      [
        "▁to",
        -7.159903049468994
      ],
      [
        "return",
        -7.2844038009643555
      ],
      [
        "a",
        -8.852896690368652
      ],
      [
        "e",
        -9.225876808166504
      ],
      [
        "▁of",
        -6.696625232696533
      ],
      [
        "A",
        -8.68548583984375
      ],
      [
        "b",
        -8.705704689025879
      ],
      [
        "u",
        -8.826421737670898
      ],
      [
        "int",
        -7.942906856536865
      ],
      [
        "▁int",
        -7.833089828491211
      ],
      [
        "]",
        -8.345111846923828
      ],
      [
        "\",",
        -8.18083667755127
      ],
      [
        "▁&",
        -8.284219741821289
      ],
      [
        "▁<",
        -7.552412986755371
      ],
      [
        "▁-",
        -7.262278079986572
      ],
      [
        "r",
        -8.94591236114502
      ],
      [
        "D",
        -8.695296287536621
      ],
      [
        "/*",
        -7.724410057067871
      ],
      [
        "▁is",
        -7.594217777252197
      ],
      [
        "▁const",
        -8.313736915588379
      ],
      [
        "▁==",
        -8.239230155944824
      ],
      [
        "▁for",
        -7.632266998291016
      ],
      [
        "▁void",
        -7.789513111114502
      ],
      [
        "<",
        -8.29880142211914
      ],
      [
        "F",
        -8.838586807250977
      ],
      [
        "▁a",
        -7.736277103424072
      ],
      [
        "m",
        -8.721668243408203
      ],
      [
        "T",
        -8.780965805053711
      ],
      [
        "B",
        -8.827880859375
      ],
      [
        "v",
        -8.898031234741211
      ],
      [
        "E",
        -9.09489631652832
      ],
      [
        "const",
        -8.664080619812012
      ],
      [
        "{",
        -7.1248979568481445
      ],
      [
        "P",
        -8.992363929748535
      ],
      [
        "▁static",
        -7.980741024017334
      ],
      [
        "▁@",
        -8.017550468444824
      ],
      [
        "struct",
        -8.464049339294434
      ],
      [
        "▁in",
        -7.043455123901367
      ],
      [
        "type",
        -8.743389129638672
      ],
      [
        "X",
        -9.185871124267578
      ],
      [
        "U",
        -9.190709114074707
      ],
      [
        "▁NULL",
        -8.317361831665039
      ],
      [
        "include",
        -7.899946212768555
      ],
      [
        "void",
        -8.357315063476562
      ],
      [
        "▁and",
        -7.091465950012207
      ],
      [
        "L",
        -9.0796480178833
      ],
      [
        "data",
        -8.67871379852295
      ],
      [
        "'",
        -7.83475399017334
      ],
      [
        "id",
        -8.604329109191895
      ],
      [
        "l",
        -9.415783882141113
      ],
      [
        "size",
        -8.77225112915039
      ],
      [
        "&",
        -8.720541954040527
      ],
      [
        "H",
        -8.749667167663574
      ],
      [
        "R",
        -9.11706256866455
      ],
      [
        "ed",
        -8.475859642028809
      ],
      [
        "))",
        -8.723956108093262
      ],
      [
        "****************",
        -9.584555625915527
      ],
      [
        "I",
        -9.056358337402344
      ],
      [
        "▁+",
        -8.83374309539795
      ],
      [
        "name",
        -8.82822036743164
      ],
      [
        "get",
        -8.756038665771484
      ],
      [
        "▁if",
        -8.073283195495605
      ],
      [
        "set",
        -8.76089859008789
      ],
      [
        "ing",
        -8.328378677368164
      ],
      [
        "y",
        -8.990347862243652
      ],
      [
        "g",
        -9.276235580444336
      ],
      [
        "()",
        -8.270668983459473
      ],
      [
        "=",
        -8.396041870117188
      ],
      [
        "M",
        -9.221847534179688
      ],
      [
        "case",
        -8.535292625427246
      ],
      [
        "uint",
        -9.05358600616455
      ],
      [
        "endif",
        -7.192386150360107
      ],
      [
        "in",
        -8.881428718566895
      ],
      [
        "k",
        -9.100072860717773
      ],
      [
        "w",
        -9.315922737121582
      ],
      [
        "(\"",
        -8.790736198425293
      ],
      [
        "(&",
        -8.882488250732422
      ],
      [
        "len",
        -8.963911056518555
      ],
      [
        "▁char",
        -8.837579727172852
      ],
      [
        "();",
        -8.121315956115723
      ],
      [
        "▁be",
        -8.46513557434082
      ],
      [
        "N",
        -9.483694076538086
      ],
      [
        "▁!=",
        -8.918622016906738
      ],
      [
        "G",
        -9.507097244262695
      ],
      [
        "\");",
        -8.887749671936035
      ],
      [
        "V",
        -9.527097702026367
      ],
      [
        "▁this",
        -8.450989723205566
      ],
      [
        "info",
        -9.16142463684082
      ],
      [
        "Type",
        -9.107046127319336
      ],
      [
        "object",
        -9.84185791015625
      ],
      [
        "string",
        -9.049080848693848
      ],
      [
        "▁return",
        -8.205678939819336
      ],
      [
        "buf",
        -9.218263626098633
      ],
      [
        "▁%",
        -9.407464981079102
      ],
      [
        "▁&&",
        -9.360745429992676
      ],
      [
        "));",
        -9.141340255737305
      ],
      [
        "),",
        -8.556571006774902
      ],
      [
        "▁lean",
        -9.258646011352539
      ],
      [
        "o",
        -9.799912452697754
      ],
      [
        "break",
        -8.297884941101074
      ],
      [
        "▁i",
        -8.995635032653809
      ],
      [
        "dev",
        -9.433960914611816
      ],
      [
        "param",
        -9.08773136138916
      ],
      [
        "W",
        -9.644730567932129
      ],
      [
        "is",
        -9.054550170898438
      ],
      [
        "ptr",
        -9.318845748901367
      ],
      [
        "value",
        -9.229902267456055
      ],
      [
        "q",
        -9.565803527832031
      ],
      [
        "state",
        -9.376147270202637
      ],
      [
        "ID",
        -9.458474159240723
      ],
      [
        "▁/**",
        -7.439541816711426
      ],
      [
        "//",
        -8.454567909240723
      ],
      [
        "];",
        -9.044742584228516
      ],
      [
        "j",
        -9.39762020111084
      ],
      [
        "char",
        -9.181198120117188
      ],
      [
        "▁<<",
        -9.790738105773926
      ],
      [
        "arg",
        -9.508113861083984
      ],
      [
        "else",
        -7.968861103057861
      ],
      [
        "▁that",
        -8.227484703063965
      ],
      [
        "+",
        -9.439752578735352
      ],
      [
        "----------------",
        -9.631152153015137
      ],
      [
        "▁The",
        -7.965668201446533
      ],
      [
        "z",
        -9.40410327911377
      ],
      [
        "to",
        -9.116467475891113
      ],
      [
        "▁not",
        -8.685100555419922
      ],
      [
        "▁struct",
        -8.70068359375
      ],
      [
        "pyx",
        -9.968215942382812
      ],
      [
        "▁|",
        -7.9053239822387695
      ],
      [
        "▁uint",
        -9.42389965057373
      ],
      [
        "out",
        -9.31175422668457
      ],
      [
        "list",
        -9.363200187683105
      ],
      [
        "Q",
        -9.731090545654297
      ],
      [
        "unsigned",
        -9.220069885253906
      ],
      [
        "▁or",
        -8.743680000305176
      ],
      [
        "▁with",
        -8.316187858581543
      ],
      [
        "▁};",
        -7.35787296295166
      ],
      [
        "▁value",
        -9.347058296203613
      ],
      [
        "xff",
        -11.127164840698242
      ],
      [
        "▁||",
        -9.556774139404297
      ],
      [
        "er",
        -9.208662033081055
      ],
      [
        "K",
        -9.802671432495117
      ],
      [
        "▁else",
        -8.49917984008789
      ],
      [
        "Get",
        -9.503388404846191
      ],
      [
        "str",
        -9.6311616897583
      ],
      [
        "▁bool",
        -9.224980354309082
      ],
      [
        "▁by",
        -8.23529052734375
      ],
      [
        "▁///",
        -8.752522468566895
      ],
      [
        "},",
        -9.184693336486816
      ],
      [
        "Data",
        -9.543925285339355
      ],
      [
        "val",
        -9.644918441772461
      ],
      [
        "▁on",
        -8.33132266998291
      ],
      [
        "TYPE",
        -9.630112648010254
      ],
      [
        "free",
        -9.375011444091797
      ],
      [
        "error",
        -9.479690551757812
      ],
      [
        "▁it",
        -8.687243461608887
      ],
      [
        "key",
        -9.640361785888672
      ],
      [
        "ctx",
        -9.732205390930176
      ],
      [
        "▁(!",
        -9.186795234680176
      ],
      [
        "▁((",
        -9.913993835449219
      ],
      [
        "addr",
        -9.820993423461914
      ],
      [
        "].",
        -9.753769874572754
      ],
      [
        "|",
        -9.624153137207031
      ],
      [
        "▁are",
        -8.725090026855469
      ],
      [
        "O",
        -9.939587593078613
      ],
      [
        "num",
        -9.720419883728027
      ],
      [
        "op",
        -10.000808715820312
      ],
      [
        "▁T",
        -9.166350364685059
      ],
      [
        "index",
        -9.724322319030762
      ],
      [
        "or",
        -9.564400672912598
      ],
      [
        "file",
        -9.547001838684082
      ],
      [
        "code",
        -9.760761260986328
      ],
      [
        "Y",
        -10.08222770690918
      ],
      [
        "▁This",
        -9.2120361328125
      ],
      [
        "▁std",
        -9.731026649475098
      ],
      [
        "▁typedef",
        -9.090547561645508
      ],
      [
        "add",
        -9.916257858276367
      ],
      [
        "Set",
        -9.711023330688477
      ],
      [
        "▁from",
        -8.130821228027344
      ],
      [
        "init",
        -9.578914642333984
      ],
      [
        "end",
        -8.884608268737793
      ],
      [
        "▁/**<",
        -10.59424114227295
      ],
      [
        "ret",
        -9.430560111999512
      ],
      [
        "count",
        -9.690666198730469
      ],
      [
        "buffer",
        -9.82073974609375
      ],
      [
        "▁we",
        -9.328389167785645
      ],
      [
        "map",
        -9.908740997314453
      ],
      [
        "for",
        -9.608530044555664
      ],
      [
        "reg",
        -10.01352310180664
      ],
      [
        "▁sizeof",
        -9.937605857849121
      ],
      [
        "Z",
        -10.11683177947998
      ],
      [
        "node",
        -9.883956909179688
      ],
      [
        "err",
        -9.598838806152344
      ],
      [
        "▁*)",
        -9.681156158447266
      ],
      [
        "▁an",
        -9.142536163330078
      ],
      [
        "▁**",
        -8.88550853729248
      ],
      [
        "MAX",
        -9.818961143493652
      ],
      [
        "xFF",
        -10.490289688110352
      ],
      [
        "▁size",
        -9.648741722106934
      ],
      [
        "INT",
        -10.01550579071045
      ],
      [
        "▁m",
        -9.367212295532227
      ],
      [
        "%",
        -9.806492805480957
      ],
      [
        "▁class",
        -8.87944221496582
      ],
      [
        "Info",
        -9.781320571899414
      ],
      [
        "String",
        -9.793390274047852
      ],
      [
        "std",
        -9.94880199432373
      ],
      [
        "Size",
        -9.861687660217285
      ],
      [
        "goto",
        -9.093785285949707
      ],
      [
        "UL",
        -10.410208702087402
      ],
      [
        "Value",
        -9.755727767944336
      ],
      [
        "Name",
        -9.751506805419922
      ],
      [
        "flags",
        -9.914995193481445
      ],
      [
        "obj",
        -9.989933967590332
      ],
      [
        "SIZE",
        -9.987548828125
      ],
      [
        "NO",
        -9.946585655212402
      ],
      [
        "▁as",
        -8.39598274230957
      ],
      [
        "base",
        -9.91401195526123
      ],
      [
        "▁file",
        -9.64141845703125
      ],
      [
        "ERROR",
        -9.748665809631348
      ],
      [
        "bool",
        -9.595625877380371
      ],
      [
        "msg",
        -10.030885696411133
      ],
      [
        "st",
        -9.515401840209961
      ],
      [
        "al",
        -9.50403118133545
      ],
      [
        "*/",
        -8.14783000946045
      ],
      [
        "▁long",
        -9.683450698852539
      ],
      [
        "new",
        -9.769159317016602
      ],
      [
        "start",
        -9.640081405639648
      ],
      [
        "result",
        -9.756020545959473
      ],
      [
        "],",
        -10.033525466918945
      ],
      [
        "read",
        -9.95966625213623
      ],
      [
        "▁'",
        -9.754606246948242
      ],
      [
        "status",
        -9.870589256286621
      ],
      [
        "time",
        -9.803993225097656
      ],
      [
        "CH",
        -10.68366813659668
      ],
      [
        "ifndef",
        -9.283493995666504
      ],
      [
        "▁OR",
        -10.163354873657227
      ],
      [
        "max",
        -10.06419563293457
      ],
      [
        "lock",
        -10.020950317382812
      ],
      [
        "ifdef",
        -9.04616928100586
      ],
      [
        "write",
        -10.06731128692627
      ],
      [
        "io",
        -9.990950584411621
      ],
      [
        "Id",
        -9.946084976196289
      ],
      [
        "line",
        -9.706225395202637
      ],
      [
        "▁extern",
        -9.69477367401123
      ],
      [
        "In",
        -9.803471565246582
      ],
      [
        "class",
        -9.644100189208984
      ],
      [
        "ref",
        -10.016074180603027
      ],
      [
        "▁data",
        -9.54610538482666
      ],
      [
        "MASK",
        -10.418437957763672
      ],
      [
        "▁unsigned",
        -9.782529830932617
      ],
      [
        "▁can",
        -9.27329158782959
      ],
      [
        "API",
        -9.975489616394043
      ],
      [
        "Object",
        -9.95330810546875
      ],
      [
        "▁inline",
        -9.805041313171387
      ],
      [
        "▁+=",
        -9.703194618225098
      ],
      [
        "port",
        -10.116874694824219
      ],
      [
        "J",
        -10.259322166442871
      ],
      [
        "offset",
        -10.143259048461914
      ],
      [
        "float",
        -10.145048141479492
      ],
      [
        "▁will",
        -9.429258346557617
      ],
      [
        "▁use",
        -9.62416934967041
      ],
      [
        "List",
        -9.737571716308594
      ],
      [
        "ERR",
        -10.144674301147461
      ],
      [
        "vector",
        -10.134020805358887
      ],
      [
        "▁OF",
        -9.975893020629883
      ],
      [
        "table",
        -9.946381568908691
      ],
      [
        "device",
        -10.120096206665039
      ],
      [
        "re",
        -9.86231517791748
      ],
      [
        "▁public",
        -8.686949729919434
      ],
      [
        "++)",
        -10.120059967041016
      ],
      [
        "▁function",
        -9.642984390258789
      ],
      [
        "▁},",
        -9.794904708862305
      ],
      [
        "IN",
        -10.175606727600098
      ],
      [
        "NULL",
        -9.825501441955566
      ],
      [
        "ip",
        -10.143657684326172
      ],
      [
        "func",
        -10.268346786499023
      ],
      [
        "IS",
        -10.241042137145996
      ],
      [
        "REG",
        -10.35841178894043
      ],
      [
        "CTRL",
        -10.853049278259277
      ],
      [
        "▁true",
        -9.559202194213867
      ],
      [
        "config",
        -10.05705738067627
      ],
      [
        "To",
        -9.929925918579102
      ],
      [
        "ch",
        -10.148303031921387
      ],
      [
        "res",
        -9.909049034118652
      ],
      [
        "no",
        -9.706451416015625
      ],
      [
        "context",
        -10.177685737609863
      ],
      [
        "IO",
        -10.28024673461914
      ],
      [
        "brief",
        -9.879027366638184
      ],
      [
        "mode",
        -10.144609451293945
      ],
      [
        "mm",
        -10.38420581817627
      ],
      [
        "▁v",
        -9.837345123291016
      ],
      [
        "State",
        -9.95765495300293
      ],
      [
        "next",
        -9.99504566192627
      ],
      [
        "test",
        -10.02446174621582
      ],
      [
        "log",
        -10.253912925720215
      ],
      [
        "Buffer",
        -10.090304374694824
      ],
      [
        "DATA",
        -10.281448364257812
      ],
      [
        "▁false",
        -9.552666664123535
      ],
      [
        "tmp",
        -10.194170951843262
      ],
      [
        "================",
        -10.38502025604248
      ],
      [
        "ly",
        -9.351614952087402
      ],
      [
        "pos",
        -10.133588790893555
      ],
      [
        "cmd",
        -10.21424674987793
      ],
      [
        "es",
        -9.428123474121094
      ],
      [
        "at",
        -10.278328895568848
      ],
      [
        "*)",
        -10.339953422546387
      ],
      [
        "path",
        -10.128381729125977
      ],
      [
        "printf",
        -10.07772159576416
      ],
      [
        "Error",
        -9.97213077545166
      ],
      [
        "mask",
        -10.32475471496582
      ],
      [
        "▁used",
        -9.750054359436035
      ],
      [
        "gl",
        -10.344122886657715
      ],
      [
        "array",
        -10.131458282470703
      ],
      [
        "▁If",
        -9.968478202819824
      ],
      [
        "SET",
        -10.28993034362793
      ],
      [
        "▁get",
        -9.643728256225586
      ],
      [
        "▁defined",
        -10.07858943939209
      ],
      [
        "CONFIG",
        -10.079099655151367
      ],
      [
        "][",
        -10.59219741821289
      ],
      [
        "bit",
        -10.282584190368652
      ],
      [
        "this",
        -9.820112228393555
      ],
      [
        "double",
        -10.268973350524902
      ],
      [
        "entry",
        -10.274832725524902
      ],
      [
        "▁!",
        -9.815130233764648
      ],
      [
        "property",
        -10.144673347473145
      ],
      [
        "on",
        -9.853019714355469
      ],
      [
        "▁License",
        -9.76595401763916
      ],
      [
        "Index",
        -10.162822723388672
      ],
      [
        "fd",
        -10.270280838012695
      ],
      [
        "▁set",
        -9.661539077758789
      ],
      [
        "ED",
        -10.136076927185059
      ],
      [
        "Node",
        -10.18816089630127
      ],
      [
        "un",
        -10.252802848815918
      ],
      [
        "assert",
        -10.197893142700195
      ],
      [
        "▁?",
        -11.041913986206055
      ],
      [
        "File",
        -10.194271087646484
      ],
      [
        "src",
        -10.404962539672852
      ],
      [
        "▁GL",
        -10.125336647033691
      ],
      [
        "cb",
        -10.52538776397705
      ],
      [
        "LOG",
        -10.235252380371094
      ],
      [
        "▁/*!<",
        -10.861924171447754
      ],
      [
        "Ptr",
        -10.300414085388184
      ],
      [
        "Pos",
        -10.688817977905273
      ],
      [
        "DEFAULT",
        -11.051614761352539
      ],
      [
        "args",
        -10.280813217163086
      ],
      [
        "@",
        -9.742330551147461
      ],
      [
        "mem",
        -10.368603706359863
      ],
      [
        "sub",
        -10.356932640075684
      ],
      [
        "hash",
        -10.482650756835938
      ],
      [
        "▁new",
        -9.596455574035645
      ],
      [
        "▁>=",
        -10.295376777648926
      ],
      [
        "IF",
        -10.396858215332031
      ],
      [
        "(__",
        -10.014384269714355
      ],
      [
        "This",
        -10.361610412597656
      ],
      [
        "db",
        -10.414499282836914
      ],
      [
        "CC",
        -10.683769226074219
      ],
      [
        "Status",
        -10.127930641174316
      ],
      [
        "handle",
        -10.410866737365723
      ],
      [
        "EN",
        -10.627350807189941
      ],
      [
        "idx",
        -10.382052421569824
      ],
      [
        "event",
        -10.410524368286133
      ],
      [
        "GL",
        -10.386128425598145
      ],
      [
        "Context",
        -10.254347801208496
      ],
      [
        "le",
        -10.230093002319336
      ],
      [
        "▁at",
        -8.624249458312988
      ],
      [
        "▁error",
        -9.818816184997559
      ],
      [
        "▁Get",
        -10.040817260742188
      ],
      [
        "block",
        -10.367670059204102
      ],
      [
        "OP",
        -10.433462142944336
      ],
      [
        "▁number",
        -9.918319702148438
      ],
      [
        ":(",
        -10.496548652648926
      ],
      [
        "length",
        -10.253634452819824
      ],
      [
        "▁THE",
        -10.031017303466797
      ],
      [
        "var",
        -10.159653663635254
      ],
      [
        "▁all",
        -9.421448707580566
      ],
      [
        "stream",
        -10.384432792663574
      ],
      [
        "Key",
        -10.352217674255371
      ],
      [
        "▁have",
        -9.163866996765137
      ],
      [
        "sc",
        -10.545469284057617
      ],
      [
        "rc",
        -10.282503128051758
      ],
      [
        "MODE",
        -10.63331413269043
      ],
      [
        "▁must",
        -10.067510604858398
      ],
      [
        "load",
        -10.567428588867188
      ],
      [
        "▁mode",
        -10.538419723510742
      ],
      [
        "it",
        -10.153450012207031
      ],
      [
        "DMA",
        -11.003153800964355
      ],
      [
        "virtual",
        -10.365930557250977
      ],
      [
        "TX",
        -10.672746658325195
      ],
      [
        "▁template",
        -9.777754783630371
      ],
      [
        "▁Copyright",
        -10.410279273986816
      ],
      [
        "Array",
        -10.418145179748535
      ],
      [
        "CR",
        -10.699406623840332
      ],
      [
        "▁namespace",
        -9.21091365814209
      ],
      [
        "++",
        -10.158743858337402
      ],
      [
        "▁when",
        -9.689359664916992
      ],
      [
        "STATUS",
        -10.455240249633789
      ],
      [
        "DEBUG",
        -10.163647651672363
      ],
      [
        "BIT",
        -10.638182640075684
      ],
      [
        "able",
        -9.954574584960938
      ],
      [
        "EXT",
        -10.59908390045166
      ],
      [
        "ps",
        -10.345986366271973
      ],
      [
        "os",
        -10.008066177368164
      ],
      [
        "OK",
        -10.123197555541992
      ],
      [
        "▁using",
        -9.900176048278809
      ],
      [
        "▁buffer",
        -10.314340591430664
      ],
      [
        "[]",
        -10.268228530883789
      ],
      [
        "of",
        -10.158646583557129
      ],
      [
        "INFO",
        -10.41788101196289
      ],
      [
        "▁may",
        -9.677653312683105
      ],
      [
        "]);",
        -10.459487915039062
      ],
      [
        "sp",
        -10.423891067504883
      ],
      [
        "net",
        -10.380517959594727
      ],
      [
        "=>",
        -9.435033798217773
      ],
      [
        "as",
        -10.118884086608887
      ],
      [
        "xf",
        -11.451807975769043
      ],
      [
        "priv",
        -10.586849212646484
      ],
      [
        "Time",
        -10.488425254821777
      ],
      [
        "GET",
        -10.540252685546875
      ],
      [
        "long",
        -10.513519287109375
      ],
      [
        "link",
        -10.629240036010742
      ],
      [
        "▁any",
        -9.873866081237793
      ],
      [
        "default",
        -9.846323013305664
      ],
      [
        "▁has",
        -9.406453132629395
      ],
      [
        "(*",
        -10.332812309265137
      ],
      [
        "req",
        -10.621307373046875
      ],
      [
        "RX",
        -10.836932182312012
      ],
      [
        "Event",
        -10.43246841430664
      ],
      [
        "Base",
        -10.488408088684082
      ],
      [
        "▁double",
        -10.308562278747559
      ],
      [
        "alloc",
        -10.552617073059082
      ],
      [
        "Image",
        -10.531533241271973
      ],
      [
        "++;",
        -9.645739555358887
      ],
      [
        "▁should",
        -10.035670280456543
      ],
      [
        "ER",
        -10.681180000305176
      ],
      [
        "from",
        -10.449884414672852
      ],
      [
        "▁only",
        -9.854597091674805
      ],
      [
        "typename",
        -10.223913192749023
      ],
      [
        "▁which",
        -9.376529693603516
      ],
      [
        "input",
        -10.486920356750488
      ],
      [
        "Pyx",
        -10.555739402770996
      ],
      [
        "min",
        -10.361660957336426
      ],
      [
        "en",
        -10.043519020080566
      ],
      [
        "▁code",
        -10.078617095947266
      ],
      [
        "Count",
        -10.410593032836914
      ],
      [
        "check",
        -10.495818138122559
      ],
      [
        "self",
        -10.326045036315918
      ],
      [
        "xe",
        -11.535058975219727
      ],
      [
        "▁ANY",
        -10.415617942810059
      ],
      [
        "▁k",
        -10.220046043395996
      ],
      [
        "▁I",
        -8.67407512664795
      ],
      [
        "switch",
        -10.347352027893066
      ],
      [
        "▁you",
        -9.309928894042969
      ],
      [
        "ctor",
        -10.536657333374023
      ],
      [
        "KEY",
        -10.669105529785156
      ],
      [
        "ation",
        -10.062192916870117
      ],
      [
        "Int",
        -10.623160362243652
      ],
      [
        "lib",
        -10.599146842956543
      ],
      [
        "conn",
        -10.688859939575195
      ],
      [
        "Request",
        -10.564719200134277
      ],
      [
        "up",
        -10.153388023376465
      ],
      [
        "Vector",
        -10.678030014038086
      ],
      [
        "AS",
        -10.778329849243164
      ],
      [
        "fs",
        -10.488367080688477
      ],
      [
        "PORT",
        -10.796820640563965
      ],
      [
        "attr",
        -10.71688175201416
      ],
      [
        "▁<=",
        -10.651442527770996
      ],
      [
        "ING",
        -10.385629653930664
      ],
      [
        "Handle",
        -10.5628662109375
      ],
      [
        "ST",
        -10.913890838623047
      ],
      [
        "Lean",
        -11.486425399780273
      ],
      [
        "mp",
        -10.702295303344727
      ],
      [
        "static",
        -10.306178092956543
      ],
      [
        "dir",
        -10.56259822845459
      ],
      [
        "frame",
        -10.729022026062012
      ],
      [
        "hw",
        -10.821073532104492
      ],
      [
        "desc",
        -10.747367858886719
      ],
      [
        "field",
        -10.31375789642334
      ],
      [
        "▁ret",
        -9.757464408874512
      ],
      [
        "ar",
        -10.483329772949219
      ],
      [
        "xa",
        -11.4667387008667
      ],
      [
        "de",
        -10.163145065307617
      ],
      [
        "dec",
        -10.08164119720459
      ],
      [
        "</",
        -9.7764892578125
      ],
      [
        "IP",
        -10.796669960021973
      ],
      [
        "UI",
        -10.725578308105469
      ],
      [
        "ON",
        -10.932989120483398
      ],
      [
        "ok",
        -10.480910301208496
      ],
      [
        "Mode",
        -10.652268409729004
      ],
      [
        "▁do",
        -9.757027626037598
      ],
      [
        "params",
        -10.680697441101074
      ],
      [
        "PIN",
        -10.980581283569336
      ],
      [
        "Py",
        -10.818507194519043
      ],
      [
        "▁so",
        -9.895222663879395
      ],
      [
        "sizeof",
        -10.776945114135742
      ],
      [
        "▁float",
        -10.643434524536133
      ],
      [
        "▁bit",
        -10.6433687210083
      ],
      [
        "queue",
        -10.746623992919922
      ],
      [
        "Windows",
        -11.303109169006348
      ],
      [
        "and",
        -10.25751781463623
      ],
      [
        "NAME",
        -10.653902053833008
      ],
      [
        "GPIO",
        -11.272260665893555
      ],
      [
        "▁|=",
        -10.585145950317383
      ],
      [
        "cur",
        -10.76220989227295
      ],
      [
        "cast",
        -10.770491600036621
      ],
      [
        "ui",
        -10.756600379943848
      ],
      [
        "▁under",
        -9.817655563354492
      ],
      [
        "TO",
        -10.778304100036621
      ],
      [
        "BASE",
        -10.877671241760254
      ],
      [
        "bits",
        -10.757346153259277
      ],
      [
        "Block",
        -10.710135459899902
      ],
      [
        "▁one",
        -9.547119140625
      ],
      [
        "null",
        -11.261807441711426
      ],
      [
        "▁source",
        -10.451461791992188
      ],
      [
        "ap",
        -10.511466979980469
      ],
      [
        "cpu",
        -10.895716667175293
      ],
      [
        "FILE",
        -10.518117904663086
      ],
      [
        "client",
        -10.711652755737305
      ],
      [
        "com",
        -9.974653244018555
      ],
      [
        "Device",
        -10.698763847351074
      ],
      [
        "cache",
        -10.763964653015137
      ],
      [
        "OS",
        -10.844931602478027
      ],
      [
        "▁Set",
        -10.437810897827148
      ],
      [
        "▁..",
        -11.28880500793457
      ],
      [
        "iVar",
        -10.305615425109863
      ],
      [
        "ASSERT",
        -10.54182243347168
      ],
      [
        "DB",
        -10.704747200012207
      ],
      [
        "#",
        -9.764259338378906
      ],
      [
        "▁(*",
        -10.596039772033691
      ],
      [
        "SHIFT",
        -11.027175903320312
      ],
      [
        "OUT",
        -10.825729370117188
      ],
      [
        "▁following",
        -9.902551651000977
      ],
      [
        "def",
        -10.619969367980957
      ],
      [
        "create",
        -10.64043140411377
      ],
      [
        "fp",
        -10.667668342590332
      ],
      [
        "xc",
        -11.5557279586792
      ],
      [
        "xF",
        -11.497456550598145
      ],
      [
        "\")",
        -10.424569129943848
      ],
      [
        "View",
        -10.511356353759766
      ],
      [
        "▁list",
        -10.168111801147461
      ],
      [
        "call",
        -10.763274192810059
      ],
      [
        "STATE",
        -10.705184936523438
      ],
      [
        "▁override",
        -10.488092422485352
      ],
      [
        "user",
        -10.602092742919922
      ],
      [
        "Map",
        -10.634510040283203
      ],
      [
        "output",
        -10.713813781738281
      ],
      [
        "▁no",
        -9.923249244689941
      ],
      [
        "dst",
        -10.884137153625488
      ],
      [
        "ic",
        -10.301738739013672
      ],
      [
        "▁out",
        -9.507162094116211
      ],
      [
        "do",
        -9.983476638793945
      ],
      [
        "put",
        -10.650888442993164
      ],
      [
        "▁index",
        -10.520565032958984
      ],
      [
        "core",
        -10.725802421569824
      ],
      [
        "\";",
        -10.154497146606445
      ],
      [
        "copy",
        -10.642760276794434
      ],
      [
        "cl",
        -10.728157043457031
      ],
      [
        "SR",
        -11.380867004394531
      ],
      [
        "format",
        -10.724431037902832
      ],
      [
        "image",
        -10.66793441772461
      ],
      [
        "])",
        -10.855615615844727
      ],
      [
        "▁\"\\",
        -11.11058521270752
      ],
      [
        "TEST",
        -10.636133193969727
      ],
      [
        "Init",
        -10.603825569152832
      ],
      [
        "▁copy",
        -10.460368156433105
      ],
      [
        "an",
        -10.177872657775879
      ],
      [
        "Var",
        -10.856860160827637
      ],
      [
        "...",
        -10.219196319580078
      ],
      [
        "opt",
        -10.817408561706543
      ],
      [
        "li",
        -10.374448776245117
      ],
      [
        "Is",
        -10.504681587219238
      ],
      [
        "▁but",
        -9.539579391479492
      ],
      [
        "request",
        -10.734421730041504
      ],
      [
        "last",
        -10.611387252807617
      ],
      [
        "page",
        -10.575827598571777
      ],
      [
        "old",
        -10.682307243347168
      ],
      [
        ")))",
        -10.929755210876465
      ],
      [
        "▁IN",
        -10.458996772766113
      ],
      [
        "current",
        -10.621273040771484
      ],
      [
        "▁result",
        -10.055209159851074
      ],
      [
        "lo",
        -10.956823348999023
      ],
      [
        ")->",
        -10.611263275146484
      ],
      [
        "item",
        -10.665809631347656
      ],
      [
        "thread",
        -10.800880432128906
      ],
      [
        "Table",
        -10.578337669372559
      ],
      [
        "▁register",
        -10.686944007873535
      ],
      [
        "host",
        -10.877204895019531
      ],
      [
        "▁address",
        -10.697989463806152
      ],
      [
        "▁input",
        -10.618769645690918
      ],
      [
        "Result",
        -10.608860969543457
      ],
      [
        "tx",
        -10.474604606628418
      ],
      [
        "sys",
        -10.556228637695312
      ],
      [
        "xd",
        -11.678265571594238
      ],
      [
        "off",
        -10.451720237731934
      ],
      [
        "rx",
        -10.787222862243652
      ],
      [
        "▁other",
        -9.793387413024902
      ],
      [
        "END",
        -10.2567720413208
      ],
      [
        "▁key",
        -10.480114936828613
      ],
      [
        "Input",
        -10.741538047790527
      ],
      [
        "be",
        -10.456791877746582
      ],
      [
        "while",
        -10.483681678771973
      ],
      [
        "},{",
        -13.947833061218262
      ],
      [
        "STR",
        -10.89176082611084
      ],
      [
        "width",
        -10.631407737731934
      ],
      [
        "?",
        -9.078824043273926
      ],
      [
        "rt",
        -10.847098350524902
      ],
      [
        "ext",
        -10.96420955657959
      ],
      [
        "cp",
        -10.8134765625
      ],
      [
        "▁software",
        -10.370845794677734
      ],
      [
        "CLK",
        -11.317647933959961
      ],
      [
        "};",
        -9.587247848510742
      ],
      [
        "AL",
        -10.893900871276855
      ],
      [
        "ac",
        -10.681007385253906
      ],
      [
        "CMD",
        -10.950813293457031
      ],
      [
        "▁block",
        -10.683002471923828
      ],
      [
        "Stream",
        -10.767233848571777
      ],
      [
        "Message",
        -10.583898544311523
      ],
      [
        "▁pointer",
        -10.706954002380371
      ],
      [
        "▁>>",
        -10.97459602355957
      ],
      [
        "tree",
        -10.903197288513184
      ],
      [
        "Create",
        -10.806009292602539
      ],
      [
        "all",
        -10.722243309020996
      ],
      [
        "point",
        -10.756925582885742
      ],
      [
        "cc",
        -10.61069107055664
      ],
      [
        "attribute",
        -10.762459754943848
      ],
      [
        "▁current",
        -10.44447135925293
      ],
      [
        "Address",
        -10.809910774230957
      ],
      [
        "col",
        -10.950135231018066
      ],
      [
        "▁j",
        -10.617984771728516
      ],
      [
        "tag",
        -10.83218002319336
      ],
      [
        "Code",
        -10.768141746520996
      ],
      [
        "target",
        -10.772110939025879
      ],
      [
        "==",
        -10.922569274902344
      ],
      [
        "head",
        -10.53296947479248
      ],
      [
        "text",
        -10.137280464172363
      ],
      [
        "bytes",
        -10.862058639526367
      ],
      [
        "▁without",
        -10.252311706542969
      ],
      [
        "tp",
        -10.716662406921387
      ],
      [
        "us",
        -10.010059356689453
      ],
      [
        "Class",
        -10.698583602905273
      ],
      [
        "header",
        -10.835919380187988
      ],
      [
        "update",
        -10.80019760131836
      ],
      [
        "group",
        -10.765999794006348
      ],
      [
        "ent",
        -10.831260681152344
      ],
      [
        "▁operator",
        -10.774246215820312
      ],
      [
        "hdr",
        -11.00253963470459
      ],
      [
        "Re",
        -10.591347694396973
      ],
      [
        "AF",
        -11.10773754119873
      ],
      [
        "▁GPIO",
        -11.31234073638916
      ],
      [
        "av",
        -11.02351188659668
      ],
      [
        "IC",
        -10.73634147644043
      ],
      [
        "cfg",
        -11.031410217285156
      ],
      [
        "local",
        -10.81485366821289
      ],
      [
        "▁output",
        -10.677539825439453
      ],
      [
        "pool",
        -11.110321044921875
      ],
      [
        "mutex",
        -10.871068954467773
      ],
      [
        "`",
        -11.061370849609375
      ],
      [
        "per",
        -10.574722290039062
      ],
      [
        "inc",
        -10.386802673339844
      ],
      [
        "xb",
        -11.940702438354492
      ],
      [
        "▁end",
        -10.1205415725708
      ],
      [
        "byte",
        -10.858155250549316
      ],
      [
        "open",
        -10.779553413391113
      ],
      [
        "Callback",
        -10.952834129333496
      ],
      [
        "env",
        -10.933609962463379
      ],
      [
        "▁time",
        -9.911767959594727
      ],
      [
        "cs",
        -10.835618019104004
      ],
      [
        "RE",
        -10.97686767578125
      ],
      [
        "view",
        -11.025933265686035
      ],
      [
        "pc",
        -10.893649101257324
      ],
      [
        "vec",
        -11.110329627990723
      ],
      [
        "ARG",
        -10.960853576660156
      ],
      [
        "row",
        -10.687686920166016
      ],
      [
        "For",
        -10.663163185119629
      ],
      [
        "▁default",
        -10.38270378112793
      ],
      [
        "VERSION",
        -10.849388122558594
      ],
      [
        "Number",
        -10.940969467163086
      ],
      [
        "ADDR",
        -11.1112699508667
      ],
      [
        "function",
        -10.609275817871094
      ],
      [
        "SEL",
        -11.379866600036621
      ],
      [
        "▁IS",
        -10.88309097290039
      ],
      [
        "si",
        -10.770291328430176
      ],
      [
        "BOOL",
        -10.697038650512695
      ],
      [
        "xE",
        -11.90410327911377
      ],
      [
        "MIN",
        -10.881685256958008
      ],
      [
        "FLAG",
        -11.153220176696777
      ],
      [
        "UINT",
        -10.932577133178711
      ],
      [
        "ce",
        -10.74108600616455
      ],
      [
        "STRING",
        -10.913588523864746
      ],
      [
        "retval",
        -10.486948013305664
      ],
      [
        "▁memory",
        -10.718411445617676
      ],
      [
        "▁first",
        -9.775152206420898
      ],
      [
        "debug",
        -10.78529167175293
      ],
      [
        "▁glad",
        -10.536751747131348
      ],
      [
        "flag",
        -10.85732364654541
      ],
      [
        "win",
        -10.937387466430664
      ],
      [
        "▁enum",
        -10.017114639282227
      ],
      [
        "With",
        -10.859101295471191
      ],
      [
        "',",
        -10.646990776062012
      ],
      [
        "NOT",
        -10.756470680236816
      ],
      [
        "////////////////",
        -11.646684646606445
      ],
      [
        "ms",
        -10.612558364868164
      ],
      [
        "im",
        -10.840264320373535
      ],
      [
        "!",
        -9.394639015197754
      ],
      [
        "level",
        -10.782727241516113
      ],
      [
        "gen",
        -10.695634841918945
      ],
      [
        "ul",
        -10.438672065734863
      ],
      [
        "){",
        -10.428674697875977
      ],
      [
        "▁was",
        -8.643038749694824
      ],
      [
        "Offset",
        -10.982464790344238
      ],
      [
        "server",
        -10.925909996032715
      ],
      [
        "pg",
        -11.037796974182129
      ],
      [
        "LE",
        -10.906634330749512
      ],
      [
        "Test",
        -10.750262260437012
      ],
      [
        "AT",
        -11.447223663330078
      ],
      [
        "▁virtual",
        -10.54623031616211
      ],
      [
        "OF",
        -11.058956146240234
      ],
      [
        "UN",
        -10.961091995239258
      ],
      [
        "://",
        -10.432807922363281
      ],
      [
        "From",
        -10.762144088745117
      ],
      [
        "▁test",
        -10.600727081298828
      ],
      [
        "send",
        -10.965465545654297
      ],
      [
        "Item",
        -10.847229957580566
      ],
      [
        "Pointer",
        -10.914604187011719
      ],
      [
        "Function",
        -10.861528396606445
      ],
      [
        "am",
        -10.58824634552002
      ],
      [
        "ep",
        -10.903305053710938
      ],
      [
        "has",
        -10.606176376342773
      ],
      [
        "first",
        -10.733787536621094
      ],
      [
        "USE",
        -10.777320861816406
      ],
      [
        "Config",
        -10.944960594177246
      ],
      [
        "Color",
        -10.848992347717285
      ],
      [
        "Start",
        -11.008918762207031
      ],
      [
        "address",
        -10.94063663482666
      ],
      [
        "EXPORT",
        -10.79928970336914
      ],
      [
        "▁~",
        -10.634629249572754
      ],
      [
        "session",
        -11.249205589294434
      ],
      [
        "CHECK",
        -10.955293655395508
      ],
      [
        "AR",
        -11.350215911865234
      ],
      [
        "SPI",
        -11.287898063659668
      ],
      [
        "▁device",
        -10.725015640258789
      ],
      [
        "Text",
        -10.72340202331543
      ],
      [
        "close",
        -10.80247974395752
      ],
      [
        "stack",
        -10.949665069580078
      ],
      [
        "rel",
        -11.05066967010498
      ],
      [
        "SSL",
        -11.130327224731445
      ],
      [
        "DC",
        -11.130644798278809
      ],
      [
        "LL",
        -11.240184783935547
      ],
      [
        "Msk",
        -11.724706649780273
      ],
      [
        "VALUE",
        -10.956478118896484
      ],
      [
        "message",
        -10.835627555847168
      ],
      [
        "ff",
        -11.104735374450684
      ],
      [
        "IT",
        -11.018704414367676
      ],
      [
        "ns",
        -10.646085739135742
      ],
      [
        "Window",
        -10.90754222869873
      ],
      [
        "NUM",
        -11.11396312713623
      ],
      [
        "LEN",
        -11.09680461883545
      ],
      [
        "print",
        -10.793036460876465
      ],
      [
        "the",
        -10.36036491394043
      ],
      [
        "Source",
        -11.092462539672852
      ],
      [
        "$",
        -10.413973808288574
      ],
      [
        "Command",
        -10.973621368408203
      ],
      [
        "vm",
        -11.154471397399902
      ],
      [
        "VAL",
        -11.296063423156738
      ],
      [
        "PS",
        -11.0565824508667
      ],
      [
        "spec",
        -11.118158340454102
      ],
      [
        "(!",
        -10.684874534606934
      ],
      [
        "MEM",
        -11.056316375732422
      ],
      [
        "New",
        -10.702329635620117
      ],
      [
        "mod",
        -11.200284004211426
      ],
      [
        "▁start",
        -10.769769668579102
      ],
      [
        "///",
        -9.99656867980957
      ],
      [
        "argv",
        -10.907020568847656
      ],
      [
        "OR",
        -10.866106986999512
      ],
      [
        "▁into",
        -9.900188446044922
      ],
      [
        "pp",
        -10.933923721313477
      ],
      [
        "clear",
        -10.685651779174805
      ],
      [
        "▁values",
        -10.68588638305664
      ],
      [
        "http",
        -10.902202606201172
      ],
      [
        "private",
        -10.556262969970703
      ],
      [
        "dma",
        -11.178662300109863
      ],
      [
        "temp",
        -10.97617244720459
      ],
      [
        "internal",
        -10.893927574157715
      ],
      [
        "Path",
        -10.870809555053711
      ],
      [
        "nonatomic",
        -10.951325416564941
      ],
      [
        "Read",
        -10.936969757080078
      ],
      [
        ">&",
        -11.302287101745605
      ],
      [
        ">(",
        -11.008222579956055
      ],
      [
        "left",
        -10.108920097351074
      ],
      [
        "FF",
        -10.809182167053223
      ],
      [
        "SUCCESS",
        -10.710678100585938
      ],
      [
        "module",
        -11.005512237548828
      ],
      [
        "XFF",
        -14.302910804748535
      ],
      [
        "ld",
        -11.229086875915527
      ],
      [
        "PyObject",
        -11.301905632019043
      ],
      [
        "CFG",
        -11.363768577575684
      ],
      [
        "▁offset",
        -10.90297794342041
      ],
      [
        "▁while",
        -10.127118110656738
      ],
      [
        "System",
        -11.090895652770996
      ],
      [
        "dp",
        -11.126282691955566
      ],
      [
        "MSG",
        -11.094510078430176
      ],
      [
        "shared",
        -11.271198272705078
      ],
      [
        "▁version",
        -10.533039093017578
      ],
      [
        "stat",
        -11.002606391906738
      ],
      [
        "ADC",
        -11.719108581542969
      ],
      [
        "▁PyObject",
        -10.573925971984863
      ],
      [
        "ee",
        -10.99669075012207
      ],
      [
        "volatile",
        -11.276019096374512
      ],
      [
        "Client",
        -10.878066062927246
      ],
      [
        "▁call",
        -10.746832847595215
      ],
      [
        "ll",
        -10.601757049560547
      ],
      [
        "Instance",
        -11.064071655273438
      ],
      [
        "pr",
        -11.01854133605957
      ],
      [
        "Out",
        -10.84803581237793
      ],
      [
        "▁AND",
        -10.736769676208496
      ],
      [
        "NV",
        -11.119585037231445
      ],
      [
        "▁check",
        -10.676065444946289
      ],
      [
        "import",
        -10.515304565429688
      ],
      [
        "Call",
        -11.155056953430176
      ],
      [
        "sk",
        -10.984891891479492
      ],
      [
        "▁typename",
        -11.34097957611084
      ],
      [
        "PROC",
        -10.953117370605469
      ],
      [
        "▁read",
        -10.715031623840332
      ],
      [
        "Length",
        -10.931559562683105
      ],
      [
        "SYS",
        -10.999237060546875
      ],
      [
        "CS",
        -10.995927810668945
      ],
      [
        "▁length",
        -10.770950317382812
      ],
      [
        "rd",
        -10.66783618927002
      ],
      [
        "ENABLED",
        -10.766312599182129
      ],
      [
        "▁bytes",
        -11.008880615234375
      ],
      [
        "interface",
        -10.861897468566895
      ],
      [
        "Write",
        -10.995375633239746
      ],
      [
        "parent",
        -10.880570411682129
      ],
      [
        "fprintf",
        -11.06987476348877
      ],
      [
        "co",
        -10.59707260131836
      ],
      [
        "mb",
        -10.931267738342285
      ],
      [
        "lp",
        -11.106040954589844
      ],
      [
        "DEF",
        -11.132526397705078
      ],
      [
        "defined",
        -11.02025032043457
      ],
      [
        "<<",
        -11.320347785949707
      ],
      [
        "ec",
        -11.134279251098633
      ],
      [
        "rate",
        -11.174125671386719
      ],
      [
        "cnt",
        -11.041481018066406
      ],
      [
        "proc",
        -11.054635047912598
      ],
      [
        "▁FOR",
        -10.749794006347656
      ],
      [
        "fc",
        -11.288826942443848
      ],
      [
        "seq",
        -11.185261726379395
      ],
      [
        "Check",
        -10.925910949707031
      ],
      [
        "space",
        -10.873453140258789
      ],
      [
        "READ",
        -11.067736625671387
      ],
      [
        "move",
        -11.340420722961426
      ],
      [
        "Op",
        -11.148706436157227
      ],
      [
        "me",
        -10.65815544128418
      ],
      [
        "push",
        -11.037261009216309
      ],
      [
        "Frame",
        -11.018675804138184
      ],
      [
        "ad",
        -10.656881332397461
      ],
      [
        "\\\"",
        -12.494256019592285
      ],
      [
        "register",
        -10.958978652954102
      ],
      [
        "());",
        -10.682280540466309
      ],
      [
        "box",
        -10.88353443145752
      ],
      [
        "word",
        -11.206273078918457
      ],
      [
        "The",
        -9.868413925170898
      ],
      [
        "irq",
        -11.113520622253418
      ],
      [
        "▁Returns",
        -10.715311050415039
      ],
      [
        "color",
        -10.821436882019043
      ],
      [
        "zend",
        -11.263855934143066
      ],
      [
        "▁need",
        -10.51945972442627
      ],
      [
        "▁Py",
        -10.630302429199219
      ],
      [
        "Un",
        -11.039179801940918
      ],
      [
        "Sub",
        -10.981893539428711
      ],
      [
        "version",
        -10.860886573791504
      ],
      [
        "MS",
        -11.13572883605957
      ],
      [
        "sz",
        -10.998859405517578
      ],
      [
        "CODE",
        -11.08309268951416
      ],
      [
        "▁Software",
        -10.754383087158203
      ],
      [
        "CTL",
        -11.434462547302246
      ],
      [
        "mac",
        -11.15391731262207
      ],
      [
        "options",
        -11.065792083740234
      ],
      [
        "PTR",
        -11.16136646270752
      ],
      [
        "USB",
        -11.424184799194336
      ],
      [
        "hi",
        -11.04664421081543
      ],
      [
        "FS",
        -11.023337364196777
      ],
      [
        "AD",
        -11.308436393737793
      ],
      [
        "INIT",
        -10.985848426818848
      ],
      [
        "WRITE",
        -11.10948371887207
      ],
      [
        "End",
        -10.9580659866333
      ],
      [
        "md",
        -11.148898124694824
      ],
      [
        "ring",
        -10.93317699432373
      ],
      [
        "Format",
        -10.913792610168457
      ],
      [
        "(),",
        -10.772977828979492
      ],
      [
        "Memory",
        -10.983156204223633
      ],
      [
        "Point",
        -11.076957702636719
      ],
      [
        "^",
        -10.989297866821289
      ],
      [
        "LIB",
        -10.955801010131836
      ],
      [
        "use",
        -10.699246406555176
      ],
      [
        "▁All",
        -10.111794471740723
      ],
      [
        "Flags",
        -11.11656379699707
      ],
      [
        "ts",
        -10.206835746765137
      ],
      [
        "▁ADC",
        -11.57140064239502
      ],
      [
        "SC",
        -11.049661636352539
      ],
      [
        "▁//!",
        -10.181449890136719
      ],
      [
        "pl",
        -11.24478816986084
      ],
      [
        "▁SOFTWARE",
        -10.847756385803223
      ],
      [
        "sa",
        -10.606363296508789
      ],
      [
        "Add",
        -11.029738426208496
      ],
      [
        "channel",
        -11.214522361755371
      ],
      [
        "sig",
        -11.463197708129883
      ],
      [
        "Ref",
        -11.017705917358398
      ],
      [
        "PA",
        -11.426307678222656
      ],
      [
        "continue",
        -10.375330924987793
      ],
      [
        "ro",
        -10.73317813873291
      ],
      [
        ">::",
        -11.238122940063477
      ],
      [
        "Log",
        -11.138107299804688
      ],
      [
        "▁more",
        -9.842057228088379
      ],
      [
        "▁\"%",
        -11.352663040161133
      ],
      [
        "AC",
        -11.229744911193848
      ],
      [
        "EC",
        -11.16870403289795
      ],
      [
        "ion",
        -10.784982681274414
      ],
      [
        "▁given",
        -10.562188148498535
      ],
      [
        "▁user",
        -10.88647747039795
      ],
      [
        "HAL",
        -11.215595245361328
      ],
      [
        "Num",
        -11.115608215332031
      ],
      [
        "number",
        -10.943120002746582
      ],
      [
        "sock",
        -11.162347793579102
      ],
      [
        "LINE",
        -11.1759672164917
      ],
      [
        "dc",
        -11.364252090454102
      ],
      [
        "▁`",
        -11.095001220703125
      ],
      [
        "ops",
        -11.096617698669434
      ],
      [
        "dw",
        -11.141267776489258
      ],
      [
        "one",
        -10.525175094604492
      ],
      [
        "INVALID",
        -11.054333686828613
      ],
      [
        "el",
        -10.546004295349121
      ],
      [
        "▁-(",
        -10.352723121643066
      ],
      [
        "conf",
        -11.203470230102539
      ],
      [
        "DEVICE",
        -11.23862361907959
      ],
      [
        "org",
        -10.630640983581543
      ],
      [
        "root",
        -11.061982154846191
      ],
      [
        "timer",
        -11.206945419311523
      ],
      [
        "app",
        -11.129805564880371
      ],
      [
        "Entry",
        -11.003045082092285
      ],
      [
        "begin",
        -10.624738693237305
      ],
      [
        "malloc",
        -11.141560554504395
      ],
      [
        "▁status",
        -10.437690734863281
      ],
      [
        "back",
        -10.654989242553711
      ],
      [
        "scan",
        -11.407795906066895
      ],
      [
        "CALL",
        -11.178744316101074
      ],
      [
        "BE",
        -11.287459373474121
      ],
      [
        "Global",
        -11.436450004577637
      ],
      [
        "')",
        -10.696906089782715
      ],
      [
        "▁USB",
        -11.305527687072754
      ],
      [
        "Field",
        -11.028377532958984
      ],
      [
        "','",
        -12.726166725158691
      ],
      [
        "xC",
        -11.983304023742676
      ],
      [
        "COLOR",
        -11.049357414245605
      ],
      [
        "AN",
        -12.130002975463867
      ],
      [
        "il",
        -11.06919002532959
      ],
      [
        "MAP",
        -11.146649360656738
      ],
      [
        "FUNC",
        -11.12946891784668
      ],
      [
        "Max",
        -11.208084106445312
      ],
      [
        "filter",
        -11.208235740661621
      ],
      [
        "stats",
        -11.115693092346191
      ],
      [
        "▁message",
        -10.883828163146973
      ],
      [
        "No",
        -10.5818452835083
      ],
      [
        "handler",
        -11.189411163330078
      ],
      [
        "▁PFNGL",
        -10.917811393737793
      ],
      [
        "Reg",
        -11.294904708862305
      ],
      [
        "ur",
        -11.11367416381836
      ],
      [
        "▁command",
        -10.839252471923828
      ],
      [
        "comp",
        -11.502470016479492
      ],
      [
        "CL",
        -11.050415992736816
      ],
      [
        "BUFFER",
        -11.15541934967041
      ],
      [
        "▁We",
        -10.231236457824707
      ],
      [
        "sym",
        -11.109469413757324
      ],
      [
        "ment",
        -10.70546817779541
      ],
      [
        "iterator",
        -11.140582084655762
      ],
      [
        "iter",
        -11.140806198120117
      ],
      [
        "▁its",
        -9.994546890258789
      ],
      [
        "unit",
        -11.419215202331543
      ],
      [
        "mark",
        -11.100503921508789
      ],
      [
        "DE",
        -11.208641052246094
      ],
      [
        "▁src",
        -11.1976957321167
      ],
      [
        "range",
        -11.156494140625
      ],
      [
        "ENABLE",
        -11.114584922790527
      ],
      [
        "PC",
        -11.218435287475586
      ],
      [
        "▁WARRANTIES",
        -10.97150707244873
      ],
      [
        "IM",
        -11.11192798614502
      ],
      [
        "action",
        -11.172624588012695
      ],
      [
        "mi",
        -10.945425987243652
      ],
      [
        "Output",
        -11.047223091125488
      ],
      [
        "▁FALSE",
        -10.754166603088379
      ],
      [
        "ARRAY",
        -11.260331153869629
      ],
      [
        "▁above",
        -10.637643814086914
      ],
      [
        "Matrix",
        -11.192521095275879
      ],
      [
        "pre",
        -10.894332885742188
      ],
      [
        "CA",
        -11.318330764770508
      ],
      [
        "inline",
        -11.04192066192627
      ],
      [
        "Mask",
        -11.339213371276855
      ],
      [
        "Char",
        -11.098292350769043
      ],
      [
        "ca",
        -10.901021957397461
      ],
      [
        "':",
        -10.50800895690918
      ],
      [
        "/**",
        -9.58077621459961
      ],
      [
        "iv",
        -11.136072158813477
      ],
      [
        "▁DMA",
        -11.4662504196167
      ],
      [
        "Filter",
        -11.179609298706055
      ],
      [
        "▁failed",
        -10.97806167602539
      ],
      [
        "MAC",
        -11.3483247756958
      ],
      [
        "Model",
        -11.119640350341797
      ],
      [
        "th",
        -9.285325050354004
      ],
      [
        "enable",
        -11.088478088378906
      ],
      [
        "rs",
        -10.313075065612793
      ],
      [
        "tab",
        -11.314519882202148
      ],
      [
        "▁reserved",
        -10.788412094116211
      ],
      [
        "AP",
        -10.967864990234375
      ],
      [
        "CF",
        -11.227470397949219
      ],
      [
        "▁conditions",
        -10.673260688781738
      ],
      [
        "Handler",
        -11.104129791259766
      ],
      [
        "▁called",
        -10.62130355834961
      ],
      [
        "UP",
        -11.10875415802002
      ],
      [
        "PR",
        -11.35473918914795
      ],
      [
        "**",
        -9.881275177001953
      ],
      [
        "va",
        -10.793098449707031
      ],
      [
        "▁target",
        -11.112993240356445
      ],
      [
        "RPC",
        -11.25191879272461
      ],
      [
        "SD",
        -11.527923583984375
      ],
      [
        "pt",
        -10.667570114135742
      ],
      [
        "▁See",
        -8.5107421875
      ],
      [
        "())",
        -10.633960723876953
      ],
      [
        "filename",
        -11.151824951171875
      ],
      [
        "▁then",
        -10.172264099121094
      ],
      [
        "wait",
        -11.087204933166504
      ],
      [
        "usb",
        -11.328591346740723
      ],
      [
        "▁max",
        -11.023914337158203
      ],
      [
        "▁private",
        -9.498493194580078
      ],
      [
        "LIST",
        -11.15571403503418
      ],
      [
        "memory",
        -10.963619232177734
      ],
      [
        "hr",
        -11.320758819580078
      ],
      [
        "▁request",
        -11.00451374053955
      ],
      [
        "prev",
        -11.095796585083008
      ],
      [
        "FUNCTION",
        -11.04822063446045
      ],
      [
        "LP",
        -11.243091583251953
      ],
      [
        "by",
        -10.477822303771973
      ],
      [
        "SW",
        -11.425201416015625
      ],
      [
        "linux",
        -10.705182075500488
      ],
      [
        "raw",
        -11.370477676391602
      ],
      [
        "▁node",
        -10.917831420898438
      ],
      [
        "unlock",
        -10.83356761932373
      ],
      [
        "fn",
        -11.089898109436035
      ],
      [
        "ex",
        -10.915589332580566
      ],
      [
        "expr",
        -11.333189964294434
      ],
      [
        "height",
        -11.092423439025879
      ],
      [
        "clk",
        -11.445993423461914
      ],
      [
        "sum",
        -11.294584274291992
      ],
      [
        "ctrl",
        -11.357745170593262
      ],
      [
        "SL",
        -11.191176414489746
      ],
      [
        "ssl",
        -11.371552467346191
      ],
      [
        "ev",
        -11.030795097351074
      ],
      [
        "▁Bit",
        -11.409399032592773
      ],
      [
        "source",
        -10.976487159729004
      ],
      [
        "TIM",
        -11.765231132507324
      ],
      [
        "parse",
        -11.29562759399414
      ],
      [
        "Element",
        -11.106698036193848
      ],
      [
        "NONE",
        -11.260695457458496
      ],
      [
        "Group",
        -11.045699119567871
      ],
      [
        "BT",
        -11.359209060668945
      ],
      [
        "trace",
        -11.405488014221191
      ],
      [
        "RT",
        -11.255217552185059
      ],
      [
        "packet",
        -11.455842018127441
      ],
      [
        "bus",
        -11.31849479675293
      ],
      [
        "▁rights",
        -10.5645751953125
      ],
      [
        "▁information",
        -10.40066909790039
      ],
      [
        "api",
        -11.072210311889648
      ],
      [
        "BLOCK",
        -11.26930046081543
      ],
      [
        "LONG",
        -11.268814086914062
      ],
      [
        "Free",
        -10.882628440856934
      ],
      [
        "method",
        -11.217582702636719
      ],
      [
        "▁HAL",
        -11.091588973999023
      ],
      [
        "pragma",
        -10.10448169708252
      ],
      [
        "exit",
        -10.81125259399414
      ],
      [
        "▁count",
        -10.943211555480957
      ],
      [
        "▁notice",
        -11.068887710571289
      ],
      [
        "cap",
        -11.375516891479492
      ],
      [
        "Version",
        -11.060029029846191
      ],
      [
        "▁array",
        -10.910576820373535
      ],
      [
        "right",
        -10.217637062072754
      ],
      [
        "match",
        -11.173514366149902
      ],
      [
        "OFFSET",
        -11.522315979003906
      ],
      [
        "term",
        -11.425189971923828
      ],
      [
        "prop",
        -11.445791244506836
      ],
      [
        "LOC",
        -12.337076187133789
      ],
      [
        "▁there",
        -10.034530639648438
      ],
      [
        "WIN",
        -10.964651107788086
      ],
      [
        "py",
        -10.979905128479004
      ],
      [
        "mc",
        -11.47516918182373
      ],
      [
        "Core",
        -11.295477867126465
      ],
      [
        "RC",
        -11.212779998779297
      ],
      [
        "User",
        -11.239155769348145
      ],
      [
        "▁specified",
        -11.094433784484863
      ],
      [
        "Control",
        -11.205552101135254
      ],
      [
        "da",
        -10.775285720825195
      ],
      [
        "ri",
        -11.150280952453613
      ],
      [
        "▁last",
        -10.578598022460938
      ],
      [
        "rb",
        -11.257767677307129
      ],
      [
        "sync",
        -11.21541690826416
      ],
      [
        "Thread",
        -11.084368705749512
      ],
      [
        "tuple",
        -11.300536155700684
      ],
      [
        "auto",
        -11.207328796386719
      ],
      [
        "sd",
        -11.225460052490234
      ],
      [
        "TRACE",
        -11.291830062866211
      ],
      [
        "DWORD",
        -11.001008033752441
      ],
      [
        "insert",
        -11.621949195861816
      ],
      [
        "work",
        -11.160426139831543
      ],
      [
        "cr",
        -11.221625328063965
      ],
      [
        "label",
        -10.811482429504395
      ],
      [
        "zero",
        -11.249587059020996
      ],
      [
        "▁TRUE",
        -10.83609676361084
      ],
      [
        "Range",
        -11.30366039276123
      ],
      [
        "().",
        -10.933621406555176
      ],
      [
        "▁'\\",
        -11.191620826721191
      ],
      [
        "MP",
        -11.246273040771484
      ],
      [
        "##",
        -11.88852596282959
      ],
      [
        "skb",
        -11.423773765563965
      ],
      [
        "Expr",
        -11.374058723449707
      ],
      [
        "closed",
        -11.678174018859863
      ],
      [
        "BUF",
        -11.427644729614258
      ],
      [
        "NET",
        -11.110876083374023
      ],
      [
        "▁after",
        -10.115752220153809
      ],
      [
        "memcpy",
        -11.357125282287598
      ],
      [
        "scale",
        -11.46146297454834
      ],
      [
        "▁up",
        -10.098261833190918
      ],
      [
        "common",
        -11.169012069702148
      ],
      [
        "EVENT",
        -11.313122749328613
      ],
      [
        "▁Register",
        -10.824712753295898
      ],
      [
        "▁than",
        -10.220595359802246
      ],
      [
        "slot",
        -11.721611022949219
      ],
      [
        "▁provided",
        -10.774788856506348
      ],
      [
        "LA",
        -11.035950660705566
      ],
      [
        "ra",
        -10.894932746887207
      ],
      [
        "low",
        -11.308277130126953
      ],
      [
        "Module",
        -11.174840927124023
      ],
      [
        "task",
        -11.330608367919922
      ],
      [
        "▁re",
        -10.421236991882324
      ],
      [
        "Port",
        -11.364514350891113
      ],
      [
        "assign",
        -11.752582550048828
      ],
      [
        "CB",
        -11.378922462463379
      ],
      [
        "token",
        -11.350763320922852
      ],
      [
        ">>",
        -11.531210899353027
      ],
      [
        "command",
        -11.189319610595703
      ],
      [
        "▁mask",
        -11.401167869567871
      ],
      [
        "con",
        -11.286643028259277
      ],
      [
        "Lock",
        -11.184828758239746
      ],
      [
        "PG",
        -11.267592430114746
      ],
      [
        "cursor",
        -11.243417739868164
      ],
      [
        "callback",
        -11.359947204589844
      ],
      [
        "sec",
        -10.726194381713867
      ],
      [
        "▁sub",
        -10.826058387756348
      ],
      [
        "Line",
        -11.085822105407715
      ],
      [
        "query",
        -11.203923225402832
      ],
      [
        "UART",
        -11.562209129333496
      ],
      [
        "VAR",
        -11.332498550415039
      ],
      [
        "release",
        -11.252737998962402
      ],
      [
        "Local",
        -11.395610809326172
      ],
      [
        "enum",
        -11.066911697387695
      ],
      [
        "nd",
        -10.706951141357422
      ],
      [
        "▁UINT",
        -11.149808883666992
      ],
      [
        "~",
        -10.904927253723145
      ],
      [
        "rec",
        -11.401179313659668
      ],
      [
        "▁same",
        -10.504545211791992
      ],
      [
        "EX",
        -11.293771743774414
      ],
      [
        "font",
        -11.522073745727539
      ],
      [
        "window",
        -11.276067733764648
      ],
      [
        "IR",
        -11.347308158874512
      ],
      [
        "ator",
        -11.04082202911377
      ],
      [
        "Header",
        -11.187006950378418
      ],
      [
        "▁parameter",
        -11.177531242370605
      ],
      [
        "cm",
        -11.10364055633545
      ],
      [
        "CLASS",
        -11.296549797058105
      ],
      [
        "phy",
        -11.418065071105957
      ],
      [
        "pd",
        -11.35073184967041
      ],
      [
        "Str",
        -11.196817398071289
      ],
      [
        "impl",
        -11.372314453125
      ],
      [
        "Task",
        -11.267875671386719
      ],
      [
        "NS",
        -11.23402214050293
      ],
      [
        "&&",
        -11.425381660461426
      ],
      [
        "▁Interrupt",
        -11.583626747131348
      ],
      [
        "find",
        -11.295731544494629
      ],
      [
        "ADD",
        -11.389010429382324
      ],
      [
        "dd",
        -11.284037590026855
      ],
      [
        "HANDLE",
        -11.259827613830566
      ],
      [
        "spi",
        -11.398731231689453
      ],
      [
        "▁copyright",
        -11.006149291992188
      ],
      [
        "▁Return",
        -10.863300323486328
      ],
      [
        "DIV",
        -11.894352912902832
      ],
      [
        "control",
        -11.307408332824707
      ],
      [
        "TIME",
        -11.283171653747559
      ],
      [
        "▁before",
        -10.4005765914917
      ],
      [
        "Hash",
        -11.274147033691406
      ],
      [
        "▁functions",
        -10.81201171875
      ],
      [
        "Val",
        -11.367289543151855
      ],
      [
        "xA",
        -12.140666007995605
      ],
      [
        "SP",
        -11.197860717773438
      ],
      [
        "▁non",
        -10.682140350341797
      ],
      [
        "active",
        -11.126568794250488
      ],
      [
        "▁un",
        -10.50005054473877
      ],
      [
        "xB",
        -12.166338920593262
      ],
      [
        "TC",
        -11.41870403289795
      ],
      [
        "ds",
        -10.538190841674805
      ],
      [
        "json",
        -11.253484725952148
      ],
      [
        "em",
        -10.845166206359863
      ],
      [
        "CD",
        -10.722094535827637
      ],
      [
        "\"),",
        -11.299181938171387
      ],
      [
        "sample",
        -11.683497428894043
      ],
      [
        "reset",
        -11.152027130126953
      ],
      [
        "LEVEL",
        -11.386598587036133
      ],
      [
        "AM",
        -11.642251014709473
      ],
      [
        "▁each",
        -10.585962295532227
      ],
      [
        "▁distributed",
        -11.320939064025879
      ],
      [
        "pkt",
        -11.531982421875
      ],
      [
        "INLINE",
        -11.355320930480957
      ],
      [
        "MC",
        -11.177230834960938
      ],
      [
        "▁handle",
        -11.061358451843262
      ],
      [
        "▁HRESULT",
        -11.182473182678223
      ],
      [
        "On",
        -11.094522476196289
      ],
      [
        "uc",
        -11.482261657714844
      ],
      [
        "Options",
        -11.211885452270508
      ],
      [
        "ALL",
        -11.287614822387695
      ],
      [
        "stride",
        -11.582566261291504
      ],
      [
        "EP",
        -11.457399368286133
      ],
      [
        "▁structure",
        -10.874984741210938
      ],
      [
        "PM",
        -11.544252395629883
      ],
      [
        "PER",
        -11.42099666595459
      ],
      [
        "RTC",
        -11.779650688171387
      ],
      [
        "DT",
        -11.677878379821777
      ],
      [
        "real",
        -11.339266777038574
      ],
      [
        "fe",
        -11.291324615478516
      ],
      [
        "SS",
        -11.409515380859375
      ],
      [
        "ARB",
        -11.424480438232422
      ],
      [
        "tm",
        -11.500853538513184
      ],
      [
        "▁specific",
        -10.807682991027832
      ],
      [
        "sh",
        -10.932886123657227
      ],
      [
        "dump",
        -11.569408416748047
      ],
      [
        "ob",
        -11.511221885681152
      ],
      [
        "Register",
        -11.38105583190918
      ],
      [
        "▁been",
        -9.917780876159668
      ],
      [
        "TIMER",
        -11.799964904785156
      ],
      [
        "Param",
        -11.491174697875977
      ],
      [
        "Manager",
        -11.086141586303711
      ],
      [
        "Load",
        -11.198785781860352
      ],
      [
        "▁field",
        -10.869237899780273
      ],
      [
        "▁line",
        -10.770573616027832
      ],
      [
        "DF",
        -11.474575996398926
      ],
      [
        "Interface",
        -11.240805625915527
      ],
      [
        "region",
        -11.582500457763672
      ],
      [
        "texture",
        -11.72940444946289
      ],
      [
        "▁format",
        -11.102972030639648
      ],
      [
        "undef",
        -10.551495552062988
      ],
      [
        "oc",
        -11.154104232788086
      ],
      [
        "tr",
        -10.627605438232422
      ],
      [
        "fmt",
        -11.379531860351562
      ],
      [
        "CMU",
        -14.313177108764648
      ],
      [
        "shift",
        -11.760018348693848
      ],
      [
        "ir",
        -10.741860389709473
      ],
      [
        "SHA",
        -11.652533531188965
      ],
      [
        "▁err",
        -10.175252914428711
      ],
      [
        "▁Enable",
        -11.46064281463623
      ],
      [
        "▁flags",
        -10.928836822509766
      ],
      [
        "▁Mode",
        -11.984333038330078
      ],
      [
        "▁yy",
        -11.071261405944824
      ],
      [
        "ct",
        -11.379349708557129
      ],
      [
        "inode",
        -11.522673606872559
      ],
      [
        "▁USE",
        -11.181916236877441
      ],
      [
        "socket",
        -11.371184349060059
      ],
      [
        "▁event",
        -10.899681091308594
      ],
      [
        "▁support",
        -10.886597633361816
      ],
      [
        "DA",
        -11.42880916595459
      ],
      [
        "ive",
        -10.907167434692383
      ],
      [
        "=%",
        -12.17604923248291
      ],
      [
        "errno",
        -11.02855396270752
      ],
      [
        "▁/*!",
        -9.744827270507812
      ],
      [
        "ab",
        -11.21568489074707
      ],
      [
        "▁num",
        -11.100894927978516
      ],
      [
        "▁here",
        -10.417505264282227
      ],
      [
        "cd",
        -11.48927116394043
      ],
      [
        "nr",
        -11.36202621459961
      ],
      [
        "lua",
        -11.450883865356445
      ],
      [
        "sm",
        -11.193025588989258
      ],
      [
        "IRQ",
        -11.502726554870605
      ],
      [
        "chip",
        -11.669403076171875
      ],
      [
        "Property",
        -11.175090789794922
      ],
      [
        "Obj",
        -11.528190612792969
      ],
      [
        "Of",
        -11.044957160949707
      ],
      [
        "Bit",
        -11.488577842712402
      ],
      [
        "Level",
        -11.439207077026367
      ],
      [
        "DEV",
        -11.516508102416992
      ],
      [
        "GC",
        -11.37614917755127
      ],
      [
        "RETURN",
        -11.008593559265137
      ],
      [
        "Update",
        -11.325608253479004
      ],
      [
        "loop",
        -11.453140258789062
      ],
      [
        "▁It",
        -9.815632820129395
      ],
      [
        "▁CMU",
        -12.077715873718262
      ],
      [
        "not",
        -10.946455955505371
      ],
      [
        "ATTR",
        -11.505148887634277
      ],
      [
        "flow",
        -11.520666122436523
      ],
      [
        "FIELD",
        -11.319083213806152
      ],
      [
        "ge",
        -10.807653427124023
      ],
      [
        "LOCK",
        -11.445589065551758
      ],
      [
        "▁found",
        -10.476469039916992
      ],
      [
        "TAG",
        -11.476085662841797
      ],
      [
        "▁Shifted",
        -12.274678230285645
      ],
      [
        "▁context",
        -11.016369819641113
      ],
      [
        "MD",
        -11.574531555175781
      ],
      [
        "MT",
        -11.528558731079102
      ],
      [
        "HW",
        -11.625694274902344
      ],
      [
        "▁method",
        -10.968329429626465
      ],
      [
        "top",
        -10.96666145324707
      ],
      [
        "▁--",
        -10.793949127197266
      ],
      [
        "ot",
        -11.233013153076172
      ],
      [
        "enc",
        -11.60782527923584
      ],
      [
        "store",
        -11.389805793762207
      ],
      [
        "depth",
        -11.642705917358398
      ],
      [
        "xml",
        -11.200668334960938
      ],
      [
        "DR",
        -11.536993980407715
      ],
      [
        "types",
        -10.979421615600586
      ],
      [
        "proto",
        -11.409419059753418
      ],
      [
        "Arg",
        -11.623699188232422
      ],
      [
        "PRE",
        -11.40634822845459
      ],
      [
        "CON",
        -11.227920532226562
      ],
      [
        "Release",
        -11.164066314697266
      ],
      [
        "▁CONFIG",
        -10.798261642456055
      ],
      [
        "(\"%",
        -11.436932563781738
      ],
      [
        ".</",
        -11.355788230895996
      ],
      [
        "TS",
        -11.18481159210205
      ],
      [
        "DECL",
        -11.296345710754395
      ],
      [
        "act",
        -11.184749603271484
      ],
      [
        "fb",
        -11.686853408813477
      ],
      [
        "▁base",
        -10.902094841003418
      ],
      [
        "CP",
        -11.34619140625
      ],
      [
        "heap",
        -11.467023849487305
      ],
      [
        "▁either",
        -10.92902660369873
      ],
      [
        "dest",
        -11.432401657104492
      ],
      [
        "CE",
        -11.43480110168457
      ],
      [
        "instance",
        -11.377350807189941
      ],
      [
        "exp",
        -11.569661140441895
      ],
      [
        "Service",
        -11.240652084350586
      ],
      [
        "par",
        -11.1976957321167
      ],
      [
        "▁create",
        -10.927823066711426
      ],
      [
        "template",
        -11.004201889038086
      ],
      [
        "REF",
        -11.429335594177246
      ],
      [
        "yy",
        -11.681147575378418
      ],
      [
        "parser",
        -11.420536041259766
      ],
      [
        "Page",
        -11.262887001037598
      ],
      [
        "MODULE",
        -11.188323020935059
      ],
      [
        "CK",
        -11.694160461425781
      ],
      [
        "dict",
        -11.329206466674805
      ],
      [
        "bp",
        -11.452886581420898
      ],
      [
        "SUB",
        -11.411284446716309
      ],
      [
        "OC",
        -11.63969612121582
      ],
      [
        "▁byte",
        -11.411747932434082
      ],
      [
        "FD",
        -11.398284912109375
      ],
      [
        "strcmp",
        -11.589922904968262
      ],
      [
        "START",
        -11.413981437683105
      ],
      [
        "▁interrupt",
        -11.394372940063477
      ],
      [
        "Query",
        -11.337748527526855
      ],
      [
        "▁make",
        -10.566329002380371
      ],
      [
        "OBJECT",
        -11.315095901489258
      ],
      [
        "COUNT",
        -11.45950984954834
      ],
      [
        "▁GLAPI",
        -11.257721900939941
      ],
      [
        "style",
        -10.796265602111816
      ],
      [
        "tcp",
        -11.547532081604004
      ],
      [
        "▁nullptr",
        -11.221555709838867
      ],
      [
        "Response",
        -11.346175193786621
      ],
      [
        "mul",
        -11.742552757263184
      ],
      [
        "Resource",
        -11.356768608093262
      ],
      [
        "▁write",
        -11.127318382263184
      ],
      [
        "Send",
        -11.378273010253906
      ],
      [
        "▁header",
        -11.22269344329834
      ],
      [
        "dim",
        -11.652982711791992
      ],
      [
        "▁You",
        -10.381362915039062
      ],
      [
        "lean",
        -11.83036994934082
      ],
      [
        "BYTE",
        -11.453117370605469
      ],
      [
        "FB",
        -11.79031753540039
      ],
      [
        "destroy",
        -11.290923118591309
      ],
      [
        "driver",
        -11.451131820678711
      ],
      [
        "▁module",
        -11.179855346679688
      ],
      [
        "▁does",
        -10.756587982177734
      ],
      [
        "TABLE",
        -11.38734245300293
      ],
      [
        "▁-=",
        -11.147951126098633
      ],
      [
        "chan",
        -11.421701431274414
      ],
      [
        "Default",
        -11.25647258758545
      ],
      [
        "sw",
        -11.295681953430176
      ],
      [
        "df",
        -11.564608573913574
      ],
      [
        "▁++",
        -11.374746322631836
      ],
      [
        "rv",
        -11.181623458862305
      ],
      [
        "Method",
        -11.291091918945312
      ],
      [
        "my",
        -10.862335205078125
      ],
      [
        "Debug",
        -11.249480247497559
      ],
      [
        "▁returns",
        -11.156678199768066
      ],
      [
        "empty",
        -11.302631378173828
      ],
      [
        "DO",
        -11.606863975524902
      ],
      [
        "memset",
        -11.429261207580566
      ],
      [
        "wpa",
        -11.785541534423828
      ],
      [
        "pm",
        -11.277383804321289
      ],
      [
        "IE",
        -11.51763916015625
      ],
      [
        "run",
        -11.195544242858887
      ],
      [
        "USER",
        -11.394560813903809
      ],
      [
        "www",
        -10.928046226501465
      ],
      [
        "ME",
        -11.315441131591797
      ],
      [
        "Queue",
        -11.5081148147583
      ],
      [
        "ci",
        -11.00107479095459
      ],
      [
        "sl",
        -11.322970390319824
      ],
      [
        "▁NOT",
        -11.144229888916016
      ],
      [
        "PARAM",
        -11.589985847473145
      ],
      [
        "--",
        -10.553339958190918
      ],
      [
        "▁some",
        -10.290407180786133
      ],
      [
        "CM",
        -10.72745418548584
      ],
      [
        "▁next",
        -10.750073432922363
      ],
      [
        "Cache",
        -11.319997787475586
      ],
      [
        "LOAD",
        -11.688451766967773
      ],
      [
        "MI",
        -11.609672546386719
      ],
      [
        "DS",
        -11.233499526977539
      ],
      [
        "▁tmp",
        -11.153200149536133
      ],
      [
        "CI",
        -11.464305877685547
      ],
      [
        "▁returned",
        -11.113614082336426
      ],
      [
        "pid",
        -11.323681831359863
      ],
      [
        "Exception",
        -11.0607328414917
      ],
      [
        "Flag",
        -11.48598575592041
      ],
      [
        "Mem",
        -11.40915298461914
      ],
      [
        "over",
        -11.208395957946777
      ],
      [
        "FC",
        -10.716050148010254
      ],
      [
        "shape",
        -11.767861366271973
      ],
      [
        "Len",
        -11.390464782714844
      ],
      [
        "xffff",
        -12.461804389953613
      ],
      [
        "FORMAT",
        -11.593720436096191
      ],
      [
        "▁program",
        -11.006745338439941
      ],
      [
        "trans",
        -11.70848274230957
      ],
      [
        "▁access",
        -11.019551277160645
      ],
      [
        "ma",
        -10.601468086242676
      ],
      [
        "CPU",
        -11.616084098815918
      ],
      [
        "PT",
        -11.469253540039062
      ],
      [
        "▁table",
        -10.798810958862305
      ],
      [
        "PP",
        -11.491008758544922
      ],
      [
        "sb",
        -11.409195899963379
      ],
      [
        "BLE",
        -11.655035018920898
      ],
      [
        "RD",
        -11.596756935119629
      ],
      [
        "with",
        -11.115152359008789
      ],
      [
        "bl",
        -11.470990180969238
      ],
      [
        "remove",
        -11.331184387207031
      ],
      [
        "▁{}",
        -11.208091735839844
      ],
      [
        "ig",
        -11.424750328063965
      ],
      [
        "true",
        -11.037281036376953
      ],
      [
        "ls",
        -11.039977073669434
      ],
      [
        "▁short",
        -10.746712684631348
      ],
      [
        "regs",
        -11.634777069091797
      ],
      [
        "setup",
        -11.7134428024292
      ],
      [
        "OPT",
        -11.588602066040039
      ],
      [
        "false",
        -11.109211921691895
      ],
      [
        "PHY",
        -11.73273754119873
      ],
      [
        "FE",
        -11.51667308807373
      ],
      [
        "FT",
        -11.601738929748535
      ],
      [
        "epi",
        -11.994498252868652
      ],
      [
        "OBJ",
        -11.656746864318848
      ],
      [
        "VM",
        -11.51630687713623
      ],
      [
        "APIENTRYP",
        -11.672595977783203
      ],
      [
        "ES",
        -11.067376136779785
      ],
      [
        "▁required",
        -11.011629104614258
      ],
      [
        "ATION",
        -11.255244255065918
      ],
      [
        "▁callback",
        -11.354744911193848
      ],
      [
        "NODE",
        -11.441065788269043
      ],
      [
        "NI",
        -11.372186660766602
      ],
      [
        "stderr",
        -11.494622230529785
      ],
      [
        "MOD",
        -11.667119026184082
      ],
      [
        "▁IMPLIED",
        -11.392562866210938
      ],
      [
        "De",
        -11.012568473815918
      ],
      [
        "Server",
        -11.333786964416504
      ],
      [
        "FALSE",
        -11.150460243225098
      ],
      [
        "COMP",
        -11.57359504699707
      ],
      [
        "cmp",
        -11.666202545166016
      ],
      [
        "▁Check",
        -11.064111709594727
      ],
      [
        "PL",
        -11.323381423950195
      ],
      [
        "Token",
        -11.43776798248291
      ],
      [
        "ea",
        -11.398282051086426
      ],
      [
        "rect",
        -11.798474311828613
      ],
      [
        "main",
        -11.183672904968262
      ],
      [
        "USART",
        -12.323577880859375
      ],
      [
        "timeout",
        -11.503121376037598
      ],
      [
        "multi",
        -11.807509422302246
      ],
      [
        "ast",
        -11.387184143066406
      ],
      [
        "▁NRF",
        -11.451016426086426
      ],
      [
        "less",
        -10.956990242004395
      ],
      [
        "**************",
        -11.751822471618652
      ],
      [
        "iface",
        -11.69266128540039
      ],
      [
        "unique",
        -11.719908714294434
      ],
      [
        "Next",
        -11.374464988708496
      ],
      [
        "▁point",
        -10.996565818786621
      ],
      [
        "▁instance",
        -11.259164810180664
      ],
      [
        "▁&=",
        -11.326005935668945
      ],
      [
        "pair",
        -11.766404151916504
      ],
      [
        "dr",
        -11.37275218963623
      ],
      [
        "CHAR",
        -11.407585144042969
      ],
      [
        "gpio",
        -11.682246208190918
      ],
      [
        "▁interface",
        -11.130704879760742
      ],
      [
        "▁GNU",
        -11.173870086669922
      ],
      [
        "--------------",
        -11.170296669006348
      ],
      [
        "Current",
        -11.514449119567871
      ],
      [
        "rm",
        -11.350876808166504
      ],
      [
        "DI",
        -11.408324241638184
      ],
      [
        "AB",
        -11.65892219543457
      ],
      [
        "PLL",
        -12.042484283447266
      ],
      [
        "fr",
        -11.460212707519531
      ],
      [
        "Channel",
        -11.613266944885254
      ],
      [
        "blk",
        -11.685229301452637
      ],
      [
        "▁thread",
        -11.30506706237793
      ],
      [
        "note",
        -11.012652397155762
      ],
      [
        "And",
        -11.067906379699707
      ],
      [
        "kind",
        -11.707418441772461
      ],
      [
        "▁already",
        -11.018999099731445
      ],
      [
        "▁don",
        -10.879308700561523
      ],
      [
        "App",
        -11.489642143249512
      ],
      [
        "macro",
        -11.913617134094238
      ],
      [
        "▁implementation",
        -11.281634330749512
      ],
      [
        "bd",
        -11.782872200012207
      ],
      [
        "append",
        -11.299538612365723
      ],
      [
        "fl",
        -11.593435287475586
      ],
      [
        "Process",
        -11.67856216430664
      ],
      [
        "XF",
        -12.143525123596191
      ],
      [
        "▁available",
        -10.972123146057129
      ],
      [
        "SM",
        -11.428671836853027
      ],
      [
        "▁image",
        -11.214678764343262
      ],
      [
        "▁channel",
        -11.359769821166992
      ],
      [
        "nl",
        -11.647134780883789
      ],
      [
        "pi",
        -10.956668853759766
      ],
      [
        "ol",
        -11.171975135803223
      ],
      [
        "GLenum",
        -12.127384185791016
      ],
      [
        "REQ",
        -11.923680305480957
      ],
      [
        "buff",
        -11.64481258392334
      ],
      [
        "INDEX",
        -11.621014595031738
      ],
      [
        "▁operation",
        -11.241100311279297
      ],
      [
        "exception",
        -11.442201614379883
      ],
      [
        "Func",
        -11.54310131072998
      ],
      [
        "WITH",
        -11.484147071838379
      ],
      [
        "GEN",
        -11.680769920349121
      ],
      [
        "peer",
        -11.957453727722168
      ],
      [
        "chain",
        -11.87929630279541
      ],
      [
        "xD",
        -12.39594554901123
      ],
      [
        "▁binary",
        -11.326237678527832
      ],
      [
        "tv",
        -11.604763984680176
      ],
      [
        "process",
        -11.401915550231934
      ],
      [
        "Texture",
        -11.569437980651855
      ],
      [
        "DBG",
        -11.713592529296875
      ],
      [
        "▁Public",
        -10.601189613342285
      ],
      [
        "Attribute",
        -11.498041152954102
      ],
      [
        "extra",
        -11.995607376098633
      ],
      [
        "cf",
        -11.741161346435547
      ],
      [
        "loc",
        -11.562224388122559
      ],
      [
        "▁level",
        -11.110281944274902
      ],
      [
        "▁port",
        -11.354693412780762
      ],
      [
        ".\\",
        -11.12655258178711
      ],
      [
        "ib",
        -11.446596145629883
      ],
      [
        "Float",
        -11.602822303771973
      ],
      [
        "domain",
        -11.873452186584473
      ],
      [
        "TR",
        -11.495299339294434
      ],
      [
        "(((",
        -12.357242584228516
      ],
      [
        "STAT",
        -11.735434532165527
      ],
      [
        "Copy",
        -11.303888320922852
      ],
      [
        "ULONG",
        -11.271347999572754
      ],
      [
        "AV",
        -11.556533813476562
      ],
      [
        "\"))",
        -11.55465316772461
      ],
      [
        "pci",
        -11.70138931274414
      ],
      [
        "ARM",
        -11.632291793823242
      ],
      [
        "RCC",
        -12.157327651977539
      ],
      [
        "gc",
        -11.686433792114258
      ],
      [
        "Min",
        -11.637292861938477
      ],
      [
        "▁constexpr",
        -11.577502250671387
      ],
      [
        "go",
        -10.80083179473877
      ],
      [
        "SH",
        -11.691841125488281
      ],
      [
        "ml",
        -11.50395679473877
      ],
      [
        "td",
        -11.11530876159668
      ],
      [
        "{\"",
        -11.676542282104492
      ],
      [
        "INPUT",
        -11.768869400024414
      ],
      [
        "MM",
        -11.671550750732422
      ],
      [
        "Bits",
        -11.549670219421387
      ],
      [
        "▁GLint",
        -12.274945259094238
      ],
      [
        "▁For",
        -10.362814903259277
      ],
      [
        "ss",
        -10.783384323120117
      ],
      [
        "pixel",
        -12.040665626525879
      ],
      [
        "br",
        -11.040976524353027
      ],
      [
        "As",
        -11.230549812316895
      ],
      [
        "pad",
        -11.706485748291016
      ],
      [
        "lt",
        -11.478373527526855
      ],
      [
        "script",
        -11.224876403808594
      ],
      [
        "Access",
        -11.688896179199219
      ],
      [
        "bin",
        -11.38789176940918
      ],
      [
        "limit",
        -11.52623176574707
      ],
      [
        "mat",
        -11.671064376831055
      ],
      [
        "vp",
        -11.778661727905273
      ],
      [
        "▁LIMITED",
        -11.380123138427734
      ],
      [
        "AND",
        -11.514730453491211
      ],
      [
        "Meta",
        -11.992664337158203
      ],
      [
        "global",
        -11.529790878295898
      ],
      [
        "ter",
        -11.006568908691406
      ],
      [
        "▁position",
        -11.10888385772705
      ],
      [
        "delete",
        -11.3990478515625
      ],
      [
        "▁system",
        -10.723650932312012
      ],
      [
        "CONST",
        -11.704983711242676
      ],
      [
        "la",
        -10.942254066467285
      ],
      [
        "METHOD",
        -11.444289207458496
      ],
      [
        "EE",
        -11.81855297088623
      ],
      [
        "diff",
        -11.702695846557617
      ],
      [
        "▁General",
        -10.454015731811523
      ],
      [
        "flush",
        -11.568766593933105
      ],
      [
        "edge",
        -12.035573959350586
      ],
      [
        "bb",
        -11.505237579345703
      ],
      [
        "PAGE",
        -11.655728340148926
      ],
      [
        "▁page",
        -11.01311206817627
      ],
      [
        "CAN",
        -11.958048820495605
      ],
      [
        "VER",
        -11.572160720825195
      ],
      [
        "Target",
        -11.43807601928711
      ],
      [
        "AA",
        -11.923455238342285
      ],
      [
        "▁process",
        -11.02151107788086
      ],
      [
        "Iterator",
        -11.52897834777832
      ],
      [
        "Media",
        -11.723002433776855
      ],
      [
        "child",
        -11.451465606689453
      ],
      [
        "equal",
        -11.81498908996582
      ],
      [
        "▁dst",
        -11.664202690124512
      ],
      [
        "BA",
        -11.695981979370117
      ],
      [
        "connect",
        -11.8180570602417
      ],
      [
        "ia",
        -10.35873794555664
      ],
      [
        "GLuint",
        -11.973740577697754
      ],
      [
        "pipe",
        -11.903684616088867
      ],
      [
        "▁WITHOUT",
        -11.33678913116455
      ],
      [
        ")));",
        -11.670759201049805
      ],
      [
        "atomic",
        -11.508628845214844
      ],
      [
        "BC",
        -11.705345153808594
      ],
      [
        "▁BUT",
        -11.397210121154785
      ],
      [
        "Not",
        -11.462456703186035
      ],
      [
        "png",
        -11.86617374420166
      ],
      [
        "asm",
        -11.403599739074707
      ],
      [
        "▁bits",
        -11.559991836547852
      ],
      [
        "fill",
        -11.881012916564941
      ],
      [
        "resource",
        -11.690321922302246
      ],
      [
        "EM",
        -11.647294044494629
      ],
      [
        "lu",
        -11.726633071899414
      ],
      [
        "di",
        -10.821206092834473
      ],
      [
        "Tag",
        -11.59965991973877
      ],
      [
        "▁THIS",
        -11.39254379272461
      ],
      [
        "▁entry",
        -11.17396068572998
      ],
      [
        "ALT",
        -12.125893592834473
      ],
      [
        "connection",
        -11.549702644348145
      ],
      [
        "▁clock",
        -11.585515022277832
      ],
      [
        "graph",
        -11.533374786376953
      ],
      [
        "kernel",
        -11.644466400146484
      ],
      [
        "Draw",
        -11.537030220031738
      ],
      [
        "TLS",
        -11.709613800048828
      ],
      [
        "Button",
        -11.4274320602417
      ],
      [
        "US",
        -11.394725799560547
      ],
      [
        "dl",
        -11.531570434570312
      ],
      [
        "pin",
        -11.51067066192627
      ],
      [
        "ay",
        -11.706232070922852
      ],
      [
        "RESET",
        -11.809063911437988
      ],
      [
        "Pre",
        -11.586464881896973
      ],
      [
        "bt",
        -11.666707038879395
      ],
      [
        "▁auto",
        -11.216767311096191
      ],
      [
        "By",
        -11.391966819763184
      ],
      [
        "Action",
        -11.449799537658691
      ],
      [
        "mk",
        -11.802786827087402
      ],
      [
        "PD",
        -11.725255012512207
      ],
      [
        "CO",
        -11.673725128173828
      ],
      [
        "delay",
        -11.733687400817871
      ],
      [
        "system",
        -11.44482707977295
      ],
      [
        "Byte",
        -11.563690185546875
      ],
      [
        "Delete",
        -11.458827018737793
      ],
      [
        "▁configuration",
        -11.295843124389648
      ],
      [
        "▁LIABILITY",
        -11.700037956237793
      ],
      [
        "ef",
        -11.559539794921875
      ],
      [
        "▁part",
        -10.601996421813965
      ],
      [
        "GP",
        -11.767597198486328
      ],
      [
        "dm",
        -11.75462532043457
      ],
      [
        "▁window",
        -11.395119667053223
      ],
      [
        "inst",
        -11.814523696899414
      ],
      [
        "ram",
        -11.354109764099121
      ],
      [
        "ba",
        -11.096797943115234
      ],
      [
        "Struct",
        -11.592721939086914
      ],
      [
        "nb",
        -11.665969848632812
      ],
      [
        "ag",
        -11.67850112915039
      ],
      [
        "▁[[",
        -12.555170059204102
      ],
      [
        "rp",
        -11.59613037109375
      ],
      [
        "php",
        -11.277546882629395
      ],
      [
        "pa",
        -11.083099365234375
      ],
      [
        "Elab",
        -12.83464527130127
      ],
      [
        "union",
        -11.428064346313477
      ],
      [
        "▁valid",
        -11.48233413696289
      ],
      [
        "ence",
        -11.330864906311035
      ],
      [
        "bf",
        -11.973977088928223
      ],
      [
        "lc",
        -11.631211280822754
      ],
      [
        "sign",
        -11.891519546508789
      ],
      [
        "model",
        -11.46660327911377
      ],
      [
        "▁order",
        -10.814591407775879
      ],
      [
        "NSString",
        -11.38238525390625
      ],
      [
        "auth",
        -11.689237594604492
      ],
      [
        "um",
        -10.720773696899414
      ],
      [
        "values",
        -11.534655570983887
      ],
      [
        "CT",
        -11.626495361328125
      ],
      [
        "order",
        -11.458915710449219
      ],
      [
        "ROM",
        -11.941426277160645
      ],
      [
        "bo",
        -11.176225662231445
      ],
      [
        "Buf",
        -11.744759559631348
      ],
      [
        "▁FITNESS",
        -11.319905281066895
      ],
      [
        "tc",
        -11.476574897766113
      ],
      [
        "so",
        -10.90206527709961
      ],
      [
        "ant",
        -10.926541328430176
      ],
      [
        "DIR",
        -11.55594539642334
      ],
      [
        "pointer",
        -11.611413955688477
      ],
      [
        "CTX",
        -11.798439025878906
      ],
      [
        "▁element",
        -11.350985527038574
      ],
      [
        "▁MERCHANTABILITY",
        -11.304648399353027
      ],
      [
        "BR",
        -11.60372257232666
      ],
      [
        "▁just",
        -10.487934112548828
      ],
      [
        "SI",
        -11.521655082702637
      ],
      [
        "Vec",
        -11.953545570373535
      ],
      [
        "▁TO",
        -11.140085220336914
      ],
      [
        "▁flag",
        -11.485346794128418
      ],
      [
        "iParam",
        -11.87828254699707
      ],
      [
        "FAIL",
        -11.44924259185791
      ],
      [
        "MB",
        -11.677165031433105
      ],
      [
        "▁RTC",
        -12.022425651550293
      ],
      [
        "Msg",
        -11.712023735046387
      ],
      [
        "ck",
        -11.394599914550781
      ],
      [
        "▁==>",
        -12.33142375946045
      ],
      [
        "stop",
        -11.373392105102539
      ],
      [
        "part",
        -11.484415054321289
      ],
      [
        "eq",
        -11.555191040039062
      ],
      [
        "unlikely",
        -11.985930442810059
      ],
      [
        "se",
        -10.867505073547363
      ],
      [
        "Desc",
        -11.590414047241211
      ],
      [
        "body",
        -11.265925407409668
      ],
      [
        "section",
        -11.37844467163086
      ],
      [
        "position",
        -11.34371280670166
      ],
      [
        "\"},",
        -11.657160758972168
      ],
      [
        "SA",
        -11.507967948913574
      ],
      [
        "used",
        -11.393247604370117
      ],
      [
        "valid",
        -11.54381275177002
      ],
      [
        "Or",
        -11.428393363952637
      ],
      [
        "▁PURPOSE",
        -11.314379692077637
      ],
      [
        "▁zero",
        -11.466897964477539
      ],
      [
        "Descriptor",
        -11.606792449951172
      ],
      [
        "uParam",
        -11.816707611083984
      ],
      [
        "DP",
        -11.59149169921875
      ],
      [
        "pending",
        -11.929665565490723
      ],
      [
        "▁done",
        -10.66630744934082
      ],
      [
        "lv",
        -11.808403015136719
      ],
      [
        "▁see",
        -10.725128173828125
      ],
      [
        "adapter",
        -11.758562088012695
      ],
      [
        "Parameter",
        -11.526674270629883
      ],
      [
        "!=",
        -11.715298652648926
      ],
      [
        "keys",
        -11.452303886413574
      ],
      [
        "▁frame",
        -11.426214218139648
      ],
      [
        "▁PARTICULAR",
        -11.334465026855469
      ],
      [
        "▁also",
        -8.395648002624512
      ],
      [
        "UNUSED",
        -11.584953308105469
      ],
      [
        "draw",
        -11.527420997619629
      ],
      [
        "screen",
        -11.901435852050781
      ],
      [
        "FIFO",
        -11.945602416992188
      ],
      [
        "=(",
        -11.312149047851562
      ],
      [
        "elem",
        -11.793777465820312
      ],
      [
        "▁once",
        -10.258004188537598
      ],
      [
        "TH",
        -11.468376159667969
      ],
      [
        "oid",
        -11.731775283813477
      ],
      [
        "tile",
        -11.59620189666748
      ],
      [
        "force",
        -11.92751693725586
      ],
      [
        "Internal",
        -11.454692840576172
      ],
      [
        "xFFFF",
        -12.666662216186523
      ],
      [
        "▁where",
        -10.35464096069336
      ],
      [
        "▁CHECK",
        -11.663298606872559
      ],
      [
        "save",
        -11.529202461242676
      ],
      [
        "sel",
        -11.440716743469238
      ],
      [
        "ack",
        -11.803083419799805
      ],
      [
        "ARGS",
        -11.698385238647461
      ],
      [
        "MA",
        -11.621895790100098
      ],
      [
        "▁hash",
        -11.399876594543457
      ],
      [
        "bc",
        -11.880264282226562
      ],
      [
        "RAM",
        -11.82756519317627
      ],
      [
        "HTTP",
        -11.600370407104492
      ],
      [
        "total",
        -11.593271255493164
      ],
      [
        "master",
        -11.606740951538086
      ],
      [
        "ate",
        -11.016587257385254
      ],
      [
        "rows",
        -11.833483695983887
      ],
      [
        "▁Note",
        -11.308140754699707
      ],
      [
        "▁EFI",
        -11.036535263061523
      ],
      [
        "None",
        -11.428975105285645
      ],
      [
        "ie",
        -10.746028900146484
      ],
      [
        "▁because",
        -10.68617057800293
      ],
      [
        "glGet",
        -11.819414138793945
      ],
      [
        "ity",
        -10.454520225524902
      ],
      [
        "TDMETHODCALLTYPE",
        -11.545780181884766
      ],
      [
        "swap",
        -11.619017601013184
      ],
      [
        "ctl",
        -11.807506561279297
      ],
      [
        "TEXTURE",
        -11.730757713317871
      ],
      [
        "PB",
        -11.946313858032227
      ],
      [
        "OFF",
        -11.723942756652832
      ],
      [
        "exec",
        -11.7638521194458
      ],
      [
        "SE",
        -11.499820709228516
      ],
      [
        "Tensor",
        -11.994159698486328
      ],
      [
        "surface",
        -12.048436164855957
      ],
      [
        "Record",
        -11.683242797851562
      ],
      [
        "Parse",
        -11.599238395690918
      ],
      [
        "DD",
        -11.781336784362793
      ],
      [
        "▁packet",
        -11.67666244506836
      ],
      [
        "PI",
        -11.633075714111328
      ],
      [
        "▁two",
        -10.09631633758545
      ],
      [
        "Rect",
        -11.829872131347656
      ],
      [
        "cell",
        -11.768918991088867
      ],
      [
        "report",
        -12.05820083618164
      ],
      [
        "▁parameters",
        -11.238258361816406
      ],
      [
        "▁update",
        -11.22903060913086
      ],
      [
        "BEGIN",
        -11.180281639099121
      ],
      [
        "signal",
        -11.684700012207031
      ],
      [
        "SRC",
        -11.908852577209473
      ],
      [
        "▁your",
        -10.095293045043945
      ],
      [
        "Invalid",
        -11.491842269897461
      ],
      [
        "sort",
        -11.56013298034668
      ],
      [
        "GR",
        -11.882485389709473
      ],
      [
        "Open",
        -11.506853103637695
      ],
      [
        "Display",
        -11.576469421386719
      ],
      [
        "element",
        -11.610273361206055
      ],
      [
        "bind",
        -11.826949119567871
      ],
      [
        "\":",
        -10.21365737915039
      ],
      [
        "INCLUDING",
        -11.524120330810547
      ],
      [
        "▁gl",
        -11.426109313964844
      ],
      [
        "LENGTH",
        -11.82009220123291
      ],
      [
        "Store",
        -11.790299415588379
      ],
      [
        "bar",
        -10.946988105773926
      ],
      [
        "▁HAVE",
        -11.010723114013672
      ],
      [
        "tor",
        -11.215314865112305
      ],
      [
        "License",
        -11.475284576416016
      ],
      [
        "=\"",
        -9.192509651184082
      ],
      [
        "Stack",
        -11.51785659790039
      ],
      [
        "card",
        -11.639992713928223
      ],
      [
        "FP",
        -11.739300727844238
      ],
      [
        "pass",
        -11.60031509399414
      ],
      [
        "storage",
        -12.05518913269043
      ],
      [
        "▁old",
        -11.078522682189941
      ],
      [
        "doc",
        -11.490809440612793
      ],
      [
        "ABI",
        -11.849743843078613
      ],
      [
        "RA",
        -11.716050148010254
      ],
      [
        "glad",
        -11.798242568969727
      ],
      [
        "▁(((",
        -12.227005958557129
      ],
      [
        "▁path",
        -11.306222915649414
      ],
      [
        "Params",
        -11.71562671661377
      ],
      [
        "Packet",
        -11.787473678588867
      ],
      [
        "make",
        -11.636957168579102
      ],
      [
        "HI",
        -11.833028793334961
      ],
      [
        "TCP",
        -11.721736907958984
      ],
      [
        "ht",
        -11.918180465698242
      ],
      [
        "▁whether",
        -11.152103424072266
      ],
      [
        "ngx",
        -11.92481803894043
      ],
      [
        "recv",
        -11.87505054473877
      ],
      [
        "date",
        -11.596010208129883
      ],
      [
        "emit",
        -12.174151420593262
      ],
      [
        "TM",
        -11.864730834960938
      ],
      [
        "▁//*************",
        -10.49245834350586
      ],
      [
        "▁In",
        -9.231969833374023
      ],
      [
        "xFFFFFFFF",
        -10.884851455688477
      ],
      [
        "Connection",
        -11.513155937194824
      ],
      [
        "safe",
        -12.183149337768555
      ],
      [
        "Return",
        -11.401896476745605
      ],
      [
        "uv",
        -11.640904426574707
      ],
      [
        "EA",
        -11.798687934875488
      ],
      [
        "Multi",
        -11.740219116210938
      ],
      [
        "▁Use",
        -11.280146598815918
      ],
      [
        "▁ZEND",
        -11.755511283874512
      ],
      [
        "BITS",
        -11.88129711151123
      ],
      [
        "Label",
        -11.507320404052734
      ],
      [
        "RO",
        -11.646419525146484
      ],
      [
        "settings",
        -12.07680892944336
      ],
      [
        "▁otherwise",
        -11.370024681091309
      ],
      [
        "PATH",
        -11.643542289733887
      ],
      [
        "▁Inc",
        -11.282814025878906
      ],
      [
        "CORE",
        -11.710238456726074
      ],
      [
        "▁control",
        -11.194284439086914
      ],
      [
        "▁enable",
        -11.641390800476074
      ],
      [
        "post",
        -11.562657356262207
      ],
      [
        "bi",
        -11.265746116638184
      ],
      [
        "seg",
        -11.90327262878418
      ],
      [
        "Impl",
        -11.618488311767578
      ],
      [
        "▁range",
        -11.263583183288574
      ],
      [
        "spin",
        -11.47541618347168
      ],
      [
        "poll",
        -11.924300193786621
      ],
      [
        "CU",
        -11.645173072814941
      ],
      [
        "runtime",
        -11.67883586883545
      ],
      [
        "container",
        -11.989411354064941
      ],
      [
        "▁argument",
        -11.438512802124023
      ],
      [
        "Foundation",
        -11.873940467834473
      ],
      [
        "layout",
        -11.658327102661133
      ],
      [
        "MR",
        -12.011788368225098
      ],
      [
        "Width",
        -11.673845291137695
      ],
      [
        "Pin",
        -12.23079776763916
      ],
      [
        "Layout",
        -11.514041900634766
      ],
      [
        "Timer",
        -11.774968147277832
      ],
      [
        "arr",
        -11.727470397949219
      ],
      [
        "Link",
        -11.567914009094238
      ],
      [
        "pattern",
        -12.128426551818848
      ],
      [
        "Print",
        -11.923834800720215
      ],
      [
        "chunk",
        -11.933645248413086
      ],
      [
        "face",
        -11.909097671508789
      ],
      [
        "CAP",
        -11.681096076965332
      ],
      [
        "Parser",
        -11.852502822875977
      ],
      [
        "Kind",
        -11.700783729553223
      ],
      [
        "Position",
        -11.686471939086914
      ],
      [
        "util",
        -11.35698127746582
      ],
      [
        "pack",
        -11.923596382141113
      ],
      [
        "short",
        -11.615955352783203
      ],
      [
        "▁find",
        -11.055829048156738
      ],
      [
        "Addr",
        -11.875622749328613
      ],
      [
        "uart",
        -11.881022453308105
      ],
      [
        "▁noexcept",
        -11.825495719909668
      ],
      [
        "fa",
        -11.38492488861084
      ],
      [
        "bound",
        -11.956863403320312
      ],
      [
        "LINK",
        -11.764691352844238
      ],
      [
        "ti",
        -11.074698448181152
      ],
      [
        "bcm",
        -12.18077278137207
      ],
      [
        "Change",
        -11.69070816040039
      ],
      [
        "▁option",
        -11.510594367980957
      ],
      [
        "Tuple",
        -11.74059772491455
      ],
      [
        "▁Create",
        -11.458444595336914
      ],
      [
        "TRUE",
        -11.474961280822754
      ],
      [
        "▁No",
        -10.345640182495117
      ],
      [
        "Bool",
        -11.66543197631836
      ],
      [
        "aa",
        -12.039626121520996
      ],
      [
        "sf",
        -11.599051475524902
      ],
      [
        "ga",
        -11.112005233764648
      ],
      [
        "mov",
        -11.758991241455078
      ],
      [
        ":%",
        -12.511523246765137
      ],
      [
        "RGB",
        -11.897764205932617
      ],
      [
        "APP",
        -11.566612243652344
      ],
      [
        "Decl",
        -11.826472282409668
      ],
      [
        "track",
        -11.715741157531738
      ],
      [
        "red",
        -11.16047477722168
      ],
      [
        "FLOAT",
        -11.842704772949219
      ],
      [
        "▁connection",
        -11.564878463745117
      ],
      [
        "NEXT",
        -11.741656303405762
      ],
      [
        "FLAGS",
        -11.91067123413086
      ],
      [
        "▁license",
        -11.484251976013184
      ],
      [
        "HASH",
        -11.827278137207031
      ],
      [
        "readonly",
        -11.510051727294922
      ],
      [
        "Failed",
        -11.777447700500488
      ],
      [
        "display",
        -11.628727912902832
      ],
      [
        "area",
        -12.079745292663574
      ],
      [
        "▁TIM",
        -12.105463027954102
      ],
      [
        "STM",
        -12.293647766113281
      ],
      [
        "LD",
        -11.675422668457031
      ],
      [
        "FLASH",
        -12.004301071166992
      ],
      [
        "EINVAL",
        -11.032163619995117
      ],
      [
        "▁de",
        -10.077874183654785
      ],
      [
        "INTERFACE",
        -11.533114433288574
      ],
      [
        "member",
        -12.045515060424805
      ],
      [
        "bitmap",
        -11.88963794708252
      ],
      [
        "Loc",
        -11.767683982849121
      ],
      [
        "Storage",
        -11.782694816589355
      ],
      [
        "▁work",
        -10.478349685668945
      ],
      [
        "▁res",
        -11.140205383300781
      ],
      [
        "SIG",
        -11.712118148803711
      ],
      [
        "board",
        -11.497072219848633
      ],
      [
        "sta",
        -11.639549255371094
      ],
      [
        "wl",
        -11.851344108581543
      ],
      [
        "description",
        -11.637214660644531
      ],
      [
        "arm",
        -11.84768009185791
      ],
      [
        "IL",
        -11.731316566467285
      ],
      [
        "BB",
        -11.812975883483887
      ],
      [
        "response",
        -11.664944648742676
      ],
      [
        "SEC",
        -11.8684720993042
      ],
      [
        "mon",
        -11.406784057617188
      ],
      [
        "reference",
        -11.64339542388916
      ],
      [
        "▁integer",
        -11.614310264587402
      ],
      [
        "▁SPI",
        -11.817832946777344
      ],
      [
        "mapping",
        -12.267662048339844
      ],
      [
        "ssize",
        -11.539135932922363
      ],
      [
        "Enable",
        -11.717752456665039
      ],
      [
        "Web",
        -11.6497163772583
      ],
      [
        "Find",
        -12.292545318603516
      ],
      [
        "TP",
        -11.638360023498535
      ],
      [
        "shader",
        -11.913002967834473
      ],
      [
        "mv",
        -12.11030101776123
      ],
      [
        "CHANNEL",
        -11.946940422058105
      ],
      [
        "CONTROL",
        -11.939579010009766
      ],
      [
        "▁written",
        -10.830430030822754
      ],
      [
        "JS",
        -11.73682975769043
      ],
      [
        "CMP",
        -12.221720695495605
      ],
      [
        "RS",
        -11.624957084655762
      ],
      [
        "Session",
        -11.644923210144043
      ],
      [
        "stmt",
        -11.861881256103516
      ],
      [
        "matrix",
        -11.706087112426758
      ],
      [
        "▁reference",
        -11.409063339233398
      ],
      [
        "can",
        -11.2499418258667
      ],
      [
        "lower",
        -12.331615447998047
      ],
      [
        "PY",
        -11.726492881774902
      ],
      [
        "Tree",
        -11.664470672607422
      ],
      [
        "VT",
        -11.96815299987793
      ],
      [
        "access",
        -11.654081344604492
      ],
      [
        "disable",
        -11.652237892150879
      ],
      [
        "full",
        -11.826688766479492
      ],
      [
        "eb",
        -11.580365180969238
      ],
      [
        "FA",
        -11.591070175170898
      ],
      [
        "▁now",
        -10.5626802444458
      ],
      [
        "throw",
        -12.108386039733887
      ],
      [
        "▁UART",
        -11.914384841918945
      ],
      [
        "DAC",
        -12.257450103759766
      ],
      [
        "▁per",
        -11.31071662902832
      ],
      [
        "ue",
        -11.354771614074707
      ],
      [
        "lookup",
        -11.835874557495117
      ],
      [
        "eval",
        -12.111042976379395
      ],
      [
        "he",
        -11.631098747253418
      ],
      [
        "protocol",
        -11.6579008102417
      ],
      [
        "▁success",
        -11.335423469543457
      ],
      [
        "pb",
        -11.79503059387207
      ],
      [
        "reply",
        -12.03197956085205
      ],
      [
        "RES",
        -11.686088562011719
      ],
      [
        "decode",
        -11.880501747131348
      ],
      [
        "wm",
        -12.00121021270752
      ],
      [
        "ies",
        -10.763341903686523
      ],
      [
        "cond",
        -11.58446216583252
      ],
      [
        "slice",
        -12.13560676574707
      ],
      [
        "light",
        -11.319452285766602
      ],
      [
        "▁open",
        -11.195779800415039
      ],
      [
        "compare",
        -12.319790840148926
      ],
      [
        "elif",
        -11.445863723754883
      ],
      [
        "ni",
        -11.035107612609863
      ],
      [
        "';",
        -11.053262710571289
      ],
      [
        "prefix",
        -11.81694507598877
      ],
      [
        "▁matrix",
        -11.678651809692383
      ],
      [
        "Controller",
        -11.644709587097168
      ],
      [
        "tb",
        -11.716655731201172
      ],
      [
        "NT",
        -11.45833969116211
      ],
      [
        "STACK",
        -11.75937271118164
      ],
      [
        "nodes",
        -12.136486053466797
      ],
      [
        "hal",
        -11.562055587768555
      ],
      [
        "PE",
        -11.734173774719238
      ],
      [
        "only",
        -11.423053741455078
      ],
      [
        "▁delete",
        -11.79965591430664
      ],
      [
        "other",
        -11.512083053588867
      ],
      [
        "FOR",
        -11.769241333007812
      ],
      [
        "lpVtbl",
        -12.005318641662598
      ],
      [
        "FROM",
        -12.320755004882812
      ],
      [
        "cu",
        -11.8519287109375
      ],
      [
        "gp",
        -11.982922554016113
      ],
      [
        "WORD",
        -11.84476375579834
      ],
      [
        "select",
        -11.621460914611816
      ],
      [
        "delta",
        -11.651741027832031
      ],
      [
        "pix",
        -12.131890296936035
      ],
      [
        "search",
        -11.737076759338379
      ],
      [
        "tail",
        -11.711396217346191
      ],
      [
        "AES",
        -12.102205276489258
      ],
      [
        "▁modify",
        -11.66036319732666
      ],
      [
        "URL",
        -11.608407020568848
      ],
      [
        "RF",
        -11.872121810913086
      ],
      [
        "CG",
        -11.701675415039062
      ],
      [
        "option",
        -11.561393737792969
      ],
      [
        "▁implied",
        -11.463239669799805
      ],
      [
        "mesh",
        -11.890331268310547
      ],
      [
        "Operation",
        -11.867877960205078
      ],
      [
        "XXX",
        -12.187559127807617
      ],
      [
        "basic",
        -12.17068099975586
      ],
      [
        "tls",
        -11.92122745513916
      ],
      [
        "All",
        -11.153121948242188
      ],
      [
        "Reference",
        -11.456686973571777
      ],
      [
        "▁LL",
        -12.148829460144043
      ],
      [
        "Con",
        -11.750736236572266
      ],
      [
        "vl",
        -12.133646011352539
      ],
      [
        "clock",
        -11.764119148254395
      ],
      [
        "--------------*/",
        -10.821883201599121
      ],
      [
        "▁variable",
        -11.561907768249512
      ],
      [
        "CSR",
        -12.269735336303711
      ],
      [
        "PROP",
        -12.093127250671387
      ],
      [
        "▁between",
        -10.513995170593262
      ],
      [
        "]=",
        -11.867844581604004
      ],
      [
        "Space",
        -11.638031959533691
      ],
      [
        "Protocol",
        -11.659234046936035
      ],
      [
        "AUTO",
        -12.00859546661377
      ],
      [
        "public",
        -10.39161491394043
      ],
      [
        "▁send",
        -11.497685432434082
      ],
      [
        "round",
        -12.23355484008789
      ],
      [
        "vertex",
        -12.255797386169434
      ],
      [
        "\"));",
        -11.854665756225586
      ],
      [
        "▁On",
        -10.508773803710938
      ],
      [
        "vi",
        -11.529234886169434
      ],
      [
        "▁documentation",
        -11.498205184936523
      ],
      [
        "man",
        -9.956281661987305
      ],
      [
        "fixed",
        -12.278425216674805
      ],
      [
        "random",
        -12.190759658813477
      ],
      [
        "payload",
        -11.859258651733398
      ],
      [
        "Bytes",
        -11.790595054626465
      ],
      [
        "np",
        -11.713467597961426
      ],
      [
        "dis",
        -11.701355934143066
      ],
      [
        "Identifier",
        -11.662643432617188
      ],
      [
        "RESULT",
        -11.751701354980469
      ],
      [
        "ne",
        -10.709307670593262
      ],
      [
        "Cell",
        -11.679021835327148
      ],
      [
        "Host",
        -11.594464302062988
      ],
      [
        "ating",
        -11.289941787719727
      ],
      [
        "ind",
        -11.622084617614746
      ],
      [
        "items",
        -12.041068077087402
      ],
      [
        "speed",
        -12.1327486038208
      ],
      [
        "▁left",
        -11.28320598602295
      ],
      [
        "YTHON",
        -11.83132553100586
      ],
      [
        "sg",
        -11.958205223083496
      ],
      [
        "optional",
        -11.849066734313965
      ],
      [
        "Parameters",
        -11.440031051635742
      ],
      [
        "Args",
        -11.784156799316406
      ],
      [
        "llvm",
        -11.85401725769043
      ],
      [
        "Pool",
        -11.666435241699219
      ],
      [
        "Font",
        -11.732193946838379
      ],
      [
        "▁reset",
        -11.687384605407715
      ],
      [
        "sem",
        -12.030213356018066
      ],
      [
        "ENTRY",
        -11.875603675842285
      ],
      [
        "EL",
        -11.492703437805176
      ],
      [
        "▁group",
        -10.957304000854492
      ],
      [
        "sha",
        -11.344307899475098
      ],
      [
        "EV",
        -12.000194549560547
      ],
      [
        "▁stack",
        -11.640021324157715
      ],
      [
        "remote",
        -12.298624992370605
      ],
      [
        "▁exit",
        -10.951452255249023
      ],
      [
        "tl",
        -11.710479736328125
      ],
      [
        "dbg",
        -11.996907234191895
      ],
      [
        "GE",
        -11.609271049499512
      ],
      [
        "LO",
        -11.79824447631836
      ],
      [
        "▁space",
        -11.419931411743164
      ],
      [
        "mo",
        -10.994943618774414
      ],
      [
        "pf",
        -11.783158302307129
      ],
      [
        "▁fields",
        -11.46662712097168
      ],
      [
        "record",
        -11.702183723449707
      ],
      [
        "▁fail",
        -11.081375122070312
      ],
      [
        "COPY",
        -11.75523853302002
      ],
      [
        "▁COPYRIGHT",
        -11.68846321105957
      ],
      [
        "▁width",
        -11.520270347595215
      ],
      [
        "STATIC",
        -11.707191467285156
      ],
      [
        "url",
        -11.424148559570312
      ],
      [
        "align",
        -10.193371772766113
      ],
      [
        "ud",
        -11.635144233703613
      ],
      [
        "abs",
        -12.008082389831543
      ],
      [
        "curr",
        -11.601043701171875
      ],
      [
        "Enum",
        -11.844562530517578
      ],
      [
        "]]",
        -11.998156547546387
      ],
      [
        "ETH",
        -12.056119918823242
      ],
      [
        "▁GLsizei",
        -12.697848320007324
      ],
      [
        "po",
        -11.429800033569336
      ],
      [
        "power",
        -11.731636047363281
      ],
      [
        "compiler",
        -12.216225624084473
      ],
      [
        "If",
        -11.354969024658203
      ],
      [
        "Sample",
        -11.757229804992676
      ],
      [
        "▁disclaimer",
        -11.620351791381836
      ],
      [
        "HOST",
        -11.907708168029785
      ],
      [
        "opcode",
        -11.929887771606445
      ],
      [
        "▁Add",
        -11.429166793823242
      ],
      [
        "SYNC",
        -12.002998352050781
      ],
      [
        "form",
        -11.311617851257324
      ],
      [
        "▁rc",
        -11.14635181427002
      ],
      [
        "First",
        -11.769753456115723
      ],
      [
        "vscale",
        -13.836589813232422
      ],
      [
        "STREAM",
        -11.913681030273438
      ],
      [
        "▁being",
        -10.650321006774902
      ],
      [
        "DISABLE",
        -11.868722915649414
      ],
      [
        "est",
        -11.09548282623291
      ],
      [
        "Cmd",
        -11.944798469543457
      ],
      [
        "At",
        -11.422826766967773
      ],
      [
        "au",
        -11.381409645080566
      ],
      [
        "cipher",
        -11.976785659790039
      ],
      [
        "Match",
        -11.779289245605469
      ],
      [
        "tion",
        -11.566070556640625
      ],
      [
        "RET",
        -11.868925094604492
      ],
      [
        "cert",
        -11.938514709472656
      ],
      [
        "▁associated",
        -11.375624656677246
      ],
      [
        "BD",
        -11.973390579223633
      ],
      [
        "PWM",
        -12.446244239807129
      ],
      [
        "Height",
        -11.765719413757324
      ],
      [
        "▁contains",
        -11.446028709411621
      ],
      [
        "▁local",
        -11.090664863586426
      ],
      [
        "att",
        -11.897656440734863
      ],
      [
        "EQ",
        -11.939858436584473
      ],
      [
        "FRAME",
        -12.051843643188477
      ],
      [
        "pop",
        -11.603452682495117
      ],
      [
        "FI",
        -11.740089416503906
      ],
      [
        "Component",
        -11.588418960571289
      ],
      [
        "DESC",
        -11.968545913696289
      ],
      [
        "*)(",
        -12.414273262023926
      ],
      [
        "scope",
        -11.915460586547852
      ],
      [
        "DM",
        -11.916711807250977
      ],
      [
        "scalar",
        -12.41602897644043
      ],
      [
        "▁{\"",
        -11.871235847473145
      ],
      [
        "crypto",
        -11.88382625579834
      ],
      [
        "▁server",
        -11.425515174865723
      ],
      [
        "▁USART",
        -12.274284362792969
      ],
      [
        "codec",
        -12.077582359313965
      ],
      [
        "LED",
        -11.849384307861328
      ],
      [
        "ai",
        -11.415952682495117
      ],
      [
        "▁received",
        -11.100369453430176
      ],
      [
        "▁main",
        -10.80447769165039
      ],
      [
        "HAS",
        -11.805750846862793
      ],
      [
        "del",
        -11.404180526733398
      ],
      [
        "comm",
        -12.330175399780273
      ],
      [
        "wr",
        -12.005120277404785
      ],
      [
        "▁want",
        -10.99788761138916
      ],
      [
        "nc",
        -11.732734680175781
      ],
      [
        "cleanup",
        -11.3207368850708
      ],
      [
        "▁http",
        -11.278979301452637
      ],
      [
        "done",
        -11.46071720123291
      ],
      [
        "COM",
        -11.765987396240234
      ],
      [
        "pe",
        -11.385093688964844
      ],
      [
        "encoding",
        -12.269283294677734
      ],
      [
        "ve",
        -10.876608848571777
      ],
      [
        "Async",
        -12.069144248962402
      ],
      [
        "---------------",
        -10.655000686645508
      ],
      [
        "af",
        -11.517876625061035
      ],
      [
        "Box",
        -11.515475273132324
      ],
      [
        "OPEN",
        -11.794954299926758
      ],
      [
        "ASN",
        -12.128910064697266
      ],
      [
        "div",
        -10.503323554992676
      ],
      [
        "ITEM",
        -11.999222755432129
      ],
      [
        "controller",
        -12.31667423248291
      ],
      [
        "▁hr",
        -11.992701530456543
      ],
      [
        "PRI",
        -12.369389533996582
      ],
      [
        "Template",
        -11.837444305419922
      ],
      [
        "fast",
        -12.014754295349121
      ],
      [
        "SV",
        -11.953140258789062
      ],
      [
        "ice",
        -11.486757278442383
      ],
      [
        "meta",
        -12.08724594116211
      ],
      [
        "bfd",
        -12.149853706359863
      ],
      [
        "Audio",
        -11.69383716583252
      ],
      [
        "any",
        -11.619440078735352
      ],
      [
        "rule",
        -12.138981819152832
      ],
      [
        "▁library",
        -11.479877471923828
      ],
      [
        "▁Re",
        -10.113718032836914
      ],
      [
        "usage",
        -12.10519790649414
      ],
      [
        "▁internal",
        -11.531473159790039
      ],
      [
        "warning",
        -12.398134231567383
      ],
      [
        "Configuration",
        -11.701275825500488
      ],
      [
        "▁location",
        -11.650839805603027
      ],
      [
        "▁row",
        -11.593488693237305
      ],
      [
        "▁color",
        -11.516210556030273
      ],
      [
        "▁SSL",
        -11.84123420715332
      ],
      [
        "▁NS",
        -11.680578231811523
      ],
      [
        "▁change",
        -11.162246704101562
      ],
      [
        "step",
        -11.819644927978516
      ],
      [
        "ND",
        -11.933573722839355
      ],
      [
        "see",
        -11.193343162536621
      ],
      [
        "audio",
        -12.211668014526367
      ],
      [
        "Active",
        -11.75104808807373
      ],
      [
        "rq",
        -12.135172843933105
      ],
      [
        "INTERNAL",
        -11.825846672058105
      ],
      [
        "om",
        -11.633030891418457
      ],
      [
        "▁Is",
        -10.722451210021973
      ],
      [
        "complex",
        -12.239516258239746
      ],
      [
        "CNT",
        -12.384790420532227
      ],
      [
        "DEFINE",
        -11.916778564453125
      ],
      [
        "rk",
        -11.882974624633789
      ],
      [
        "fi",
        -11.336803436279297
      ],
      [
        "VA",
        -11.819022178649902
      ],
      [
        "acc",
        -12.157561302185059
      ],
      [
        "CONF",
        -12.06215763092041
      ],
      [
        "cplusplus",
        -10.780082702636719
      ],
      [
        "▁about",
        -9.909493446350098
      ],
      [
        "segment",
        -12.554903984069824
      ],
      [
        "▁terms",
        -11.238138198852539
      ],
      [
        "ENT",
        -11.60655689239502
      ],
      [
        "factor",
        -12.349077224731445
      ],
      [
        "licenses",
        -11.818110466003418
      ],
      [
        "service",
        -11.783456802368164
      ],
      [
        "FL",
        -11.675555229187012
      ],
      [
        "▁match",
        -11.343711853027344
      ],
      [
        "▁DEFAULT",
        -12.174285888671875
      ],
      [
        "bio",
        -11.8357572555542
      ],
      [
        "names",
        -11.557291030883789
      ],
      [
        "▁Redistributions",
        -11.701803207397461
      ],
      [
        "Transform",
        -11.816597938537598
      ],
      [
        "CRYPTO",
        -12.211319923400879
      ],
      [
        "▁driver",
        -11.58951187133789
      ],
      [
        "HEADER",
        -11.813002586364746
      ],
      [
        "▁GLenum",
        -12.488828659057617
      ],
      [
        "ZEND",
        -11.910823822021484
      ],
      [
        "TARGET",
        -11.831485748291016
      ],
      [
        "freq",
        -12.102371215820312
      ],
      [
        "▁these",
        -10.570515632629395
      ],
      [
        "Content",
        -11.290196418762207
      ],
      [
        "ha",
        -11.16113567352295
      ],
      [
        "Variable",
        -11.730949401855469
      ],
      [
        "sr",
        -11.826226234436035
      ],
      [
        "▁DAMAGES",
        -11.837806701660156
      ],
      [
        "Unit",
        -11.974602699279785
      ],
      [
        "DECLARE",
        -11.80244255065918
      ],
      [
        "▁(!(",
        -11.837779998779297
      ],
      [
        "ble",
        -11.657665252685547
      ],
      [
        "IMAGE",
        -11.82685661315918
      ],
      [
        "pages",
        -12.126441955566406
      ],
      [
        "▁NSString",
        -11.694337844848633
      ],
      [
        "CLOCK",
        -12.069846153259277
      ],
      [
        "cluster",
        -12.4907808303833
      ],
      [
        "direction",
        -12.474762916564941
      ],
      [
        "Row",
        -11.79921817779541
      ],
      [
        "dt",
        -11.531411170959473
      ],
      [
        "pthread",
        -11.779857635498047
      ],
      [
        "change",
        -11.78084659576416
      ],
      [
        "engine",
        -12.095878601074219
      ],
      [
        "Extension",
        -11.816438674926758
      ],
      [
        "profile",
        -12.187317848205566
      ],
      [
        "Co",
        -11.71159553527832
      ],
      [
        "fail",
        -11.775360107421875
      ],
      [
        "seconds",
        -12.148152351379395
      ],
      [
        "nk",
        -11.832871437072754
      ],
      [
        "▁CAN",
        -12.325331687927246
      ],
      [
        "Layer",
        -11.892688751220703
      ],
      [
        "▁task",
        -11.707106590270996
      ],
      [
        "img",
        -11.969734191894531
      ],
      [
        "▁except",
        -11.485177993774414
      ],
      [
        "google",
        -11.867867469787598
      ],
      [
        "symbol",
        -12.018566131591797
      ],
      [
        "MEMORY",
        -11.866291046142578
      ],
      [
        "▁supported",
        -11.600991249084473
      ],
      [
        "Private",
        -12.06178092956543
      ],
      [
        "ACTION",
        -11.928149223327637
      ],
      [
        "button",
        -12.089284896850586
      ],
      [
        "serial",
        -12.330427169799805
      ],
      [
        "RB",
        -11.88377571105957
      ],
      [
        "Pro",
        -11.793498992919922
      ],
      [
        "PAD",
        -12.30722713470459
      ],
      [
        "bs",
        -11.439318656921387
      ],
      [
        "▁final",
        -11.090509414672852
      ],
      [
        "FREE",
        -11.666817665100098
      ],
      [
        "▁even",
        -10.854875564575195
      ],
      [
        "down",
        -11.364584922790527
      ],
      [
        "▁rhs",
        -12.0421724319458
      ],
      [
        "▁over",
        -10.346826553344727
      ],
      [
        "video",
        -12.019286155700684
      ],
      [
        "our",
        -11.869421005249023
      ],
      [
        "▁run",
        -11.235893249511719
      ],
      [
        "EVP",
        -12.229692459106445
      ],
      [
        "generic",
        -12.335761070251465
      ],
      [
        "▁right",
        -11.0557222366333
      ],
      [
        "TMP",
        -12.605112075805664
      ],
      [
        "NL",
        -12.009695053100586
      ],
      [
        "plan",
        -11.91580867767334
      ],
      [
        "ance",
        -11.024216651916504
      ],
      [
        "extension",
        -12.434572219848633
      ],
      [
        "Video",
        -11.82600212097168
      ],
      [
        "LOW",
        -12.03627872467041
      ],
      [
        "CONTEXT",
        -12.04191780090332
      ],
      [
        "Def",
        -11.813310623168945
      ],
      [
        "MUX",
        -12.252861022949219
      ],
      [
        "ET",
        -11.66933822631836
      ],
      [
        "▁single",
        -11.049956321716309
      ],
      [
        "CY",
        -12.034455299377441
      ],
      [
        "FR",
        -12.076711654663086
      ],
      [
        "zone",
        -12.121142387390137
      ],
      [
        "▁KIND",
        -11.801151275634766
      ],
      [
        "Style",
        -11.57784652709961
      ],
      [
        "▁loop",
        -11.547812461853027
      ],
      [
        "GROUP",
        -12.008843421936035
      ],
      [
        "od",
        -11.536640167236328
      ],
      [
        "▁through",
        -10.657879829406738
      ],
      [
        "DL",
        -11.889695167541504
      ],
      [
        "asn",
        -12.146195411682129
      ],
      [
        "▁text",
        -11.42593765258789
      ],
      [
        "▁stream",
        -11.592439651489258
      ],
      [
        "Compare",
        -12.019521713256836
      ],
      [
        "fetch",
        -11.939948081970215
      ],
      [
        "▁strlen",
        -11.953490257263184
      ],
      [
        "Library",
        -12.068338394165039
      ],
      [
        "ACT",
        -11.79541301727295
      ],
      [
        "WR",
        -12.194313049316406
      ],
      [
        "counter",
        -11.917410850524902
      ],
      [
        "Last",
        -11.795167922973633
      ],
      [
        "▁signal",
        -11.972739219665527
      ],
      [
        "encode",
        -11.989699363708496
      ],
      [
        "pv",
        -12.087249755859375
      ],
      [
        "▁Read",
        -11.525042533874512
      ],
      [
        "metadata",
        -11.854086875915527
      ],
      [
        "CLIENT",
        -12.04348087310791
      ],
      [
        "layer",
        -12.0162992477417
      ],
      [
        "▁files",
        -11.531973838806152
      ],
      [
        "fix",
        -12.116230964660645
      ],
      [
        "interval",
        -12.410799026489258
      ],
      [
        "mt",
        -11.861687660217285
      ],
      [
        "▁permission",
        -11.493109703063965
      ],
      [
        "Inst",
        -12.062278747558594
      ],
      [
        "job",
        -12.435211181640625
      ],
      [
        "dv",
        -12.108964920043945
      ],
      [
        "qp",
        -12.307585716247559
      ],
      [
        "PARAMETER",
        -11.922547340393066
      ],
      [
        "plane",
        -12.186433792114258
      ],
      [
        "WAIT",
        -12.081024169921875
      ],
      [
        "rhs",
        -12.111491203308105
      ],
      [
        "Render",
        -11.917689323425293
      ],
      [
        "HAVE",
        -11.789936065673828
      ],
      [
        "wp",
        -12.01262378692627
      ],
      [
        "ke",
        -11.458066940307617
      ],
      [
        "drv",
        -12.11733341217041
      ],
      [
        "BAD",
        -11.947155952453613
      ],
      [
        "▁needed",
        -11.508604049682617
      ],
      [
        "policy",
        -12.294893264770508
      ],
      [
        "Container",
        -11.834627151489258
      ],
      [
        "son",
        -10.628266334533691
      ],
      [
        "CAL",
        -12.284814834594727
      ],
      [
        "verify",
        -12.42525577545166
      ],
      [
        "▁EXPRESS",
        -11.934432029724121
      ],
      [
        "▁Free",
        -11.163412094116211
      ],
      [
        "Net",
        -11.941279411315918
      ],
      [
        "Shader",
        -12.034317970275879
      ],
      [
        "opts",
        -11.935641288757324
      ],
      [
        "FILTER",
        -12.05715274810791
      ],
      [
        "RANGE",
        -12.081780433654785
      ],
      [
        "show",
        -11.581668853759766
      ],
      [
        "▁application",
        -11.532427787780762
      ],
      [
        "disk",
        -12.464661598205566
      ],
      [
        "rpc",
        -12.124762535095215
      ],
      [
        "tri",
        -12.168130874633789
      ],
      [
        "▁Default",
        -11.51183795928955
      ],
      [
        "▁record",
        -11.023975372314453
      ],
      [
        "CACHE",
        -12.047565460205078
      ],
      [
        "▁always",
        -11.30416202545166
      ],
      [
        "LS",
        -11.776167869567871
      ],
      [
        "LICENSE",
        -11.732245445251465
      ],
      [
        "menu",
        -12.09138011932373
      ],
      [
        "▁filter",
        -11.74692440032959
      ],
      [
        "fff",
        -12.956645965576172
      ],
      [
        "operator",
        -11.824756622314453
      ],
      [
        "winrt",
        -12.69568920135498
      ],
      [
        "▁client",
        -11.599372863769531
      ],
      [
        "BF",
        -12.24234390258789
      ],
      [
        "▁STM",
        -12.381121635437012
      ],
      [
        "HD",
        -12.24826717376709
      ],
      [
        "Term",
        -12.049755096435547
      ],
      [
        "--;",
        -11.182355880737305
      ],
      [
        "sensor",
        -12.658496856689453
      ],
      [
        "NE",
        -12.027949333190918
      ],
      [
        "▁enabled",
        -11.889022827148438
      ],
      [
        "ty",
        -10.776728630065918
      ],
      [
        "Ex",
        -11.524081230163574
      ],
      [
        "split",
        -11.961199760437012
      ],
      [
        "THREAD",
        -11.889389038085938
      ],
      [
        "descriptor",
        -12.029569625854492
      ],
      [
        "decl",
        -12.180643081665039
      ],
      [
        "SO",
        -11.96780014038086
      ],
      [
        "LY",
        -11.779511451721191
      ],
      [
        "FMT",
        -12.228489875793457
      ],
      [
        "OUTPUT",
        -12.034931182861328
      ],
      [
        "Generate",
        -11.920806884765625
      ],
      [
        "ry",
        -10.702969551086426
      ],
      [
        "Pixel",
        -12.04226303100586
      ],
      [
        "EB",
        -12.147621154785156
      ],
      [
        "netdev",
        -12.129420280456543
      ],
      [
        "ization",
        -10.97116756439209
      ],
      [
        "Attr",
        -11.997030258178711
      ],
      [
        "BUS",
        -12.125926971435547
      ],
      [
        "▁since",
        -11.003643035888672
      ],
      [
        "▁LIABLE",
        -11.948287963867188
      ],
      [
        "GT",
        -11.878774642944336
      ],
      [
        "Location",
        -11.27025318145752
      ],
      [
        "]->",
        -12.093925476074219
      ],
      [
        "OID",
        -12.25955867767334
      ],
      [
        "------------",
        -11.978985786437988
      ],
      [
        "▁PROVIDED",
        -11.93439769744873
      ],
      [
        "Vertex",
        -12.114152908325195
      ],
      [
        "Wait",
        -11.77207088470459
      ],
      [
        "entries",
        -12.02497386932373
      ],
      [
        "Build",
        -11.781058311462402
      ],
      [
        "led",
        -11.257563591003418
      ],
      [
        "▁character",
        -11.366494178771973
      ],
      [
        "▁$",
        -10.062170028686523
      ],
      [
        "AE",
        -12.176484107971191
      ],
      [
        "STRUCT",
        -11.984487533569336
      ],
      [
        "EXTI",
        -12.69487190246582
      ],
      [
        "NEW",
        -11.904247283935547
      ],
      [
        "▁SHALL",
        -11.919045448303223
      ],
      [
        "simple",
        -12.417203903198242
      ],
      [
        "build",
        -11.884174346923828
      ],
      [
        "Socket",
        -11.919154167175293
      ],
      [
        "PF",
        -12.083579063415527
      ],
      [
        "sv",
        -11.891317367553711
      ],
      [
        "FAILURE",
        -11.725316047668457
      ],
      [
        "big",
        -12.082183837890625
      ],
      [
        "EXIT",
        -11.679905891418457
      ],
      [
        "Double",
        -12.01712417602539
      ],
      [
        "vc",
        -12.10905933380127
      ],
      [
        "Network",
        -12.02847671508789
      ],
      [
        "Mono",
        -12.188249588012695
      ],
      [
        "▁WHETHER",
        -11.94739818572998
      ],
      [
        "partition",
        -12.569903373718262
      ],
      [
        "DECREF",
        -11.712594985961914
      ],
      [
        "▁RCC",
        -12.602824211120605
      ],
      [
        "render",
        -12.365121841430664
      ],
      [
        "Auto",
        -12.056500434875488
      ],
      [
        "REGISTER",
        -12.080020904541016
      ],
      [
        "PFNGL",
        -12.127677917480469
      ],
      [
        "channels",
        -12.323673248291016
      ],
      [
        "]*",
        -13.42829418182373
      ],
      [
        "▁different",
        -10.984210968017578
      ],
      [
        "▁back",
        -10.791423797607422
      ],
      [
        "Only",
        -12.328068733215332
      ],
      [
        "content",
        -11.591817855834961
      ],
      [
        "IA",
        -11.698637962341309
      ],
      [
        "wi",
        -11.850343704223633
      ],
      [
        "Err",
        -11.801128387451172
      ],
      [
        "timestamp",
        -11.990813255310059
      ],
      [
        "ACK",
        -12.261058807373047
      ],
      [
        "ABLE",
        -11.93210506439209
      ],
      [
        "signed",
        -12.55998706817627
      ],
      [
        "TIMEOUT",
        -12.12928581237793
      ],
      [
        "Option",
        -11.994504928588867
      ],
      [
        "nv",
        -12.003148078918457
      ],
      [
        "bg",
        -12.128912925720215
      ],
      [
        "Close",
        -11.522248268127441
      ],
      [
        "ver",
        -11.288680076599121
      ],
      [
        "▁form",
        -11.144723892211914
      ],
      [
        "boot",
        -12.134652137756348
      ],
      [
        "AWS",
        -12.25320053100586
      ],
      [
        "▁item",
        -11.702712059020996
      ],
      [
        "WS",
        -12.076024055480957
      ],
      [
        "enabled",
        -11.843682289123535
      ],
      [
        "mr",
        -12.069711685180664
      ],
      [
        "▁they",
        -10.031820297241211
      ],
      [
        "▁empty",
        -11.736772537231445
      ],
      [
        "▁(*((",
        -12.5126314163208
      ],
      [
        "▁SDL",
        -11.908549308776855
      ],
      [
        "LOCAL",
        -11.97122573852539
      ],
      [
        "async",
        -11.975234985351562
      ],
      [
        "TEXT",
        -11.987253189086914
      ],
      [
        "high",
        -11.962257385253906
      ],
      [
        "gt",
        -11.968770980834961
      ],
      [
        "▁AV",
        -11.949328422546387
      ],
      [
        "ng",
        -11.297224998474121
      ],
      [
        "feature",
        -12.502090454101562
      ],
      [
        "location",
        -11.799714088439941
      ],
      [
        "NA",
        -12.063672065734863
      ],
      [
        "PYX",
        -12.867213249206543
      ],
      [
        "▁instead",
        -11.515352249145508
      ],
      [
        "Counter",
        -12.190299034118652
      ],
      [
        "pdev",
        -11.994302749633789
      ],
      [
        "BS",
        -11.52871036529541
      ],
      [
        "▁created",
        -11.154394149780273
      ],
      [
        "▁/************",
        -11.510082244873047
      ],
      [
        "ADDRESS",
        -12.164624214172363
      ],
      [
        "sim",
        -12.062226295471191
      ],
      [
        "RATE",
        -12.242697715759277
      ],
      [
        "Run",
        -12.177506446838379
      ],
      [
        "▁ARISING",
        -12.027300834655762
      ],
      [
        "family",
        -11.917860984802246
      ],
      [
        "custom",
        -12.479621887207031
      ],
      [
        "▁When",
        -11.160455703735352
      ],
      [
        "▁writing",
        -11.419086456298828
      ],
      [
        "Widget",
        -11.941944122314453
      ],
      [
        "complete",
        -11.750543594360352
      ],
      [
        "▁protected",
        -10.421079635620117
      ],
      [
        "ub",
        -11.763678550720215
      ],
      [
        "ping",
        -11.594315528869629
      ],
      [
        "FEATURE",
        -12.029801368713379
      ],
      [
        "▁passed",
        -11.671695709228516
      ],
      [
        "OD",
        -12.260855674743652
      ],
      [
        "Use",
        -11.935324668884277
      ],
      [
        "lines",
        -11.890898704528809
      ],
      [
        "▁expected",
        -11.693060874938965
      ],
      [
        "▁\"/",
        -12.173160552978516
      ],
      [
        "▁parent",
        -11.777597427368164
      ],
      [
        "non",
        -11.628150939941406
      ],
      [
        "▁failure",
        -11.586347579956055
      ],
      [
        "Program",
        -12.11291790008545
      ],
      [
        "mono",
        -12.060408592224121
      ],
      [
        "IB",
        -11.71484088897705
      ],
      [
        "▁arguments",
        -11.641159057617188
      ],
      [
        "tic",
        -11.287555694580078
      ],
      [
        "machine",
        -12.490367889404297
      ],
      [
        "(\"\\",
        -11.690291404724121
      ],
      [
        "interrupt",
        -11.935298919677734
      ],
      [
        "▁wait",
        -12.036284446716309
      ],
      [
        "XX",
        -12.070435523986816
      ],
      [
        "▁print",
        -11.491362571716309
      ],
      [
        "ine",
        -10.852965354919434
      ],
      [
        "TI",
        -11.891731262207031
      ],
      [
        "boolean",
        -11.637057304382324
      ],
      [
        "sprintf",
        -12.184207916259766
      ],
      [
        "AST",
        -12.006288528442383
      ],
      [
        "▁generated",
        -11.73245620727539
      ],
      [
        "Settings",
        -11.923148155212402
      ],
      [
        "builtin",
        -12.195066452026367
      ],
      [
        "skip",
        -11.90267276763916
      ],
      [
        "TE",
        -12.04996395111084
      ],
      [
        "arch",
        -11.828274726867676
      ],
      [
        "Json",
        -12.013765335083008
      ],
      [
        "▁Apache",
        -11.81907844543457
      ],
      [
        "VI",
        -12.384251594543457
      ],
      [
        "dispatch",
        -12.028968811035156
      ],
      [
        "half",
        -12.567928314208984
      ],
      [
        "LT",
        -11.962018013000488
      ],
      [
        "ak",
        -11.200687408447266
      ],
      [
        "▁self",
        -11.184331893920898
      ],
      [
        "abort",
        -11.707412719726562
      ],
      [
        "Graph",
        -11.87509536743164
      ],
      [
        "▁response",
        -11.346274375915527
      ],
      [
        "SOURCE",
        -12.138431549072266
      ],
      [
        "manager",
        -12.163277626037598
      ],
      [
        "age",
        -10.679092407226562
      ],
      [
        "apply",
        -12.574579238891602
      ],
      [
        "WTIMER",
        -13.867169380187988
      ],
      [
        "snprintf",
        -12.239912033081055
      ],
      [
        "的",
        -10.209922790527344
      ],
      [
        "COMMAND",
        -12.04372787475586
      ],
      [
        "ill",
        -12.217952728271484
      ],
      [
        "OT",
        -11.922529220581055
      ],
      [
        "▁TORT",
        -11.98794937133789
      ],
      [
        "PRINT",
        -12.038043022155762
      ],
      [
        "NC",
        -11.72946834564209
      ],
      [
        "▁min",
        -11.765832901000977
      ],
      [
        "hci",
        -12.331754684448242
      ],
      [
        "Clear",
        -11.752123832702637
      ],
      [
        "▁later",
        -10.91180419921875
      ],
      [
        "proxy",
        -12.021648406982422
      ],
      [
        "Convert",
        -12.736194610595703
      ],
      [
        "POWER",
        -12.116875648498535
      ],
      [
        "Enabled",
        -11.991877555847168
      ],
      [
        "▁column",
        -11.861541748046875
      ],
      [
        "▁height",
        -11.715846061706543
      ],
      [
        "Real",
        -12.203871726989746
      ],
      [
        "alias",
        -12.498863220214844
      ],
      [
        "na",
        -10.610816955566406
      ],
      [
        "bm",
        -12.147237777709961
      ],
      [
        "Has",
        -12.218724250793457
      ],
      [
        "NR",
        -11.92983627319336
      ],
      [
        "Word",
        -12.097478866577148
      ],
      [
        "▁CONTRIBUTORS",
        -11.941970825195312
      ],
      [
        "abi",
        -11.952312469482422
      ],
      [
        "SCAN",
        -12.363110542297363
      ],
      [
        "▁could",
        -10.652373313903809
      ],
      [
        "SOC",
        -12.197486877441406
      ],
      [
        "STD",
        -12.009847640991211
      ],
      [
        "external",
        -12.702219009399414
      ],
      [
        "ANY",
        -12.156246185302734
      ],
      [
        "upper",
        -12.475509643554688
      ],
      [
        "▁both",
        -10.840229988098145
      ],
      [
        "insn",
        -12.295982360839844
      ],
      [
        "condition",
        -12.254781723022461
      ],
      [
        "fw",
        -12.135849952697754
      ],
      [
        "\"\\",
        -11.8623628616333
      ],
      [
        "▁store",
        -11.854418754577637
      ],
      [
        "ipv",
        -12.305389404296875
      ],
      [
        "cv",
        -12.094429016113281
      ],
      [
        "apache",
        -11.941810607910156
      ],
      [
        "eth",
        -11.804357528686523
      ],
      [
        "FN",
        -12.231234550476074
      ],
      [
        "Up",
        -11.697254180908203
      ],
      [
        "Save",
        -11.835756301879883
      ],
      [
        "▁full",
        -11.326766014099121
      ],
      [
        "aux",
        -11.833605766296387
      ],
      [
        "SDL",
        -12.197233200073242
      ],
      [
        "ting",
        -11.071502685546875
      ],
      [
        "dy",
        -11.191994667053223
      ],
      [
        "Generic",
        -11.997577667236328
      ],
      [
        "ft",
        -11.367470741271973
      ],
      [
        "▁such",
        -10.602326393127441
      ],
      [
        "try",
        -11.300419807434082
      ],
      [
        "RST",
        -12.61174488067627
      ],
      [
        "Idx",
        -12.162605285644531
      ],
      [
        "xfe",
        -13.167216300964355
      ],
      [
        "ACTIVE",
        -12.23995304107666
      ],
      [
        "Non",
        -12.17397689819336
      ],
      [
        "▁An",
        -10.735739707946777
      ],
      [
        "▁try",
        -11.265048027038574
      ],
      [
        "PH",
        -12.128663063049316
      ],
      [
        "forward",
        -12.422910690307617
      ],
      [
        "▁would",
        -10.206689834594727
      ],
      [
        "ell",
        -11.483291625976562
      ],
      [
        "platform",
        -11.903800964355469
      ],
      [
        "MESSAGE",
        -12.146851539611816
      ],
      [
        "xFE",
        -13.19901180267334
      ],
      [
        "rl",
        -11.926926612854004
      ],
      [
        "Scalar",
        -12.160637855529785
      ],
      [
        "▁distribution",
        -11.333529472351074
      ],
      [
        "APB",
        -12.836602210998535
      ],
      [
        "Pass",
        -12.134745597839355
      ],
      [
        "CLEAR",
        -12.161168098449707
      ],
      [
        "threads",
        -11.910712242126465
      ],
      [
        "zval",
        -11.951396942138672
      ],
      [
        "WIDTH",
        -12.160547256469727
      ],
      [
        "EXP",
        -12.10158920288086
      ],
      [
        "SAM",
        -12.710553169250488
      ],
      [
        "Tcl",
        -12.083568572998047
      ],
      [
        "▁transfer",
        -11.811186790466309
      ],
      [
        "▁them",
        -10.416933059692383
      ],
      [
        "signature",
        -12.640108108520508
      ],
      [
        "PyErr",
        -11.816048622131348
      ],
      [
        "IMPL",
        -12.145224571228027
      ],
      [
        "accept",
        -12.487797737121582
      ],
      [
        "▁temp",
        -11.621005058288574
      ],
      [
        "EF",
        -12.192197799682617
      ],
      [
        "Sync",
        -12.024989128112793
      ],
      [
        "▁OTHERWISE",
        -12.048239707946777
      ],
      [
        "ize",
        -11.503347396850586
      ],
      [
        "Stop",
        -11.782463073730469
      ],
      [
        "alpha",
        -11.669817924499512
      ],
      [
        "++]",
        -12.052215576171875
      ],
      [
        "join",
        -12.183232307434082
      ],
      [
        "SYSTEM",
        -12.104233741760254
      ],
      [
        "relation",
        -12.506078720092773
      ],
      [
        "bucket",
        -12.648944854736328
      ],
      [
        "Move",
        -11.914312362670898
      ],
      [
        "Destroy",
        -11.7619047164917
      ],
      [
        "▁System",
        -11.305463790893555
      ],
      [
        "ess",
        -12.062945365905762
      ],
      [
        "dot",
        -11.947253227233887
      ],
      [
        "▁CONTRACT",
        -12.050332069396973
      ],
      [
        "Delegate",
        -11.97506332397461
      ],
      [
        "▁OP",
        -11.73925495147705
      ],
      [
        "BN",
        -11.718978881835938
      ],
      [
        "Spec",
        -11.994441032409668
      ],
      [
        "gr",
        -12.020060539245605
      ],
      [
        "Application",
        -12.095189094543457
      ],
      [
        "owner",
        -12.190253257751465
      ],
      [
        "unused",
        -12.003864288330078
      ],
      [
        "Description",
        -11.712185859680176
      ],
      [
        "▁GLuint",
        -12.546863555908203
      ],
      [
        "▁Version",
        -11.72664737701416
      ],
      [
        "soc",
        -12.23082447052002
      ],
      [
        "sin",
        -11.787690162658691
      ],
      [
        "DIS",
        -12.148924827575684
      ],
      [
        "vs",
        -11.87563419342041
      ],
      [
        "BM",
        -12.341113090515137
      ],
      [
        "IV",
        -11.863205909729004
      ],
      [
        "ISR",
        -12.471343994140625
      ],
      [
        "▁Define",
        -11.925094604492188
      ],
      [
        "ROUTELOC",
        -13.851323127746582
      ],
      [
        "Req",
        -12.698506355285645
      ],
      [
        "EXTERN",
        -11.985858917236328
      ],
      [
        "cy",
        -11.64646053314209
      ],
      [
        "lambda",
        -12.138731002807617
      ],
      [
        "RV",
        -12.27100944519043
      ],
      [
        "edit",
        -12.341450691223145
      ],
      [
        "wchar",
        -12.29212474822998
      ],
      [
        "mf",
        -12.190032005310059
      ],
      [
        "▁language",
        -11.408297538757324
      ],
      [
        "Const",
        -11.9328031539917
      ],
      [
        "invalid",
        -12.122130393981934
      ],
      [
        "***************/",
        -10.58755874633789
      ],
      [
        "HT",
        -12.313472747802734
      ],
      [
        "orig",
        -12.165460586547852
      ],
      [
        "▁/**************",
        -10.293049812316895
      ],
      [
        "Scan",
        -11.919233322143555
      ],
      [
        "▁objects",
        -11.675274848937988
      ],
      [
        "detect",
        -13.039167404174805
      ],
      [
        "found",
        -11.679319381713867
      ],
      [
        "▁complete",
        -11.88732624053955
      ],
      [
        "ized",
        -11.312541007995605
      ],
      [
        "▁copies",
        -11.729875564575195
      ],
      [
        "▁Shift",
        -12.572134017944336
      ],
      [
        "▁pin",
        -12.11960220336914
      ],
      [
        "▁WARRANTY",
        -11.893453598022461
      ],
      [
        "ear",
        -12.049510955810547
      ],
      [
        "tbl",
        -12.241118431091309
      ],
      [
        "NRFX",
        -11.934325218200684
      ],
      [
        "axis",
        -12.563298225402832
      ],
      [
        "dist",
        -12.125164031982422
      ],
      [
        "CLR",
        -12.516494750976562
      ],
      [
        "uid",
        -12.2891206741333
      ],
      [
        "Stmt",
        -12.026268005371094
      ],
      [
        "SYMBOL",
        -12.031451225280762
      ],
      [
        "ESP",
        -12.244171142578125
      ],
      [
        "SUPPORT",
        -11.848270416259766
      ],
      [
        "SG",
        -12.15964126586914
      ],
      [
        "STOP",
        -12.177075386047363
      ],
      [
        "flash",
        -12.563451766967773
      ],
      [
        "JSON",
        -11.86794376373291
      ],
      [
        "native",
        -12.46369743347168
      ],
      [
        "sleep",
        -12.039788246154785
      ],
      [
        "▁Reserved",
        -12.036770820617676
      ],
      [
        "POINT",
        -12.107569694519043
      ],
      [
        "▁Mask",
        -12.599564552307129
      ],
      [
        "weak",
        -12.338248252868652
      ],
      [
        "grid",
        -12.47354507446289
      ],
      [
        "▁EVENT",
        -12.015735626220703
      ],
      [
        "slave",
        -12.56387996673584
      ],
      [
        "hy",
        -12.013404846191406
      ],
      [
        "CREATE",
        -12.136338233947754
      ],
      [
        "ws",
        -11.90085220336914
      ],
      [
        "BL",
        -11.944778442382812
      ],
      [
        "protobuf",
        -12.238694190979004
      ],
      [
        "Assert",
        -11.821468353271484
      ],
      [
        "tick",
        -12.237687110900879
      ],
      [
        "Long",
        -11.915855407714844
      ],
      [
        "▁GLfloat",
        -12.75659465789795
      ],
      [
        "notify",
        -12.054161071777344
      ],
      [
        "media",
        -11.94255542755127
      ],
      [
        "probe",
        -12.37316608428955
      ],
      [
        "hook",
        -12.409003257751465
      ],
      [
        "VP",
        -12.228680610656738
      ],
      [
        "column",
        -12.05590534210205
      ],
      [
        "nat",
        -12.021859169006348
      ],
      [
        "let",
        -11.3419771194458
      ],
      [
        "pw",
        -12.320820808410645
      ],
      [
        "▁during",
        -10.707629203796387
      ],
      [
        "LV",
        -12.236002922058105
      ],
      [
        "Col",
        -11.914504051208496
      ],
      [
        "▁types",
        -11.55333423614502
      ],
      [
        "cost",
        -12.455910682678223
      ],
      [
        "Shape",
        -12.150364875793457
      ],
      [
        "True",
        -12.131918907165527
      ],
      [
        "ML",
        -11.744308471679688
      ],
      [
        "▁details",
        -11.343147277832031
      ],
      [
        "▁<<<<<<<<<<<<<<",
        -12.296857833862305
      ],
      [
        "der",
        -11.106335639953613
      ],
      [
        "title",
        -11.708861351013184
      ],
      [
        "Region",
        -12.170089721679688
      ],
      [
        "▁maximum",
        -11.906695365905762
      ],
      [
        "▁directory",
        -11.866559028625488
      ],
      [
        "ular",
        -12.211982727050781
      ],
      [
        "esp",
        -12.380584716796875
      ],
      [
        "WARNING",
        -12.191170692443848
      ],
      [
        "UTF",
        -12.193289756774902
      ],
      [
        "bad",
        -11.895124435424805
      ],
      [
        "GPU",
        -12.147762298583984
      ],
      [
        "overflow",
        -11.924625396728516
      ],
      [
        "Mod",
        -12.491740226745605
      ],
      [
        "side",
        -11.426403999328613
      ],
      [
        "inter",
        -12.126982688903809
      ],
      [
        "acl",
        -12.434173583984375
      ],
      [
        "▁BE",
        -11.736852645874023
      ],
      [
        "Heap",
        -12.314371109008789
      ],
      [
        "▁possible",
        -11.35627269744873
      ],
      [
        "stm",
        -12.238753318786621
      ],
      [
        "▁options",
        -11.574219703674316
      ],
      [
        "Any",
        -12.349252700805664
      ],
      [
        "best",
        -12.521610260009766
      ],
      [
        "cos",
        -12.06285572052002
      ],
      [
        "WM",
        -12.245917320251465
      ],
      [
        "▁transaction",
        -11.978181838989258
      ],
      [
        "▁queue",
        -11.89091968536377
      ],
      [
        "Per",
        -11.980660438537598
      ],
      [
        "world",
        -12.155365943908691
      ],
      [
        "Builder",
        -11.849345207214355
      ],
      [
        "ated",
        -11.153923034667969
      ],
      [
        "Alloc",
        -12.179082870483398
      ],
      [
        "day",
        -11.35142993927002
      ],
      [
        "ov",
        -11.559571266174316
      ],
      [
        "COL",
        -12.367569923400879
      ],
      [
        "argc",
        -11.908890724182129
      ],
      [
        "▁</",
        -9.814016342163086
      ],
      [
        "SELECT",
        -11.830021858215332
      ],
      [
        "▁pre",
        -11.323314666748047
      ],
      [
        "UInt",
        -12.257536888122559
      ],
      [
        "ENC",
        -12.459268569946289
      ],
      [
        "HasBeenSet",
        -12.382978439331055
      ],
      [
        "MON",
        -12.286067962646484
      ],
      [
        "conv",
        -12.220804214477539
      ],
      [
        "▁obtain",
        -11.586782455444336
      ],
      [
        "ii",
        -11.543713569641113
      ],
      [
        "*************",
        -12.50290298461914
      ],
      [
        "▁express",
        -11.761568069458008
      ],
      [
        "▁descriptor",
        -11.982108116149902
      ],
      [
        "Off",
        -12.328229904174805
      ],
      [
        "unk",
        -12.1805419921875
      ],
      [
        "▁elements",
        -11.639684677124023
      ],
      [
        "DW",
        -12.38194465637207
      ],
      [
        "fields",
        -11.937307357788086
      ],
      [
        "Allocate",
        -12.057406425476074
      ],
      [
        "▁doesn",
        -11.63064193725586
      ],
      [
        "MONO",
        -12.152310371398926
      ],
      [
        "Allocator",
        -12.164735794067383
      ],
      [
        "Provider",
        -12.21374225616455
      ],
      [
        "comment",
        -12.567237854003906
      ],
      [
        "unknown",
        -12.364084243774414
      ],
      [
        "▁tree",
        -11.639509201049805
      ],
      [
        "▁expression",
        -11.600970268249512
      ],
      [
        "BO",
        -11.94714069366455
      ],
      [
        "Ctx",
        -12.331220626831055
      ],
      [
        "▁total",
        -11.377978324890137
      ],
      [
        "correct",
        -13.193119049072266
      ],
      [
        "Do",
        -11.607762336730957
      ],
      [
        "dup",
        -12.29284381866455
      ],
      [
        "Script",
        -11.881922721862793
      ],
      [
        "Rec",
        -12.015604019165039
      ],
      [
        "ENUM",
        -12.18753433227539
      ],
      [
        "SK",
        -12.064314842224121
      ],
      [
        "ids",
        -11.667725563049316
      ],
      [
        "SF",
        -11.573470115661621
      ],
      [
        "▁convert",
        -11.92239761352539
      ],
      [
        "closure",
        -12.28577709197998
      ],
      [
        "stdio",
        -11.38616943359375
      ],
      [
        "ready",
        -12.143987655639648
      ],
      [
        "▁sure",
        -11.529679298400879
      ],
      [
        "serialize",
        -12.127031326293945
      ],
      [
        "math",
        -11.330229759216309
      ],
      [
        "Common",
        -12.133938789367676
      ],
      [
        "drop",
        -12.263742446899414
      ],
      [
        "SQLITE",
        -12.132878303527832
      ],
      [
        "Sequence",
        -12.115363121032715
      ],
      [
        "BY",
        -12.112499237060547
      ],
      [
        "▁timeout",
        -12.040602684020996
      ],
      [
        "ACPI",
        -12.128478050231934
      ],
      [
        "synthesize",
        -12.614619255065918
      ],
      [
        "ULL",
        -12.793270111083984
      ],
      [
        "▁Initialize",
        -11.751997947692871
      ],
      [
        "▁names",
        -11.494712829589844
      ],
      [
        "KHR",
        -12.414119720458984
      ],
      [
        "PRS",
        -13.70926284790039
      ],
      [
        "rr",
        -11.875229835510254
      ],
      [
        "rand",
        -12.112147331237793
      ],
      [
        "▁socket",
        -11.993754386901855
      ],
      [
        "▁TIMER",
        -12.625042915344238
      ],
      [
        "▁cannot",
        -11.624279022216797
      ],
      [
        "disp",
        -12.207359313964844
      ],
      [
        "none",
        -12.22052001953125
      ],
      [
        "pu",
        -12.05509090423584
      ],
      [
        "PCI",
        -12.42445182800293
      ],
      [
        "helper",
        -12.08469295501709
      ],
      [
        "restrict",
        -12.378630638122559
      ],
      [
        "ACC",
        -12.32645034790039
      ],
      [
        "Ret",
        -11.853306770324707
      ],
      [
        "elements",
        -12.325392723083496
      ],
      [
        "weight",
        -11.823247909545898
      ],
      [
        "properties",
        -12.482980728149414
      ],
      [
        "Rel",
        -12.17877197265625
      ],
      [
        "Power",
        -12.401969909667969
      ],
      [
        "ial",
        -11.466940879821777
      ],
      [
        "NAMESPACE",
        -12.010137557983398
      ],
      [
        "ers",
        -9.65300178527832
      ],
      [
        "Lib",
        -11.884383201599121
      ],
      [
        "▁root",
        -11.808326721191406
      ],
      [
        "boost",
        -12.377389907836914
      ],
      [
        "blocks",
        -12.198357582092285
      ],
      [
        "algorithm",
        -12.60792064666748
      ],
      [
        "PWR",
        -12.554222106933594
      ],
      [
        "Oid",
        -11.993762969970703
      ],
      [
        "Capture",
        -12.286314010620117
      ],
      [
        "operand",
        -12.284126281738281
      ],
      [
        "ness",
        -11.024762153625488
      ],
      [
        "▁display",
        -11.669032096862793
      ],
      [
        "DEFINED",
        -12.06981372833252
      ],
      [
        "Cluster",
        -12.16585636138916
      ],
      [
        "Im",
        -12.69332504272461
      ],
      [
        "MX",
        -12.041762351989746
      ],
      [
        "Zero",
        -11.972238540649414
      ],
      [
        "DLL",
[...]
