<|unk|>	0
<|startoftext|>	0
<|return|>	0
<|mask|>	0
<|endoftext|>	0
<|cls|>	0
<|eod|>	0
<|sep|>	0
<|reserved_000|>	0
<|reserved_001|>	0
<|reserved_002|>	0
<|reserved_003|>	0
<|reserved_004|>	0
<|reserved_005|>	0
<|reserved_006|>	0
<|reserved_007|>	0
<|reserved_008|>	0
<|reserved_009|>	0
<|reserved_010|>	0
<|reserved_011|>	0
<|reserved_012|>	0
<|reserved_013|>	0
<|reserved_014|>	0
<|reserved_015|>	0
<|reserved_016|>	0
<|reserved_017|>	0
<|reserved_018|>	0
<|reserved_019|>	0
<|reserved_020|>	0
<|reserved_021|>	0
<|reserved_022|>	0
<|reserved_023|>	0
<|reserved_024|>	0
<|reserved_025|>	0
<|reserved_026|>	0
<|reserved_027|>	0
<|reserved_028|>	0
<|reserved_029|>	0
<|reserved_030|>	0
<|reserved_031|>	0
<|reserved_032|>	0
<|reserved_033|>	0
<|reserved_034|>	0
<|reserved_035|>	0
<|reserved_036|>	0
<|reserved_037|>	0
<|reserved_038|>	0
<|reserved_039|>	0
<|reserved_040|>	0
<|reserved_041|>	0
<|reserved_042|>	0
<|reserved_043|>	0
<|reserved_044|>	0
<|reserved_045|>	0
<|reserved_046|>	0
<|reserved_047|>	0
<|reserved_048|>	0
<|reserved_049|>	0
<|reserved_050|>	0
<|reserved_051|>	0
<|reserved_052|>	0
<|reserved_053|>	0
<|reserved_054|>	0
<|reserved_055|>	0
<|reserved_056|>	0
<|reserved_057|>	0
<|reserved_058|>	0
<|reserved_059|>	0
<|reserved_060|>	0
<|reserved_061|>	0
<|reserved_062|>	0
<|reserved_063|>	0
<|reserved_064|>	0
<|reserved_065|>	0
<|reserved_066|>	0
<|reserved_067|>	0
<|reserved_068|>	0
<|reserved_069|>	0
<|reserved_070|>	0
<|reserved_071|>	0
<|reserved_072|>	0
<|reserved_073|>	0
<|reserved_074|>	0
<|reserved_075|>	0
<|reserved_076|>	0
<|reserved_077|>	0
<|reserved_078|>	0
<|reserved_079|>	0
<|reserved_080|>	0
<|reserved_081|>	0
<|reserved_082|>	0
<|reserved_083|>	0
<|reserved_084|>	0
<|reserved_085|>	0
<|reserved_086|>	0
<|reserved_087|>	0
<|reserved_088|>	0
<|reserved_089|>	0
<|reserved_090|>	0
<|reserved_091|>	0
<|reserved_092|>	0
<|reserved_093|>	0
<|reserved_094|>	0
<|reserved_095|>	0
<|reserved_096|>	0
<|reserved_097|>	0
<|reserved_098|>	0
<|reserved_099|>	0
<|reserved_100|>	0
<|reserved_101|>	0
<|reserved_102|>	0
<|reserved_103|>	0
<|reserved_104|>	0
<|reserved_105|>	0
<|reserved_106|>	0
<|reserved_107|>	0
<|reserved_108|>	0
<|reserved_109|>	0
<|reserved_110|>	0
<|reserved_111|>	0
<|reserved_112|>	0
<|reserved_113|>	0
<|reserved_114|>	0
<|reserved_115|>	0
<|reserved_116|>	0
<|reserved_117|>	0
<|reserved_118|>	0
<|reserved_119|>	0
<|reserved_120|>	0
<|reserved_121|>	0
<|reserved_122|>	0
<|reserved_123|>	0
<|reserved_124|>	0
<|reserved_125|>	0
<|reserved_126|>	0
<|reserved_127|>	0
<|reserved_128|>	0
<|reserved_129|>	0
<|reserved_130|>	0
<|reserved_131|>	0
<|reserved_132|>	0
<|reserved_133|>	0
<|reserved_134|>	0
<|reserved_135|>	0
<|reserved_136|>	0
<|reserved_137|>	0
<|reserved_138|>	0
<|reserved_139|>	0
<|reserved_140|>	0
<|reserved_141|>	0
<|reserved_142|>	0
<|reserved_143|>	0
<|reserved_144|>	0
<|reserved_145|>	0
<|reserved_146|>	0
<|reserved_147|>	0
<|reserved_148|>	0
<|reserved_149|>	0
<|reserved_150|>	0
<|reserved_151|>	0
<|reserved_152|>	0
<|reserved_153|>	0
<|reserved_154|>	0
<|reserved_155|>	0
<|reserved_156|>	0
<|reserved_157|>	0
<|reserved_158|>	0
<|reserved_159|>	0
<|reserved_160|>	0
<|reserved_161|>	0
<|reserved_162|>	0
<|reserved_163|>	0
<|reserved_164|>	0
<|reserved_165|>	0
<|reserved_166|>	0
<|reserved_167|>	0
<|reserved_168|>	0
<|reserved_169|>	0
<|reserved_170|>	0
<|reserved_171|>	0
<|reserved_172|>	0
<|reserved_173|>	0
<|reserved_174|>	0
<|reserved_175|>	0
<|reserved_176|>	0
<|reserved_177|>	0
<|reserved_178|>	0
<|reserved_179|>	0
<|reserved_180|>	0
<|reserved_181|>	0
<|reserved_182|>	0
<|reserved_183|>	0
<|reserved_184|>	0
<|reserved_185|>	0
<|reserved_186|>	0
<|reserved_187|>	0
<|reserved_188|>	0
<|reserved_189|>	0
<|reserved_190|>	0
<|reserved_191|>	0
<|reserved_192|>	0
<|reserved_193|>	0
<|reserved_194|>	0
<|reserved_195|>	0
<|reserved_196|>	0
<|reserved_197|>	0
<|reserved_198|>	0
<|reserved_199|>	0
<|reserved_200|>	0
<|reserved_201|>	0
<|reserved_202|>	0
<|reserved_203|>	0
<|reserved_204|>	0
<|reserved_205|>	0
<|reserved_206|>	0
<|reserved_207|>	0
<|reserved_208|>	0
<|reserved_209|>	0
<|reserved_210|>	0
<|reserved_211|>	0
<|reserved_212|>	0
<|reserved_213|>	0
<|reserved_214|>	0
<|reserved_215|>	0
<|reserved_216|>	0
<|reserved_217|>	0
<|reserved_218|>	0
<|reserved_219|>	0
<|reserved_220|>	0
<|reserved_221|>	0
<|reserved_222|>	0
<|reserved_223|>	0
<|reserved_224|>	0
<|reserved_225|>	0
<|reserved_226|>	0
<|reserved_227|>	0
<|reserved_228|>	0
<|reserved_229|>	0
<|reserved_230|>	0
<|reserved_231|>	0
<|reserved_232|>	0
<|reserved_233|>	0
<|reserved_234|>	0
<|reserved_235|>	0
<|reserved_236|>	0
<|reserved_237|>	0
<|reserved_238|>	0
<|reserved_239|>	0
<|reserved_240|>	0
<|reserved_241|>	0
<|reserved_242|>	0
<|reserved_243|>	0
<|reserved_244|>	0
<|reserved_245|>	0
<|reserved_246|>	0
<|reserved_247|>	0
<|reserved_248|>	0
<|reserved_249|>	0
<|reserved_250|>	0
<|reserved_251|>	0
<|reserved_252|>	0
<|reserved_253|>	0
<|reserved_254|>	0
<|reserved_255|>	0
<|reserved_256|>	0
<|reserved_257|>	0
<|reserved_258|>	0
<|reserved_259|>	0
<|reserved_260|>	0
<|reserved_261|>	0
<|reserved_262|>	0
<|reserved_263|>	0
<|reserved_264|>	0
<|reserved_265|>	0
<|reserved_266|>	0
<|reserved_267|>	0
<|reserved_268|>	0
<|reserved_269|>	0
<|reserved_270|>	0
<|reserved_271|>	0
<|reserved_272|>	0
<|reserved_273|>	0
<|reserved_274|>	0
<|reserved_275|>	0
<|reserved_276|>	0
<|reserved_277|>	0
<|reserved_278|>	0
<|reserved_279|>	0
<|reserved_280|>	0
<|reserved_281|>	0
<|reserved_282|>	0
<|reserved_283|>	0
<|reserved_284|>	0
<|reserved_285|>	0
<|reserved_286|>	0
<|reserved_287|>	0
<|reserved_288|>	0
<|reserved_289|>	0
<|reserved_290|>	0
<|reserved_291|>	0
<|reserved_292|>	0
<|reserved_293|>	0
<|reserved_294|>	0
<|reserved_295|>	0
<|reserved_296|>	0
<|reserved_297|>	0
<|reserved_298|>	0
<|reserved_299|>	0
<|reserved_300|>	0
<|reserved_301|>	0
<|reserved_302|>	0
<|reserved_303|>	0
<|reserved_304|>	0
<|reserved_305|>	0
<|reserved_306|>	0
<|reserved_307|>	0
<|reserved_308|>	0
<|reserved_309|>	0
<|reserved_310|>	0
<|reserved_311|>	0
<|reserved_312|>	0
<|reserved_313|>	0
<|reserved_314|>	0
<|reserved_315|>	0
<|reserved_316|>	0
<|reserved_317|>	0
<|reserved_318|>	0
<|reserved_319|>	0
<|reserved_320|>	0
<|reserved_321|>	0
<|reserved_322|>	0
<|reserved_323|>	0
<|reserved_324|>	0
<|reserved_325|>	0
<|reserved_326|>	0
<|reserved_327|>	0
<|reserved_328|>	0
<|reserved_329|>	0
<|reserved_330|>	0
<|reserved_331|>	0
<|reserved_332|>	0
<|reserved_333|>	0
<|reserved_334|>	0
<|reserved_335|>	0
<|reserved_336|>	0
<|reserved_337|>	0
<|reserved_338|>	0
<|reserved_339|>	0
<|reserved_340|>	0
<|reserved_341|>	0
<|reserved_342|>	0
<|reserved_343|>	0
<0x00>	0
<0x01>	0
<0x02>	0
<0x03>	0
<0x04>	0
<0x05>	0
<0x06>	0
<0x07>	0
<0x08>	0
<0x09>	0
<0x0A>	0
<0x0B>	0
<0x0C>	0
<0x0D>	0
<0x0E>	0
<0x0F>	0
<0x10>	0
<0x11>	0
<0x12>	0
<0x13>	0
<0x14>	0
<0x15>	0
<0x16>	0
<0x17>	0
<0x18>	0
<0x19>	0
<0x1A>	0
<0x1B>	0
<0x1C>	0
<0x1D>	0
<0x1E>	0
<0x1F>	0
<0x20>	0
<0x21>	0
<0x22>	0
<0x23>	0
<0x24>	0
<0x25>	0
<0x26>	0
<0x27>	0
<0x28>	0
<0x29>	0
<0x2A>	0
<0x2B>	0
<0x2C>	0
<0x2D>	0
<0x2E>	0
<0x2F>	0
<0x30>	0
<0x31>	0
<0x32>	0
<0x33>	0
<0x34>	0
<0x35>	0
<0x36>	0
<0x37>	0
<0x38>	0
<0x39>	0
<0x3A>	0
<0x3B>	0
<0x3C>	0
<0x3D>	0
<0x3E>	0
<0x3F>	0
<0x40>	0
<0x41>	0
<0x42>	0
<0x43>	0
<0x44>	0
<0x45>	0
<0x46>	0
<0x47>	0
<0x48>	0
<0x49>	0
<0x4A>	0
<0x4B>	0
<0x4C>	0
<0x4D>	0
<0x4E>	0
<0x4F>	0
<0x50>	0
<0x51>	0
<0x52>	0
<0x53>	0
<0x54>	0
<0x55>	0
<0x56>	0
<0x57>	0
<0x58>	0
<0x59>	0
<0x5A>	0
<0x5B>	0
<0x5C>	0
<0x5D>	0
<0x5E>	0
<0x5F>	0
<0x60>	0
<0x61>	0
<0x62>	0
<0x63>	0
<0x64>	0
<0x65>	0
<0x66>	0
<0x67>	0
<0x68>	0
<0x69>	0
<0x6A>	0
<0x6B>	0
<0x6C>	0
<0x6D>	0
<0x6E>	0
<0x6F>	0
<0x70>	0
<0x71>	0
<0x72>	0
<0x73>	0
<0x74>	0
<0x75>	0
<0x76>	0
<0x77>	0
<0x78>	0
<0x79>	0
<0x7A>	0
<0x7B>	0
<0x7C>	0
<0x7D>	0
<0x7E>	0
<0x7F>	0
<0x80>	0
<0x81>	0
<0x82>	0
<0x83>	0
<0x84>	0
<0x85>	0
<0x86>	0
<0x87>	0
<0x88>	0
<0x89>	0
<0x8A>	0
<0x8B>	0
<0x8C>	0
<0x8D>	0
<0x8E>	0
<0x8F>	0
<0x90>	0
<0x91>	0
<0x92>	0
<0x93>	0
<0x94>	0
<0x95>	0
<0x96>	0
<0x97>	0
<0x98>	0
<0x99>	0
<0x9A>	0
<0x9B>	0
<0x9C>	0
<0x9D>	0
<0x9E>	0
<0x9F>	0
<0xA0>	0
<0xA1>	0
<0xA2>	0
<0xA3>	0
<0xA4>	0
<0xA5>	0
<0xA6>	0
<0xA7>	0
<0xA8>	0
<0xA9>	0
<0xAA>	0
<0xAB>	0
<0xAC>	0
<0xAD>	0
<0xAE>	0
<0xAF>	0
<0xB0>	0
<0xB1>	0
<0xB2>	0
<0xB3>	0
<0xB4>	0
<0xB5>	0
<0xB6>	0
<0xB7>	0
<0xB8>	0
<0xB9>	0
<0xBA>	0
<0xBB>	0
<0xBC>	0
<0xBD>	0
<0xBE>	0
<0xBF>	0
<0xC0>	0
<0xC1>	0
<0xC2>	0
<0xC3>	0
<0xC4>	0
<0xC5>	0
<0xC6>	0
<0xC7>	0
<0xC8>	0
<0xC9>	0
<0xCA>	0
<0xCB>	0
<0xCC>	0
<0xCD>	0
<0xCE>	0
<0xCF>	0
<0xD0>	0
<0xD1>	0
<0xD2>	0
<0xD3>	0
<0xD4>	0
<0xD5>	0
<0xD6>	0
<0xD7>	0
<0xD8>	0
<0xD9>	0
<0xDA>	0
<0xDB>	0
<0xDC>	0
<0xDD>	0
<0xDE>	0
<0xDF>	0
<0xE0>	0
<0xE1>	0
<0xE2>	0
<0xE3>	0
<0xE4>	0
<0xE5>	0
<0xE6>	0
<0xE7>	0
<0xE8>	0
<0xE9>	0
<0xEA>	0
<0xEB>	0
<0xEC>	0
<0xED>	0
<0xEE>	0
<0xEF>	0
<0xF0>	0
<0xF1>	0
<0xF2>	0
<0xF3>	0
<0xF4>	0
<0xF5>	0
<0xF6>	0
<0xF7>	0
<0xF8>	0
<0xF9>	0
<0xFA>	0
<0xFB>	0
<0xFC>	0
<0xFD>	0
<0xFE>	0
<0xFF>	0
,	-3.15187
▁	-3.56643
▁the	-3.57458
.	-3.59016
▁of	-4.09344
▁and	-4.27405
▁to	-4.42466
1	-4.56003
▁a	-4.65729
0	-4.67437
▁in	-4.7814
2	-4.84343
、	-4.99434
。	-5.02681
s	-5.07624
-	-5.13037
_	-5.20832
▁that	-5.27094
▁is	-5.32538
3	-5.49778
'	-5.50072
▁was	-5.5273
▁\	-5.52969
▁for	-5.58073
:	-5.59385
{	-5.61033
)	-5.62714
;	-5.64214
▁I	-5.64553
▁with	-5.66118
5	-5.67914
▁it	-5.69207
4	-5.71188
▁"	-5.72875
▁as	-5.74619
▁he	-5.85606
8	-5.86258
▁his	-5.86514
9	-5.8676
(	-5.88452
▁be	-5.88624
6	-5.89646
▁on	-5.93274
▁The	-5.93312
▁by	-5.95357
}	-5.96062
▁(	-5.99778
7	-5.99981
▁not	-6.09425
▁at	-6.10778
▁you	-6.14999
▁had	-6.15868
▁are	-6.18763
▁from	-6.19684
▁which	-6.21295
\	-6.21781
▁have	-6.24417
▁this	-6.31278
▁or	-6.34027
▁▁▁▁	-6.36085
▁$	-6.36901
t	-6.39425
▁her	-6.42463
▁but	-6.48604
▁an	-6.51329
▁all	-6.52037
▁we	-6.52398
▁were	-6.53555
▁they	-6.56014
の	-6.57079
"	-6.58689
’	-6.60913
$	-6.61731
/	-6.6254
▁their	-6.63629
▁one	-6.64535
▁him	-6.68986
--	-6.71235
的	-6.72383
n	-6.73309
▁▁	-6.74544
!	-6.75796
?	-6.77498
は	-6.8038
▁so	-6.80758
▁she	-6.8447
▁_	-6.86827
▁will	-6.88887
▁been	-6.8952
▁=	-6.90915
▁can	-6.90967
▁my	-6.91779
▁-	-6.92506
▁them	-6.93872
▁“	-6.94569
."	-6.94881
▁who	-6.95549
]	-6.96268
▁me	-6.98062
▁would	-6.9807
が	-6.99006
▁▁▁▁▁	-6.99516
▁if	-6.99991
▁more	-7.00352
▁has	-7.01087
▁$\	-7.0245
▁there	-7.03819
▁said	-7.0482
▁no	-7.06553
▁when	-7.06793
i	-7.083
x	-7.08478
▁A	-7.08751
_{	-7.0974
d	-7.10466
▁▁▁▁▁▁▁▁▁▁▁▁▁▁▁▁	-7.13409
▁out	-7.14229
▁It	-7.14239
▁He	-7.14246
a	-7.14877
,"	-7.15132
▁In	-7.17628
▁into	-7.17839
▁up	-7.18447
I	-7.1916
で	-7.19398
e	-7.19739
と	-7.20033
▁time	-7.23033
▁your	-7.24468
」	-7.24608
を	-7.25517
▁other	-7.25832
・	-7.26588
▁some	-7.26871
▁▁▁	-7.27136
▁than	-7.28019
に	-7.29576
▁its	-7.29652
▁▁▁▁▁▁	-7.31788
in	-7.32307
▁do	-7.33891
▁about	-7.33941
m	-7.34167
▁our	-7.34674
▁only	-7.36991
▁what	-7.37425
▁[	-7.37621
▁any	-7.39012
▁could	-7.40008
A	-7.40888
▁two	-7.41469
=	-7.42657
▁very	-7.43474
▁such	-7.45514
k	-7.46277
▁may	-7.47238
▁then	-7.47809
「	-7.49236
▁|	-7.49539
▁these	-7.4964
▁▁▁▁▁▁▁▁	-7.50654
▁man	-7.51907
▁&	-7.53999
▁over	-7.55339
▁like	-7.56016
▁This	-7.56637
▁first	-7.56682
^	-7.57233
S	-7.58124
▁But	-7.58381
[	-7.58523
▁now	-7.5935
▁where	-7.59991
１	-7.60663
）	-7.61577
（	-7.62068
月	-7.62194
}\	-7.62504
▁should	-7.62694
▁also	-7.63064
▁upon	-7.63463
年	-7.63968
▁And	-7.64016
p	-7.65181
▁made	-7.65446
▁'	-7.67158
y	-7.6778
{\	-7.68878
end	-7.6895
▁little	-7.69779
▁most	-7.7079
▁us	-7.7176
%	-7.72734
r	-7.72989
▁before	-7.73203
和	-7.73306
▁see	-7.73977
>	-7.74355
▁well	-7.74821
▁We	-7.74822
▁after	-7.74842
０	-7.76109
C	-7.76354
▁did	-7.76454
?"	-7.76781
▁great	-7.77508
▁much	-7.77676
+	-7.78137
▁must	-7.78251
c	-7.78409
日	-7.78731
在	-7.78836
や	-7.79786
begin	-7.81168
も	-7.81567
T	-7.84028
▁good	-7.84095
▁many	-7.84404
▁know	-7.84808
▁down	-7.85799
▁*	-7.86116
▁way	-7.86945
▁through	-7.87928
▁those	-7.88465
f	-7.89266
▁same	-7.90429
▁being	-7.91287
b	-7.92714
▁long	-7.93915
▁make	-7.941
▁people	-7.94637
】	-7.94851
▁men	-7.95098
▁day	-7.95456
|	-7.95472
▁how	-7.95963
２	-7.96154
▁Mr	-7.97287
ing	-7.98967
▁life	-7.9919
▁own	-7.9926
frac	-7.99683
▁even	-8.0071
　	-8.03031
▁old	-8.03241
です	-8.0366
▁between	-8.0385
j	-8.04731
▁each	-8.04849
▁under	-8.05476
▁work	-8.0579
▁They	-8.06227
▁back	-8.06241
▁every	-8.06638
▁found	-8.07256
了	-8.07727
▁never	-8.07828
B	-8.0828
.”	-8.08328
}$	-8.08713
▁go	-8.08763
).	-8.08836
から	-8.08969
!"	-8.09108
▁come	-8.09275
▁new	-8.0941
▁came	-8.09597
g	-8.09636
▁She	-8.09744
▁without	-8.09974
▁If	-8.09986
D	-8.10341
▁here	-8.10486
R	-8.10536
ed	-8.10584
▁might	-8.10787
▁years	-8.11537
(\	-8.11596
▁For	-8.12013
G	-8.12086
▁#	-8.12536
▁while	-8.12575
▁get	-8.12676
),	-8.132
u	-8.1401
▁too	-8.14586
▁just	-8.14857
▁say	-8.15265
X	-8.15879
▁There	-8.16513
▁use	-8.16807
M	-8.17736
v	-8.17899
▁himself	-8.17945
▁+	-8.18727
▁take	-8.18798
▁【	-8.18803
}{	-8.18917
mathcal	-8.19549
▁C	-8.19605
The	-8.20079
N	-8.20162
▁again	-8.20355
▁still	-8.20786
▁three	-8.20836
L	-8.2108
▁last	-8.21106
▁used	-8.22119
▁{	-8.22664
▁place	-8.22752
▁▁▁▁▁▁▁▁▁▁▁▁	-8.23001
▁shall	-8.23901
ref	-8.24294
▁part	-8.24378
h	-8.24378
▁think	-8.24697
E	-8.24735
P	-8.24772
人	-8.25256
中	-8.25503
是	-8.26206
_{\	-8.26501
▁set	-8.28379
▁right	-8.28676
▁As	-8.29018
▁hand	-8.2903
！	-8.29129
—	-8.30028
▁away	-8.30974
▁because	-8.31101
▁both	-8.313
ll	-8.31303
▁▁▁▁▁▁▁▁▁	-8.32082
right	-8.32157
th	-8.32585
l	-8.33076
F	-8.3356
▁world	-8.3379
H	-8.34036
▁am	-8.34099
)$	-8.34111
의	-8.34367
left	-8.34531
,”	-8.34936
▁another	-8.35098
▁water	-8.35405
▁thought	-8.35835
to	-8.36333
);	-8.36654
▁went	-8.37128
the	-8.37715
z	-8.37917
”	-8.37944
▁against	-8.37958
▁To	-8.3805
▁S	-8.38524
and	-8.38918
▁off	-8.39025
▁M	-8.39308
▁left	-8.39921
^{	-8.4047
ly	-8.40566
▁When	-8.41507
label	-8.41625
▁find	-8.42268
$.	-8.42435
３	-8.42608
▁B	-8.42787
し	-8.42961
▁p	-8.43346
▁few	-8.43624
re	-8.43815
等	-8.43854
▁number	-8.44383
▁given	-8.44411
▁though	-8.4455
▁called	-8.44832
▁de	-8.44897
▁case	-8.45061
er	-8.45217
▁You	-8.45559
▁Then	-8.45851
}(	-8.45992
을	-8.46739
equation	-8.47038
mathbb	-8.47132
▁R	-8.47149
大	-8.4755
：	-8.47586
▁eyes	-8.4776
▁give	-8.48161
▁▁▁▁▁▁▁▁▁▁▁▁▁	-8.48662
*	-8.4877
▁God	-8.48961
▁name	-8.49264
▁yet	-8.49822
▁once	-8.50369
alpha	-8.50795
▁far	-8.51855
▁head	-8.5255
▁young	-8.52581
上	-8.53083
有	-8.53123
▁always	-8.5316
▁small	-8.53531
▁don	-8.53565
▁ever	-8.54079
▁put	-8.55149
▁side	-8.55298
▁things	-8.55388
▁different	-8.5641
▁face	-8.56426
$,	-8.56475
K	-8.56584
▁high	-8.56789
▁large	-8.5749
▁P	-8.58329
cite	-8.58403
o	-8.58414
▁does	-8.58566
▁x	-8.58769
▁house	-8.58842
q	-8.59157
▁order	-8.59313
▁took	-8.59783
▁<	-8.60615
▁i	-8.60784
▁end	-8.60789
▁nothing	-8.61334
▁At	-8.61448
▁His	-8.61552
▁let	-8.61766
▁country	-8.62118
▁better	-8.62337
▁night	-8.6295
에	-8.6368
▁home	-8.63922
w	-8.6433
▁whole	-8.64393
▁What	-8.65067
▁saw	-8.65145
▁H	-8.65355
▁seen	-8.65465
▁T	-8.65648
▁having	-8.65839
)\	-8.6614
▁「	-8.66361
▁point	-8.66923
▁THE	-8.66929
▁done	-8.67302
▁form	-8.67422
▁power	-8.67677
▁look	-8.67734
▁year	-8.67896
~	-8.67906
▁state	-8.68148
▁heart	-8.68212
▁following	-8.68259
▁among	-8.68321
▁mind	-8.68473
▁during	-8.68856
V	-8.69056
▁best	-8.6916
▁E	-8.69165
する	-8.69326
▁since	-8.69389
▁course	-8.69423
}}	-8.69533
▁going	-8.69644
▁days	-8.70227
▁however	-8.70628
▁light	-8.71031
▁half	-8.71451
▁above	-8.71463
一	-8.71539
▁▁▁▁▁▁▁	-8.71571
▁So	-8.71655
与	-8.71659
▁On	-8.71817
▁love	-8.71859
▁less	-8.72085
▁D	-8.72314
▁thing	-8.72497
▁present	-8.72914
▁children	-8.73228
이	-8.73421
...	-8.7368
▁enough	-8.73954
４	-8.74018
&	-8.74497
▁until	-8.74735
▁That	-8.75214
▁tell	-8.75367
▁L	-8.75487
▁often	-8.75887
▁need	-8.76145
な	-8.76318
▁help	-8.7647
▁known	-8.76613
▁something	-8.7679
}_	-8.76883
▁father	-8.77107
▁want	-8.77132
▁using	-8.77154
ve	-8.7792
▁No	-8.78228
为	-8.79045
▁system	-8.79236
▁almost	-8.79311
▁F	-8.7947
▁fact	-8.79535
▁taken	-8.7965
▁data	-8.79757
es	-8.79788
▁got	-8.79992
我	-8.80014
▁told	-8.80022
した	-8.8012
▁return	-8.80381
▁words	-8.80688
…	-8.81366
▁body	-8.8188
５	-8.82016
▁asked	-8.82026
▁next	-8.83662
▁true	-8.83773
不	-8.83904
▁looked	-8.84054
▁By	-8.84128
▁whom	-8.84405
▁within	-8.84478
▁Mrs	-8.84514
lambda	-8.84768
mu	-8.84914
▁others	-8.84988
▁moment	-8.85151
▁seemed	-8.85203
▁soon	-8.85334
▁means	-8.86201
▁full	-8.86672
는	-8.86712
▁heard	-8.86716
You	-8.87232
小	-8.87392
▁second	-8.8758
int	-8.87619
▁###	-8.87651
など	-8.88205
して	-8.88304
▁G	-8.8849
||	-8.88544
▁woman	-8.88606
▁whose	-8.88875
▁New	-8.88929
▁self	-8.88963
<	-8.88978
▁four	-8.8903
▁quite	-8.89357
W	-8.8954
▁{\	-8.89757
分	-8.90131
▁N	-8.90132
には	-8.90184
▁together	-8.90187
对	-8.90228
▁general	-8.90387
▁white	-8.90613
를	-8.90621
▁around	-8.90813
},	-8.90954
▁possible	-8.90954
▁hands	-8.91064
▁knew	-8.91118
▁cannot	-8.9112
O	-8.91252
他	-8.9195
▁rather	-8.92168
▁themselves	-8.92187
▁certain	-8.92223
▁along	-8.92318
▁mother	-8.92602
▁death	-8.92692
::	-8.92706
では	-8.92904
▁These	-8.93084
▁several	-8.93108
▁‘	-8.93188
▁room	-8.93235
은	-8.93416
▁gave	-8.93796
▁word	-8.93945
▁J	-8.9407
▁public	-8.94108
pi	-8.94231
▁show	-8.94434
▁line	-8.9451
▁near	-8.9489
▁Let	-8.95088
▁brought	-8.95094
▁open	-8.95262
用	-8.95564
▁One	-8.95893
▁least	-8.95962
▁times	-8.96895
▁matter	-8.96908
▁says	-8.97263
？	-8.97285
到	-8.97507
com	-8.97696
Y	-8.97744
_\	-8.9783
▁thus	-8.98193
▁feet	-8.98429
地	-8.99104
Z	-8.99277
le	-8.99413
▁child	-8.99565
,\	-8.99593
▁O	-8.99955
}^	-9.00076
가	-9.00219
U	-9.00309
▁W	-9.00348
▁}	-9.00354
▁important	-9.00552
▁All	-9.00639
▁began	-9.00854
▁class	-9.00962
▁women	-9.01664
▁kind	-9.01851
円	-9.02071
▁either	-9.02357
}_{	-9.02487
也	-9.02972
という	-9.03096
』	-9.03373
▁##	-9.03525
sum	-9.0356
▁keep	-9.03657
▁become	-9.03705
▁family	-9.03749
▁value	-9.03917
Q	-9.04234
▁air	-9.0443
▁Lord	-9.04561
It	-9.0468
▁function	-9.04744
▁already	-9.04764
被	-9.04779
▁human	-9.04791
text	-9.04947
▁turned	-9.05263
水	-9.05452
▁morning	-9.05582
▁V	-9.05645
or	-9.05827
▁door	-9.06118
▁English	-9.06766
▁\\	-9.06792
第	-9.06938
is	-9.06973
か	-9.0701
▁result	-9.07312
▁war	-9.07319
▁f	-9.07391
子	-9.07473
▁nor	-9.07591
▁John	-9.07602
leq	-9.07781
▁With	-9.08066
▁study	-9.08618
▁common	-9.08653
下	-9.08725
^{\	-9.09075
▁land	-9.09128
})	-9.09216
it	-9.09437
▁question	-9.09722
▁K	-9.09836
▁c	-9.09906
beta	-9.09958
以	-9.1009
》	-9.10377
性	-9.10596
~\	-9.10913
▁n	-9.10917
。"	-9.11093
新	-9.1115
▁itself	-9.11263
▁poor	-9.11405
▁able	-9.1178
}^{	-9.11856
▁felt	-9.12083
▁money	-9.12206
～	-9.12517
▁Now	-9.12543
sigma	-9.12546
▁short	-9.12572
▁change	-9.12782
*}	-9.1284
▁information	-9.12845
▁nature	-9.12883
J	-9.1311
▁–	-9.13136
▁whether	-9.1318
６	-9.13187
▁sent	-9.13212
▁example	-9.13318
eq	-9.13385
://	-9.13463
《	-9.13569
▁round	-9.13582
▁early	-9.13862
就	-9.13881
▁fire	-9.13919
▁read	-9.13963
▁・	-9.13988
ので	-9.14092
この	-9.14139
而	-9.14436
▁therefore	-9.14546
▁sure	-9.1475
▁making	-9.14829
▁St	-9.1486
将	-9.14925
后	-9.15086
▁mean	-9.15182
▁person	-9.15193
▁believe	-9.15222
▁ground	-9.15522
▁city	-9.15562
):	-9.1571
▁▁▁▁▁▁▁▁▁▁	-9.15784
rm	-9.15809
mathrm	-9.15861
会	-9.15917
▁X	-9.15962
▁voice	-9.15969
▁OF	-9.16267
▁became	-9.16423
▁수	-9.16468
▁call	-9.16503
mathbf	-9.16568
▁anything	-9.1676
▁passed	-9.17342
▁d	-9.17358
として	-9.17709
▁held	-9.17958
▁//	-9.18083
▁free	-9.18086
って	-9.1838
▁How	-9.18454
▁U	-9.18717
And	-9.18732
▁care	-9.18953
?”	-9.18979
でも	-9.19087
▁v	-9.19106
▁why	-9.19341
▁King	-9.19365
▁▁▁▁▁▁▁▁▁▁▁▁▁▁▁	-9.19377
その	-9.19629
align	-9.19802
▁later	-9.19861
，	-9.19936
要	-9.20546
▁rest	-9.20602
▁friend	-9.20662
▁space	-9.20715
▁model	-9.20781
▁low	-9.2086
▁stood	-9.20983
▁wife	-9.21268
▁hundred	-9.2147
▁five	-9.21562
infty	-9.21631
来	-9.21933
▁age	-9.22045
市	-9.22126
gamma	-9.22246
▁After	-9.22298
時	-9.22361
▁till	-9.22365
▁black	-9.22412
高	-9.2255
="	-9.22722
▁real	-9.2287
▁reason	-9.22956
本	-9.23138
▁son	-9.23383
▁field	-9.23405
▁\<	-9.23448
▁non	-9.23555
▁cause	-9.23574
▁England	-9.23687
▁girl	-9.23883
▁e	-9.23909
delta	-9.2392
if	-9.24022
▁really	-9.24338
▁$$	-9.24712
▁sea	-9.24752
▁close	-9.24807
▁results	-9.24908
出	-9.24976
▁myself	-9.24977
▁book	-9.25302
你	-9.25664
▁across	-9.25759
▁m	-9.25867
▁further	-9.25953
phi	-9.26084
▁alone	-9.26226
▁strong	-9.26555
▁law	-9.26913
theta	-9.26942
る	-9.27028
on	-9.27042
▁type	-9.27117
▁hard	-9.27194
tau	-9.27198
▁position	-9.27329
No	-9.27647
▁blood	-9.27754
▁else	-9.2781
▁perhaps	-9.27955
▁necessary	-9.28319
rho	-9.28323
▁business	-9.28416
者	-9.28901
",	-9.29074
▁history	-9.29083
What	-9.2924
▁b	-9.2943
▁French	-9.29611
▁school	-9.29753
金	-9.29756
▁leave	-9.29795
▁American	-9.29921
▁natural	-9.30001
▁effect	-9.3007
▁o	-9.30422
al	-9.30457
▁An	-9.30515
时	-9.30529
▁paper	-9.30609
▁subject	-9.30976
▁Miss	-9.31166
▁behind	-9.31224
bar	-9.31227
都	-9.31351
さん	-9.31647
▁Sir	-9.31816
名	-9.31819
▁indeed	-9.31842
}(\	-9.31876
()	-9.31896
▁From	-9.3196
从	-9.32058
▁herself	-9.32324
着	-9.32483
▁(\	-9.325
▁hope	-9.32659
as	-9.32886
▁boy	-9.32997
▁health	-9.3309
▁story	-9.33238
도	-9.33343
▁food	-9.33398
▁group	-9.33548
部	-9.33762
▁town	-9.3386
▁feel	-9.33871
▁account	-9.33938
▁gone	-9.34003
▁However	-9.34101
▁>	-9.34128
天	-9.34275
７	-9.34342
▁letter	-9.34383
▁sense	-9.34436
『	-9.34475
->	-9.34492
▁idea	-9.34578
partial	-9.34652
家	-9.34742
▁king	-9.34759
▁view	-9.34842
과	-9.34897
▁turn	-9.35121
▁single	-9.35473
▁understand	-9.35585
▁friends	-9.35608
▁lost	-9.35637
▁length	-9.35694
について	-9.35741
▁process	-9.35756
前	-9.35759
eqref	-9.35826
▁States	-9.3584
▁hear	-9.35876
多	-9.35984
▁seems	-9.36167
▁y	-9.3637
times	-9.36421
▁received	-9.36435
▁interest	-9.36509
回	-9.36566
▁towards	-9.36747
▁Here	-9.36797
$-	-9.36839
ell	-9.36924
.]	-9.36975
、「	-9.37088
▁live	-9.37123
▁manner	-9.37231
▁per	-9.37257
))	-9.3727
한	-9.3728
点	-9.37286
中国	-9.37491
▁energy	-9.3754
}.	-9.37921
之	-9.38052
▁character	-9.38129
▁force	-9.38229
▁lay	-9.38491
▁due	-9.38646
}{\	-9.3877
▁answer	-9.3886
▁hour	-9.39012
可	-9.39168
▁earth	-9.39213
▁looking	-9.39298
^\	-9.39302
▁coming	-9.39877
▁Of	-9.39911
である	-9.39959
但	-9.39974
▁various	-9.40009
▁problem	-9.40038
that	-9.40057
▁particular	-9.40206
８	-9.40345
▁My	-9.40451
▁dear	-9.40527
▁clear	-9.4067
▁dead	-9.40827
及	-9.41121
化	-9.41266
▁•	-9.41298
em	-9.41365
로	-9.41511
▁red	-9.41786
好	-9.41796
▁knowledge	-9.41876
▁government	-9.42069
^{-	-9.42406
▁Dr	-9.42473
▁below	-9.42835
▁followed	-9.42972
山	-9.43066
▁taking	-9.43372
▁condition	-9.4355
▁dark	-9.43554
Oh	-9.43601
omega	-9.43686
고	-9.43891
▁period	-9.43895
三	-9.43991
▁kept	-9.44128
▁speak	-9.44131
xi	-9.44401
▁Some	-9.44498
▁▁▁▁▁▁▁▁▁▁▁	-9.45112
cdot	-9.4512
▁size	-9.45149
hat	-9.45241
▁action	-9.45276
for	-9.45392
▁▁▁▁▁▁▁▁▁▁▁▁▁▁	-9.45718
▁cried	-9.4575
或	-9.45792
–	-9.45858
心	-9.46127
▁Q	-9.46144
▁sometimes	-9.4616
But	-9.46299
〜	-9.46447
에서	-9.46734
Illustration	-9.46745
▁run	-9.46756
us	-9.46952
We	-9.47137
まで	-9.47159
▁longer	-9.47183
▁six	-9.47394
▁table	-9.47401
▁past	-9.47454
Yes	-9.47809
▁cut	-9.47862
▁thou	-9.47879
▁fine	-9.47915
色	-9.47977
また	-9.48064
说	-9.48145
▁hold	-9.48178
man	-9.48204
▁replied	-9.48317
道	-9.48441
▁hours	-9.48574
美	-9.48686
▁shown	-9.48724
▁carried	-9.48836
▁distance	-9.48841
▁object	-9.48846
▁ten	-9.48847
id	-9.4894
▁$(	-9.49109
へ	-9.49298
日本	-9.4934
▁truth	-9.49367
▁cases	-9.49517
▁miles	-9.49521
▁service	-9.49724
▁simple	-9.50033
−	-9.50363
an	-9.50394
▁river	-9.50487
of	-9.50548
▁deep	-9.50659
▁...	-9.50693
▁method	-9.50711
▁un	-9.50752
▁conditions	-9.50754
▁answered	-9.50811
▁twenty	-9.50928
▁United	-9.5105
▁Thus	-9.51052
▁bring	-9.51154
▁added	-9.51603
て	-9.51699
▁returned	-9.51766
▁beautiful	-9.51799
▁et	-9.5196
▁similar	-9.5208
▁fell	-9.52226
item	-9.52235
手	-9.52399
▁play	-9.52402
▁nearly	-9.52972
▁especially	-9.53241
▁thousand	-9.53382
内	-9.53475
▁written	-9.53488
▁sun	-9.53634
!”	-9.53744
▁lower	-9.53768
▁purpose	-9.54057
▁future	-9.54213
ers	-9.54218
▁makes	-9.54388
▁ready	-9.54585
▁art	-9.54678
He	-9.54753
▁living	-9.5485
▁London	-9.54959
▁wish	-9.55117
▁according	-9.5517
nu	-9.55208
▁t	-9.5521
▁eye	-9.55325
st	-9.55451
▁party	-9.55559
www	-9.55771
▁thy	-9.55797
en	-9.55874
▁higher	-9.55888
た	-9.56014
▁re	-9.56022
▁u	-9.56075
tilde	-9.56092
９	-9.56158
▁main	-9.56239
▁met	-9.56315
▁comes	-9.56319
▁follows	-9.56374
方	-9.56401
型	-9.56486
▁late	-9.56508
▁sat	-9.56513
数	-9.56532
▁seem	-9.56562
▁support	-9.56767
生	-9.56777
▁probably	-9.56903
▁Her	-9.57067
公司	-9.57079
varepsilon	-9.57168
▁doubt	-9.57173
▁church	-9.57274
▁parts	-9.57302
▁greater	-9.57329
▁rate	-9.57448
eta	-9.57632
▁considered	-9.57778
法	-9.57784
▁arms	-9.57787
▁road	-9.58253
去	-9.58464
▁/	-9.58486
所	-9.58487
년	-9.5851
▁terms	-9.58578
▁soul	-9.58654
bf	-9.58735
▁sort	-9.58779
▁won	-9.58815
▁reached	-9.58897
▁language	-9.58903
:"	-9.59041
▁k	-9.59045
▁level	-9.59128
but	-9.59214
元	-9.59381
▁points	-9.59488
▁ask	-9.59498
▁brother	-9.59548
▁consider	-9.59703
▁attention	-9.59712
力	-9.59737
▁latter	-9.59867
Delta	-9.59899
▁spirit	-9.599
▁front	-9.59918
里	-9.59962
 	-9.60028
▁big	-9.60328
【	-9.6051
Omega	-9.6057
▁continued	-9.60632
▁beyond	-9.60645
▁France	-9.60655
▁surface	-9.60757
・・・	-9.61094
より	-9.6115
▁fear	-9.61245
cm	-9.61276
▁students	-9.61391
▁lady	-9.61459
▁including	-9.61737
ness	-9.61803
▁century	-9.61933
▁forward	-9.62003
+\	-9.62102
▁local	-9.62146
▁evening	-9.62309
▁although	-9.62331
▁sound	-9.62381
▁doing	-9.6239
▁cold	-9.62446
▁company	-9.62611
▁sir	-9.62928
▁sight	-9.63006
▁g	-9.63156
▁appeared	-9.63294
▁placed	-9.63307
▁control	-9.6338
▁everything	-9.6358
▁top	-9.63635
▁CHAPTER	-9.63676
▁led	-9.63978
▁York	-9.64037
·	-9.64053
▁experience	-9.64132
她	-9.64141
▁${\	-9.64384
ます	-9.6444
▁social	-9.64488
day	-9.64734
事	-9.64931
ね	-9.65014
▁tree	-9.65028
▁act	-9.65044
▁meet	-9.6508
In	-9.65118
▁didn	-9.65157
▁talk	-9.65211
．	-9.65368
)}	-9.65513
花	-9.65654
能	-9.66025
している	-9.66089
▁fall	-9.66134
▁based	-9.66266
号	-9.66333
Well	-9.66411
▁test	-9.66527
可以	-9.66558
▁r	-9.66561
▁toward	-9.66567
▁ago	-9.66601
▁except	-9.66648
▁range	-9.66734
▁bed	-9.66791
文	-9.66801
図	-9.66808
psi	-9.66827
光	-9.6692
▁months	-9.67009
我们	-9.67092
并	-9.67124
工作	-9.67339
▁lines	-9.67419
▁horse	-9.67452
万	-9.67544
▁pass	-9.67669
("	-9.67673
▁write	-9.67809
▁step	-9.67828
▁try	-9.67975
▁development	-9.68002
▁died	-9.68116
That	-9.68349
自己	-9.68472
这	-9.68499
▁easy	-9.68732
▁species	-9.68777
します	-9.68818
▁Y	-9.69006
▁generally	-9.69203
▁instead	-9.69207
▁General	-9.69219
▁British	-9.69291
于	-9.69313
\\	-9.6932
와	-9.69366
网	-9.69476
使用	-9.69526
으로	-9.69613
▁works	-9.69717
▁note	-9.69791
▁trees	-9.7005
=\	-9.7018
▁May	-9.70184
▁bad	-9.70362
時間	-9.70606
▁While	-9.70786
▁required	-9.7082
外	-9.70873
一个	-9.70879
♪	-9.71216
▁usually	-9.71233
▁none	-9.71327
sqrt	-9.71344
▁army	-9.71426
▁likely	-9.71442
▁Since	-9.71847
▁stand	-9.71851
▁start	-9.71921
.--	-9.71941
proof	-9.72325
向	-9.72443
▁gold	-9.7258
▁third	-9.72626
王	-9.72692
▁feeling	-9.72872
▁loss	-9.7302
}}\	-9.73042
▁※	-9.73161
▁follow	-9.73188
笑	-9.73224
Gamma	-9.7323
▁wind	-9.73288
▁See	-9.73395
▁property	-9.73419
▁research	-9.73522
▁direction	-9.73756
▁respect	-9.73854
▁original	-9.73859
お	-9.73921
▁proof	-9.7394
--"	-9.7396
he	-9.73986
▁Our	-9.74044
▁influence	-9.7419
▁area	-9.74195
▁obtained	-9.74275
▁State	-9.74307
-\	-9.7433
▁equal	-9.74388
だ	-9.7454
▁complete	-9.74855
▁minutes	-9.74876
又	-9.74923
)=	-9.74948
#	-9.74959
▁shows	-9.74984
▁gives	-9.75063
にも	-9.75079
▁lead	-9.75143
▁learn	-9.75304
▁blue	-9.75323
よ	-9.75386
▁easily	-9.75512
▁current	-9.75565
女	-9.75572
▁total	-9.7577
▁hair	-9.75825
▁University	-9.75836
▁observed	-9.75907
▁saying	-9.75908
mm	-9.76033
▁pay	-9.76166
}$.	-9.76315
log	-9.76382
▁expected	-9.76527
▁solution	-9.76564
▁learning	-9.7657
▁l	-9.76606
国	-9.76611
▁appear	-9.7668
其	-9.76815
@	-9.76949
▁이	-9.7702
位	-9.77094
▁master	-9.77095
後	-9.77302
▁strength	-9.77353
▁disease	-9.77424
自	-9.77496
,--	-9.77531
big	-9.77619
ですが	-9.77665
chi	-9.777
▁husband	-9.77731
▁green	-9.77734
▁suppose	-9.7781
▁expression	-9.77998
行	-9.78047
▁h	-9.78098
い	-9.78199
表示	-9.78245
▁fellow	-9.78248
り	-9.78411
▁II	-9.78494
▁amount	-9.7859
▁provide	-9.78613
海	-9.78615
▁ship	-9.78659
▁remember	-9.78763
▁America	-9.78773
▁suddenly	-9.7884
木	-9.78851
无	-9.78935
at	-9.78955
cal	-9.7906
▁ought	-9.79077
▁term	-9.79161
▁enemy	-9.79184
全	-9.79301
▁spoke	-9.79343
▁©	-9.79401
geq	-9.79523
▁states	-9.79608
▁foot	-9.79637
▁pretty	-9.79835
▁strange	-9.79907
成	-9.79908
▁theory	-9.80028
▁rose	-9.80089
self	-9.80113
区	-9.80165
▁difficult	-9.80173
▁daughter	-9.80192
▁window	-9.80236
得	-9.80371
mathfrak	-9.8039
とは	-9.80448
rangle	-9.80463
▁week	-9.80476
された	-9.80479
▁wanted	-9.8049
▁Do	-9.80536
일	-9.80544
▁Church	-9.80546
管理	-9.80585
▁working	-9.80657
▁values	-9.80712
epsilon	-9.80714
▁happy	-9.80913
no	-9.80929
▁AND	-9.80955
再	-9.80965
进行	-9.81203
▁South	-9.81234
▁beginning	-9.81254
とか	-9.81276
▁Z	-9.81333
二	-9.81403
▁heavy	-9.81432
▁sleep	-9.81452
▁degree	-9.815
▁ye	-9.81588
把	-9.81678
による	-9.81688
▁immediately	-9.81818
▁population	-9.81855
▁started	-9.82001
▁special	-9.82097
varphi	-9.82107
def	-9.82131
比	-9.8215
▁peace	-9.82185
▁approach	-9.82288
各	-9.82432
▁fair	-9.82613
▁chief	-9.82675
▁forth	-9.82682
白	-9.82702
▁wild	-9.82734
▁presence	-9.82973
▁tried	-9.83038
▁Why	-9.83073
▁treatment	-9.83079
▁individual	-9.83162
▁@	-9.83206
}_{\	-9.83231
▁increase	-9.83251
／	-9.83264
not	-9.83286
▁mass	-9.83327
▁opened	-9.8354
视频	-9.83589
还	-9.83634
지	-9.83647
fig	-9.8371
▁certainly	-9.83815
인	-9.83815
like	-9.83941
看	-9.84015
▁(_	-9.84116
▁entered	-9.84206
火	-9.84328
▁places	-9.84363
及び	-9.84371
overline	-9.84486
▁difference	-9.84597
▁simply	-9.84621
▁evidence	-9.84655
▁defined	-9.8467
▁building	-9.84677
那	-9.84724
▁outside	-9.8474
なら	-9.84773
)$.	-9.84813
▁German	-9.84824
▁built	-9.8489
▁boys	-9.85026
If	-9.85101
▁al	-9.85104
▁etc	-9.8511
店	-9.8511
.[	-9.85146
神	-9.85178
更	-9.8521
▁getting	-9.85237
物	-9.85254
▁structure	-9.85298
最	-9.85303
▁William	-9.8536
▁books	-9.85413
▁risk	-9.85431
▁wide	-9.85505
▁prove	-9.85578
To	-9.85627
ge	-9.85728
▁neither	-9.85802
quad	-9.85824
▁former	-9.85848
▁fixed	-9.86096
▁figure	-9.86098
▁numbers	-9.8612
▁George	-9.8616
▁Christ	-9.86171
由	-9.8618
by	-9.86213
▁formed	-9.86226
面	-9.86331
个	-9.86416
▁modern	-9.86496
▁described	-9.86514
▁lived	-9.86524
▁ancient	-9.86545
----------------	-9.86585
▁laid	-9.86649
get	-9.86651
▁weight	-9.86695
▁private	-9.86727
▁remained	-9.868
▁save	-9.86823
情報	-9.8688
打	-9.86918
没有	-9.87233
▁forms	-9.87289
台	-9.87347
▁persons	-9.87425
ー	-9.87518
▁Not	-9.87521
▁==	-9.87535
▁cost	-9.87569
式	-9.87592
▁office	-9.87608
▁bound	-9.87732
▁color	-9.87766
▁deal	-9.87801
度	-9.8808
▁section	-9.88146
▁source	-9.88224
able	-9.88266
方法	-9.88523
でした	-9.8857
array	-9.88617
하는	-9.88821
▁Captain	-9.88855
▁chance	-9.88897
▁members	-9.88946
正	-9.88947
▁material	-9.89003
av	-9.89308
▁include	-9.8939
同	-9.89424
set	-9.89441
▁obtain	-9.89635
▁opinion	-9.89713
▁constant	-9.89761
]{	-9.89848
▁wrote	-9.89934
▁education	-9.9001
▁yourself	-9.90029
▁society	-9.90181
하고	-9.90592
}^{\	-9.90643
▁list	-9.90739
▁instance	-9.90779
代	-9.90964
▁showed	-9.90987
▁key	-9.90993
▁political	-9.91038
▁この	-9.91066
▁positive	-9.91075
のは	-9.91107
you	-9.91187
体	-9.91242
▁arm	-9.9129
▁author	-9.91382
▁있다	-9.91382
▁thinking	-9.91589
▁post	-9.91617
▁measure	-9.91629
▁questions	-9.91674
▁bit	-9.91747
}$,	-9.91777
▁plan	-9.91847
▁proper	-9.91892
see	-9.9198
就是	-9.92032
▁mouth	-9.9209
▁quickly	-9.92245
▁（	-9.92339
▁ways	-9.92344
▁North	-9.92381
</	-9.92424
なので	-9.92484
▁add	-9.92496
up	-9.92524
otimes	-9.92653
しました	-9.92775
▁bear	-9.92814
▁produced	-9.92852
口	-9.92979
▁battle	-9.93079
▁available	-9.93195
▁cross	-9.93213
企业	-9.93249
다	-9.93343
▁music	-9.93388
▁effects	-9.93405
▁command	-9.93409
▁writing	-9.93471
▁visit	-9.93544
过	-9.93569
▁move	-9.93575
▁analysis	-9.93663
先	-9.93691
▁giving	-9.93726
▁appearance	-9.93858
▁rich	-9.93908
▁report	-9.93934
▁game	-9.93996
▁remain	-9.94068
▁image	-9.94108
▁allowed	-9.94152
生活	-9.94202
▁systems	-9.94275
入	-9.9437
▁wrong	-9.944
▁success	-9.94444
▁lives	-9.94675
▁changes	-9.94685
▁path	-9.94703
▁north	-9.94733
▁physical	-9.94904
▁ran	-9.9504
让	-9.95043
ic	-9.95072
▁lot	-9.95134
data	-9.95147
▁■	-9.95298
当	-9.9531
▁また	-9.95417
▁pain	-9.95503
▁determined	-9.95591
▁carry	-9.95693
▁happened	-9.95721
de	-9.95765
▁stay	-9.95767
路	-9.9577
▁closed	-9.95891
▁series	-9.95898
▁error	-9.95939
▁letters	-9.96003
org	-9.96059
▁duty	-9.96089
▁stone	-9.96143
▁interesting	-9.96317
▁faith	-9.96407
▁practice	-9.96459
!!	-9.96472
▁send	-9.96538
▁personal	-9.96634
▁wall	-9.96652
×	-9.96706
ar	-9.96721
への	-9.96862
▁provided	-9.97055
▁die	-9.97079
▁middle	-9.97131
▁born	-9.97283
量	-9.97311
▁addition	-9.97344
eqnarray	-9.9748
▁Indian	-9.97526
▁desire	-9.97584
▁problems	-9.97635
▁broken	-9.97726
▁trouble	-9.97785
▁covered	-9.97822
▁methods	-9.9789
▁actually	-9.97961
こと	-9.98137
如	-9.98223
▁mine	-9.98253
▁increased	-9.98298
▁pleasure	-9.98351
▁Mary	-9.98377
ました	-9.98405
out	-9.98439
▁ii	-9.98523
城	-9.98523
▁charge	-9.98621
▁ill	-9.98663
▁map	-9.98696
▁moved	-9.98719
教育	-9.9872
▁│	-9.98764
one	-9.98776
▁learned	-9.98867
▁import	-9.98944
▁functions	-9.99016
▁existence	-9.99139
return	-9.9922
▁rule	-9.99282
▁impossible	-9.99321
土	-9.99338
老	-9.99504
▁Christian	-9.99572
▁court	-9.99612
版	-9.99618
할	-9.99714
▁piece	-9.99771
▁Europe	-9.99801
▁standing	-9.99881
▁larger	-9.99959
▁needed	-10.0003
▁edge	-10.001
▁animals	-10.0011
▁situation	-10.0013
安	-10.002
▁needs	-10.0024
做	-10.0025
My	-10.0025
▁beauty	-10.0028
▁usual	-10.0038
size	-10.0047
▁perfect	-10.0069
▁있는	-10.0069
▁goes	-10.0077
▁standard	-10.0078
▁associated	-10.0078
▁picture	-10.0078
提供	-10.0084
▁boat	-10.0086
ldots	-10.009
▁entirely	-10.0091
▁caused	-10.0093
▁design	-10.0093
ら	-10.0095
される	-10.0095
超	-10.0098
▁raised	-10.0112
▁takes	-10.0114
林	-10.0116
▁allow	-10.012
▁leaves	-10.0126
▁groups	-10.0127
などの	-10.013
片	-10.0131
Why	-10.0135
▁reach	-10.0136
▁region	-10.0138
他们	-10.014
▁House	-10.0147
▁First	-10.0149
▁summer	-10.0151
内容	-10.0164
▁growth	-10.0166
▁filled	-10.0167
▁published	-10.017
all	-10.0174
▁events	-10.0182
起	-10.0196
▁content	-10.0201
通过	-10.0209
▁wood	-10.0213
世界	-10.0216
▁break	-10.022
▁ID	-10.0221
▁appears	-10.0228
▁memory	-10.0237
▁Henry	-10.0243
により	-10.0243
▁steps	-10.0253
There	-10.0261
▁fast	-10.0268
▁reading	-10.0271
重	-10.0271
▁w	-10.0274
▁Paris	-10.0274
▁National	-10.0287
学	-10.0288
▁seven	-10.0289
▁Lady	-10.0296
▁Their	-10.032
平	-10.0328
できる	-10.0333
这个	-10.0334
……	-10.0335
系	-10.0361
▁changed	-10.0386
▁Fig	-10.0392
time	-10.0392
type	-10.0393
西	-10.0399
▁Even	-10.0417
▁glad	-10.0419
)^	-10.042
li	-10.0423
▁cells	-10.0428
▁countries	-10.043
商品	-10.0431
▁village	-10.0444
▁heat	-10.0449
▁brain	-10.0451
▁previous	-10.0471
▁south	-10.0477
▁quality	-10.0478
明	-10.0479
기	-10.0509
原	-10.0513
以及	-10.0521
▁running	-10.0533
▁related	-10.0538
▁walk	-10.054
um	-10.0543
">	-10.0543
▁James	-10.0552
▁science	-10.0559
▁:=	-10.0561
約	-10.0571
▁eat	-10.0573
によって	-10.0579
图片	-10.0584
▁mentioned	-10.0601
▁race	-10.0607
name	-10.0612
▁horses	-10.0616
co	-10.0616
sub	-10.0631
▁winter	-10.0631
长	-10.0632
figure	-10.0639
▁slowly	-10.0639
▁animal	-10.0645
很	-10.0646
▁hardly	-10.0647
▁Yet	-10.0648
▁War	-10.0648
max	-10.0651
▁arrived	-10.0652
石	-10.0669
▁presented	-10.0671
▁movement	-10.0671
▁somewhat	-10.0675
▁girls	-10.0683
▁stop	-10.0687
▁attack	-10.0689
▁sweet	-10.0704
▁produce	-10.0712
▁directly	-10.0715
▁fight	-10.0719
▁Great	-10.0723
▁Charles	-10.0732
▁prevent	-10.0736
▁elements	-10.0738
nabla	-10.0745
ne	-10.0748
▁fresh	-10.0751
▁street	-10.0751
▁merely	-10.0753
▁killed	-10.076
▁discovered	-10.0766
▁base	-10.0772
图	-10.0777
▁false	-10.0792
▁worth	-10.0792
rightarrow	-10.0794
▁hot	-10.0796
开	-10.0801
▁trying	-10.0801
▁safe	-10.0809
田	-10.0816
min	-10.082
line	-10.083
▁sister	-10.0832
张	-10.0836
ism	-10.085
しています	-10.0856
▁importance	-10.0856
^{(	-10.0857
▁SNP	-10.0862
pm	-10.0865
相	-10.0866
▁receive	-10.0874
▁afterwards	-10.0875
▁upper	-10.0885
▁la	-10.0889
▁eight	-10.0892
吧	-10.0897
▁direct	-10.091
▁Many	-10.0915
▁Roman	-10.0917
section	-10.0924
李	-10.0928
▁Therefore	-10.0931
▁paid	-10.0931
▁`	-10.0932
▁plant	-10.0936
This	-10.0938
▁military	-10.0946
▁whatever	-10.0948
▁rise	-10.0949
▁distribution	-10.095
▁Don	-10.0959
▁regard	-10.0961
▁gentleman	-10.0964
▁names	-10.0967
▁spring	-10.0972
村	-10.0974
▁remains	-10.0983
▁page	-10.0984
ie	-10.0989
▁leaving	-10.0991
▁caught	-10.0999
▁attempt	-10.0999
▁meaning	-10.1012
▁throughout	-10.1019
大学	-10.1032
▁exactly	-10.1033
南	-10.1043
主	-10.1045
器	-10.1046
▁greatest	-10.1056
发	-10.1056
▁average	-10.1064
▁established	-10.1068
▁create	-10.1072
▁proved	-10.1075
市场	-10.1081
▁stage	-10.109
▁Co	-10.1097
▁final	-10.1099
吗	-10.11
▁religious	-10.1108
▁article	-10.1113
▁leading	-10.1123
Big	-10.1124
▁becomes	-10.1128
车	-10.1141
▁sign	-10.1152
▁danger	-10.1154
▁lips	-10.1154
▁Government	-10.1156
▁particularly	-10.1157
▁West	-10.1162
给	-10.1167
机	-10.1175
▁community	-10.1176
▁sufficient	-10.1179
▁thoughts	-10.118
},\	-10.119
為	-10.1191
▁De	-10.121
▁*/	-10.121
已	-10.1211
();	-10.1213
品	-10.1216
太	-10.1222
▁news	-10.1224
▁doctor	-10.1224
▁j	-10.1224
▁exists	-10.1229
▁entire	-10.123
▁notice	-10.1235
langle	-10.1236
▁fish	-10.1243
もの	-10.1244
▁z	-10.1245
▁square	-10.1247
▁specific	-10.1247
▁—	-10.1264
▁features	-10.1264
▁occasion	-10.1274
▁laws	-10.1285
▁married	-10.129
▁circumstances	-10.1291
cap	-10.1295
▁train	-10.1301
▁dog	-10.1309
▁officers	-10.1309
▁contains	-10.1313
▁http	-10.1313
服务	-10.1314
▁studies	-10.1316
▁secret	-10.1323
期	-10.1324
▁developed	-10.1332
▁camp	-10.1332
▁bright	-10.1332
ス	-10.1334
▁exclaimed	-10.1335
▁month	-10.1352
▁silence	-10.1356
▁national	-10.1358
次	-10.1361
▁Such	-10.1361
▁knows	-10.1369
需要	-10.1395
▁wonder	-10.1401
▁####	-10.141
町	-10.1411
▁plain	-10.1413
▁seeing	-10.1419
▁March	-10.1424
▁training	-10.1425
▁Or	-10.1432
▁inside	-10.144
해	-10.1442
前記	-10.1442
▁applied	-10.1444
▁smile	-10.1446
▁walls	-10.1462
▁religion	-10.1471
▁understanding	-10.1511
▁floor	-10.1522
▁struck	-10.1531
▁connected	-10.1532
話	-10.1536
▁authority	-10.1551
▁thee	-10.156
▁rights	-10.1562
▁production	-10.1565
▁board	-10.1565
▁June	-10.1566
▁fully	-10.157
▁est	-10.1574
作	-10.1575
].	-10.1577
▁nation	-10.1579
至	-10.1596
▁share	-10.1603
头	-10.161
sec	-10.1613
▁million	-10.1616
▁sum	-10.162
)$,	-10.1622
▁scene	-10.1626
▁dry	-10.1627
長	-10.1632
▁ideas	-10.1634
走	-10.1634
▁text	-10.1642
▁plants	-10.1644
▁walked	-10.1648
▁trade	-10.1651
How	-10.1651
特	-10.1663
▁shape	-10.1667
▁pressure	-10.1669
真	-10.1673
▁double	-10.1674
▁meant	-10.1676
爱	-10.1686
▁please	-10.1689
▁iron	-10.1693
▁loved	-10.1697
ですね	-10.17
▁models	-10.1701
▁drew	-10.1705
研究	-10.171
美国	-10.1715
▁opportunity	-10.1719
▁straight	-10.1723
▁stopped	-10.1748
....	-10.1749
vec	-10.175
四	-10.1754
emph	-10.1756
利用	-10.176
▁serious	-10.1762
▁drawn	-10.1765
▁sub	-10.1768
▁youth	-10.1769
▁island	-10.1772
▁afraid	-10.1779
▁performance	-10.1781
월	-10.1783
▁style	-10.1787
▁있습니다	-10.1789
▁Theorem	-10.179
▁regular	-10.179
▁complex	-10.1793
局	-10.181
▁popular	-10.1812
px	-10.1818
▁garden	-10.1818
▁grew	-10.1823
▁objects	-10.1826
▁offer	-10.1828
▁meeting	-10.1831
▁believed	-10.1834
▁car	-10.1844
▁apply	-10.1844
▁file	-10.1854
▁useful	-10.1857
ため	-10.1864
▁evil	-10.1866
▁height	-10.1867
利	-10.1874
要求	-10.188
▁temperature	-10.1884
▁\[	-10.1892
▁native	-10.1909
可能	-10.1913
已经	-10.1913
▁weeks	-10.1914
▁potential	-10.1915
▁soil	-10.1919
▁proposed	-10.1924
▁sides	-10.1925
}[	-10.1941
▁skin	-10.1942
▁unless	-10.1948
▁soldiers	-10.195
▁houses	-10.1954
米	-10.1961
▁troops	-10.1971
▁finally	-10.1972
だった	-10.1972
▁quiet	-10.1976
感	-10.1991
▁fit	-10.1993
room	-10.1998
▁product	-10.1999
▁IN	-10.2
▁q	-10.2009
}=	-10.2011
▁shot	-10.2015
▁prepared	-10.2026
率	-10.2036
▁search	-10.2043
less	-10.2046
▁glass	-10.2047
▁named	-10.2051
件	-10.2071
▁Your	-10.2075
})$	-10.2077
table	-10.2078
▁offered	-10.2081
▁patients	-10.2081
▁types	-10.2085
安全	-10.2092
美女	-10.2097
清	-10.2097
▁watch	-10.2099
▁및	-10.2114
▁spot	-10.2129
通	-10.2131
textbf	-10.2131
▁soft	-10.2135
▁code	-10.2136
▁flowers	-10.214
▁daily	-10.2145
▁grow	-10.2148
▁activity	-10.2151
▁Jesus	-10.2174
▁oil	-10.2184
马	-10.2184
boldsymbol	-10.2186
▁bottom	-10.2191
▁spread	-10.2193
问题	-10.2194
该	-10.2197
▁created	-10.2202
▁dinner	-10.2206
表	-10.2206
▁supposed	-10.2207
ity	-10.2211
▁task	-10.2211
▁highest	-10.2211
▁growing	-10.2213
▁waiting	-10.2213
▁compared	-10.2223
Lambda	-10.223
▁India	-10.2238
▁effort	-10.2241
▁July	-10.2261
▁Two	-10.2262
ない	-10.2267
▁string	-10.2275
)(	-10.2276
▁event	-10.2278
および	-10.2283
想	-10.2286
▁fields	-10.2288
▁During	-10.2293
▁services	-10.2303
▁considerable	-10.2305
德	-10.2313
▁cell	-10.232
▁Well	-10.232
▁areas	-10.2332
▁opposite	-10.2332
we	-10.2335
▁declared	-10.2337
目	-10.2344
使	-10.2346
▁한	-10.2347
において	-10.2349
▁volume	-10.2354
▁Queen	-10.2356
▁pair	-10.2357
但是	-10.2366
▁element	-10.2368
▁『	-10.2369
▁marriage	-10.2375
▁passing	-10.2376
Phi	-10.2387
▁mere	-10.2387
車	-10.2388
▁significant	-10.2389
▁expect	-10.2395
风	-10.2396
部分	-10.2398
▁thirty	-10.24
く	-10.24
▁difficulty	-10.24
▁Indians	-10.2401
▁Man	-10.2409
▁escape	-10.2409
▁sitting	-10.2412
▁doesn	-10.2416
▁第	-10.2426
▁project	-10.2428
▁date	-10.2436
`	-10.2436
est	-10.2437
▁wait	-10.244
▁effective	-10.2441
▁joy	-10.2444
▁levels	-10.2451
男	-10.2454
电影	-10.2461
▁III	-10.2474
▁journey	-10.2487
▁ones	-10.2488
▁recent	-10.2495
五	-10.2498
▁box	-10.2501
文化	-10.2503
▁speaking	-10.2506
▁major	-10.2519
▁policy	-10.252
▁Paul	-10.2532
▁otherwise	-10.2533
▁Note	-10.2538
▁Tom	-10.2543
がある	-10.2543
▁continue	-10.255
▁laughed	-10.2553
社会	-10.2556
▁Jack	-10.2571
men	-10.2585
作品	-10.2595
▁completely	-10.2597
▁cast	-10.2603
▁relation	-10.2603
▁frequently	-10.2612
▁Thomas	-10.2615
▁ordered	-10.2624
▁speed	-10.2627
▁price	-10.2627
bm	-10.2628
▁President	-10.2637
▁April	-10.2658
▁progress	-10.2659
}}$	-10.2663
▁birds	-10.2663
無	-10.2664
▁decided	-10.2668
▁speech	-10.2671
▁afternoon	-10.2673
そして	-10.2673
▁require	-10.2698
▁warm	-10.2702
▁basis	-10.2706
▁variety	-10.2709
拉	-10.271
▁choice	-10.271
▁broad	-10.2715
发展	-10.2722
▁co	-10.2726
▁matrix	-10.2732
▁title	-10.2741
Do	-10.2746
|\	-10.2759
Footnote	-10.2764
▁assume	-10.2769
▁tone	-10.2769
見	-10.2769
ia	-10.2779
ch	-10.278
▁advantage	-10.2783
▁pp	-10.2787
空	-10.2788
▁spent	-10.2793
▁passage	-10.2794
▁gas	-10.2799
干	-10.2803
▁equation	-10.2804
产品	-10.2814
▁understood	-10.2818
▁parents	-10.2818
▁sudden	-10.2819
▁World	-10.282
▁active	-10.2826
▁Prince	-10.2827
▁Rome	-10.2827
▁normal	-10.2832
▁foreign	-10.2834
女性	-10.2843
または	-10.2845
它	-10.2848
▁portion	-10.2851
国家	-10.286
pt	-10.2869
▁const	-10.2874
▁independent	-10.2875
":"	-10.2876
如果	-10.2877
▁properties	-10.2891
▁check	-10.2899
ED	-10.2899
▁address	-10.2905
▁TO	-10.2924
▁unto	-10.2937
▁scarcely	-10.2944
所以	-10.2945
油	-10.295
学校	-10.2953
Type	-10.2955
▁chair	-10.2956
▁sky	-10.2956
▁cover	-10.2956
▁corner	-10.2965
與	-10.2973
▁La	-10.2975
▁intended	-10.2976
▁orders	-10.2977
線	-10.2977
加	-10.2979
▁introduced	-10.298
龙	-10.2981
流	-10.2981
with	-10.2983
ant	-10.2984
▁Although	-10.2991
circ	-10.2996
▁silver	-10.2996
才	-10.3004
川	-10.3005
さ	-10.3008
which	-10.3012
▁capital	-10.3013
▁lie	-10.3026
▁minute	-10.3026
▁weather	-10.3028
▁enter	-10.3031
合	-10.3035
▁principle	-10.3037
非	-10.3038
」「	-10.3045
▁snow	-10.3049
ensuremath	-10.3051
▁scale	-10.3054
▁exist	-10.3054
▁rock	-10.3058
▁corresponding	-10.306
になる	-10.3064
widetilde	-10.3069
板	-10.3074
因为	-10.3078
시	-10.3084
▁tears	-10.3088
▁highly	-10.3096
▁program	-10.3103
▁smaller	-10.3105
▁motion	-10.3107
▁serve	-10.3109
☆	-10.3113
▁broke	-10.3115
也是	-10.3123
▁fifty	-10.3124
管	-10.3125
▁mountain	-10.3131
▁conversation	-10.3133
气	-10.3133
▁touch	-10.3147
▁officer	-10.3148
今	-10.3156
▁flow	-10.3157
小说	-10.3159
门	-10.3169
▁looks	-10.3171
▁ordinary	-10.3172
▁reported	-10.318
身	-10.3182
▁pre	-10.3187
//	-10.3191
还是	-10.3193
▁season	-10.3193
▁patient	-10.3194
す	-10.3196
▁numerous	-10.3199
▁description	-10.32
呢	-10.3201
net	-10.3209
so	-10.3209
▁그	-10.3213
▁heaven	-10.3216
▁weak	-10.3219
香	-10.3222
时间	-10.3227
▁supply	-10.3228
▁role	-10.3231
mbox	-10.3233
▁removed	-10.3235
▁beside	-10.3253
信	-10.3261
▁sit	-10.3277
能力	-10.3277
▁stream	-10.3282
▁More	-10.3286
低	-10.329
kappa	-10.3292
周	-10.3296
ist	-10.3299
▁choose	-10.3301
何	-10.3303
▁coast	-10.3305
▁forces	-10.3309
▁void	-10.3313
▁claim	-10.332
▁connection	-10.3329
만	-10.333
▁pieces	-10.3331
▁market	-10.3336
一些	-10.3344
▁River	-10.3355
野	-10.3357
▁forest	-10.3366
这些	-10.3367
学生	-10.3368
肉	-10.3371
北	-10.3372
技术	-10.3382
音	-10.3383
▁ourselves	-10.3383
▁products	-10.3383
clock	-10.3384
食	-10.3387
▁statement	-10.3392
▁powerful	-10.3399
▁Washington	-10.3419
this	-10.3425
▁member	-10.3431
▁probability	-10.3432
자	-10.3435
▁environment	-10.3445
▁Oh	-10.3453
▁pure	-10.3456
▁avoid	-10.3465
▁issue	-10.3467
▁worked	-10.3467
▁cry	-10.3478
球	-10.3483
▁trust	-10.3485
▁Another	-10.3485
▁sequence	-10.3497
▁turning	-10.3498
▁noble	-10.3498
像	-10.3499
▁Court	-10.3501
▁Re	-10.3502
▁yellow	-10.3511
ation	-10.3511
▁finite	-10.3521
▁Peter	-10.3523
▁●	-10.353
以上	-10.3531
两	-10.3542
un	-10.3555
！！	-10.3556
▁Hence	-10.3558
声	-10.3558
▁employed	-10.3564
▁hath	-10.3566
立	-10.3569
▁construction	-10.357
▁conduct	-10.357
黄	-10.3572
制	-10.3575
▁narrow	-10.3579
▁access	-10.358
▁causes	-10.3582
▁&\	-10.3585
▁moral	-10.3589
▁essential	-10.3591
▁safety	-10.3596
▁August	-10.3598
因	-10.3602
▁thick	-10.3605
▁forced	-10.3607
系统	-10.3608
▁build	-10.361
▁perfectly	-10.3613
平台	-10.3613
▁facts	-10.3613
▁noise	-10.3617
受	-10.362
▁holds	-10.3627
▁details	-10.3633
▁extent	-10.3634
▁Is	-10.3635
吃	-10.3638
do	-10.3639
▁response	-10.3647
▁bank	-10.3655
)=\	-10.3659
▁clearly	-10.366
▁limit	-10.3664
▁expressed	-10.3668
▁application	-10.3672
▁classes	-10.3687
直	-10.3688
▁silent	-10.369
▁site	-10.3694
▁shore	-10.3695
▁beneath	-10.3695
▁vector	-10.3697
卡	-10.3706
▁Old	-10.3706
▁matters	-10.3706
▁reference	-10.3707
▁$$\	-10.371
▁Germany	-10.372
my	-10.3721
▁October	-10.3726
ID	-10.3728
▁np	-10.3731
am	-10.3736
死	-10.3743
され	-10.3743
▁greatly	-10.3744
取	-10.3746
▁resources	-10.3747
▁famous	-10.375
都是	-10.3752
▁literature	-10.3754
▁excellent	-10.3754
▁setting	-10.3759
直接	-10.376
▁drawing	-10.376
For	-10.3768
サービス	-10.3769
▁explain	-10.3782
會	-10.3785
▁draw	-10.3787
")	-10.3788
▁talking	-10.3794
未	-10.3798
▁ring	-10.3803
公	-10.3807
▁west	-10.381
科	-10.381
つ	-10.3812
▁justice	-10.3813
▁moving	-10.3819
▁finding	-10.3825
▁reduced	-10.3831
dots	-10.3841
▁East	-10.3842
▁Where	-10.3843
path	-10.3846
云	-10.3855
▁Can	-10.3858
▁September	-10.3859
▁correct	-10.3859
▁Greek	-10.386
▁\]	-10.386
红	-10.3864
▁Be	-10.3872
▁respectively	-10.3876
的人	-10.3876
html	-10.3884
▁materials	-10.3893
▁///	-10.3896
house	-10.3896
▁machine	-10.3918
集	-10.3925
▁ability	-10.393
She	-10.394
$$	-10.3942
▁advanced	-10.3943
▁linear	-10.395
▁Lemma	-10.3958
▁carefully	-10.3958
▁Who	-10.3963
网站	-10.3966
el	-10.3967
▁captain	-10.3968
▁definition	-10.3969
▁network	-10.3979
▁argument	-10.3979
活动	-10.398
制度	-10.3982
における	-10.3985
os	-10.3988
▁lies	-10.3999
jp	-10.4002
却	-10.401
▁desired	-10.4012
▁drink	-10.4013
▁quick	-10.4017
▁possession	-10.4018
▁explained	-10.4022
▁Figure	-10.4024
▁confidence	-10.4028
▁Most	-10.4038
Sigma	-10.4041
希望	-10.4044
▁Duke	-10.4046
ある	-10.4048
▁factors	-10.4049
▁reply	-10.4054
string	-10.4056
▁define	-10.4064
▁breath	-10.4064
华	-10.4075
▁isn	-10.4078
list	-10.4081
rs	-10.4083
▁worse	-10.4088
▁engaged	-10.4089
星	-10.4099
的时候	-10.4102
EC	-10.4103
▁brown	-10.4103
▁Every	-10.4104
作为	-10.4104
▁Spanish	-10.4106
のが	-10.4109
▁efforts	-10.4109
▁reduce	-10.411
land	-10.4111
▁version	-10.4116
ion	-10.4116
▁suggested	-10.4119
▁today	-10.4126
▁repeated	-10.4133
"。	-10.4137
项目	-10.414
▁twelve	-10.4141
参加	-10.4165
▁message	-10.4167
▁aid	-10.4172
▁Robert	-10.4173
▁individuals	-10.4182
▁dress	-10.4188
情	-10.419
▁forget	-10.4191
▁Each	-10.4193
▁included	-10.4193
▁marked	-10.4197
▁rank	-10.4199
▁additional	-10.42
They	-10.4204
ように	-10.4211
▁mental	-10.4212
風	-10.4214
▁grave	-10.4232
▁wished	-10.4233
▁industry	-10.4233
▁bird	-10.4233
▁freedom	-10.4235
中心	-10.4235
▁graph	-10.4237
き	-10.4242
▁exercise	-10.4245
▁~	-10.425
subset	-10.4256
▁そして	-10.4256
top	-10.4257
▁seat	-10.4257
▁vast	-10.4261
color	-10.4269
▁honour	-10.4275
▁circle	-10.4285
▁neck	-10.4289
▁earlier	-10.429
▁begin	-10.429
based	-10.4292
▁actual	-10.4296
けど	-10.4305
이다	-10.4305
▁teeth	-10.4306
▁hill	-10.4314
▁https	-10.4316
▁station	-10.4323
sim	-10.4326
▁performed	-10.4328
▁percent	-10.4329
波	-10.4333
▁unknown	-10.4335
be	-10.4337
称	-10.4339
▁principal	-10.434
▁treated	-10.4341
▁wonderful	-10.4342
▁medical	-10.4343
み	-10.4352
啊	-10.4355
▁played	-10.4358
室	-10.436
だけ	-10.4363
事業	-10.4366
快	-10.4369
位置	-10.437
▁January	-10.4373
ア	-10.4374
％	-10.438
健康	-10.4384
▁served	-10.4387
▁mountains	-10.4388
▁measures	-10.4393
▁surprise	-10.4394
▁record	-10.4395
▁ice	-10.4395
便	-10.4399
▁fruit	-10.4407
Now	-10.4408
▁Father	-10.4412
▁terrible	-10.4415
?'	-10.4423
lemma	-10.4427
▁schools	-10.4433
▁lying	-10.4433
▁powers	-10.4436
width	-10.4447
▁China	-10.4448
った	-10.4453
▁successful	-10.4459
▁initial	-10.4468
▁relations	-10.4468
▁unique	-10.4471
あり	-10.4472
▁represented	-10.4481
玉	-10.4482
zeta	-10.4482
▁central	-10.4493
▁technology	-10.4495
lem	-10.4497
的な	-10.4501
线	-10.4502
▁opening	-10.4503
▁origin	-10.4511
▁December	-10.4513
▁determine	-10.4515
▁quantum	-10.4517
▁Before	-10.4517
黑	-10.4523
著	-10.4527
近	-10.4527
のか	-10.4532
▁taste	-10.4532
▁birth	-10.4537
▁global	-10.4556
青	-10.4558
▁clean	-10.4559
▁finished	-10.4559
▁pleasant	-10.4563
▁thin	-10.4572
subsection	-10.4572
Then	-10.4579
克	-10.4582
▁input	-10.4582
頭	-10.4584
▁hence	-10.4587
信息	-10.4592
▁pale	-10.4595
▁consequence	-10.4595
▁increasing	-10.4599
▁naturally	-10.4604
▁tea	-10.4605
目前	-10.4609
江	-10.4611
建	-10.4617
▁smooth	-10.4618
▁holding	-10.4626
▁heads	-10.4629
▁ships	-10.4635
分析	-10.4641
在线	-10.4642
▁collection	-10.4644
▁failed	-10.4647
▁등	-10.4649
足	-10.4654
▁subjects	-10.4655
▁sharp	-10.4658
▁David	-10.4659
▁Moreover	-10.4663
社	-10.4666
▁City	-10.4677
▁phase	-10.4677
▁LETTER	-10.4679
▁factor	-10.4682
▁Street	-10.4683
▁feelings	-10.4685
prime	-10.4692
▁curious	-10.4695
et	-10.4699
▁European	-10.4699
▁rain	-10.47
https	-10.4704
▁keeping	-10.471
▁stars	-10.4718
病	-10.4722
ian	-10.4723
son	-10.4724
▁parameters	-10.4725
▁gain	-10.4728
国际	-10.473
没	-10.4733
▁lose	-10.4733
▁protection	-10.4736
放	-10.4747
只	-10.475
▁inches	-10.4754
▁bodies	-10.4754
强	-10.4756
▁occupied	-10.476
▁operation	-10.4761
▁chosen	-10.4763
现在	-10.4764
▁drive	-10.4767
thm	-10.4769
政府	-10.4776
▁promise	-10.4776
▁interested	-10.4788
▁sin	-10.479
愛	-10.4791
▁principles	-10.4793
酒	-10.4801
│	-10.4802
ton	-10.4806
▁forty	-10.4807
▁Yes	-10.4812
▁zero	-10.4819
▁Colonel	-10.4826
▁families	-10.4841
서	-10.4845
▁relative	-10.4848
带	-10.4848
▁November	-10.4848
草	-10.485
▁wine	-10.4852
▁wouldn	-10.4865
同时	-10.4869
▁separate	-10.4872
▁sets	-10.4873
▁regarded	-10.4874
test	-10.4875
北京	-10.4881
▁develop	-10.4883
——	-10.4885
毛	-10.4886
ry	-10.4886
▁occurred	-10.4891
▁student	-10.4894
▁signal	-10.4895
했다	-10.4897
省	-10.4898
▁crowd	-10.4907
▁team	-10.491
▁center	-10.4916
开始	-10.4919
div	-10.4922
나	-10.4928
にて	-10.4948
機	-10.4948
▁sake	-10.4949
▁critical	-10.4949
▁management	-10.4952
春	-10.4958
}+	-10.4958
me	-10.496
跟	-10.4964
書	-10.4968
下载	-10.4969
▁reasons	-10.4971
▁happiness	-10.4982
▁happen	-10.4982
▁contact	-10.4983
eth	-10.4984
▁Just	-10.4988
","	-10.4992
▁Spain	-10.4994
活動	-10.5002
問題	-10.5005
▁symptoms	-10.5012
工程	-10.5015
▁!=	-10.5017
▁slow	-10.502
▁flat	-10.5025
斯	-10.5035
之后	-10.5037
▁affairs	-10.5041
▁east	-10.5045
▁female	-10.5051
All	-10.5051
字	-10.5053
cdots	-10.5054
▁occur	-10.5058
站	-10.5061
▁seek	-10.5063
▁remarkable	-10.5065
▁ball	-10.5068
▁containing	-10.5068
▁sought	-10.5075
caption	-10.5081
대	-10.5081
▁dream	-10.5081
夜	-10.5089
io	-10.5096
[\	-10.5104
万円	-10.5111
▁San	-10.5113
▁ears	-10.512
:--	-10.5122
▁familiar	-10.5128
古	-10.5128
对于	-10.5129
▁papers	-10.5131
▁climate	-10.5135
▁fallen	-10.5135
に関する	-10.5142
一般	-10.5144
▁lack	-10.5148
vert	-10.5152
ド	-10.5153
Not	-10.5153
▁advance	-10.5156
▁Red	-10.5158
东	-10.5161
游戏	-10.5162
対応	-10.5168
战	-10.5171
▁pleased	-10.5174
▁pointed	-10.5177
▁decision	-10.5178
▁fashion	-10.5183
▁Society	-10.5183
▁band	-10.5184
での	-10.5184
Is	-10.5189
▁rapidly	-10.52
▁ear	-10.5204
▁breast	-10.5206
▁improve	-10.521
▁bread	-10.5212
個	-10.5218
▁provides	-10.5224
▁examples	-10.5225
▁couldn	-10.5225
▁showing	-10.5225
▁involved	-10.5227
▁spoken	-10.5227
▁thrown	-10.5227
▁sample	-10.5232
▁nine	-10.5236
▁centre	-10.5239
▁ladies	-10.5242
▁rising	-10.5242
▁requires	-10.5245
▁demand	-10.5253
▁clothes	-10.5253
▁spite	-10.5255
▁uses	-10.5256
歳	-10.5256
支持	-10.5257
▁darkness	-10.5257
▁colour	-10.5269
方式	-10.527
▁contain	-10.5273
▁root	-10.5274
對	-10.5278
▁song	-10.5279
▁practical	-10.528
te	-10.5287
▁reader	-10.5289
▁laugh	-10.5294
▁cancer	-10.5299
▁taught	-10.5302
屋	-10.5306
雪	-10.5315
▁Black	-10.5332
▁limited	-10.5334
があります	-10.5343
工	-10.5346
政策	-10.5348
▁negative	-10.535
だと	-10.5352
▁twice	-10.5352
▁satisfied	-10.5356
nd	-10.5358
▁contained	-10.5361
ズ	-10.5365
▁lord	-10.5367
▁instant	-10.5368
▁issues	-10.5369
▁Once	-10.5374
▁nations	-10.5374
▁wise	-10.5378
▁divided	-10.538
▁settled	-10.5386
血	-10.5388
州	-10.5388
ノ	-10.5388
いた	-10.5391
間	-10.5392
ご	-10.5395
▁print	-10.5397
条件	-10.5397
であり	-10.54
今年	-10.5409
▁algorithm	-10.5409
field	-10.5409
▁empty	-10.5413
投资	-10.5415
首	-10.542
▁impact	-10.5422
▁Africa	-10.5423
▁slightly	-10.543
ij	-10.5432
▁Section	-10.5433
수	-10.5444
▁succeeded	-10.5445
▁dangerous	-10.5445
index	-10.5455
ment	-10.5455
▁Will	-10.546
Ａ	-10.5461
深	-10.5462
▁mode	-10.5464
▁background	-10.5464
▁vol	-10.5467
交	-10.5467
▁White	-10.5468
▁solutions	-10.5468
▁severe	-10.5469
▁Smith	-10.5472
▁According	-10.5474
陈	-10.5476
▁agreed	-10.5479
▁stated	-10.548
ii	-10.5485
▁extended	-10.5495
▁healthy	-10.5497
}).	-10.5499
▁equally	-10.5503
▁milk	-10.5503
▁solid	-10.5507
全国	-10.5509
')	-10.5512
▁Also	-10.5516
手机	-10.552
▁threw	-10.5522
▁sources	-10.5526
▁output	-10.5527
▁quarter	-10.553
▁sick	-10.5531
进	-10.5541
操作	-10.5543
▁dropped	-10.5543
▁appointed	-10.5547
▁rules	-10.5548
▁older	-10.5552
▁grass	-10.556
▁judge	-10.5565
▁economic	-10.5568
)^{	-10.5573
▁density	-10.5577
条	-10.5579
▁multiple	-10.5582
▁Company	-10.5587
▁communication	-10.5588
▁grown	-10.5602
東	-10.5603
▁distinct	-10.5605
つの	-10.561
阿	-10.5615
▁aware	-10.5619
第一	-10.5626
▁Richard	-10.5627
▁store	-10.5636
▁dollars	-10.5636
▁joined	-10.5637
商	-10.5649
▁figures	-10.5651
以下	-10.5656
▁pounds	-10.5659
var	-10.5665
▁History	-10.5667
▁copy	-10.5678
ast	-10.5685
▁scientific	-10.5688
▁blow	-10.5691
▁designed	-10.5691
▁scheme	-10.5705
应	-10.5711
▁kill	-10.5714
成为	-10.5716
島	-10.5717
雨	-10.5718
▁huge	-10.572
▁cities	-10.572
▁moon	-10.5721
night	-10.5725
▁activities	-10.5726
书	-10.5727
▁row	-10.5739
▁distant	-10.574
う	-10.5746
章	-10.5747
▁stories	-10.5748
共	-10.5753
▁exact	-10.5753
Of	-10.5758
▁closely	-10.5762
la	-10.5773
味	-10.5781
非常	-10.5785
▁School	-10.5785
其中	-10.5791
保	-10.5791
さんの	-10.5801
駅	-10.5801
方面	-10.5817
▁sword	-10.582
包	-10.5824
▁affected	-10.5826
▁Italy	-10.5828
어	-10.5831
宝	-10.5834
▁job	-10.5835
基	-10.5836
眼	-10.5838
▁IV	-10.5839
朝	-10.5844
▁throw	-10.5847
▁random	-10.5856
群	-10.5858
军	-10.5858
▁hall	-10.5873
Name	-10.5874
▁besides	-10.5875
▁/*	-10.5875
曲	-10.5877
千	-10.5877
▁accepted	-10.5882
▁stands	-10.5885
▁secure	-10.5886
▁frame	-10.5887
民	-10.5889
▁goal	-10.589
▁wounded	-10.5892
客	-10.5893
▁US	-10.5895
▁operator	-10.5899
▁valley	-10.5903
▁operations	-10.5904
▁vain	-10.5906
▁apparently	-10.5908
▁guide	-10.5918
不能	-10.5919
达	-10.5931
▁Life	-10.5931
▁Congress	-10.5932
单	-10.5935
▁block	-10.5937
年度	-10.5938
▁대한	-10.5941
▁fortune	-10.5941
사	-10.5942
ａ	-10.5943
▁request	-10.595
▁via	-10.5952
GREEK	-10.5958
▁Union	-10.5959
▁gate	-10.5965
span	-10.5967
▁ideal	-10.5967
差	-10.5968
▁carrying	-10.5969
▁continuous	-10.5971
形	-10.5975
▁concerning	-10.5977
▁sugar	-10.5983
▁courage	-10.5983
▁Only	-10.5984
▁tall	-10.5987
▁estimate	-10.5988
스	-10.5988
▁Chinese	-10.5991
教	-10.5995
＆	-10.5996
▁wealth	-10.6002
▁express	-10.6003
▁watched	-10.6005
▁contrary	-10.6006
▁altogether	-10.6006
cup	-10.6007
君	-10.6007
▁anti	-10.6008
▁refused	-10.6009
定	-10.6011
▁peculiar	-10.6024
▁unit	-10.6024
widehat	-10.603
vo	-10.6033
▁possibly	-10.6037
▁windows	-10.604
队	-10.6041
▁Earth	-10.6042
企業	-10.6043
熱	-10.6052
▁anxious	-10.6054
operatorname	-10.6058
▁liberty	-10.6059
布	-10.606
建设	-10.6062
住	-10.6064
So	-10.6074
而且	-10.6079
▁absence	-10.6081
morrow	-10.6082
nonumber	-10.6085
▁knowing	-10.6085
prop	-10.6086
°	-10.6087
▁images	-10.6092
▁mention	-10.6092
▁male	-10.6093
▁supported	-10.6098
▁mark	-10.6098
双	-10.6104
▁royal	-10.6107
品牌	-10.6107
▁Indeed	-10.6111
正在	-10.6111
▁vessel	-10.6114
app	-10.6116
리	-10.6116
▁noticed	-10.6119
ling	-10.6121
▁streets	-10.6122
op	-10.6122
▁Finally	-10.6124
▁implies	-10.6126
になります	-10.6127
▁writer	-10.613
▁smiled	-10.6131
→	-10.6138
over	-10.6142
包括	-10.6142
▁advice	-10.6148
▁recently	-10.6149
▁전	-10.6153
自分の	-10.6155
▁judgment	-10.6156
と思います	-10.6165
Let	-10.6167
▁nice	-10.6168
▁driven	-10.6171
总	-10.6171
▁count	-10.6171
もう	-10.6179
装置	-10.618
送	-10.6184
▁sorry	-10.6184
▁feature	-10.6188
}=\	-10.6189
Get	-10.6191
写真	-10.6197
私	-10.6198
世	-10.62
▁February	-10.6202
很多	-10.6204
場	-10.6205
▁signs	-10.6211
▁guard	-10.6213
)]	-10.6213
▁</	-10.622
▁extreme	-10.622
落	-10.6226
Sidenote	-10.6227
▁fat	-10.6227
サイト	-10.6229
▁faces	-10.6229
▁sold	-10.623
ley	-10.623
先生	-10.6235
▁Perhaps	-10.6236
されている	-10.6236
im	-10.6238
▁representation	-10.6241
▁SMALL	-10.6245
▁stock	-10.625
된	-10.6252
▁behavior	-10.6252
▁extremely	-10.6253
cos	-10.6254
ポイント	-10.6254
▁storm	-10.6261
▁hearing	-10.6262
完成	-10.6263
dot	-10.6265
▁Its	-10.6268
茶	-10.6269
选择	-10.6279
▁suffered	-10.6283
知	-10.6284
即	-10.6286
▁waters	-10.6287
▁$(\	-10.6288
▁더	-10.6291
▁shoulder	-10.6293
▁distinguished	-10.6293
hline	-10.6294
不是	-10.6295
データ	-10.6295
來	-10.6298
连	-10.6306
▁waste	-10.6307
])	-10.6314
▁promised	-10.6318
▁glory	-10.6318
▁legs	-10.6323
성	-10.6329
▁security	-10.6329
적	-10.6333
▁aside	-10.6334
能够	-10.6337
▁catch	-10.6338
ちゃん	-10.6339
菜	-10.6342
▁join	-10.6344
▁hills	-10.635
のですが	-10.6353
▁target	-10.6354
代表	-10.6357
这种	-10.6358
na	-10.6359
▁%	-10.6361
▁benefit	-10.6363
▁servant	-10.6364
▁pride	-10.6364
http	-10.6364
▁chain	-10.6374
さらに	-10.638
▁discussion	-10.639
▁equivalent	-10.639
▁becoming	-10.6393
皮	-10.64
番	-10.64
少	-10.6402
则	-10.6402
▁struggle	-10.6406
▁majority	-10.6409
▁represent	-10.641
}}(	-10.641
▁slight	-10.6413
▁couple	-10.6415
▁hat	-10.6417
院	-10.6417
Ｓ	-10.6419
▁fingers	-10.642
房	-10.642
谷	-10.6421
▁worthy	-10.6423
▁&&	-10.6424
▁relief	-10.6427
▁valuable	-10.6427
▁allows	-10.6428
▁Sea	-10.6429
▁glance	-10.6432
▁companion	-10.6433
▁interests	-10.6435
▁describe	-10.6435
▁obliged	-10.6446
▁belief	-10.645
게	-10.6451
设计	-10.6455
▁grace	-10.6458
网络	-10.6461
▁salt	-10.6465
▁smoke	-10.6466
私は	-10.6471
▁Both	-10.6478
▁guess	-10.6478
▁Nor	-10.6482
なんて	-10.6482
▁largest	-10.6483
▁views	-10.6489
▁border	-10.6497
そう	-10.6499
▁shook	-10.65
▁<<	-10.6501
時に	-10.6501
off	-10.6503
初	-10.6507
▁culture	-10.6512
▁suffering	-10.6512
座	-10.6513
}}{	-10.6515
][	-10.6516
画像	-10.652
▁regions	-10.6522
▁yes	-10.6527
▁grand	-10.6529
▁processes	-10.6529
▁includes	-10.6533
▁derived	-10.6534
▁Those	-10.654
▁dust	-10.6547
经济	-10.6548
▁Louis	-10.6553
▁notes	-10.6553
▁protect	-10.6554
システム	-10.6555
▁passion	-10.6555
“	-10.6562
不要	-10.6565
县	-10.6566
▁fighting	-10.6568
▁concerned	-10.6568
▁studied	-10.6569
▁acts	-10.6571
▁rare	-10.6571
})\	-10.6573
▁parties	-10.6584
star	-10.6586
母	-10.6587
▁forgotten	-10.659
飞	-10.659
▁directed	-10.6591
▁buy	-10.6594
▁Edward	-10.6595
▁conclusion	-10.6597
▁fate	-10.6603
技術	-10.6605
she	-10.6611
ながら	-10.6613
▁saved	-10.6614
行业	-10.6617
ゲーム	-10.6622
Don	-10.6623
若	-10.6624
▁chapter	-10.6636
\{	-10.6637
根	-10.6638
입니다	-10.6651
環境	-10.6651
▁honor	-10.6652
▁consideration	-10.6653
▁quantity	-10.6655
▁reality	-10.6658
▁observe	-10.666
▁accept	-10.6662
からの	-10.6663
▁sand	-10.6673
馬	-10.6673
八	-10.6679
▁drop	-10.668
▁formula	-10.6681
▁remembered	-10.6682
士	-10.6682
言	-10.6683
▁immediate	-10.6686
▁>>	-10.6707
▁sad	-10.6707
自然	-10.671
▁pages	-10.6718
▁remaining	-10.672
▁trial	-10.6722
▁capacity	-10.6724
▁raise	-10.6727
▁boundary	-10.6729
▁Good	-10.6732
ies	-10.6738
▁baby	-10.6738
▁static	-10.674
更新	-10.6741
▁consists	-10.6742
▁generation	-10.6742
▁poet	-10.6746
▁Science	-10.6747
▁properly	-10.6747
早	-10.6748
▁Council	-10.6749
▁woods	-10.6749
については	-10.6752
ている	-10.6765
▁shut	-10.6766
value	-10.6769
▁adopted	-10.6772
例えば	-10.6776
▁star	-10.6781
▁Day	-10.6782
合作	-10.6785
▁index	-10.6786
▁inhabitants	-10.6787
▁divine	-10.6788
▁thousands	-10.6789
▁acid	-10.679
▁denote	-10.6794
▁spiritual	-10.6796
▁custom	-10.6796
如何	-10.6802
▁wave	-10.681
include	-10.6811
▁def	-10.6811
▁necessity	-10.6816
▁Other	-10.6817
▁labor	-10.6821
state	-10.683
하게	-10.6833
▁evidently	-10.6835
▁context	-10.6838
▁truly	-10.6838
▁degrees	-10.6839
▁Act	-10.6847
成功	-10.6849
sin	-10.6849
!'	-10.6853
See	-10.6858
▁kingdom	-10.6861
▁careful	-10.6862
▁bridge	-10.6865
▁column	-10.6866
六	-10.6874
▁cent	-10.6879
破	-10.6882
▁plans	-10.6884
▁gun	-10.6885
機能	-10.6888
▁tongue	-10.6893
▁firm	-10.6902
刘	-10.6904
▁Because	-10.6908
▁existing	-10.6911
▁teaching	-10.6914
▁purposes	-10.6915
▁rocks	-10.6917
▁kinds	-10.6918
▁walking	-10.6918
▁Go	-10.6919
▁capable	-10.6919
ような	-10.6919
▁guns	-10.6921
▁comparison	-10.6921
因此	-10.6921
▁composed	-10.6922
ト	-10.6924
▁enemies	-10.6931
five	-10.6934
▁putting	-10.6935
ex	-10.694
ちょっと	-10.6944
$\	-10.6948
夏	-10.6948
未来	-10.695
▁gradually	-10.6956
▁vision	-10.6957
new	-10.6959
▁actions	-10.6959
▁starting	-10.6961
▁perform	-10.6966
▁meat	-10.6967
具有	-10.6969
还有	-10.6971
博	-10.6975
ko	-10.6978
松	-10.698
▁referred	-10.6983
▁Sunday	-10.6986
▁Madame	-10.6987
▁variable	-10.6987
英	-10.6989
倍	-10.6991
▁alive	-10.6993
计划	-10.7005
反	-10.7008
▁gathered	-10.7022
▁appropriate	-10.7023
▁Though	-10.7023
from	-10.7024
に対して	-10.7027
▁credit	-10.7028
▁suffer	-10.7029
exp	-10.7034
▁unable	-10.7035
收	-10.7041
▁arrival	-10.7042
解	-10.7044
自己的	-10.7046
よう	-10.7049
河	-10.705
▁hung	-10.7054
▁Island	-10.7055
ク	-10.7058
▁comfort	-10.706
▁characteristic	-10.7065
防	-10.7065
▁surprised	-10.7067
▁proud	-10.7067
▁playing	-10.7069
案	-10.7069
well	-10.7073
▁fill	-10.7075
志	-10.7076
▁burning	-10.7077
组织	-10.7078
▁articles	-10.7079
▁strongly	-10.7082
▁holy	-10.7083
node	-10.7083
付	-10.7084
▁Professor	-10.7085
▁node	-10.7085
▁attached	-10.7085
▁stress	-10.7087
▁hearts	-10.7092
▁Hall	-10.7097
罗	-10.71
red	-10.7101
▁possessed	-10.7104
だから	-10.711
钱	-10.7113
▁visible	-10.7113
井	-10.7117
▁remove	-10.7119
▁resistance	-10.7122
▁variables	-10.7122
what	-10.7123
▁parameter	-10.7123
▁gentlemen	-10.7123
装	-10.7125
▁fancy	-10.7126
▁wants	-10.7129
となる	-10.713
▁Canada	-10.7134
)}\	-10.7137
▁flight	-10.7138
▁selected	-10.7143
▁Dick	-10.7145
▁fail	-10.7146
▁wear	-10.7146
地区	-10.7147
▁telling	-10.7147
▁focus	-10.715
▁absolute	-10.7152
のです	-10.7153
角	-10.7156
料	-10.7158
▁Master	-10.7163
mathsf	-10.7163
▁dogs	-10.7166
转	-10.7167
title	-10.717
qquad	-10.7171
经	-10.7174
▁sufficiently	-10.7174
大家	-10.7183
▁enjoy	-10.7183
▁civil	-10.7184
▁shoulders	-10.7186
{{\	-10.7187
▁stranger	-10.7194
骨	-10.7196
▁equations	-10.7197
▁willing	-10.7199
▁characters	-10.72
age	-10.7202
▁Like	-10.7206
▁watching	-10.7207
}^\	-10.7207
▁mighty	-10.7207
Data	-10.7209
▁golden	-10.7219
▁slave	-10.7219
別	-10.7221
▁Le	-10.7225
ル	-10.7232
Ｃ	-10.7235
との	-10.7236
指	-10.7254
すると	-10.7255
▁hidden	-10.7258
材料	-10.7262
▁basic	-10.7265
▁leads	-10.7265
▁``	-10.7266
实现	-10.7269
rd	-10.727
特に	-10.7273
▁theorem	-10.7282
As	-10.7283
股	-10.7285
▁rough	-10.7285
▁fly	-10.7288
▁branches	-10.7289
▁Department	-10.7297
Ah	-10.7297
校	-10.7297
学习	-10.7298
▁habit	-10.7301
▁internal	-10.7301
越	-10.7303
これは	-10.7303
半	-10.7303
▁soldier	-10.7313
每	-10.7314
num	-10.7319
file	-10.7321
▁Frank	-10.7332
▁inner	-10.7333
▁companies	-10.7335
▁ends	-10.7335
牛	-10.7335
热	-10.7335
▁crossed	-10.7336
▁Nature	-10.7341
儿	-10.7342
define	-10.7344
▁hole	-10.7345
电	-10.7352
說	-10.7354
▁previously	-10.7354
▁tired	-10.7354
len	-10.7357
▁informed	-10.7368
▁calling	-10.7369
しかし	-10.737
ul	-10.7374
▁superior	-10.7374
▁host	-10.7374
▁library	-10.7374
▁components	-10.7377
地域	-10.738
▁honest	-10.7385
▁someone	-10.7388
▁Health	-10.7389
▁sacred	-10.7391
例	-10.7396
▁maximum	-10.74
go	-10.74
接	-10.74
▁marry	-10.7401
にある	-10.7405
▁accompanied	-10.7406
%,	-10.7412
歌	-10.7419
我的	-10.7421
const	-10.7423
様	-10.7424
リ	-10.7425
ine	-10.7425
면	-10.7426
▁user	-10.7426
ra	-10.7426
東京	-10.7427
▁Under	-10.7428
textit	-10.7436
っ	-10.7436
理	-10.7436
▁ahead	-10.7437
▁Using	-10.7438
box	-10.744
▁absolutely	-10.744
请	-10.7441
▁Latin	-10.7442
でしょう	-10.7442
▁stones	-10.7443
夫	-10.7444
▁remarked	-10.7445
▁Table	-10.7446
岁	-10.7447
那么	-10.7449
▁brief	-10.7451
所有	-10.7457
▁citizens	-10.7463
]$	-10.7467
str	-10.7467
您	-10.7474
见	-10.7479
▁Ireland	-10.7483
▁gentle	-10.7484
▁travel	-10.7486
라	-10.7486
▁admitted	-10.7487
▁match	-10.749
级	-10.7493
いて	-10.7494
上海	-10.7495
かな	-10.7498
乐	-10.7502
▁depends	-10.7503
全部	-10.7509
▁gained	-10.751
Re	-10.7514
▁maintain	-10.7515
▁Among	-10.7516
▁primary	-10.7516
▁destroyed	-10.7529
";	-10.7529
修	-10.7529
lim	-10.7533
▁discovery	-10.7534
尔	-10.7534
▁buildings	-10.7536
▁Are	-10.7537
任	-10.7539
▁surely	-10.7544
船	-10.7552
认为	-10.7554
▁quietly	-10.7555
theorem	-10.7556
▁anxiety	-10.7562
▁assumed	-10.7565
场	-10.7572
写	-10.7574
城市	-10.7579
▁division	-10.7579
▁lake	-10.7583
▁lands	-10.7583
▁observation	-10.7584
▁しかし	-10.7588
サイズ	-10.7588
等の	-10.759
▁Italian	-10.7594
或者	-10.7595
▁servants	-10.7595
▁assistance	-10.76
▁People	-10.7601
。「	-10.7602
▁roof	-10.7604
▁display	-10.7608
家庭	-10.7615
武	-10.7617
▁bore	-10.7621
主要	-10.7624
▁differences	-10.7628
▁damage	-10.7631
▁Major	-10.7633
▁tells	-10.7635
む	-10.7637
▁ensure	-10.7645
▁en	-10.7649
▁noted	-10.7651
地方	-10.7653
▁angle	-10.7653
▁Research	-10.7657
精	-10.7664
▁legal	-10.7666
▁mixed	-10.7666
▁College	-10.7667
▁official	-10.767
▁pictures	-10.7671
▁fairly	-10.7671
▁universal	-10.7672
国内	-10.7674
▁entrance	-10.7675
があり	-10.7679
▁vessels	-10.7679
▁imagine	-10.7683
neq	-10.7683
('	-10.7684
▁failure	-10.7686
コ	-10.7688
科技	-10.7695
▁About	-10.7696
－	-10.7696
▁tail	-10.77
动	-10.7701
▁coat	-10.7703
▁teacher	-10.7704
存在	-10.7705
▁helped	-10.7705
▁domain	-10.7709
▁busy	-10.7709
▁generated	-10.7709
▁bearing	-10.7711
▁fun	-10.7711
▁Irish	-10.7715
▁Bill	-10.7719
价格	-10.7722
某	-10.7723
▁sons	-10.7723
OK	-10.7724
数据	-10.7724
基本	-10.7726
▁rates	-10.7728
▁eggs	-10.7731
看到	-10.7737
进入	-10.774
▁eating	-10.7744
事件	-10.7744
▁gets	-10.7745
▁spirits	-10.7746
▁위해	-10.7747
無料	-10.7747
▁duties	-10.7747
param	-10.7748
改善	-10.7748
▁flesh	-10.775
▁online	-10.775
▁falling	-10.7753
class	-10.776
▁responsible	-10.7764
▁impression	-10.7765
意	-10.7765
▁apart	-10.7768
way	-10.7768
▁pocket	-10.7769
又は	-10.7769
冷	-10.777
▁experiments	-10.777
▁career	-10.7772
▁중	-10.7772
这样	-10.7776
照	-10.7778
ma	-10.7778
這	-10.7781
▁Still	-10.7783
Ｂ	-10.7783
~}{~	-10.7783
▁uncle	-10.7792
▁Emperor	-10.7793
中央	-10.7793
▁Men	-10.7795
ally	-10.7798
▁commonly	-10.7799
▁creature	-10.78
▁police	-10.7804
玩	-10.7805
▁resolution	-10.7805
▁calls	-10.7806
▁touched	-10.7808
▁delight	-10.7809
장	-10.7813
▁demanded	-10.7814
底	-10.7817
服	-10.7819
▁tools	-10.7825
▁explanation	-10.7825
▁branch	-10.7825
していた	-10.7825
▁recognized	-10.783
▁talked	-10.7831
▁Egypt	-10.7838
▁breakfast	-10.7839
▁contrast	-10.7842
カ	-10.7843
\}$	-10.7845
▁occurs	-10.7848
最新	-10.7849
▁cool	-10.785
こ	-10.7853
▁iii	-10.7854
亿元	-10.7855
这是	-10.7859
▁beat	-10.7862
▁multi	-10.7868
们	-10.7868
▁completed	-10.7872
▁teach	-10.7873
▁Him	-10.7874
▁combination	-10.7877
▁Next	-10.7878
▁authors	-10.7881
氏	-10.7881
▁High	-10.7889
▁farm	-10.7892
▁Philip	-10.7895
▁farther	-10.7896
▁historical	-10.7896
▁err	-10.7898
▁yards	-10.7899
▁mile	-10.7902
▁benefits	-10.7905
▁calm	-10.7907
秀	-10.7909
▁external	-10.7911
セット	-10.7915
操	-10.7916
tis	-10.7918
▁cloud	-10.7925
脚	-10.7926
▁rapid	-10.7926
▁treat	-10.7931
）、	-10.7932
派	-10.7933
▁track	-10.7935
▁km	-10.7936
发现	-10.794
画	-10.7941
▁shadow	-10.7949
▁gods	-10.7957
▁conducted	-10.7958
split	-10.7963
报	-10.7963
▁brave	-10.7965
处	-10.7972
▁제	-10.7972
▁favour	-10.7973
▁proportion	-10.7975
▁organization	-10.7978
원	-10.798
▁prayer	-10.7984
七	-10.7986
▁Russian	-10.7986
▁extra	-10.7986
▁cup	-10.7988
此	-10.7989
層	-10.7989
▁buried	-10.7993
▁waited	-10.7996
▁corn	-10.7998
");	-10.7999
▁priest	-10.8012
兵	-10.802
▁tender	-10.8023
▁Britain	-10.8038
▁seized	-10.8039
▁waves	-10.804
▁teachers	-10.804
Id	-10.8041
切	-10.8041
街	-10.8044
se	-10.8046
▁bent	-10.8046
▁intelligence	-10.8047
▁minds	-10.8048
▁component	-10.8048
▁System	-10.805
▁Royal	-10.8063
形成	-10.8067
▁collected	-10.807
When	-10.8074
提高	-10.8074
▁evident	-10.8079
▁proceeded	-10.8081
▁leader	-10.8088
只有	-10.8091
▁Russia	-10.8093
▁press	-10.8093
▁listen	-10.8093
▁prince	-10.8095
▁Rev	-10.8097
ING	-10.8101
▁metal	-10.8102
▁affect	-10.8103
▁None	-10.8103
bigg	-10.8104
▁prison	-10.8104
奇	-10.8106
什么	-10.8106
▁satisfaction	-10.8107
堂	-10.8107
▁bill	-10.8109
----	-10.8113
中的	-10.8116
▁crime	-10.8116
▁des	-10.8119
ized	-10.812
支援	-10.8122
九	-10.8124
ization	-10.8126
year	-10.8126
に対する	-10.8127
わ	-10.813
★	-10.8137
よりも	-10.8138
▁amongst	-10.8152
By	-10.8152
tr	-10.8153
▁skills	-10.8153
▁depth	-10.8155
▁measured	-10.8155
系列	-10.8163
are	-10.8168
▁northern	-10.8172
▁minister	-10.8173
▁California	-10.8175
源	-10.8181
其他	-10.8184
▁extraordinary	-10.8184
▁Had	-10.8187
用户	-10.8187
displaystyle	-10.8188
▁sentence	-10.8191
map	-10.8191
▁atmosphere	-10.8197
cc	-10.8197
mid	-10.8202
▁addressed	-10.8204
▁pattern	-10.8205
▁Lake	-10.8208
▁thoroughly	-10.8209
▁fourth	-10.8215
▁thank	-10.8216
影	-10.8219
▁applications	-10.8222
▁angry	-10.8223
▁detail	-10.8223
治	-10.8225
▁gray	-10.823
约	-10.8234
▁bringing	-10.8236
▁constantly	-10.8243
}_\	-10.8245
▁anyone	-10.8246
['	-10.8248
漫画	-10.8252
类	-10.8253
選	-10.8254
彩	-10.8255
let	-10.8257
▁hurt	-10.826
▁crown	-10.8261
ab	-10.8261
対策	-10.8262
▁excitement	-10.8265
居	-10.8268
気	-10.827
▁fifteen	-10.8272
▁partly	-10.8274
▁ended	-10.8276
▁financial	-10.8277
▁district	-10.828
▁computer	-10.8283
金融	-10.8284
▁visited	-10.8287
▁centuries	-10.8288
▁Holy	-10.8289
▁dare	-10.8292
▁suggest	-10.8296
▁Jews	-10.8297
▁welcome	-10.8302
▁cloth	-10.8302
福	-10.8304
norm	-10.8304
▁burst	-10.8308
▁skill	-10.8312
▁edges	-10.8314
적인	-10.8317
▁relationship	-10.8318
▁balance	-10.8323
ほど	-10.8323
▁discussed	-10.8326
▁begun	-10.8328
▁palace	-10.8328
▁device	-10.833
▁cat	-10.833
ad	-10.833
▁experiment	-10.8333
▁Again	-10.8336
完全	-10.8346
作業	-10.8351
▁flower	-10.8351
▁march	-10.8353
▁plane	-10.8358
▁nose	-10.8359
center	-10.836
▁observations	-10.837
▁suitable	-10.8372
▁worst	-10.8372
▁excited	-10.8374
▁review	-10.8374
开展	-10.8379
▁whispered	-10.8382
▁union	-10.8385
▁printed	-10.8388
▁hit	-10.8392
▁◆	-10.8395
端	-10.8398
▁Inc	-10.84
▁worship	-10.8406
由于	-10.8408
\<^	-10.8408
▁ride	-10.841
mo	-10.8411
▁moments	-10.8412
부	-10.8414
example	-10.8417
います	-10.8418
▁prisoners	-10.842
买	-10.8422
per	-10.8423
請求項	-10.8424
▁Bible	-10.8425
▁Joseph	-10.8426
▁Japan	-10.8429
▁…	-10.8431
동	-10.8436
res	-10.8439
add	-10.845
Psi	-10.8453
尾	-10.8454
▁everywhere	-10.8456
▁international	-10.8461
▁arranged	-10.8464
▁spend	-10.8465
▁admit	-10.8467
▁port	-10.847
▁plenty	-10.8472
▁할	-10.8472
いい	-10.8473
)+	-10.8473
._,	-10.8477
將	-10.8482
":	-10.8486
▁Book	-10.8489
乱	-10.849
▁layer	-10.8493
▁diet	-10.8499
enumerate	-10.8502
▁exposed	-10.8507
女人	-10.8508
화	-10.8516
▁Western	-10.8519
▁deeply	-10.852
仕事	-10.8525
不过	-10.8528
▁represents	-10.8535
▁でも	-10.8535
▁curve	-10.8537
▁ocean	-10.8539
▁Catholic	-10.8541
▁Little	-10.8549
free	-10.855
▁surrounded	-10.8554
努力	-10.8558
タ	-10.8559
業務	-10.8564
资源	-10.8566
▁college	-10.8568
展	-10.8571
販売	-10.8571
マ	-10.8577
.~\	-10.8578
▁imagination	-10.8578
▁Green	-10.8581
情况	-10.8582
退	-10.8583
da	-10.8584
常	-10.8585
款	-10.8586
然	-10.8595
mathscr	-10.8596
▁carriage	-10.8598
▁win	-10.8598
▁resolved	-10.8598
▁sounds	-10.8605
▁Was	-10.8605
}),	-10.8605
ee	-10.8606
▁fought	-10.8606
▁Vol	-10.8608
百	-10.8613
▁infinite	-10.8618
▁Majesty	-10.8618
▁midst	-10.8621
subseteq	-10.8621
格	-10.8622
▁evolution	-10.8622
▁pray	-10.8627
箱	-10.863
▁virtue	-10.8631
주	-10.8639
平成	-10.864
▁Harry	-10.8641
\<	-10.8641
▁int	-10.8642
▁在	-10.8645
▁Besides	-10.8647
株式会社	-10.865
Come	-10.8651
▁agree	-10.8651
▁bounded	-10.8653
▁combined	-10.8657
▁goods	-10.8657
種	-10.8667
业务	-10.8668
功能	-10.8669
▁wisdom	-10.8675
ラ	-10.8676
▁Park	-10.8676
상	-10.8678
処理	-10.8681
現在	-10.8687
▁identity	-10.869
香港	-10.8691
PC	-10.8694
▁composition	-10.8695
▁harm	-10.8698
史	-10.8708
▁mission	-10.8709
▁Martin	-10.8712
▁dozen	-10.8714
ず	-10.8714
▁○	-10.8714
ists	-10.8715
孩子	-10.8717
아	-10.8717
按	-10.8717
▁ratio	-10.8718
そんな	-10.8721
▁log	-10.8723
杨	-10.8724
▁identify	-10.8729
key	-10.8729
▁devoted	-10.8732
▁induced	-10.8733
これ	-10.8733
人の	-10.8734
진	-10.874
したい	-10.8743
思	-10.875
▁その	-10.8755
のある	-10.8757
盘	-10.8757
他の	-10.8759
ish	-10.8766
two	-10.8766
▁faithful	-10.8771
▁victory	-10.8776
▁ages	-10.878
森	-10.878
▁diseases	-10.8785
▁loud	-10.8786
虽然	-10.8788
▁Virginia	-10.8789
▁trace	-10.879
余	-10.8791
▁width	-10.8792
▁movements	-10.8793
▁cattle	-10.8794
▁asking	-10.8795
▁Parliament	-10.88
▁dressed	-10.8804
Fig	-10.8809
雷	-10.881
▁wore	-10.8814
ac	-10.8816
关于	-10.8818
EB	-10.882
叫	-10.8827
▁regarding	-10.883
▁std	-10.8831
group	-10.8831
▁genius	-10.8834
▁spaces	-10.8837
▁Hill	-10.8838
▁steel	-10.884
▁Three	-10.8843
val	-10.8847
大会	-10.8848
永	-10.885
不同	-10.8851
。」	-10.886
▁yield	-10.8862
选	-10.887
過	-10.8873
方向	-10.8876
評価	-10.8887
只是	-10.8887
になった	-10.8893
变	-10.8893
吉	-10.8898
▁odd	-10.8901
到了	-10.8901
▁rooms	-10.8902
出现	-10.8902
本当に	-10.8902
scale	-10.8905
求	-10.8907
枚	-10.8909
投	-10.8912
交流	-10.8919
ください	-10.8923
镇	-10.8923
▁lovely	-10.8924
最近	-10.8932
活	-10.8934
▁ease	-10.8936
▁domestic	-10.8938
場合	-10.8939
▁fool	-10.8939
ta	-10.894
提升	-10.8941
Mr	-10.8945
作用	-10.8947
▁sympathy	-10.8951
配	-10.8952
Who	-10.8954
旅行	-10.896
▁dying	-10.8961
▁Have	-10.8961
트	-10.8965
▁bar	-10.8965
▁southern	-10.8965
んだ	-10.897
▁slaves	-10.8971
▁location	-10.8973
ate	-10.8974
继续	-10.8974
}+\	-10.8974
▁parallel	-10.8976
><	-10.8979
班	-10.8979
▁aim	-10.8981
il	-10.8981
▁auto	-10.8982
▁staff	-10.8984
▁researchers	-10.8988
官	-10.899
model	-10.8994
微	-10.8999
のような	-10.9004
▁mistake	-10.9004
▁loose	-10.9007
▁obvious	-10.9008
的是	-10.9011
!--	-10.9012
▁frequent	-10.9014
▁largely	-10.9015
._--	-10.9015
▁formation	-10.9018
のみ	-10.9019
▁bare	-10.9028
▁flag	-10.903
种	-10.9031
▁temple	-10.9037
たい	-10.9042
▁resulting	-10.9043
难	-10.9043
▁violence	-10.9047
副	-10.905
▁통해	-10.9051
▁frequency	-10.9051
Pi	-10.9053
▁rode	-10.9055
▁presently	-10.9057
甚至	-10.9057
▁committed	-10.9059
とても	-10.906
▁handsome	-10.9062
段	-10.9064
▁records	-10.9075
▁Israel	-10.9075
▁score	-10.9075
='	-10.9076
▁novel	-10.9076
▁agent	-10.908
▁County	-10.9083
粉	-10.9086
专业	-10.9087
▁identified	-10.9088
▁difficulties	-10.9089
▁belong	-10.9092
▁western	-10.9093
汽车	-10.9095
▁whilst	-10.9096
身体	-10.9097
老师	-10.9097
On	-10.91
며	-10.9102
程	-10.9102
▁wasn	-10.9103
term	-10.9107
倒	-10.9109
▁drove	-10.9111
▁outer	-10.9117
▁commercial	-10.9117
▁strike	-10.9117
▁lifted	-10.912
▁cap	-10.9121
▁destruction	-10.9124
info	-10.9124
▁younger	-10.9125
▁software	-10.9126
▁Having	-10.913
亚	-10.913
▁plot	-10.9138
全球	-10.9138
場所	-10.914
({\	-10.9146
▁uniform	-10.9147
▁stable	-10.9147
果	-10.9147
제	-10.9149
▁substance	-10.9149
▁ceased	-10.9155
▁Un	-10.9156
includegraphics	-10.9157
▁reports	-10.9158
code	-10.916
sup	-10.9162
集团	-10.9163
▁Take	-10.9166
▁experienced	-10.9166
制作	-10.9167
戦	-10.9167
ています	-10.9168
▁Law	-10.9174
￨	-10.9181
▁min	-10.9182
女子	-10.9182
▁clouds	-10.9182
하여	-10.9183
▁pity	-10.9184
共同	-10.9189
秒	-10.9192
插	-10.9193
师	-10.9194
▁refer	-10.9194
＞	-10.9195
▁stick	-10.9205
▁suit	-10.9207
▁channel	-10.9207
▁bought	-10.921
▁indicate	-10.921
理解	-10.9216
阳	-10.9218
▁doctrine	-10.9219
▁delivered	-10.9219
▁calculated	-10.922
▁reign	-10.922
友	-10.9221
え	-10.9223
▁plate	-10.9224
設定	-10.9224
▁classical	-10.9224
▁located	-10.9226
▁Long	-10.9226
▁fault	-10.9229
▁pulled	-10.9233
いる	-10.9233
▁philosophy	-10.9235
her	-10.9235
▁affair	-10.9238
));	-10.9238
守	-10.9239
▁nearer	-10.9243
衣	-10.9243
▁mostly	-10.9246
▁happens	-10.9246
dimensional	-10.9246
▁mad	-10.9248
▁Mar	-10.925
rem	-10.9254
▁poetry	-10.926
▁deck	-10.9261
边	-10.9263
old	-10.927
原因	-10.9273
造	-10.9278
▁→	-10.9279
远	-10.9281
開	-10.9292
Where	-10.9294
세	-10.9296
▁professional	-10.9299
▁link	-10.93
影响	-10.9301
▁load	-10.9303
THE	-10.9304
良い	-10.9308
▁wings	-10.9311
▁Bay	-10.9313
lin	-10.9317
▁castle	-10.9321
▁depend	-10.9322
▁managed	-10.9326
▁hopes	-10.9326
▁Time	-10.9332
電	-10.9335
▁doors	-10.9337
▁rear	-10.9342
付き	-10.9344
▁bitter	-10.9348
间	-10.9349
新しい	-10.9354
▁listened	-10.9356
▁bow	-10.9356
np	-10.9357
问	-10.9362
▁meal	-10.9363
▁necessarily	-10.9367
調査	-10.9369
▁Did	-10.937
交易	-10.9374
▁&=	-10.9379
增加	-10.9382
免费	-10.9382
ブログ	-10.9382
失	-10.9383
▁Suppose	-10.9387
▁favor	-10.9392
イベント	-10.9394
▁Scotland	-10.9396
▁friendly	-10.9398
他的	-10.9399
▁blind	-10.94
▁Sam	-10.9401
効果	-10.9403
law	-10.9405
▁Get	-10.9406
there	-10.941
New	-10.941
設計	-10.9415
they	-10.9415
紹介	-10.9417
▁liked	-10.9417
門	-10.9421
出来	-10.9422
政	-10.9432
▁queen	-10.9434
setminus	-10.9436
取得	-10.9436
▁prisoner	-10.9436
费	-10.9439
▁attitude	-10.944
▁Mark	-10.9442
▁separated	-10.9442
▁hoped	-10.9443
寺	-10.9446
节	-10.9451
noindent	-10.9452
▁leaders	-10.9452
▁turns	-10.9454
▁exchange	-10.9454
人が	-10.9455
としては	-10.9457
▁workers	-10.9458
▁considering	-10.9459
▁granted	-10.946
▁Water	-10.9462
▁sorrow	-10.9463
▁brilliant	-10.9464
▁Love	-10.9465
An	-10.9465
提出	-10.9466
▁intention	-10.9467
▁labour	-10.9467
界	-10.9467
▁rendered	-10.9469
▁founded	-10.9473
▁것	-10.9473
▁《	-10.9474
▁interval	-10.9475
▁discover	-10.9477
▁Americans	-10.9478
▁striking	-10.9478
don	-10.9481
一样	-10.9484
▁Elizabeth	-10.9486
易	-10.9488
▁VI	-10.9491
Set	-10.9495
▁interior	-10.9497
▁traditional	-10.9501
速	-10.9501
ier	-10.9501
▁banks	-10.9504
▁chamber	-10.9505
비	-10.9505
▁permitted	-10.9505
票	-10.9512
オ	-10.9513
ous	-10.9514
▁delay	-10.9514
▁delicate	-10.9515
できます	-10.9515
▁sing	-10.9519
▁helps	-10.952
▁begins	-10.9521
▁splendid	-10.9522
▁singular	-10.9522
根据	-10.9525
成人	-10.9525
Good	-10.9526
精神	-10.953
▁worn	-10.9531
▁International	-10.9532
▁tests	-10.9533
となります	-10.9534
▁increases	-10.9535
▁engine	-10.9538
▁improved	-10.9539
▁discuss	-10.9542
▁Governor	-10.9542
▁possibility	-10.9545
医院	-10.9545
前に	-10.9547
▁literary	-10.9549
▁runs	-10.9551
▁proceed	-10.9552
▁disappeared	-10.9552
▁seed	-10.9554
▁Journal	-10.9558
一起	-10.956
▁feed	-10.9561
▁Pope	-10.9565
▁★	-10.9566
▁tool	-10.9567
▁"""	-10.9568
▁supper	-10.9572
▁lad	-10.9573
▁Japanese	-10.9575
改	-10.9576
映画	-10.9581
▁announced	-10.9584
▁whereas	-10.9584
▁LP	-10.9587
業	-10.9588
▁chemical	-10.9592
網	-10.9596
▁du	-10.9597
was	-10.9599
draw	-10.9606
드	-10.9608
▁wholly	-10.961
▁Art	-10.961
▁errors	-10.961
曾	-10.9612
▁solve	-10.9614
▁whenever	-10.9616
購入	-10.9619
▁Use	-10.962
▁Ben	-10.9621
▁finger	-10.9621
ty	-10.9624
▁African	-10.9625
▁preserved	-10.9626
動画	-10.9627
巴	-10.9629
▁haven	-10.9631
▁procedure	-10.9631
▁coffee	-10.9631
　　	-10.9633
ｂ	-10.9635
▁developing	-10.9636
▁=>	-10.9644
人は	-10.9644
ま	-10.9648
▁thanks	-10.965
之前	-10.9654
▁income	-10.9654
▁shop	-10.9655
秋	-10.9659
处理	-10.966
結果	-10.9661
}-\	-10.9661
▁introduction	-10.9663
▁habits	-10.9663
▁Brown	-10.9665
▁Boston	-10.967
▁apparent	-10.9673
br	-10.9675
▁sex	-10.9675
From	-10.968
▁pressed	-10.9681
有些	-10.9684
▁electric	-10.9686
人员	-10.9687
▁net	-10.969
▁inequality	-10.9691
String	-10.9693
叶	-10.9696
短	-10.97
だけで	-10.9701
まだ	-10.9708
别	-10.9711
IT	-10.9712
▁sell	-10.9712
▁Sun	-10.9713
▁attended	-10.9716
▁comfortable	-10.9716
▁Count	-10.9717
▁Institute	-10.9718
main	-10.972
▁Second	-10.972
男性	-10.9721
记者	-10.9724
/\	-10.9728
命	-10.9735
▁samples	-10.9741
イ	-10.9742
ために	-10.9745
▁household	-10.9746
▁artist	-10.9747
▁fundamental	-10.9747
▁compact	-10.975
机构	-10.9754
▁celebrated	-10.9754
▁maps	-10.9754
期間	-10.9757
▁escaped	-10.976
のように	-10.976
▁witness	-10.976
▁satisfy	-10.976
奥	-10.976
▁devices	-10.976
▁notion	-10.9761
編	-10.9762
)|	-10.9763
who	-10.9764
久	-10.9765
}\\	-10.9765
拍	-10.9765
▁Which	-10.9766
のに	-10.9769
▁arose	-10.9769
AC	-10.977
((	-10.9771
射	-10.9772
url	-10.9772
▁roots	-10.9774
▁adding	-10.9775
药	-10.9778
カード	-10.9781
於	-10.9782
합니다	-10.9785
▁driving	-10.9787
推	-10.9788
港	-10.9789
語	-10.9791
▁Over	-10.9797
▁easier	-10.9797
▁expedition	-10.9798
床	-10.9799
▁changing	-10.98
▁shell	-10.98
雅	-10.98
bb	-10.9801
명	-10.9802
input	-10.9803
▁dance	-10.9804
状態	-10.9809
▁extension	-10.981
▁terror	-10.9823
▁edition	-10.9823
動	-10.9825
一下	-10.9826
ah	-10.9827
];	-10.9827
▁medicine	-10.983
治療	-10.983
▁minimum	-10.9832
▁issued	-10.9833
▁super	-10.9834
▁aspect	-10.9837
▁fellows	-10.9838
最大	-10.984
▁BY	-10.984
underline	-10.9845
ん	-10.9848
▁Mexico	-10.9851
▁estimated	-10.9853
▁affection	-10.9856
▁confusion	-10.9859
▁significantly	-10.9859
開始	-10.986
ことを	-10.9862
▁authorities	-10.9862
equiv	-10.9862
为了	-10.9865
▁carbon	-10.9867
▁seated	-10.9868
col	-10.9868
|^	-10.9869
▁breaking	-10.987
断	-10.9872
液	-10.9873
▁handle	-10.9877
▁revealed	-10.9877
▁#####	-10.9884
▁stronger	-10.9886
tif	-10.989
}}}	-10.9896
▁flying	-10.9897
▁county	-10.9898
さんが	-10.9905
▁margin	-10.9911
除了	-10.9912
重要	-10.9914
▁Jim	-10.9915
▁painted	-10.9915
hand	-10.9915
を含む	-10.9917
}^{(	-10.9928
组	-10.9928
----"	-10.9928
▁consent	-10.9929
^*	-10.9931
横	-10.9938
▁Christmas	-10.9941
素	-10.9944
▁Bob	-10.9945
办	-10.9945
▁[_	-10.9946
▁returning	-10.9946
들이	-10.9949
加工	-10.9951
完	-10.9952
鱼	-10.9954
)/	-10.9954
▁constructed	-10.9955
良	-10.9957
猫	-10.9957
登録	-10.9957
▁Arthur	-10.996
番号	-10.9961
▁\|	-10.9963
それ	-10.997
▁wound	-10.9976
▁bones	-10.9976
▁instrument	-10.9978
▁possess	-10.9978
▁laughing	-10.9979
▁sacrifice	-10.9981
▁creation	-10.9981
▁Saint	-10.9982
しない	-10.9984
forall	-10.9985
▁sheep	-10.9986
会社	-10.9986
dy	-10.9988
痛	-10.999
▁environmental	-10.999
▁yesterday	-10.999
这一	-10.9994
정	-10.9995
more	-10.9996
▁widely	-10.9997
▁writers	-10.9999
▁techniques	-10.9999
▁throat	-11.0001
▁indicated	-11.0001
▁후	-11.0002
▁structures	-11.0003
▁limits	-11.0004
▁kindly	-11.0005
政治	-11.0008
▁directions	-11.0012
itemize	-11.0015
전	-11.0016
case	-11.0017
point	-11.0022
▁faint	-11.0022
▁fleet	-11.0023
wood	-11.0023
▁Sometimes	-11.0027
▁le	-11.0035
舞	-11.0035
▁overall	-11.0036
▁leg	-11.0037
させる	-11.004
你的	-11.0043
미	-11.0044
ナ	-11.0044
▁islands	-11.0044
)}{	-11.0044
ful	-11.0047
▁claims	-11.0047
▁smiling	-11.0048
▁null	-11.005
▁precious	-11.0054
▁towns	-11.0055
~$	-11.0061
하기	-11.0064
亿	-11.007
▁recall	-11.0074
▁cruel	-11.0075
▁vote	-11.0076
▁Land	-11.0077
沙	-11.0079
▁fond	-11.008
银行	-11.0082
費	-11.0085
▁anger	-11.0087
日に	-11.0087
▁×	-11.0087
といった	-11.0089
▁transition	-11.0096
down	-11.0098
▁qualities	-11.0099
関係	-11.0099
▁kitchen	-11.01
dim	-11.0105
▁throne	-11.0106
▁velocity	-11.0109
▁Heaven	-11.0112
ことで	-11.0116
known	-11.0117
▁crew	-11.012
一次	-11.0124
＝	-11.0126
▁di	-11.0126
刀	-11.0128
程度	-11.0128
ム	-11.0133
▁안	-11.0133
▁characteristics	-11.0134
资金	-11.0137
List	-11.0138
連	-11.0139
湖	-11.0141
左	-11.0146
進	-11.0149
▁costs	-11.0153
▁knees	-11.0154
▁readily	-11.0164
hspace	-11.0165
▁exception	-11.0165
▁compelled	-11.0173
现场	-11.0174
back	-11.0174
ではなく	-11.0175
▁grief	-11.0175
까지	-11.0177
均	-11.0177
야	-11.0177
▁occasionally	-11.0178
구	-11.018
▁nil	-11.018
海外	-11.0187
相关	-11.0188
▁array	-11.019
신	-11.0193
すること	-11.0194
點	-11.0199
センター	-11.0202
▁providing	-11.0203
▁murder	-11.0207
同じ	-11.0212
▁armed	-11.0213
保持	-11.0214
▁accomplished	-11.0219
语	-11.0219
▁friendship	-11.0219
デザイン	-11.022
▁fever	-11.0225
▁pick	-11.0226
au	-11.0228
且	-11.0231
设备	-11.0233
価格	-11.0239
▁mercy	-11.024
▁sail	-11.024
▁brothers	-11.024
國	-11.0249
最高	-11.025
▁prior	-11.0251
レ	-11.0252
▁devil	-11.0253
▁gently	-11.0257
한다	-11.0259
▁grey	-11.0269
▁consequences	-11.027
▁economy	-11.0271
▁examination	-11.0272
▁document	-11.0273
▁programs	-11.0275
▁establish	-11.0277
▁accuracy	-11.0277
▁recorded	-11.0278
▁내	-11.0282
发生	-11.0283
起来	-11.0286
▁hospital	-11.0286
ca	-11.0287
ダ	-11.0289
▁violent	-11.029
比较	-11.0295
▁consciousness	-11.0295
食品	-11.0296
体験	-11.0298
▁media	-11.0301
▁intellectual	-11.0306
▁Bishop	-11.0307
游	-11.0308
ce	-11.0309
▁사	-11.0313
▁pipe	-11.0314
▁everyone	-11.0317
▁remark	-11.0321
找	-11.0322
▁dignity	-11.0325
▁introduce	-11.0325
▁때	-11.0326
▁Army	-11.0327
▁opposition	-11.0328
▁conflict	-11.033
▁testing	-11.033
▁Nothing	-11.0333
大きな	-11.0338
获得	-11.0339
よく	-11.034
环境	-11.0342
脱	-11.0344
提	-11.0345
创新	-11.0345
家族	-11.0347
ard	-11.0347
▁plays	-11.035
head	-11.0352
▁sooner	-11.0355
注意	-11.0356
株	-11.0358
▁distributed	-11.0359
なし	-11.0361
ner	-11.0367
▁대	-11.0368
▁Come	-11.037
▁$|	-11.0372
▁bone	-11.0372
}}{\	-11.0373
杯	-11.0377
ting	-11.038
▁foundation	-11.0381
▁desert	-11.0381
▁assumption	-11.0383
▁communities	-11.0384
韩国	-11.0386
怎么	-11.0386
▁tale	-11.0388
▁----	-11.0388
。。。	-11.0397
自由	-11.0398
了解	-11.0399
▁audience	-11.0401
With	-11.0402
状況	-11.0405
▁everybody	-11.0411
急	-11.0411
少女	-11.0412
組	-11.0413
ha	-11.0415
ツ	-11.0416
▁picked	-11.0418
▁Mac	-11.042
亚洲	-11.042
▁god	-11.0421
▁Chapter	-11.0422
▁hotel	-11.0426
十	-11.0427
記事	-11.0431
▁natives	-11.0435
aligned	-11.0441
▁Lee	-11.0445
党	-11.0446
▁semi	-11.045
调	-11.045
▁territory	-11.0452
の中で	-11.0452
团	-11.0453
▁governor	-11.0453
十分	-11.0455
▁selection	-11.0458
▁singing	-11.0463
▁concern	-11.0464
▁ 	-11.0464
往	-11.0468
▁campaign	-11.0471
prod	-11.0476
▁approached	-11.0478
タイプ	-11.0478
需求	-11.0478
引	-11.0481
弱	-11.0482
なく	-11.0483
Value	-11.0483
关	-11.0483
通信	-11.0485
更加	-11.0485
▁dimension	-11.0492
確認	-11.0495
相談	-11.0497
▁chiefly	-11.0497
▁commanded	-11.0498
▁accounts	-11.0501
▁immense	-11.0503
来说	-11.0505
]\	-11.0507
シリーズ	-11.051
▁Set	-11.0511
＠	-11.0513
▁Proposition	-11.0513
▁asleep	-11.0516
旧	-11.0516
留	-11.0516
▁Alexander	-11.0517
▁status	-11.0518
▁reward	-11.052
算	-11.052
td	-11.0522
话	-11.0523
才能	-11.0525
▁enable	-11.0525
富	-11.0529
ive	-11.053
▁Celera	-11.0533
个人	-11.0534
▁relatively	-11.0535
▁Earl	-11.0536
▁examined	-11.0538
▁Doctor	-11.054
▁millions	-11.0541
▁annual	-11.0542
▁mainly	-11.0545
▁punishment	-11.055
ですよね	-11.055
▁arguments	-11.0552
列	-11.0552
▁reduction	-11.0554
Ｒ	-11.0558
▁Fort	-11.0561
▁Jewish	-11.0562
▁Asia	-11.0563
▁medium	-11.057
▁cousin	-11.0574
▁solar	-11.0576
▁pushed	-11.0576
サ	-11.0579
())	-11.0584
听	-11.0586
シ	-11.0586
满	-11.0589
楼	-11.059
▁shame	-11.0594
鬼	-11.0596
▁gift	-11.0597
▁originally	-11.0598
▁particles	-11.0599
▁charged	-11.0599
▁warning	-11.0601
伊	-11.0612
传	-11.0613
looking	-11.0617
▁Al	-11.0625
▁efficiency	-11.0629
▁efficient	-11.0634
▁Eq	-11.0635
…。	-11.0635
ol	-11.0637
▁cutting	-11.0643
控制	-11.0643
▁offers	-11.0643
除	-11.0643
▁somewhere	-11.0644
▁integer	-11.0645
的话	-11.0645
赤	-11.0647
智	-11.065
杀	-11.0651
上的	-11.0657
私の	-11.066
▁trip	-11.066
御	-11.0661
甲	-11.0667
灯	-11.0672
"--	-11.0672
酸	-11.0672
조	-11.0672
▁coal	-11.0673
his	-11.0674
丸	-11.0677
▁conscious	-11.0677
价	-11.0678
▁concluded	-11.0678
▁joint	-11.0681
De	-11.069
▁companions	-11.0691
ジ	-11.0691
普通	-11.0694
▁injury	-11.0694
散	-11.0695
○	-11.0695
計画	-11.07
产业	-11.0704
▁CO	-11.0706
▁president	-11.0706
▁seldom	-11.0709
▁conscience	-11.0712
万元	-11.0712
▁nobody	-11.0714
▁drinking	-11.0716
アップ	-11.0717
ize	-11.0717
▁wishes	-11.0718
▁appeal	-11.0722
▁enjoyed	-11.0723
▁default	-11.0724
▁bold	-11.0724
基金	-11.0726
印	-11.0731
全面	-11.0731
four	-11.0733
税	-11.0737
喜	-11.0739
高校	-11.0741
エ	-11.0742
▁acquired	-11.0745
▁함께	-11.0746
\|_{	-11.0749
经过	-11.0749
▁Central	-11.075
拥有	-11.0751
side	-11.0761
▁compare	-11.0763
媒体	-11.0764
▁accident	-11.0764
▁belonging	-11.0765
マン	-11.0771
▁precisely	-11.0772
具	-11.0773
年に	-11.0773
▁다른	-11.0774
背	-11.0777
というのは	-11.0779
!」	-11.0783
)}$	-11.0785
魔	-11.0787
▁equipment	-11.0788
▁assured	-11.0788
あ	-11.0793
员	-11.0794
▁것이	-11.0795
par	-11.0797
理由	-11.0805
材	-11.0806
▁maintained	-11.0807
排	-11.0809
▁extensive	-11.0812
耳	-11.0814
At	-11.0816
▁inter	-11.0816
▁signed	-11.0818
類	-11.0818
▁instances	-11.0821
▁»	-11.0823
限定	-11.0823
▁tiny	-11.0826
▁お	-11.0827
▁captured	-11.083
▁capture	-11.0831
旅游	-11.0833
追	-11.0834
▁praise	-11.0836
换	-11.0837
▁awful	-11.0838
できない	-11.0844
文字	-11.0847
▁instructions	-11.0854
景	-11.0855
结	-11.0855
long	-11.0858
▁acting	-11.0861
▁Center	-11.0863
▁시	-11.0864
▁protein	-11.0865
▁유	-11.0867
▁wet	-11.0868
生产	-11.0869
where	-11.087
▁distinction	-11.087
▁countenance	-11.0873
▁Mother	-11.0874
▁realized	-11.0874
▁Republic	-11.0877
れば	-11.0884
▁-\	-11.0885
｜	-11.0889
▁incident	-11.0891
ter	-11.0892
梅	-11.0898
▁inch	-11.0898
▁release	-11.0899
牌	-11.0901
▁shade	-11.0902
▁attend	-11.0903
▁pull	-11.0903
不可	-11.0906
▁route	-11.0907
▁reputation	-11.0908
▁dull	-11.0913
▁tribes	-11.0917
▁video	-11.0919
▁presents	-11.0921
科学	-11.0922
▁Uncle	-11.0922
▁election	-11.0922
從	-11.0923
▁exposure	-11.0928
め	-11.0929
）。	-11.093
▁fix	-11.093
館	-11.093
dt	-11.0931
▁Press	-11.0932
▁falls	-11.0932
▁games	-11.0933
▁units	-11.0934
에는	-11.0936
One	-11.0936
▁concept	-11.0937
▁cycle	-11.0938
book	-11.0938
影院	-11.0939
▁magnetic	-11.094
それは	-11.094
佳	-11.094
▁afford	-11.0943
席	-11.0947
んです	-11.0947
▁mounted	-11.0948
苦	-11.0951
实	-11.0951
산	-11.0951
▁Home	-11.096
状	-11.0966
▁experiences	-11.0966
put	-11.0967
▁Van	-11.0967
突然	-11.0969
▁eager	-11.0971
▁hero	-11.0971
▁protected	-11.0971
第二	-11.0973
tree	-11.0976
▁hate	-11.0976
▁Dutch	-11.0979
▁destroy	-11.0979
▁algebra	-11.0981
▁conclude	-11.0982
▁owner	-11.0989
期待	-11.0991
=:	-11.0998
权	-11.0998
露	-11.0998
▁creatures	-11.1
▁vertex	-11.1002
▁achieve	-11.1002
▁finds	-11.1003
▁boats	-11.1006
保障	-11.1012
标准	-11.1017
ことが	-11.1021
▁Young	-11.1021
課	-11.1022
▁hundreds	-11.1023
tabular	-11.1024
▁scattered	-11.1028
▁card	-11.1029
▁lights	-11.103
▁parent	-11.1031
▁elsewhere	-11.1031
▁Ah	-11.1033
▁$\{	-11.1033
▁hurried	-11.1035
▁FOR	-11.1037
▁prime	-11.1041
▁institutions	-11.1042
%。	-11.1044
ば	-11.1045
▁manage	-11.1045
▁Association	-11.105
親	-11.1051
市場	-11.1053
▁Any	-11.1055
然后	-11.106
▁trained	-11.106
▁shared	-11.1061
▁departure	-11.1062
▁Furthermore	-11.1068
▁execution	-11.1069
考	-11.1069
我們	-11.1071
▁formerly	-11.1074
そうです	-11.1076
▁lesson	-11.1077
プロ	-11.1078
▁Spirit	-11.1081
联	-11.1081
▁thinks	-11.1083
▁fled	-11.1087
▁tend	-11.1088
を行う	-11.1088
▁souls	-11.109
▁hide	-11.1092
에게	-11.1093
▁users	-11.1095
limits	-11.1097
▁render	-11.1099
▁permanent	-11.11
強	-11.1102
▁motor	-11.1103
バ	-11.1103
▁poverty	-11.1103
核	-11.1106
citep	-11.1106
チ	-11.1106
▁sites	-11.1109
模式	-11.1109
▁foods	-11.111
▁grant	-11.1111
业	-11.1111
▁fuel	-11.1112
手段	-11.1113
男人	-11.1114
▁strain	-11.1116
紙	-11.1118
ネット	-11.1119
▁translation	-11.112
▁innocent	-11.1121
施設	-11.1126
値	-11.1127
▁attempted	-11.1129
▁Australia	-11.113
α	-11.113
さんは	-11.1131
コース	-11.1135
▁Southern	-11.1136
▁nervous	-11.1137
▁Page	-11.1138
▁released	-11.1141
▁Aunt	-11.1141
ham	-11.1145
▁Up	-11.1145
▁voices	-11.1147
▁guilty	-11.1148
塔	-11.1149
▁steady	-11.115
人生	-11.1153
介绍	-11.1154
展示	-11.1154
当然	-11.1155
▁instantly	-11.1161
▁->	-11.1163
▁consistent	-11.1163
▁prepare	-11.1167
Go	-11.117
▁alternative	-11.1174
▁tax	-11.1174
▁다	-11.1174
▁administration	-11.1175
form	-11.1177
how	-11.118
▁probable	-11.118
▁Instead	-11.1182
关系	-11.1185
cor	-11.1185
▁Copyright	-11.1186
▁platform	-11.1191
▁agreement	-11.1192
▁bell	-11.1192
▁readers	-11.1197
▁surrounding	-11.1205
一直	-11.1208
called	-11.1213
▁accurate	-11.1214
▁strategy	-11.1217
ケース	-11.1218
建立	-11.1221
場合は	-11.1222
▁council	-11.1223
▁abroad	-11.1223
▁정	-11.1226
▁billion	-11.1229
様々な	-11.1236
▁inclined	-11.1238
ur	-11.1239
bullet	-11.1245
▁mid	-11.1245
\,\	-11.1246
仙	-11.125
發	-11.1251
히	-11.1253
右	-11.1255
▁accustomed	-11.1262
冬	-11.1264
▁covering	-11.1264
▁marks	-11.1264
開発	-11.1265
▁listening	-11.1266
存	-11.1268
しながら	-11.1271
水平	-11.1272
▁tradition	-11.1273
▁humanity	-11.1275
▁projects	-11.1278
▁Michael	-11.128
▁Without	-11.1283
▁enormous	-11.1284
개	-11.1285
▁consumption	-11.1288
▁bool	-11.129
▁Joe	-11.1292
▁belongs	-11.1293
▁secured	-11.1293
▁경우	-11.1295
▁steam	-11.1299
袋	-11.1299
▁diameter	-11.13
▁regiment	-11.13
々	-11.131
ER	-11.1311
ary	-11.1311
跑	-11.1312
water	-11.1316
峰	-11.1319
▁El	-11.132
▁arrangement	-11.1323
shape	-11.1323
目的	-11.1325
とも	-11.1329
れ	-11.1333
▁Through	-11.1334
直播	-11.1334
▁reasonable	-11.1337
経験	-11.1341
▁creating	-11.1342
したり	-11.1343
▁poem	-11.1346
▁wooden	-11.1347
左右	-11.135
魚	-11.135
令	-11.1353
▁shouted	-11.1353
▁whence	-11.1356
can	-11.1356
▁province	-11.1358
▁reaction	-11.136
の場合	-11.1363
领域	-11.1364
. 	-11.1365
▁decide	-11.1369
▁fatal	-11.1369
压	-11.137
▁leaf	-11.1371
温	-11.1371
改革	-11.1376
▁receiving	-11.1377
▁Me	-11.1379
哥	-11.138
▁acquaintance	-11.1381
▁opposed	-11.1382
▁두	-11.1382
▁Upon	-11.1382
赛	-11.1382
▁detailed	-11.1385
カラー	-11.139
Here	-11.139
必须	-11.139
▁Jan	-11.139
▁고	-11.1391
坐	-11.1396
▁sixty	-11.1399
運動	-11.14
하지	-11.1403
▁opportunities	-11.1403
无法	-11.1405
▁despair	-11.1406
work	-11.1411
▁satisfies	-11.1412
▁kings	-11.1414
▁trail	-11.1414
速度	-11.1416
爆	-11.1417
.—	-11.1417
铁	-11.1422
▁columns	-11.1423
灵	-11.1424
▁コメント	-11.1428
▁recommended	-11.1429
▁cabin	-11.1429
용	-11.143
▁kindness	-11.1431
▁tower	-11.1434
ville	-11.1435
▁universe	-11.1436
兰	-11.1436
dx	-11.1438
▁churches	-11.1438
order	-11.144
各种	-11.1441
	-11.1441
▁lover	-11.1444
▁unusual	-11.1446
▁Data	-11.1447
▁vertices	-11.1448
額	-11.1452
▁patterns	-11.146
▁masses	-11.146
State	-11.146
套	-11.1461
師	-11.1464
交通	-11.1465
?」	-11.1469
▁web	-11.1471
sh	-11.1473
▁dreams	-11.1475
▁brings	-11.1475
▁pairs	-11.1476
▁stepped	-11.1478
=(	-11.1479
summary	-11.1481
空间	-11.1482
になって	-11.1482
側	-11.1485
薬	-11.149
▁forming	-11.149
Your	-11.1492
黒	-11.1495
▁responsibility	-11.1496
▁likewise	-11.1499
소	-11.15
▁func	-11.1504
level	-11.1508
'$	-11.1509
▁drug	-11.1509
▁yours	-11.1513
▁reaching	-11.1513
▁extend	-11.1514
▁mystery	-11.1515
▁scientists	-11.1515
患者	-11.1517
威	-11.1517
級	-11.1518
イン	-11.1522
ship	-11.1526
▁ruin	-11.1527
▁permission	-11.1529
拿	-11.1531
▁optimal	-11.1537
▁eternal	-11.1537
▁infection	-11.1537
司	-11.1537
▁Christians	-11.1538
▁wire	-11.154
市民	-11.1541
应该	-11.1543
离	-11.1545
place	-11.155
的に	-11.1551
▁namely	-11.1553
▁integral	-11.1557
文章	-11.1558
▁approaches	-11.1558
視頻	-11.156
Error	-11.156
led	-11.1562
▁glorious	-11.1562
AA	-11.1563
▁replaced	-11.1565
狗	-11.1567
▁OR	-11.157
▁utterly	-11.157
结果	-11.157
▁furnished	-11.1572
▁knife	-11.1573
▁Empire	-11.1574
▁Committee	-11.1577
▁Education	-11.158
▁eastern	-11.1581
▁formal	-11.1582
▁examine	-11.1584
综合	-11.1586
General	-11.1586
▁select	-11.1586
▁approaching	-11.1587
之一	-11.1594
▁vital	-11.1594
你们	-11.1594
df	-11.1596
▁Pacific	-11.1598
▁missing	-11.16
▁pen	-11.16
▁improvement	-11.16
▁하는	-11.1605
▁mysterious	-11.1608
▁mistress	-11.1609
▁Office	-11.1617
▁Public	-11.1617
達	-11.1618
少し	-11.1618
▁nearest	-11.162
回答	-11.1621
May	-11.1621
▁belonged	-11.1629
风险	-11.1632
ket	-11.1632
▁retired	-11.1633
▁weary	-11.1633
선	-11.1635
▁rushed	-11.1635
狂	-11.1636
ページ	-11.1638
税込	-11.1641
▁intense	-11.1645
▁typically	-11.1645
▁Given	-11.1647
割	-11.1651
▁iv	-11.1651
肌	-11.1651
}$$	-11.1655
▁burned	-11.1655
▁Johnson	-11.1656
検査	-11.1658
人気	-11.1659
発	-11.1659
℃	-11.1661
▁quarters	-11.1663
▁opinions	-11.1665
▁많은	-11.1667
ω	-11.1669
▁curiosity	-11.167
妻	-11.1672
▁passes	-11.1672
予定	-11.1678
▁Free	-11.1681
km	-11.1682
▁estate	-11.1683
しか	-11.1684
▁assert	-11.1685
▁unfortunate	-11.1693
Theta	-11.1695
雄	-11.1701
kg	-11.1705
▁recovered	-11.1705
梦	-11.1711
▁repeat	-11.1711
ro	-11.1713
▁Grand	-11.1714
モデル	-11.1716
▁perceived	-11.1718
信号	-11.1718
▁operators	-11.172
▁日本	-11.1722
個人	-11.1723
▁suggests	-11.1724
変更	-11.1725
ロ	-11.1726
}}_	-11.1727
▁constitution	-11.1732
▁preparation	-11.1733
▁requirements	-11.1734
轻	-11.1735
▁convinced	-11.1739
▁freely	-11.1739
新闻	-11.1741
！」	-11.1741
▁typical	-11.1742
▁roads	-11.1742
▁heavily	-11.1743
恋	-11.1745
차	-11.1746
今日	-11.1748
增长	-11.1748
▁challenge	-11.1748
調整	-11.1749
▁Lincoln	-11.175
▁eventually	-11.1752
今天	-11.1752
▁$[	-11.1752
▁rarely	-11.1754
마	-11.1756
占	-11.1759
▁writes	-11.1759
▁measurement	-11.1759
▁overcome	-11.176
▁alike	-11.1761
first	-11.1762
([	-11.1766
洗	-11.1766
pdf	-11.1766
CA	-11.1771
▁voyage	-11.1773
▁intervals	-11.1774
▁purchase	-11.1774
▁paused	-11.1777
发布	-11.1777
ford	-11.178
台湾	-11.1781
店舗	-11.1783
キ	-11.1786
▁sprang	-11.1788
投資	-11.179
▁resource	-11.179
スポーツ	-11.1794
▁지	-11.1796
author	-11.1796
▁liquid	-11.1802
推动	-11.1804
▁seeking	-11.1806
丽	-11.1811
▁remote	-11.1814
ri	-11.182
報告	-11.182
▁solemn	-11.182
當	-11.1821
▁entry	-11.1822
▁core	-11.1823
酒店	-11.1824
PROOF	-11.1827
æ	-11.183
演	-11.1831
▁languages	-11.1835
▁sections	-11.1838
rate	-11.184
▁priests	-11.184
▁category	-11.184
▁hunting	-11.1843
Vert	-11.1845
▁ex	-11.1845
▁transport	-11.1847
▁subsequent	-11.1847
▁survey	-11.1848
Ｈ	-11.1853
单位	-11.1853
▁interrupted	-11.1856
查	-11.1856
▁advantages	-11.1858
▁homes	-11.1858
胸	-11.186
巻	-11.1863
▁한다	-11.1866
望	-11.1867
></	-11.187
▁아	-11.187
▁expense	-11.1872
ka	-11.1872
when	-11.1874
ray	-11.1874
▁entitled	-11.1874
值	-11.1876
せ	-11.1876
事故	-11.1877
▁colors	-11.1878
▁admiration	-11.1878
▁anybody	-11.188
▁Ch	-11.1881
던	-11.1883
호	-11.1885
软件	-11.1886
▁Post	-11.1888
幅	-11.1894
節	-11.1895
▁Cross	-11.1895
non	-11.1896
▁emotion	-11.19
華	-11.19
法律	-11.1902
▁items	-11.1905
膜	-11.1905
▁attacked	-11.1906
是否	-11.1911
▁fired	-11.1915
▁describes	-11.1916
泰	-11.192
通常	-11.1924
치	-11.1927
image	-11.1927
▁spin	-11.193
ns	-11.1931
▁Napoleon	-11.1932
检查	-11.1935
炎	-11.1936
▁remarks	-11.1938
▁depending	-11.1939
▁returns	-11.194
▁slavery	-11.1941
だけでなく	-11.1943
ities	-11.1943
▁entering	-11.1945
▁Jane	-11.1946
▁invited	-11.1946
▁swept	-11.1954
▁elected	-11.1955
▁shift	-11.1956
▁오	-11.1959
▁framework	-11.1959
▁defence	-11.1962
▁stuff	-11.1964
苏	-11.1965
報	-11.1968
bo	-11.1971
任何	-11.1972
掉	-11.1976
▁axis	-11.1976
▁transfer	-11.1984
▁topic	-11.1984
▁Thou	-11.1985
达到	-11.1985
讲	-11.1989
必要	-11.1991
不断	-11.1991
▁independence	-11.1992
▁earnest	-11.1994
▁같은	-11.1997
降	-11.1997
▁cotton	-11.1999
▁가장	-11.2004
▁Museum	-11.2005
デ	-11.2006
▁essay	-11.2006
회	-11.2007
されています	-11.2009
▁kids	-11.2009
▁wheel	-11.201
오	-11.2012
公開	-11.2012
▁assigned	-11.2022
▁copper	-11.2023
・・	-11.2023
▁dim	-11.2023
니	-11.2023
のために	-11.2025
▁bag	-11.2029
▁reflection	-11.203
▁Jones	-11.2037
乳	-11.2038
▁triumph	-11.2039
▁decay	-11.2039
▁mankind	-11.204
▁||	-11.2041
料理	-11.2044
▁practices	-11.2046
ml	-11.2049
▁sending	-11.2051
pos	-11.2058
▁reserved	-11.2058
ただ	-11.2061
ことは	-11.2063
ところ	-11.2066
事情	-11.2068
专家	-11.207
**	-11.2076
▁relevant	-11.2078
▁attacks	-11.208
树	-11.2084
▁tribe	-11.2084
▁acquainted	-11.2084
体育	-11.2087
▁Anne	-11.2089
▁seriously	-11.2089
▁luck	-11.2089
▁|\	-11.209
▁stairs	-11.2091
▁thereby	-11.2092
不足	-11.2094
得到	-11.2094
保护	-11.2095
▁scenes	-11.2096
盛	-11.2097
▁Scott	-11.2097
支	-11.2098
亮	-11.2099
洋	-11.2102
▁gates	-11.2103
かなり	-11.2103
宗	-11.2108
医	-11.2111
剑	-11.2111
▁True	-11.2111
▁Rose	-11.2111
穿	-11.2112
▁frightened	-11.2115
▁Christianity	-11.2116
試験	-11.2116
▁wondered	-11.2117
▁thrust	-11.2117
▁closer	-11.2117
くらい	-11.2119
宮	-11.2122
▁tied	-11.2122
▁shock	-11.2123
▁provisions	-11.2124
▁inquired	-11.2126
▁expansion	-11.2127
還	-11.2127
刚	-11.2128
▁disorder	-11.2129
▁feared	-11.2131
▁dreadful	-11.2133
some	-11.2133
den	-11.2135
轮	-11.2136
更多	-11.2136
康	-11.2137
▁options	-11.2138
されて	-11.214
abs	-11.2141
フ	-11.2142
▁horror	-11.2143
欲	-11.2144
▁owing	-11.2146
＋	-11.2146
客户	-11.2147
요	-11.2149
eps	-11.2152
ir	-11.2153
start	-11.2153
月に	-11.2155
質	-11.2155
ハ	-11.2157
▁instruction	-11.2158
▁supplies	-11.2162
▁positions	-11.2162
▁Oxford	-11.2163
ds	-11.2164
▁silk	-11.2167
mat	-11.217
our	-11.2172
▁gay	-11.2172
▁ignorant	-11.2174
高い	-11.2174
▁Margaret	-11.2175
space	-11.2175
▁fruits	-11.218
▁temper	-11.218
▁MP	-11.2182
▁ain	-11.2183
注	-11.2184
っている	-11.2188
▁earliest	-11.2189
▁supplied	-11.2191
우	-11.2191
▁fluid	-11.2192
▁grain	-11.2194
給	-11.2194
行政	-11.2196
▁settlement	-11.2198
土地	-11.2199
关注	-11.22
▁occasions	-11.2203
几	-11.2204
旅	-11.2206
勝	-11.2207
▁ON	-11.2212
▁recognize	-11.2214
谁	-11.2214
岩	-11.2218
▁sheet	-11.2223
登	-11.2227
两个	-11.2227
▁rope	-11.2228
▁interaction	-11.2231
gen	-11.2237
いたします	-11.2239
解决	-11.2239
寒	-11.2241
▁symbol	-11.2242
社区	-11.2243
▁preserve	-11.2243
▁gaze	-11.2246
▁existed	-11.2247
をする	-11.225
▁faster	-11.2252
▁contents	-11.2257
恩	-11.2257
▁painful	-11.2257
▁refuse	-11.2257
▁estimates	-11.2258
meta	-11.2259
▁railway	-11.226
▁politics	-11.2263
▁deeper	-11.2264
罪	-11.2264
資料	-11.2264
製	-11.2265
▁empire	-11.2265
ni	-11.2266
▁Google	-11.2267
逆	-11.2271
▁planet	-11.2272
ring	-11.2273
▁screen	-11.2273
▁shelter	-11.2276
▁achieved	-11.2281
▁Dan	-11.2283
医療	-11.2285
▁비	-11.2285
销售	-11.2288
has	-11.2289
いました	-11.229
▁Part	-11.2293
▁Service	-11.2295
撮影	-11.2297
pp	-11.2301
▁establishment	-11.2301
体系	-11.2302
腰	-11.2302
汗	-11.2305
보	-11.2306
を使って	-11.2306
▁polynomial	-11.2306
▁yard	-11.231
▁원	-11.2312
持续	-11.2313
▁illness	-11.2313
▁今回は	-11.2315
娱乐	-11.2318
하	-11.2319
▁주	-11.2319
▁[]	-11.2319
▁float	-11.2326
▁measurements	-11.2328
按照	-11.2328
集中	-11.2329
▁accordingly	-11.233
▁threatened	-11.233
行動	-11.2331
▁department	-11.2333
不会	-11.2334
证	-11.2334
アプリ	-11.2335
バー	-11.2337
▁primitive	-11.2338
▁weakness	-11.2344
▁attempts	-11.2345
▁anywhere	-11.2347
▁stretched	-11.2347
▁sensitive	-11.235
▁united	-11.2353
▁riding	-11.236
卖	-11.236
らしい	-11.2363
▁tissue	-11.2365
ln	-11.2367
症	-11.2368
故事	-11.2369
営業	-11.2371
▁employment	-11.2375
ミ	-11.238
グループ	-11.2381
Node	-11.2382
施工	-11.2382
▁permit	-11.2382
▁arbitrary	-11.2386
CD	-11.2386
暗	-11.2389
▁miserable	-11.239
▁fierce	-11.2391
ga	-11.2393
尼	-11.2398
▁assist	-11.2398
▁retreat	-11.2399
eqn	-11.24
最终	-11.24
▁technique	-11.24
决定	-11.2402
step	-11.2402
瑞	-11.2403
ted	-11.2406
教室	-11.2407
记	-11.2408
のため	-11.2409
▁abandoned	-11.2413
._]	-11.2418
▁periods	-11.2419
▁organized	-11.2419
――	-11.242
中の	-11.242
▁sleeping	-11.242
▁미	-11.2422
length	-11.2425
▁blame	-11.2426
那些	-11.2428
}|	-11.2429
▁roll	-11.2429
▁wicked	-11.2432
ケア	-11.2433
▁contract	-11.2435
▁cook	-11.2441
▁seeds	-11.2443
朋友	-11.2443
▁displayed	-11.2444
▁alarm	-11.2446
▁safely	-11.2448
重点	-11.2448
效果	-11.245
プラン	-11.2451
▁humble	-11.2457
Ｆ	-11.2457
é	-11.2459
普	-11.2464
なかった	-11.2465
探	-11.2465
izing	-11.2465
▁私は	-11.2466
▁lest	-11.2466
多くの	-11.2467
員	-11.2467
应用	-11.2468
▁Death	-11.2469
停	-11.2469
▁realize	-11.247
II	-11.2475
▁burden	-11.2475
▁spectrum	-11.2476
Ｔ	-11.2479
参与	-11.248
PS	-11.2481
▁Islands	-11.2483
wedge	-11.2484
▁practically	-11.2485
▁doubtless	-11.2487
♡	-11.2488
▁Consider	-11.2489
▁acted	-11.2492
よね	-11.2493
▁href	-11.2494
▁rolled	-11.2498
▁dawn	-11.2498
妹	-11.2499
互联网	-11.2501
▁dis	-11.2502
組織	-11.2502
▁prominent	-11.2503
실	-11.2503
▁digital	-11.2508
▁answers	-11.2508
剤	-11.251
▁manners	-11.2511
ite	-11.2513
▁lowest	-11.2516
▁film	-11.2518
ません	-11.252
colon	-11.2522
今回は	-11.2524
人的	-11.2525
▁profit	-11.2527
Be	-11.2533
▁위한	-11.2533
▁Make	-11.2533
Info	-11.2536
コン	-11.2537
步	-11.2538
区域	-11.254
してください	-11.2541
娘	-11.2541
▁magnificent	-11.2544
▁allowing	-11.2544
▁savage	-11.2545
▁committee	-11.2546
▁nevertheless	-11.255
▁AT	-11.255
▁pardon	-11.2557
▁chose	-11.2558
▁Secretary	-11.2559
伤	-11.256
▁split	-11.2561
奖	-11.2563
▁minor	-11.2563
ランキング	-11.2564
ey	-11.2564
なのか	-11.2565
健	-11.2567
▁confirmed	-11.257
▁currently	-11.2571
적으로	-11.2573
豆	-11.2573
▁maid	-11.2578
胜	-11.2579
▁approximately	-11.2582
通知	-11.2582
std	-11.2583
男子	-11.2585
▁interview	-11.2589
夢	-11.2589
▁victim	-11.2592
▁urged	-11.2592
▁regret	-11.2594
▁slope	-11.2594
▁butter	-11.2595
▁debt	-11.2596
內	-11.2597
念	-11.2597
區	-11.2597
▁finish	-11.2599
坚持	-11.26
セ	-11.2601
加强	-11.2602
con	-11.2602
$)	-11.2603
养	-11.2603
▁definite	-11.2606
▁industrial	-11.2606
▁verse	-11.2607
折	-11.2608
▁softly	-11.2612
▁standards	-11.2612
▁vs	-11.2615
▁utmost	-11.2616
該	-11.2617
ブランド	-11.2618
ance	-11.2618
tt	-11.2619
音楽	-11.262
采用	-11.262
▁option	-11.2621
京	-11.2622
推荐	-11.2622
▁residence	-11.2623
▁counter	-11.2627
▁consequently	-11.2627
并且	-11.2627
サポート	-11.2629
▁cheeks	-11.2631
構成	-11.2631
▁offering	-11.2633
▁excuse	-11.2636
▁tendency	-11.2638
▁Air	-11.2641
issue	-11.2642
其实	-11.2642
毎日	-11.2642
▁confined	-11.2643
▁pause	-11.2644
▁tasks	-11.2645
接受	-11.2648
▁keen	-11.265
▁sees	-11.2651
ザ	-11.2654
▁laughter	-11.2655
(),	-11.2655
▁rivers	-11.2661
功	-11.2662
▁association	-11.2664
▁Lieutenant	-11.2664
ると	-11.2665
作者	-11.2666
▁indicates	-11.2667
▁particle	-11.2667
▁grounds	-11.267
▁そんな	-11.2671
▁dependent	-11.2676
▁burn	-11.2676
ｍ	-11.2676
一覧	-11.2677
▁SEE	-11.2678
ステップ	-11.2678
▁lately	-11.2679
▁shining	-11.2679
警	-11.2681
▁guests	-11.2683
担当	-11.2688
があった	-11.2691
▁부	-11.2692
我国	-11.2693
▁bottle	-11.2697
据	-11.2697
▁lift	-11.2698
▁raw	-11.2699
冰	-11.27
▁prefer	-11.27
▁despite	-11.2701
}}_{	-11.2703
薄	-11.2708
▁strictly	-11.2709
準備	-11.271
▁Francis	-11.2714
ネ	-11.2715
如此	-11.2721
▁consisting	-11.2727
ヤ	-11.2727
製品	-11.2728
犬	-11.2729
▁flame	-11.273
now	-11.2731
穴	-11.2733
契約	-11.2733
▁wing	-11.2734
▁metric	-11.2736
▁모든	-11.2737
の方が	-11.2738
err	-11.2743
▁firmly	-11.2744
顔	-11.2745
▁slept	-11.2746
加入	-11.2749
PR	-11.2749
▁Whether	-11.275
▁charming	-11.2759
▁£	-11.2759
▁forever	-11.2764
傷	-11.2768
▁Never	-11.2769
リング	-11.277
人物	-11.2772
になり	-11.2773
カー	-11.2774
tab	-11.2774
▁claimed	-11.2774
とともに	-11.2775
▁suspicion	-11.2776
▁sale	-11.2778
▁Pro	-11.2779
▁restored	-11.2779
open	-11.2779
▁hanging	-11.2784
道路	-11.2784
性能	-11.2784
?--	-11.2791
一個	-11.2792
一番	-11.2793
▁것으로	-11.2796
▁useless	-11.2798
None	-11.2798
▁continues	-11.2801
グ	-11.2802
指導	-11.2802
▁enabled	-11.2803
▁forgot	-11.2805
small	-11.2811
▁本	-11.2811
致	-11.2811
たら	-11.2812
▁rational	-11.2818
年の	-11.2819
▁blocks	-11.2821
艺术	-11.2822
▁demands	-11.2825
▁URL	-11.2827
Ｍ	-11.2827
都市	-11.2829
特別	-11.283
▁convenient	-11.2831
のための	-11.2831
▁mechanism	-11.2832
▁Several	-11.2832
▁professor	-11.2836
▁mixture	-11.2836
▁Am	-11.2837
▁arise	-11.2837
糖	-11.2837
説明	-11.2839
▁−	-11.2839
▁borne	-11.2839
les	-11.284
季	-11.2843
と思う	-11.2843
\|	-11.2845
け	-11.2846
▁recognition	-11.2846
▁nurse	-11.2847
竹	-11.2847
page	-11.2848
比如	-11.285
▁rush	-11.2851
▁nodded	-11.2851
論	-11.2851
▁Minister	-11.2852
魂	-11.2853
▁generate	-11.2854
羽	-11.2855
▁stomach	-11.2855
▁latest	-11.2856
唐	-11.2856
▁generous	-11.2857
善	-11.2859
▁Walter	-11.286
▁hypothesis	-11.2862
最后	-11.2864
cases	-11.2866
▁eagerly	-11.2866
▁spare	-11.2867
上記	-11.2868
▁Children	-11.2869
一部	-11.2871
▁bay	-11.2874
형	-11.2877
成分	-11.2878
複数の	-11.2878
CC	-11.288
吴	-11.2882
▁winds	-11.2886
use	-11.289
でしょうか	-11.2893
宇	-11.2898
硬	-11.29
平均	-11.2901
禁	-11.2901
여	-11.2902
▁technical	-11.2902
error	-11.2904
link	-11.2907
まとめ	-11.2909
こんな	-11.291
がない	-11.2916
息	-11.2917
▁Son	-11.2918
▁aunt	-11.2923
▁Germans	-11.2924
目标	-11.2925
▁educational	-11.2927
▁unhappy	-11.2928
葉	-11.2929
▁significance	-11.2929
教授	-11.2929
▁VII	-11.2932
族	-11.2933
_{{\	-11.2934
****************	-11.2935
▁stern	-11.2936
］	-11.2937
乡	-11.2938
▁Cape	-11.2939
領域	-11.2941
ガ	-11.2944
何か	-11.2947
ker	-11.2947
▁enthusiasm	-11.2949
とき	-11.2952
可是	-11.2952
▁Castle	-11.2958
▁painting	-11.296
岛	-11.2961
▁handed	-11.2961
▁club	-11.2961
※	-11.2964
学院	-11.2965
電話	-11.2968
▁profession	-11.2969
一定	-11.2969
などで	-11.297
txt	-11.297
津	-11.2971
▁것이다	-11.2972
▁farmer	-11.2974
▁treaty	-11.2974
▁($	-11.2976
極	-11.2979
固定	-11.298
▁aspects	-11.298
パ	-11.2984
................	-11.2985
Ｄ	-11.2985
私が	-11.2985
▁inspired	-11.2986
産	-11.2987
▁mud	-11.2987
▁yields	-11.2989
▁agents	-11.2994
體	-11.2994
´	-11.2996
難	-11.2997
▁involves	-11.2997
▁Type	-11.3002
▁일	-11.3004
判断	-11.3005
read	-11.3007
▁nest	-11.3009
▁eleven	-11.301
▁preceding	-11.3014
▁Northern	-11.3019
▁bears	-11.302
▁ignorance	-11.3021
ち	-11.3021
▁suggestion	-11.3021
▁preferred	-11.3022
▁Chicago	-11.3024
▁Grant	-11.3029
▁Nevertheless	-11.3033
壁	-11.3035
▁causing	-11.3035
有关	-11.3035
メ	-11.3036
▁Constitution	-11.3038
▁·	-11.304
モ	-11.3041
▁somehow	-11.3041
oplus	-11.3041
助	-11.3044
{(	-11.3045
▁maybe	-11.3045
▁shortly	-11.3049
したら	-11.3049
丹	-11.305
住宅	-11.3051
ディ	-11.3054
货	-11.3056
▁lamp	-11.3057
池	-11.3061
▁foolish	-11.3065
潮	-11.3066
▁prices	-11.3067
py	-11.3068
ゴ	-11.307
升	-11.307
実	-11.3073
教师	-11.3074
病院	-11.3076
申请	-11.308
&\	-11.308
▁von	-11.3081
▁dimensions	-11.3081
只要	-11.3082
▁kiss	-11.3084
▁neighbourhood	-11.3084
▁detection	-11.3094
▁website	-11.3094
▁cards	-11.3095
企画	-11.3096
だが	-11.3096
▁김	-11.3097
並	-11.3097
講座	-11.31
ae	-11.3102
▁fitted	-11.3102
纳	-11.3103
▁crowded	-11.3104
時の	-11.3104
ビ	-11.3104
体验	-11.3106
防止	-11.3108
▁VIII	-11.3108
하며	-11.3109
▁architecture	-11.3109
▁landed	-11.311
▁charm	-11.311
▁construct	-11.3112
跳	-11.3115
抗	-11.3118
温泉	-11.312
亲	-11.3121
▁onto	-11.3121
照片	-11.3121
▁crossing	-11.3125
園	-11.3126
mp	-11.3126
ファン	-11.3127
ius	-11.313
▁fame	-11.3131
階	-11.3132
もっと	-11.3132
▁stroke	-11.3132
▁successfully	-11.3139
虎	-11.3139
▁前記	-11.314
消	-11.3141
ぜひ	-11.3144
▁traffic	-11.3145
▁quantities	-11.3146
研修	-11.3151
▁**	-11.3151
will	-11.3151
以来	-11.3151
这样的	-11.3152
sc	-11.3152
すれば	-11.3153
▁WITH	-11.3157
利益	-11.3157
▁commenced	-11.3159
▁confess	-11.3162
▁instruments	-11.3163
True	-11.3164
이나	-11.3164
▁rid	-11.3165
质量	-11.3165
▁blessed	-11.3167
▁delighted	-11.3168
学習	-11.3171
比較	-11.3174
极	-11.3175
▁forehead	-11.3176
氣	-11.3177
당	-11.3177
实施	-11.3184
▁vertical	-11.3185
取り	-11.3191
Are	-11.3192
ボ	-11.3195
▁adults	-11.3197
だけど	-11.3198
▁잘	-11.3198
▁experimental	-11.3199
▁artificial	-11.3199
しております	-11.3201
▁rage	-11.3203
▁planning	-11.3203
ps	-11.3204
冲	-11.3205
AI	-11.3209
中に	-11.3211
▁glanced	-11.3211
人妻	-11.3212
交換	-11.3213
▁weapons	-11.3216
历史	-11.322
ン	-11.322
AT	-11.322
▁해	-11.3222
▁depression	-11.3222
んで	-11.3223
▁contribute	-11.3226
暴	-11.3227
▁Alice	-11.323
ke	-11.323
["	-11.3232
▁compute	-11.3235
予約	-11.3236
▁sentiment	-11.3238
一切	-11.3238
推进	-11.3244
自分	-11.3246
静	-11.3246
▁MS	-11.3247
补	-11.3247
▁desperate	-11.3248
建议	-11.3248
)^{\	-11.3248
▁grows	-11.3249
日本の	-11.3249
vector	-11.325
▁beg	-11.325
▁clever	-11.3252
▁powder	-11.3254
▁muscles	-11.3256
ブ	-11.3258
来自	-11.3258
}^{-	-11.326
▁mechanical	-11.326
▁calculate	-11.3262
持	-11.3263
▁disposed	-11.3265
▁interpretation	-11.3268
▁한국	-11.3269
▁holes	-11.327
▁explore	-11.3271
メール	-11.3273
項目	-11.3274
決定	-11.3275
赵	-11.3277
▁Women	-11.3278
▁wit	-11.3282
),\	-11.3283
▁push	-11.3283
▁clothing	-11.3285
row	-11.3285
目標	-11.3286
知道	-11.3286
▁Being	-11.3287
▁neighborhood	-11.3288
超过	-11.3289
Can	-11.3289
▁Chief	-11.3292
▁criminal	-11.3293
▁files	-11.3294
▁shoes	-11.3295
▁determination	-11.3297
comment	-11.3298
▁cavalry	-11.3299
▁forests	-11.3301
层	-11.3302
▁plainly	-11.3302
はこちら	-11.3303
▁delightful	-11.3305
▁bounds	-11.3305
▁신	-11.3306
▁helping	-11.3307
内部	-11.3307
▁cluster	-11.3307
调查	-11.3309
count	-11.3311
▁Bar	-11.3313
張	-11.3317
▁egg	-11.3318
▁produces	-11.3319
▁lessons	-11.332
ya	-11.332
▁id	-11.3321
残	-11.3321
▁arts	-11.3324
運	-11.3326
▁dense	-11.3327
▁Texas	-11.333
毒	-11.3334
仁	-11.3335
必	-11.3336
▁uttered	-11.3338
Ｏ	-11.3338
▁marched	-11.3339
男女	-11.3339
▁commander	-11.3339
大型	-11.3341
▁miss	-11.3344
青年	-11.3348
▁nodes	-11.3348
▁Helen	-11.335
末	-11.335
胡	-11.3351
移動	-11.3352
报告	-11.3357
▁disposition	-11.3362
どんな	-11.3364
▁thread	-11.3364
軍	-11.3365
▁tobacco	-11.3368
▁hollow	-11.3372
役	-11.3372
Ｌ	-11.3373
▁producing	-11.3374
ビジネス	-11.3376
裏	-11.3377
隆	-11.3378
dir	-11.338
▁Eastern	-11.3382
▁contribution	-11.3385
▁tent	-11.3386
definition	-11.3388
靠	-11.3391
;"	-11.3394
▁songs	-11.3395
▁Jerusalem	-11.3398
ana	-11.3399
▁speaks	-11.34
▁mood	-11.3402
▁circumstance	-11.3405
ms	-11.3405
centering	-11.3405
▁hungry	-11.3406
base	-11.3407
Object	-11.3407
なんか	-11.3407
▁phrase	-11.3409
以前	-11.3411
▁investigation	-11.3416
帮助	-11.3419
治疗	-11.342
^{-\	-11.3422
▁Meanwhile	-11.3424
▁threshold	-11.3424
特别	-11.3425
▁prevented	-11.3427
▁publication	-11.3434
假	-11.3436
▁Jean	-11.3436
設備	-11.3436
コメント	-11.3438
ニュース	-11.344
▁equality	-11.3441
%;	-11.3442
蓝	-11.3444
▁raising	-11.3444
▁landscape	-11.3447
▁succeed	-11.3448
▁intelligent	-11.3449
▁valid	-11.3452
▁chest	-11.3453
成長	-11.3455
ent	-11.3455
维	-11.3458
init	-11.3458
」。	-11.346
バス	-11.346
▁concentration	-11.3464
それを	-11.3465
アイテム	-11.3467
Time	-11.3468
あまり	-11.347
▁networks	-11.347
樹	-11.3475
▁documents	-11.3476
러	-11.3477
读	-11.348
▁Point	-11.3481
激情	-11.3481
▁lighted	-11.3483
}]	-11.3485
append	-11.3486
▁hang	-11.3489
▁arrive	-11.3489
La	-11.3489
▁objective	-11.3491
▁childhood	-11.3492
▁tide	-11.3495
空間	-11.3495
▁conception	-11.3496
▁essentially	-11.3498
▁revolution	-11.3498
▁landing	-11.3499
light	-11.3499
▁sorts	-11.35
▁civilization	-11.3501
られる	-11.3506
▁situated	-11.3507
素材	-11.3508
▁behaviour	-11.3512
ina	-11.3514
▁physician	-11.3516
容	-11.3516
▁reflected	-11.3519
▁그리고	-11.352
公園	-11.3521
おすすめ	-11.3522
▁battery	-11.3522
ホテル	-11.3528
▁loop	-11.3531
正式	-11.3531
▁NA	-11.3532
プログラム	-11.3534
▁Adam	-11.3536
分享	-11.3537
cf	-11.3538
のも	-11.3538
▁tube	-11.3538
<\	-11.3538
時代	-11.3539
开发	-11.354
▁drugs	-11.3543
大阪	-11.3546
%)	-11.3546
▁gravity	-11.3548
チーム	-11.3548
义	-11.3548
▁kissed	-11.3555
保存	-11.3557
▁hitherto	-11.3557
となった	-11.3558
TT	-11.356
."[	-11.3561
train	-11.3561
供	-11.3564
▁flew	-11.3565
義	-11.3566
▁Look	-11.3568
ised	-11.3576
block	-11.3577
▁Princess	-11.3577
▁stayed	-11.3577
▁pro	-11.3578
検索	-11.3579
韩	-11.358
▁expressions	-11.3584
▁organic	-11.3587
▁rows	-11.3588
調	-11.359
▁max	-11.3591
▁Early	-11.3593
라고	-11.3593
▁circuit	-11.3594
喝	-11.3595
approx	-11.3596
▁propose	-11.3596
ba	-11.3598
まず	-11.3598
をして	-11.3599
▁concerns	-11.3601
▁beings	-11.3601
▁profound	-11.3603
▁lemma	-11.3605
温度	-11.3606
电话	-11.3606
▁Would	-11.3606
Size	-11.3606
航	-11.3606
龍	-11.3607
▁senses	-11.3607
招	-11.3607
▁diagram	-11.3608
ではない	-11.3609
视	-11.3612
▁therapy	-11.3613
▁sphere	-11.3615
整	-11.3615
ated	-11.3616
""	-11.3616
之间	-11.3617
▁Library	-11.3619
▁cm	-11.3619
▁representative	-11.3619
丁	-11.362
▁char	-11.362
圣	-11.3621
橋	-11.3622
▁modified	-11.3624
▁것을	-11.3624
熟女	-11.3625
▁平成	-11.3625
▁Mount	-11.3626
▁lonely	-11.3628
▁gazed	-11.3628
ライン	-11.3628
その他	-11.3629
▁Out	-11.363
▁beloved	-11.363
▁humans	-11.363
職	-11.3631
중	-11.3634
▁pursued	-11.3635
・・・。	-11.3642
期间	-11.3642
such	-11.3643
泉	-11.3645
なお	-11.365
▁stem	-11.365
增	-11.3651
▁emotions	-11.3652
偏	-11.3652
培训	-11.3653
少年	-11.3655
▁radio	-11.3657
希	-11.3658
独	-11.366
することで	-11.3663
▁seconds	-11.3664
Ｐ	-11.3664
stone	-11.3667
ニ	-11.3668
▁Power	-11.3668
関連	-11.3669
▁trembling	-11.3669
▁str	-11.3671
only	-11.3672
▁Footnote	-11.3673
讓	-11.3675
汉	-11.3676
▁gather	-11.3677
▁transformation	-11.3677
▁troubled	-11.3678
▁detected	-11.3684
▁occupation	-11.3685
▁ne	-11.3686
▁narrative	-11.3686
▁ha	-11.3688
待	-11.3689
いつも	-11.3689
▁Revolution	-11.369
ten	-11.3692
▁variation	-11.3694
自身	-11.3695
调整	-11.3697
천	-11.3698
▁crisis	-11.3699
▁今日は	-11.3699
楽	-11.3703
Key	-11.3704
対象	-11.3708
徐	-11.3714
▁giant	-11.3715
bit	-11.3716
想要	-11.3717
▁recovery	-11.3717
▁patience	-11.3719
▁utter	-11.372
▁promote	-11.372
위	-11.3723
▁Middle	-11.3727
ウ	-11.3728
賞	-11.373
開催	-11.3732
Did	-11.3733
朱	-11.3735
ability	-11.3739
cong	-11.3741
▁UK	-11.3741
形式	-11.3741
福利	-11.3743
负责	-11.3743
計	-11.3743
▁+=	-11.3745
▁fishing	-11.3748
▁ch	-11.3749
などを	-11.375
智能	-11.3755
作成	-11.3757
▁loving	-11.3757
▁insisted	-11.3757
●	-11.3758
育	-11.3761
ens	-11.3762
再次	-11.3767
▁preparing	-11.377
▁reducing	-11.3772
▁radius	-11.3776
▁sexual	-11.3779
现	-11.3779
园	-11.378
wiki	-11.378
▁partial	-11.378
▁muscle	-11.378
構造	-11.3783
▁assembled	-11.3784
･	-11.3784
▁fed	-11.3787
课	-11.3787
▁ceremony	-11.379
學	-11.379
▁moreover	-11.3791
▁clock	-11.3793
▁amid	-11.3794
多少	-11.3794
造成	-11.3796
▁emperor	-11.3796
▁executed	-11.3796
▁cheek	-11.3798
▁musical	-11.3803
▁가	-11.3804
▁beam	-11.3806
▁hast	-11.381
▁stages	-11.381
▁무	-11.3812
▁comment	-11.3814
含	-11.3817
▁Find	-11.3819
▁strategies	-11.3822
実際に	-11.3822
画面	-11.3822
任务	-11.3823
▁rays	-11.3823
▁declare	-11.3824
問	-11.3825
パン	-11.3826
■	-11.3828
▁clinical	-11.3828
▁curves	-11.3828
▁distinguish	-11.383
▁hurry	-11.3832
분	-11.3833
部门	-11.3834
cl	-11.3836
创	-11.3837
▁thence	-11.3839
God	-11.3841
•	-11.3844
▁functional	-11.3845
虫	-11.3846
延	-11.3846
▁deliver	-11.3847
課題	-11.3851
▁distress	-11.3852
▁colony	-11.3853
配合	-11.3855
やはり	-11.3855
']	-11.3855
▁favorite	-11.3858
에서는	-11.3859
广	-11.386
指出	-11.386
check	-11.386
すぐに	-11.3862
▁stared	-11.3866
以后	-11.3869
▁Bank	-11.3869
▁bosom	-11.387
総	-11.3871
措施	-11.3871
되는	-11.3871
▁villages	-11.3875
数字	-11.3875
▁separation	-11.3876
▁때문에	-11.3877
▁newspaper	-11.3879
▁paths	-11.3883
▁park	-11.3884
float	-11.3886
尽	-11.3887
受到	-11.3887
▁farmers	-11.3887
());	-11.3888
▁Moses	-11.3888
▁var	-11.3888
▁따라	-11.389
レベル	-11.3891
black	-11.3896
作り	-11.3897
▁massive	-11.3898
▁officials	-11.3898
成本	-11.3904
▁sole	-11.3909
▁volumes	-11.391
▁fur	-11.3913
购买	-11.3913
▁mistaken	-11.3915
做好	-11.3915
ための	-11.3916
real	-11.3916
となり	-11.3916
TV	-11.3916
▁cow	-11.3918
年間	-11.3919
だろう	-11.3919
▁continually	-11.3919
▁coefficients	-11.3924
▁regularly	-11.3924
促进	-11.3924
▁electricity	-11.3924
配置	-11.3924
▁erected	-11.3925
▁crucial	-11.3925
▁settle	-11.3926
▁flood	-11.3926
▁editor	-11.3929
▁favourite	-11.393
pre	-11.393
▁dancing	-11.3931
紫	-11.3932
URL	-11.3934
CM	-11.3939
随着	-11.3939
▁Board	-11.394
▁Thy	-11.3941
▁bacteria	-11.3941
▁representing	-11.3941
▁widow	-11.3945
麻	-11.3945
进一步	-11.3946
整体	-11.3948
宁	-11.3954
ことができる	-11.3957
▁simplicity	-11.3958
感染	-11.3961
▁impulse	-11.3965
▁slipped	-11.3965
▁Wood	-11.3968
▁Grace	-11.3969
▁breathing	-11.397
▁len	-11.3971
▁clay	-11.3973
▁shoot	-11.3974
Ｇ	-11.3975
▁▲	-11.3977
优势	-11.3983
かもしれません	-11.3984
▁noon	-11.3985
US	-11.3985
▁testimony	-11.3986
银	-11.3989
？」	-11.3993
▁altar	-11.3996
色情	-11.3997
▁magic	-11.3997
▁statements	-11.3997
▁Romans	-11.3999
▁ma	-11.4001
▁commission	-11.4001
種類	-11.4002
迷	-11.4002
▁studying	-11.4004
カバー	-11.4005
▁것은	-11.4005
記	-11.4006
▁cure	-11.4007
方は	-11.4008
人才	-11.4009
▁vegetables	-11.4009
湯	-11.401
▁vary	-11.401
▁Last	-11.4014
ler	-11.4015
▁moderate	-11.4016
▁www	-11.4016
▁misery	-11.4019
▁der	-11.402
▁purple	-11.402
▁Valley	-11.4021
ですか	-11.4021
▁challenges	-11.4021
▁recover	-11.4023
▁discipline	-11.4024
▁smoking	-11.4024
three	-11.4025
File	-11.4027
▁Read	-11.4029
ケ	-11.403
とする	-11.4031
圖	-11.4032
▁sigh	-11.4032
▁paint	-11.4036
math	-11.4036
整个	-11.404
▁conviction	-11.404
一点	-11.4041
거	-11.4042
▁controlled	-11.4042
▁tables	-11.4043
▁bi	-11.4045
▁cultural	-11.4046
喜欢	-11.4046
大人	-11.4048
ようです	-11.4049
$}	-11.4052
TA	-11.4053
▁Greece	-11.4053
▁Carolina	-11.4053
▁beast	-11.4054
▁folks	-11.4055
▁midnight	-11.4056
▁adult	-11.4056
チェック	-11.4058
剧	-11.4058
▁strict	-11.4065
▁varied	-11.4065
▁departed	-11.4067
▁theories	-11.4072
密	-11.4072
▁pace	-11.4072
一种	-11.4072
▁applying	-11.4074
IP	-11.4074
指定	-11.4076
▁oxygen	-11.4077
▁craft	-11.4078
▁바	-11.4079
▁reflect	-11.408
コード	-11.408
▁intensity	-11.4081
▁dared	-11.4083
▁conventional	-11.4083
▁absent	-11.4084
▁Senate	-11.4085
翻	-11.4088
人们	-11.4089
▁deny	-11.409
.~	-11.4094
▁defend	-11.4095
されます	-11.4096
CT	-11.41
▁exceedingly	-11.4101
吸	-11.4106
になりました	-11.4108
▁horizon	-11.4109
▁steep	-11.4109
▁sisters	-11.4112
孔	-11.4113
▁prayers	-11.4113
Google	-11.4115
▁Please	-11.4115
迪	-11.4116
▁forgive	-11.4117
mod	-11.4118
▁correspondence	-11.4118
▁numerical	-11.4119
▁gap	-11.412
▁다양한	-11.4121
アニメ	-11.4123
っと	-11.4126
メーカー	-11.4126
▁ただ	-11.4128
▁differ	-11.4129
であれば	-11.4129
▁genuine	-11.4131
▁copies	-11.4132
减少	-11.4132
优	-11.4133
是一个	-11.4133
▁secondary	-11.4134
運営	-11.4134
発表	-11.4135
▁dynamics	-11.4136
准备	-11.4136
▁storage	-11.4137
▁decisions	-11.4137
▁poured	-11.4138
▁murmured	-11.4139
Mar	-11.414
▁prospect	-11.4141
▁daughters	-11.4142
▁Temple	-11.4142
团队	-11.4143
▁alcohol	-11.4144
▁dealing	-11.4144
架	-11.4148
Tis	-11.4149
▁inferior	-11.4151
▁Blue	-11.4151
▁que	-11.4152
工事	-11.4152
iv	-11.4152
making	-11.4154
char	-11.4155
斗	-11.4155
▁smell	-11.4159
行为	-11.4159
car	-11.4161
保護	-11.4165
▁somebody	-11.4166
领	-11.4169
环	-11.417
▁ranks	-11.4173
人口	-11.4174
▁assembly	-11.4175
肩	-11.4176
觉得	-11.4177
金属	-11.4178
シート	-11.4178
무	-11.4178
▁sovereign	-11.4179
選択	-11.4179
▁subset	-11.418
true	-11.418
▁株式会社	-11.4181
略	-11.4183
症状	-11.4184
也有	-11.4184
滑	-11.4185
▁pointing	-11.4186
消费	-11.4189
then	-11.4189
di	-11.419
やすい	-11.419
借	-11.4192
▁또한	-11.4193
▁DE	-11.4194
▁gratitude	-11.4195
▁peak	-11.4196
▁processing	-11.4196
▁folk	-11.4197
▁par	-11.4198
のこと	-11.4199
▁wearing	-11.4199
▁venture	-11.42
▁furniture	-11.4201
▁AI	-11.4203
ティ	-11.4206
Web	-11.4207
▁Saturday	-11.4207
▁기	-11.4208
▁Atlantic	-11.421
カジノ	-11.4213
配列番号	-11.4214
▁afterward	-11.4214
▁descended	-11.4217
▁badly	-11.4219
▁refers	-11.422
週	-11.4221
▁：	-11.4222
真的	-11.4225
▁package	-11.4227
积极	-11.4233
▁visitors	-11.4235
▁tested	-11.4236
important	-11.4238
显示	-11.4239
运动	-11.4239
▁engagement	-11.4241
沒有	-11.4243
兴	-11.4243
感じ	-11.4244
ましょう	-11.4245
▁内容	-11.4246
▁shadows	-11.4246
▁saddle	-11.4247
▁differential	-11.4249
考え	-11.425
▁parish	-11.4255
▁Does	-11.4259
▁throwing	-11.426
tic	-11.4261
▁newly	-11.4267
哈	-11.4269
建設	-11.4269
观	-11.4279
▁suspected	-11.4281
born	-11.4281
▁quoted	-11.4282
质	-11.4283
工具	-11.4283
식	-11.4284
則	-11.4284
塩	-11.4286
▁encourage	-11.4288
用の	-11.4288
▁succession	-11.4291
注册	-11.4294
▁stores	-11.4297
▁我	-11.4298
▁Web	-11.43
▁illustrated	-11.4303
▁knee	-11.4305
ｗ	-11.4306
▁pursuit	-11.4309
▁streams	-11.4316
▁fifth	-11.4319
▁colored	-11.432
休	-11.4322
▁flung	-11.4325
輪	-11.4325
にして	-11.4326
▁paying	-11.4327
▁phenomena	-11.4328
成果	-11.4329
▁Very	-11.4335
通り	-11.4338
config	-11.4338
需	-11.4338
论坛	-11.4338
▁모	-11.4341
幸	-11.4343
それが	-11.4344
を見て	-11.4344
▁beach	-11.4347
零	-11.4347
▁dread	-11.4347
▁agreeable	-11.4348
유	-11.4349
dagger	-11.435
Have	-11.4354
郡	-11.4354
的问题	-11.4355
▁generations	-11.4359
IN	-11.436
▁varieties	-11.4361
莫	-11.4363
▁proposition	-11.4364
一家	-11.4364
▁bundle	-11.4368
▁Rights	-11.4368
영	-11.4369
▁session	-11.437
▁mild	-11.4372
▁satisfying	-11.4382
ということで	-11.4382
成立	-11.4382
▁Commission	-11.4385
下さい	-11.4385
▁供給源	-11.4386
xspace	-11.4386
动漫	-11.4388
▁abuse	-11.4389
一年	-11.4391
▁artillery	-11.4392
▁rifle	-11.4394
sf	-11.4396
▁pour	-11.4398
官网	-11.4401
▁resting	-11.4401
案件	-11.4401
基準	-11.4402
▁Far	-11.4405
▁rested	-11.4405
EA	-11.4407
新的	-11.4413
逼	-11.4417
▁hastily	-11.4418
▁colours	-11.4419
▁Assembly	-11.4419
▁서	-11.4419
运	-11.4421
▁보	-11.4422
μ	-11.4423
▁behold	-11.4427
▁supreme	-11.4429
カット	-11.443
質問	-11.4432
▁designs	-11.4432
white	-11.4432
mi	-11.4435
少妇	-11.4437
▁excess	-11.4437
▁remainder	-11.4438
▁institution	-11.4438
▁merit	-11.4441
Context	-11.4443
▁Monsieur	-11.4443
▁unity	-11.4443
▁prize	-11.4445
▁driver	-11.4449
shaped	-11.4451
而是	-11.4455
▁transform	-11.4456
▁magnitude	-11.4463
▁조	-11.4463
▁implementation	-11.4463
▁cries	-11.4465
停止	-11.4466
安心	-11.4468
▁director	-11.4468
境	-11.4469
▁circular	-11.4472
img	-11.4472
嘉	-11.4474
テ	-11.4474
第三	-11.4475
▁touching	-11.4475
\}	-11.4475
▁effectively	-11.4476
▁expensive	-11.4477
一度	-11.4479
孙	-11.448
▁era	-11.4481
르	-11.4482
皇	-11.4483
▁+\	-11.4483
arg	-11.4484
快速	-11.4485
dd	-11.4486
▁crop	-11.4487
鼻	-11.4488
▁smart	-11.4488
練習	-11.4488
▁dataset	-11.4489
▁replace	-11.4489
sen	-11.4489
▁vehicle	-11.4491
▁treasure	-11.4492
▁Party	-11.4494
▁stability	-11.4494
▁imagined	-11.4495
▁marble	-11.4495
かつ	-11.4496
▁cars	-11.4497
やっぱり	-11.4498
▁mm	-11.4501
▁Du	-11.4502
だし	-11.4503
经营	-11.4506
▁approximation	-11.4507
▁temporary	-11.4508
▁idle	-11.451
▁gardens	-11.4511
▁cottage	-11.4511
ating	-11.4514
すぐ	-11.4515
齐	-11.4515
每天	-11.4515
▁knight	-11.4518
後の	-11.4525
lie	-11.4527
あの	-11.4527
▁pronounced	-11.4527
bound	-11.4528
▁decrease	-11.4528
▁grateful	-11.4529
▁federal	-11.4531
▁一	-11.4531
▁obey	-11.4531
pr	-11.4532
プロジェクト	-11.4533
관	-11.4534
▁smallest	-11.4536
▁algorithms	-11.4539
打造	-11.4545
梁	-11.4546
▁flash	-11.4547
▁aged	-11.4547
▁wondering	-11.4548
かも	-11.4549
▁pack	-11.455
▁brow	-11.4552
▁hell	-11.4552
oh	-11.4553
▁defeat	-11.4555
▁NULL	-11.4556
▁identical	-11.4558
ES	-11.456
エリア	-11.4561
▁exhausted	-11.4565
▁Math	-11.4566
▁guest	-11.4566
▁지난	-11.4571
ries	-11.4573
▁enterprise	-11.4574
结合	-11.4574
▁attracted	-11.4576
bibinfo	-11.4577
しましょう	-11.4579
托	-11.4586
▁bowed	-11.4589
even	-11.459
控	-11.4591
▁organizations	-11.4591
타	-11.4592
▁email	-11.4592
投入	-11.4593
▁마	-11.4594
▁Pre	-11.4595
▁findings	-11.4596
▁attractive	-11.4599
しており	-11.46
▁haste	-11.46
れる	-11.4602
▁filter	-11.4603
▁これは	-11.4604
▁Number	-11.4606
基地	-11.4606
获	-11.4607
人民	-11.4609
なかなか	-11.4609
▁slip	-11.461
导致	-11.4611
参	-11.4611
▁Samuel	-11.4611
ものです	-11.4614
▁distinctly	-11.4614
longrightarrow	-11.4617
好き	-11.4617
모	-11.4619
파	-11.462
ium	-11.4621
記録	-11.4624
▁nerve	-11.4624
リー	-11.4629
▁slightest	-11.4629
入り	-11.463
}$-	-11.4632
after	-11.4632
▁commerce	-11.4633
大量	-11.4633
▁こんにちは	-11.4633
▁denied	-11.4633
▁feels	-11.4636
イメージ	-11.4638
▁partner	-11.4639
▁denotes	-11.4639
顶	-11.4641
▁autumn	-11.4646
することができる	-11.4647
================	-11.4647
▁sins	-11.4647
▁eaten	-11.4649
たり	-11.4649
表現	-11.465
▁loves	-11.4653
▁merry	-11.4653
▁crying	-11.4654
▁module	-11.4654
▁sang	-11.4655
方案	-11.4658
▁gathering	-11.4658
▁Wilson	-11.4658
库	-11.4659
厚	-11.466
▁virus	-11.466
▁classification	-11.4661
投稿	-11.4661
後に	-11.4661
▁masters	-11.4662
들	-11.4665
▁oh	-11.4667
产	-11.4668
\%	-11.4668
当时	-11.4673
泡	-11.4677
had	-11.4678
경	-11.4681
▁ashamed	-11.4681
▁Further	-11.4683
▁shake	-11.4684
)))	-11.4684
▁consisted	-11.4685
blue	-11.4686
▁radiation	-11.4689
▁recommend	-11.4689
日の	-11.4689
▁소	-11.4689
脸	-11.469
宫	-11.4694
LINE	-11.4694
before	-11.4694
▁grasp	-11.4696
英国	-11.4699
)}{\	-11.4701
会议	-11.4702
礼	-11.4703
▁organ	-11.4704
全体	-11.4704
プ	-11.4707
スタッフ	-11.4708
▁cave	-11.4708
▁구	-11.4708
▁resumed	-11.4709
许多	-11.4709
工业	-11.4711
▁tight	-11.4712
祭	-11.4713
▁합니다	-11.4713
▁steadily	-11.4715
▁Tell	-11.4716
沢	-11.4717
▁sailed	-11.4718
▁wanting	-11.4719
▁shed	-11.4722
▁modes	-11.4723
依	-11.4723
対立遺伝子	-11.4725
自分が	-11.4727
cy	-11.4728
▁passages	-11.4729
CO	-11.4734
▁collect	-11.4735
}}(\	-11.4735
▁feast	-11.4739
dfrac	-11.4739
▁rolling	-11.4739
价值	-11.474
▁horizontal	-11.474
業者	-11.4746
▁Test	-11.4746
ik	-11.4748
收入	-11.4751
時期	-11.4752
去年	-11.4752
▁amounts	-11.4753
印刷	-11.4755
ui	-11.4757
들은	-11.4758
前の	-11.4763
視	-11.4764
▁melancholy	-11.4766
▁posted	-11.4766
▁aloud	-11.4769
Ｎ	-11.477
▁underlying	-11.4771
textrm	-11.4772
▁slender	-11.4776
再生	-11.4778
纸	-11.478
▁vice	-11.4782
▁corresponds	-11.4782
どう	-11.4782
豪	-11.4783
▁payment	-11.4784
▁crops	-11.4785
ラン	-11.4785
▁math	-11.4785
渡	-11.4786
。（	-11.4787
▁prey	-11.479
遠	-11.479
ぎ	-11.4791
▁Amazon	-11.4792
混	-11.4793
들을	-11.4795
吹	-11.4798
▁devotion	-11.4799
Add	-11.4799
▁serving	-11.48
▁concealed	-11.48
▁Light	-11.48
▁Crown	-11.4801
▁losing	-11.4802
▁Greeks	-11.4802
狼	-11.4804
▁나	-11.4808
▁approved	-11.481
▁counsel	-11.481
谈	-11.481
▁begged	-11.4811
▁tear	-11.4812
▁struct	-11.4812
▁Place	-11.4814
▁pot	-11.4816
▁vague	-11.4816
国产	-11.4817
▁micro	-11.4817
ise	-11.4818
▁inquiry	-11.4818
一人	-11.4819
传统	-11.4819
熟	-11.4821
馆	-11.4821
▁grade	-11.4824
▁Four	-11.4826
▁courts	-11.4827
mapsto	-11.4829
▁precise	-11.4829
ヒ	-11.4832
▁abundance	-11.4834
▁adds	-11.4835
▁Internet	-11.4836
られた	-11.4839
▁specified	-11.4839
▁ere	-11.484
라는	-11.484
反応	-11.4845
結	-11.4847
演出	-11.4848
佛	-11.4848
▁demonstrated	-11.4848
の場合は	-11.485
▁bishop	-11.4851
height	-11.4852
分钟	-11.4852
テレビ	-11.4855
▁converted	-11.4856
▁horrible	-11.4857
▁calculation	-11.4858
GL	-11.4858
▁sunshine	-11.4862
ヶ月	-11.4862
▁keeps	-11.4864
▁wheat	-11.4866
日記	-11.4866
リン	-11.4867
▁하	-11.4867
berg	-11.4872
加盟	-11.4874
▁Philadelphia	-11.4875
▁Hugh	-11.4876
▁considerably	-11.4877
lb	-11.4881
▁Open	-11.4881
port	-11.4882
としても	-11.4882
▁virtual	-11.4882
封	-11.4885
▁Human	-11.4886
▁disturbed	-11.4887
란	-11.4887
▁logic	-11.4888
▁성	-11.4888
▁agricultural	-11.4888
▁palm	-11.4889
】【	-11.4889
細	-11.489
▁sector	-11.4891
remark	-11.4891
단	-11.4891
▁minimal	-11.4892
あなたの	-11.4899
▁Bell	-11.4899
▁pink	-11.49
ino	-11.4901
Test	-11.4903
▁layers	-11.4908
loc	-11.4908
▁bark	-11.4908
塞	-11.4912
▁adapted	-11.4916
▁panel	-11.4917
▁seventy	-11.4918
绿	-11.4918
合同	-11.4919
▁notation	-11.4919
▁decline	-11.4921
▁sharply	-11.4921
鸡	-11.4921
比赛	-11.4924
▁stored	-11.4926
执行	-11.4928
▁deg	-11.4929
▁merchant	-11.4931
▁nuclear	-11.4933
▁wives	-11.4936
那个	-11.4936
▁동	-11.4937
▁perceive	-11.4938
募集	-11.4943
时代	-11.4946
カフェ	-11.4947
▁situations	-11.4948
▁pine	-11.4949
▁Ohio	-11.4949
電子	-11.495
▁ruins	-11.4952
▁gene	-11.4953
阴	-11.4959
这么	-11.496
▁unexpected	-11.496
▁Gen	-11.4963
非常に	-11.4963
结构	-11.4963
▁adventure	-11.4963
().	-11.4963
ガス	-11.4965
责任	-11.4966
规划	-11.4967
ip	-11.4967
を有する	-11.497
▁provinces	-11.4971
._)	-11.4973
自拍	-11.4975
▁seats	-11.4978
ࡢ	-11.4979
▁Ocean	-11.498
▁{"	-11.498
Table	-11.498
>(	-11.4981
post	-11.4983
俊	-11.4983
"]	-11.4985
奶	-11.4985
皆	-11.4987
▁risks	-11.4987
怪	-11.4987
▁descent	-11.4987
zero	-11.4989
▁colonies	-11.4989
▁Windows	-11.499
故	-11.499
秦	-11.4991
実施	-11.4992
軸	-11.4992
Very	-11.4996
▁angel	-11.4997
▁customs	-11.4998
document	-11.4998
▁gifts	-11.4999
▁mutual	-11.4999
もある	-11.5
ci	-11.5
▁hCV	-11.5001
▁ultimately	-11.5001
▁followers	-11.5002
▁rude	-11.5004
▁Social	-11.5005
_).	-11.5005
)}(	-11.5008
を持つ	-11.5009
▁format	-11.501
▁sank	-11.5015
悪	-11.5019
当該	-11.5021
進行	-11.5025
▁employ	-11.5025
戏	-11.5026
▁Daniel	-11.5028
▁UN	-11.503
ツアー	-11.5031
▁abstract	-11.5032
▁Work	-11.5033
▁specimens	-11.5037
結婚	-11.5038
的地方	-11.5039
▁その他	-11.5041
総合	-11.5041
ret	-11.5042
▁rice	-11.5042
项	-11.5043
ですよ	-11.5043
洛	-11.5043
▁mortal	-11.5044
都会	-11.5047
▁sport	-11.5047
植物	-11.5048
こう	-11.5049
kin	-11.505
▁organs	-11.505
特色	-11.505
圈	-11.5052
なぁ	-11.5053
!!!	-11.5053
▁List	-11.5054
▁elder	-11.5054
老婆	-11.5058
▁＜	-11.5059
▁visual	-11.506
Dec	-11.506
이라고	-11.5061
▁대해	-11.5061
▁insects	-11.5067
▁player	-11.5067
▁또는	-11.5067
▁fears	-11.5068
▁Federal	-11.5068
▁新	-11.507
現	-11.507
▁자	-11.5072
▁unlike	-11.5072
▁Judge	-11.5073
matrix	-11.5077
紧	-11.5078
▁oath	-11.508
▁Shakespeare	-11.5081
銀行	-11.5082
另外	-11.5083
▁removal	-11.5087
last	-11.5087
▁divide	-11.5088
▁trick	-11.5088
各種	-11.509
▁Ma	-11.5091
print	-11.5092
▁cared	-11.5093
▁planted	-11.5093
board	-11.5095
▁nights	-11.5096
▁railroad	-11.5097
▁NEW	-11.51
▁boxes	-11.5102
帮	-11.5105
本人	-11.5108
▁facing	-11.5109
▁Jackson	-11.5109
▁sensible	-11.5112
range	-11.5116
選手	-11.5117
的小	-11.5119
▁lots	-11.5122
▁extract	-11.5122
wikipedia	-11.5123
晚	-11.5124
)^{-	-11.5125
연	-11.5126
人数	-11.5126
▁links	-11.5126
ぞ	-11.5128
▁Dec	-11.5128
▁Club	-11.5128
bet	-11.5129
藏	-11.5129
国際	-11.5131
proposition	-11.5131
都有	-11.5131
ふ	-11.5131
▁surfaces	-11.5132
不安	-11.5132
▁victims	-11.5134
▁gauge	-11.5135
▁Age	-11.5135
▁plates	-11.5141
欧	-11.5142
▁queer	-11.5143
保险	-11.5144
業界	-11.5145
▁goodness	-11.5147
▁Soon	-11.5148
▁districts	-11.5149
user	-11.5153
▁outline	-11.5153
英語	-11.5154
lo	-11.5157
▁correlation	-11.5157
▁DNA	-11.5157
양	-11.5159
▁graphs	-11.516
▁armies	-11.5161
▁Holland	-11.5162
▁Group	-11.5163
해야	-11.5163
▁operating	-11.5164
洞	-11.5164
実は	-11.5164
笔	-11.5164
广告	-11.5164
void	-11.5166
丝	-11.5166
▁Col	-11.5168
府	-11.5169
▁respective	-11.5172
▁purely	-11.5172
uint	-11.5173
▁ambition	-11.5173
▁confused	-11.5175
ことができます	-11.5175
▁comparatively	-11.5177
紅	-11.5177
▁physics	-11.518
▁assessment	-11.5181
▁arrangements	-11.5181
Index	-11.5182
費用	-11.5183
それぞれ	-11.5183
オンライン	-11.5183
▁multitude	-11.5184
▁lawyer	-11.5184
有限公司	-11.5187
出口	-11.5187
▁offices	-11.5188
▁contempt	-11.5189
style	-11.519
公式	-11.5197
▁thunder	-11.5197
帝	-11.5198
▁Stephen	-11.5199
▁Dis	-11.5201
▁rural	-11.5202
▁Per	-11.5202
ti	-11.5207
▁deer	-11.5207
推出	-11.5208
保证	-11.521
ov	-11.5213
、『	-11.5213
新たな	-11.5216
▁tones	-11.5216
料金	-11.5217
▁worry	-11.5218
lib	-11.5218
黄色	-11.5218
ST	-11.5219
ろ	-11.522
▁Suddenly	-11.5222
我们的	-11.5223
柄	-11.5223
激	-11.5226
试	-11.5227
▁さて	-11.5227
▁convex	-11.5231
奈	-11.5232
怒	-11.5232
▁bits	-11.5236
▁linked	-11.5236
▁今	-11.5237
▁jump	-11.5237
サン	-11.5239
取引	-11.5239
▁honey	-11.524
▁submit	-11.5242
兩	-11.5243
▁Natural	-11.5245
▁lightning	-11.5247
桥	-11.5248
▁Author	-11.5248
}}^	-11.5248
有效	-11.5249
Int	-11.525
▁instinct	-11.5252
生命	-11.5253
▁temperatures	-11.5255
刺激	-11.5257
▁vi	-11.5261
.--_	-11.5262
▁encouraged	-11.5264
que	-11.5266
▁complicated	-11.5266
▁symmetry	-11.5266
▁naked	-11.5267
▁journal	-11.5267
▁Car	-11.5268
▁PC	-11.5268
内の	-11.5269
▁Poor	-11.527
宿	-11.5272
电子	-11.5274
/*	-11.5282
▁criticism	-11.5283
▁angles	-11.5283
▁sounded	-11.5285
レビュー	-11.5285
Or	-11.5286
fa	-11.5287
感觉	-11.529
▁timber	-11.529
▁suspect	-11.5291
▁convergence	-11.5291
Longrightarrow	-11.5292
▁owned	-11.5293
▁reverse	-11.5294
ff	-11.5294
Ｖ	-11.5295
▁Ten	-11.5298
▁isolated	-11.5298
此次	-11.5299
▁matrices	-11.5299
坂	-11.5301
▁Similarly	-11.5303
▁awake	-11.5307
▁detect	-11.5308
▁limbs	-11.5309
▁세	-11.5309
▁appointment	-11.531
入力	-11.5314
▁varying	-11.5317
▁cleared	-11.5317
―	-11.5318
▁pound	-11.532
處	-11.532
机制	-11.532
减	-11.5321
▁weapon	-11.5321
域	-11.5321
▁exhibit	-11.5321
▁deserted	-11.5328
▁diabetes	-11.5329
一位	-11.533
▁swift	-11.5333
▁strangers	-11.5333
▁stir	-11.5333
明显	-11.5333
上市	-11.5335
絵	-11.5336
▁perfection	-11.5337
art	-11.5339
▁statistics	-11.5339
▁muttered	-11.534
表现	-11.534
▁disk	-11.5341
雲	-11.5343
▁bride	-11.5344
▁moves	-11.5346
▁signals	-11.5347
要素	-11.5348
dict	-11.5348
更是	-11.5348
ap	-11.535
あるいは	-11.5351
▁emotional	-11.5352
부터	-11.5353
▁acres	-11.5355
▁wretched	-11.5356
▁participants	-11.5357
▁players	-11.536
でしたが	-11.5361
▁wherever	-11.5361
디	-11.5364
になっている	-11.5365
OS	-11.5366
▁Add	-11.5367
時は	-11.5368
▁torn	-11.5369
免	-11.537
▁Cambridge	-11.5371
▁plus	-11.5372
鲁	-11.5375
▁flour	-11.5375
▁vectors	-11.5377
▁rings	-11.5378
▁chap	-11.5379
▁dual	-11.5379
▁transmission	-11.5382
nt	-11.5382
▁fires	-11.5383
柱	-11.5384
▁thereof	-11.5385
▁Maria	-11.5385
▁investigate	-11.5388
資格	-11.539
▁mathematical	-11.5391
心理	-11.5391
run	-11.5392
▁Mass	-11.5392
基础	-11.5392
顺	-11.5393
面对	-11.5393
だと思います	-11.5396
hearted	-11.5398
▁大	-11.5398
指数	-11.5398
買	-11.54
▁retained	-11.5403
▁cents	-11.5404
击	-11.5404
▁resist	-11.5404
知识	-11.5405
▁Civil	-11.5409
▁trivial	-11.5413
聚	-11.5414
メニュー	-11.5415
菌	-11.5415
mon	-11.5418
ということ	-11.5418
▁小	-11.5419
▁scarce	-11.542
▁ft	-11.5422
ians	-11.5423
▁mirror	-11.5423
▁outcome	-11.5424
▁fearful	-11.5425
柳	-11.5427
▁notwithstanding	-11.5427
独立	-11.5428
针对	-11.543
▁apt	-11.543
▁writings	-11.5434
▁loaded	-11.5434
레	-11.5434
Sir	-11.5435
▁satisfactory	-11.5436
▁Right	-11.5436
ｃ	-11.5438
筋	-11.5439
呼	-11.5439
联合	-11.544
▁wages	-11.544
▁attained	-11.5442
変化	-11.5445
▁missed	-11.5447
방	-11.5449
产生	-11.545
▁Canadian	-11.545
cr	-11.545
(*	-11.545
展開	-11.545
▁engage	-11.5451
재	-11.5453
▁Billy	-11.5453
枝	-11.5453
ソフト	-11.5454
▁grid	-11.5455
しても	-11.5455
突破	-11.5456
▁dried	-11.5456
シャツ	-11.5457
思想	-11.5459
放送	-11.546
endif	-11.5463
腹	-11.5463
body	-11.5464
▁wash	-11.5465
▁Spaniards	-11.5465
安排	-11.5466
電影	-11.5468
异	-11.5469
浪	-11.547
▁immune	-11.547
試	-11.5472
pa	-11.5473
▁또	-11.5473
▁eighteen	-11.5473
陽	-11.5473
▁bid	-11.5474
result	-11.5476
turnstile	-11.5476
▁Should	-11.5477
NO	-11.5478
が多い	-11.548
▁intimate	-11.5483
▁feeding	-11.5483
▁pool	-11.5483
▁apartment	-11.5484
▁symmetric	-11.5488
idx	-11.5488
▁supporting	-11.5489
Co	-11.5489
▁Step	-11.549
网址	-11.5492
▁poems	-11.5492
▁portrait	-11.5493
tan	-11.5494
ﾞ	-11.5495
尚	-11.5497
Theorem	-11.5498
▁Sec	-11.5499
▁liver	-11.55
▁재	-11.55
▁Con	-11.5501
▁beaten	-11.5503
▁saving	-11.5504
▁artists	-11.5505
bin	-11.5505
▁Head	-11.5506
数量	-11.5506
力量	-11.5508
▁cheerful	-11.5508
cat	-11.5509
绝	-11.551
▁sd	-11.551
专	-11.5511
キャンペーン	-11.5511
▁scales	-11.5512
复	-11.5514
▁lightly	-11.5514
▁bands	-11.5515
▁deaths	-11.5516
▁locked	-11.5518
note	-11.5519
▁Year	-11.552
公共	-11.5522
表面	-11.5525
Will	-11.5525
邦	-11.5526
▁§	-11.5526
ib	-11.5527
▁se	-11.5528
カメラ	-11.5529
モード	-11.5531
ショップ	-11.5535
iPhone	-11.5535
抓	-11.5536
益	-11.5538
▁dramatic	-11.5539
许	-11.554
mer	-11.5542
ソ	-11.5544
圖片	-11.5544
ポ	-11.5545
止	-11.5548
▁covers	-11.555
浮	-11.5552
経営	-11.5555
厂	-11.5555
億	-11.556
这里	-11.5561
有人	-11.5564
▁charges	-11.5564
▁finest	-11.5565
伟	-11.5567
▁Has	-11.5567
▁◎	-11.5569
▁/>	-11.557
▁uncertainty	-11.557
▁Hamilton	-11.5571
▁races	-11.5572
▁genetic	-11.5573
btn	-11.5574
人間	-11.5575
▁washed	-11.5581
惊	-11.5582
動作	-11.5582
▁Monday	-11.5584
local	-11.5584
▁duration	-11.5584
▁Port	-11.5586
▁reception	-11.5587
Count	-11.5589
杰	-11.5589
▁fraction	-11.559
▁behalf	-11.559
▁topics	-11.5591
一緒に	-11.5594
▁Project	-11.5595
▁kernel	-11.5596
ができる	-11.5596
▁最近	-11.5599
▁visitor	-11.56
▁adopt	-11.5601
申請	-11.5601
▁discharge	-11.5601
good	-11.5603
▁Andrew	-11.5604
瓦	-11.5607
抢	-11.5609
ot	-11.561
行动	-11.5611
▁License	-11.5611
function	-11.5611
父	-11.5611
下降	-11.5612
卷	-11.5615
▁planned	-11.5615
dis	-11.5616
▁leaned	-11.5617
▁assure	-11.5618
rel	-11.5618
▁rent	-11.5619
就会	-11.5619
▁Ruth	-11.562
▁subsequently	-11.562
整理	-11.5621
▁astonishment	-11.5623
action	-11.5624
▁policies	-11.5625
▁abundant	-11.5626
sp	-11.5627
沉	-11.5629
只能	-11.5631
ud	-11.5631
▁End	-11.5631
made	-11.5631
▁wedding	-11.5632
圧	-11.5634
▁pains	-11.5636
篇	-11.5637
▁resulted	-11.5637
der	-11.5638
auto	-11.564
文件	-11.5641
映像	-11.5641
券	-11.5642
▁invention	-11.5644
▁item	-11.5644
low	-11.5646
linear	-11.5646
▁agriculture	-11.5647
▁En	-11.5647
なる	-11.565
▁killing	-11.565
」（	-11.5651
▁chapel	-11.5653
▁```	-11.5655
▁translated	-11.5656
▁desirable	-11.5657
ビル	-11.5658
▁university	-11.5659
▁Division	-11.566
part	-11.5662
向上	-11.5663
隊	-11.5663
していく	-11.5664
ずっと	-11.5664
▁Corp	-11.5665
▁Academy	-11.5667
▁sensation	-11.5667
mann	-11.5667
▁reserve	-11.5667
▁purchased	-11.5668
キー	-11.5668
▁relieved	-11.567
▁Information	-11.567
なり	-11.5673
▁competition	-11.5675
団体	-11.5677
过去	-11.5678
教学	-11.5679
属	-11.568
生物	-11.568
随	-11.5681
救	-11.5682
▁arch	-11.5682
のない	-11.5684
▁Common	-11.5684
▁expectation	-11.5684
浩	-11.5685
▁prosperity	-11.5686
建筑	-11.5687
煮	-11.5687
▁Berlin	-11.5688
cast	-11.5688
▁Ha	-11.5688
half	-11.5691
月の	-11.5691
▁desk	-11.5693
▁repair	-11.5693
▁fortunate	-11.5694
ptr	-11.5696
规定	-11.5696
▁큰	-11.5697
象	-11.5698
▁intent	-11.5698
▁weights	-11.5699
▁Florence	-11.5699
▁condemned	-11.5701
▁configuration	-11.5701
▁uncertain	-11.5705
压力	-11.5706
技能	-11.5707
질	-11.5708
▁extending	-11.5708
対	-11.5709
攻	-11.571
▁neglected	-11.571
▁laying	-11.5711
reg	-11.5712
▁doth	-11.5713
委員	-11.5714
▁threat	-11.5716
昌	-11.5716
▁trunk	-11.5716
▁firing	-11.5717
▁Testament	-11.5718
羊	-11.5718
音乐	-11.5719
!?	-11.572
output	-11.572
资产	-11.572
▁deeds	-11.5721
必ず	-11.5723
ver	-11.5727
▁Austria	-11.5727
▁coordinates	-11.5728
▁rival	-11.573
び	-11.5731
▁bond	-11.5731
▁lion	-11.5732
俄罗斯	-11.5732
▁burnt	-11.5732
貴	-11.5733
播	-11.5733
ネットワーク	-11.5734
猪	-11.5735
▁starts	-11.5736
Ｗ	-11.5737
module	-11.5737
不仅	-11.5737
▁educated	-11.5738
▁substantial	-11.5739
ときに	-11.5739
寝	-11.574
▁mill	-11.5741
▁Today	-11.5741
▁respects	-11.5742
家具	-11.5743
▁&=&	-11.5743
▁regards	-11.5743
抱	-11.5744
勉強	-11.5744
承	-11.5745
▁comments	-11.5747
▁Phil	-11.5748
広告	-11.5749
font	-11.5749
甘	-11.5752
▁dining	-11.5753
▁faced	-11.5753
▁fathers	-11.5758
▁Example	-11.5758
github	-11.576
这次	-11.576
▁endure	-11.5761
機構	-11.5762
▁oak	-11.5762
▁spots	-11.5762
スタイル	-11.5763
意識	-11.5764
归	-11.5766
▁cream	-11.5771
▁mate	-11.5773
なのに	-11.5775
](	-11.5775
▁arrested	-11.5777
▁stations	-11.578
▁owners	-11.5782
▁absorbed	-11.5785
▁specifically	-11.5785
국	-11.5785
▁slain	-11.5785
仍	-11.5787
▁ministers	-11.5788
png	-11.5789
ドラマ	-11.579
 	-11.5791
ツール	-11.5792
ていた	-11.5795
▁Justice	-11.5796
宣传	-11.5796
▁drops	-11.5797
▁Taylor	-11.5798
▁altered	-11.5799
▁emergency	-11.58
クラブ	-11.58
▁convert	-11.5801
みたいな	-11.5801
印象	-11.5802
▁conceived	-11.5805
死亡	-11.5806
▁helpful	-11.5807
▁chronic	-11.5807
ッ	-11.5811
▁profile	-11.5814
▁travelling	-11.5815
以上の	-11.5815
포	-11.5816
盤	-11.5817
▁dashed	-11.5818
cn	-11.582
루	-11.582
警察	-11.5822
related	-11.5822
pmatrix	-11.5823
▁estimation	-11.5823
双方	-11.5824
户	-11.5827
▁lock	-11.5827
▁dish	-11.5828
▁machinery	-11.5831
配信	-11.5832
①	-11.5833
\/	-11.5833
伯	-11.5834
▁privilege	-11.5834
▁Review	-11.5835
▁Star	-11.5835
▁simulation	-11.5838
アン	-11.584
Map	-11.584
▁refuge	-11.5841
并不	-11.5842
▁mail	-11.5842
▁cease	-11.5842
资料	-11.5843
texttt	-11.5843
▁plt	-11.5844
po	-11.5844
もあります	-11.585
▁locally	-11.5852
mean	-11.5853
次の	-11.5853
▁relationships	-11.5854
崎	-11.5854
▁stuck	-11.5855
})$.	-11.5856
不知道	-11.5859
mb	-11.586
▁lofty	-11.5861
まずは	-11.5861
▁Lewis	-11.5861
▁goals	-11.5861
▁bulk	-11.5864
▁disorders	-11.5865
▁startled	-11.5865
▁restore	-11.5866
▁totally	-11.5867
▁triangle	-11.5869
初めて	-11.5869
▁evaluation	-11.5875
▁motive	-11.5875
▁Peace	-11.5877
▁fiber	-11.5878
▁불	-11.588
▁contributed	-11.588
方が	-11.588
农	-11.5882
gr	-11.5882
美元	-11.5884
▁placing	-11.5884
牙	-11.5885
付け	-11.5886
▁lattice	-11.5886
▁server	-11.5887
監督	-11.5888
禁止	-11.5889
▁さらに	-11.5889
▁Massachusetts	-11.589
からは	-11.5892
username	-11.5894
▁Within	-11.5895
▁attributed	-11.5895
▁engineering	-11.5897
▁deadly	-11.5897
软	-11.59
容易	-11.5901
green	-11.5901
隔	-11.5902
晓	-11.5903
あります	-11.5904
会議	-11.5906
思考	-11.5907
▁Fire	-11.5908
ology	-11.5911
してくれる	-11.5911
▁Road	-11.5911
▁tremendous	-11.5912
▁client	-11.5915
▁percentage	-11.5916
妈妈	-11.5916
ライト	-11.5917
されました	-11.5919
农村	-11.5919
弾	-11.5919
Look	-11.5919
▁bull	-11.5923
▁zone	-11.5923
▁poets	-11.5924
nav	-11.5925
▁phenomenon	-11.5925
焼き	-11.5925
HP	-11.5927
黄金	-11.5929
▁Kingdom	-11.593
du	-11.5931
ありがとうございました	-11.5932
▁concepts	-11.5932
▁harmony	-11.5937
具体	-11.5938
烟	-11.5938
楽しい	-11.5938
▁dwell	-11.5938
宋	-11.5939
▁comprehensive	-11.5939
▁surrender	-11.5939
▁Field	-11.5941
けれど	-11.5942
▁Wales	-11.5943
接触	-11.5943
하면	-11.5944
▁▼	-11.5945
▁urban	-11.5948
▁extends	-11.5952
今回の	-11.5953
▁depths	-11.5953
▁dependence	-11.5954
▁machines	-11.5956
content	-11.5956
lt	-11.5956
アイ	-11.5957
と言う	-11.5958
服務	-11.5959
搞	-11.5959
▁mask	-11.5962
新聞	-11.5962
Request	-11.5965
疑	-11.5965
▁blessing	-11.5965
▁cultivated	-11.5969
▁dwelling	-11.597
脱毛	-11.5978
▁fragments	-11.5978
▁pitch	-11.5979
format	-11.5982
▁chances	-11.5984
▁correctly	-11.5987
返	-11.5988
▁dedicated	-11.5988
▁trials	-11.599
技	-11.5994
▁Order	-11.5995
报道	-11.5998
参考	-11.5999
犯	-11.5999
▁liberal	-11.6
彩票	-11.6001
▁pupils	-11.6002
群众	-11.6003
▁Li	-11.6004
bottom	-11.6005
▁Frederick	-11.6005
sm	-11.6006
収納	-11.6006
though	-11.6008
▁Lie	-11.6008
▁nerves	-11.6008
▁neglect	-11.601
解決	-11.6011
阅读	-11.6012
▁calculations	-11.6012
▁genus	-11.6014
巨	-11.6014
six	-11.6016
観	-11.6017
▁Egyptian	-11.6018
を見る	-11.6018
▁primarily	-11.6022
较	-11.6023
兄弟	-11.6024
▁sixteen	-11.6025
▁Big	-11.6025
ぐ	-11.6027
带来	-11.6027
▁visits	-11.6028
降低	-11.6029
db	-11.6029
中國	-11.6031
frame	-11.6033
노	-11.6035
▁Medical	-11.6037
▁perspective	-11.6037
诺	-11.6038
exists	-11.604
法人	-11.6043
▁maiden	-11.6044
bi	-11.6045
▁coarse	-11.6045
制御	-11.6046
graph	-11.6046
▁Word	-11.6047
▁solitary	-11.6047
▁tons	-11.6048
プレイ	-11.6048
既	-11.6049
▁acute	-11.605
BC	-11.6051
▁leather	-11.6051
hom	-11.6051
と同じ	-11.6052
官方	-11.6052
▁flows	-11.6053
学会	-11.6054
His	-11.6055
▁orange	-11.6057
tag	-11.6057
▁desires	-11.6057
共有	-11.6058
▁del	-11.6059
master	-11.606
▁roughly	-11.6062
▁doctors	-11.6063
看看	-11.6064
お店	-11.6064
消费者	-11.6067
▁academic	-11.6068
군	-11.6069
▁acknowledged	-11.6069
▁maintenance	-11.607
▁rises	-11.6071
ping	-11.6072
▁Gold	-11.6072
being	-11.6073
▁proposal	-11.6074
▁infant	-11.6074
万人	-11.6075
▁concrete	-11.6078
明星	-11.6079
▁TV	-11.608
▁beds	-11.6081
たち	-11.6082
追加	-11.6082
▁exhibited	-11.6082
真正	-11.6082
▁Caesar	-11.6083
消息	-11.6083
▁hunger	-11.6088
GB	-11.609
▁leaning	-11.6091
\"	-11.6091
▁☆	-11.6092
岸	-11.6093
▁shaking	-11.6094
》,	-11.6095
▁Columbia	-11.6096
肥	-11.6096
▁interactions	-11.6096
▁undoubtedly	-11.6097
▁proceedings	-11.6098
▁injured	-11.6099
現場	-11.61
▁princes	-11.6101
▁astonished	-11.6102
▁communicate	-11.6103
联系	-11.6105
委	-11.6106
▁Marie	-11.6107
ron	-11.6109
▁Ned	-11.6111
ki	-11.6112
沈	-11.6112
pe	-11.6112
={	-11.6113
▁tooth	-11.6114
카	-11.6116
▁fourteen	-11.6118
ライブ	-11.6118
用品	-11.6118
▁coach	-11.6119
IC	-11.6121
以外の	-11.6123
▁wars	-11.6125
▁shells	-11.6125
▁decades	-11.6127
刷	-11.6127
众	-11.6128
안	-11.6128
その後	-11.6129
▁investment	-11.6129
▁neighbors	-11.6129
相当	-11.6131
▁plastic	-11.6132
公开	-11.6134
▁inevitable	-11.6136
▁theatre	-11.6138
▁deed	-11.6139
▁binary	-11.6141
▁expert	-11.6144
Un	-11.6148
▁representations	-11.6148
テスト	-11.6148
▁decomposition	-11.6149
▁recognised	-11.615
卫	-11.6152
▁Foundation	-11.6153
▁contributions	-11.6155
▁全体	-11.6156
▁sketch	-11.6157
プラス	-11.6157
变化	-11.6157
\{\	-11.6157
确保	-11.6159
))$	-11.616
ward	-11.6161
知識	-11.6161
じ	-11.6161
特殊	-11.6161
▁app	-11.6163
Path	-11.6164
▁mix	-11.6165
〉	-11.6165
ea	-11.6168
のでしょうか	-11.6168
設置	-11.6169
▁checked	-11.617
経済	-11.617
▁inspiration	-11.6171
さまざまな	-11.6173
▁Mo	-11.6174
▁tip	-11.6174
▁tin	-11.6174
▁heavens	-11.6175
ans	-11.6176
考试	-11.6178
砂	-11.6178
虚	-11.6178
▁floating	-11.6179
她的	-11.618
▁Cor	-11.6181
▁complexity	-11.6182
规模	-11.6186
棒	-11.6186
同意	-11.6187
▁emissions	-11.6188
문	-11.6188
현	-11.6188
▁electrical	-11.6193
聖	-11.6195
戸	-11.6196
▁spectral	-11.6198
▁Give	-11.6198
▁Pennsylvania	-11.6199
▁FROM	-11.62
战略	-11.62
地址	-11.62
▁partially	-11.6203
▁update	-11.6203
▁manager	-11.6204
▁reform	-11.6206
のお	-11.6208
법	-11.6209
Windows	-11.621
セミナー	-11.621
▁accused	-11.6211
▁clerk	-11.6211
ster	-11.6213
鳥	-11.6213
▁brass	-11.6213
▁filling	-11.6214
▁geometry	-11.6214
▁dirty	-11.6216
▁ちなみに	-11.6218
▁demonstrate	-11.6219
▁Development	-11.6223
不少	-11.6224
一方	-11.6226
そ	-11.6227
struct	-11.6228
词	-11.6229
してる	-11.6232
▁wake	-11.6238
GT	-11.6241
▁Ver	-11.6241
▁shone	-11.6241
▁traces	-11.6242
▁inform	-11.6243
▁bath	-11.6243
금	-11.6247
▁News	-11.6247
▁closing	-11.6248
見て	-11.625
▁provision	-11.6256
▁surprising	-11.6256
즈	-11.6258
args	-11.6259
textwidth	-11.6262
減	-11.6262
▁counted	-11.6263
▁dragged	-11.6264
▁장	-11.6264
▁scope	-11.6266
▁beasts	-11.6266
順	-11.6267
▁거	-11.6267
▁explains	-11.6269
実績	-11.6269
▁personality	-11.6272
ギ	-11.6273
に向けて	-11.6273
▁outward	-11.6274
▁projection	-11.6274
inf	-11.6278
であった	-11.6278
▁references	-11.6279
荒	-11.6279
▁많이	-11.6279
▁regulations	-11.6279
異	-11.6282
▁pet	-11.6283
▁doubtful	-11.6283
年的	-11.6284
▁연	-11.6284
▁invariant	-11.6284
術	-11.6285
长期	-11.6286
▁::	-11.6286
▁tomb	-11.6287
[(	-11.6288
▁Case	-11.6289
▁absurd	-11.629
▁Learning	-11.6291
▁surgery	-11.6291
バッグ	-11.6291
▁shooting	-11.6291
plot	-11.6292
ブロック	-11.6294
ON	-11.6298
▁channels	-11.6298
▁brush	-11.6299
そのまま	-11.6299
重大	-11.63
感情	-11.6301
▁commands	-11.6302
领导	-11.6302
▁constraints	-11.6305
Our	-11.6305
▁reveal	-11.631
▁Florida	-11.631
ata	-11.6312
▁boots	-11.6312
；	-11.6314
医疗	-11.6315
View	-11.6315
▁pole	-11.6317
▁transferred	-11.6317
と一緒に	-11.6319
▁hatred	-11.632
▁partition	-11.6321
▁①	-11.6321
▁technologies	-11.6322
▁beating	-11.6322
▁secretary	-11.6323
date	-11.6323
▁quarrel	-11.6326
ｇ	-11.6327
▁wrought	-11.6327
▁hadn	-11.6328
职业	-11.6329
▁funds	-11.6331
▁combat	-11.6332
Ｉ	-11.6332
▁feeble	-11.6336
▁relating	-11.6337
▁candidate	-11.6339
ye	-11.6339
▁precision	-11.634
▁debate	-11.634
リスト	-11.634
振	-11.6341
▁bless	-11.6341
AB	-11.6345
▁lean	-11.6346
医生	-11.6346
商业	-11.6346
▁outcomes	-11.6347
航空	-11.635
▁manifold	-11.6352
▁adequate	-11.6352
高清	-11.6352
これらの	-11.6353
▁upward	-11.6353
特定	-11.6353
尿	-11.6353
▁stretch	-11.6354
▁welfare	-11.6355
凡	-11.6355
スキル	-11.6357
▁switch	-11.6359
摸	-11.6361
▁thine	-11.6362
▁characterized	-11.6362
▁facilities	-11.6364
win	-11.6365
▁arrest	-11.6366
保険	-11.6367
▁reasoning	-11.6368
そういう	-11.6369
[]	-11.6371
▁influenced	-11.6371
▁될	-11.6371
gt	-11.6371
パターン	-11.6373
県	-11.6373
向け	-11.6374
▁Ralph	-11.6375
みんな	-11.6375
突	-11.6376
▁evaluate	-11.6376
▁preparations	-11.6377
争	-11.6378
▁우리	-11.6379
然而	-11.6379
▁straw	-11.638
唱	-11.6386
▁occasional	-11.6387
つき	-11.6388
岡	-11.6391
▁spatial	-11.6391
背景	-11.6392
▁siege	-11.6393
gg	-11.6393
啦	-11.6393
▁jumped	-11.6393
▁impressed	-11.6394
员工	-11.6395
老人	-11.6395
▁populations	-11.6398
错	-11.6398
贴	-11.6398
▁breeze	-11.6399
模	-11.64
▁circles	-11.64
cell	-11.6402
▁brethren	-11.6402
▁말	-11.6403
研	-11.6404
▁portions	-11.6405
及时	-11.6407
▁Gray	-11.6408
影视	-11.6408
▁button	-11.641
睡	-11.6411
生産	-11.6412
萬	-11.6413
▁mapping	-11.6413
▁공	-11.6415
▁dressing	-11.6415
write	-11.6416
▁experts	-11.6416
支付	-11.6417
민	-11.6417
女生	-11.6417
粗	-11.642
▁カジノ	-11.642
▁cheap	-11.6422
運用	-11.6422
▁pile	-11.6424
ありがとうございます	-11.6425
ger	-11.6427
▁poison	-11.6428
▁stiff	-11.6429
▁th	-11.6431
▁fastened	-11.6433
arrow	-11.6433
▁briefly	-11.6434
刺	-11.6434
姐	-11.6436
sa	-11.6437
▁ugly	-11.6438
바	-11.644
▁wrath	-11.644
▁contemporary	-11.644
▁seas	-11.6441
▁theoretical	-11.6443
▁shalt	-11.6443
mathop	-11.6443
MS	-11.6444
好的	-11.6445
ホ	-11.6445
▁citizen	-11.6446
一定要	-11.6446
)*	-11.6448
ど	-11.6448
▁wheels	-11.6451
bye	-11.6453
▁vanished	-11.6454
▁shouldn	-11.6457
▁basket	-11.6458
▁Energy	-11.6461
▁hated	-11.6462
물	-11.6465
もちろん	-11.6466
티	-11.6466
监管	-11.6467
寄	-11.6467
▁usage	-11.6469
だったので	-11.6469
求人	-11.6472
▁tensor	-11.6475
▁passengers	-11.6475
▁zeal	-11.6477
▁retain	-11.6479
▁van	-11.648
▁connect	-11.6481
토	-11.6483
体制	-11.6484
▁advised	-11.6485
▁searching	-11.6486
诗	-11.6486
結構	-11.6487
▁summit	-11.6489
ons	-11.6489
別の	-11.6491
這個	-11.6491
言葉	-11.6492
▁stout	-11.6493
▁ample	-11.6493
暖	-11.6494
▁Mars	-11.6495
申	-11.6495
意味	-11.6496
▁illustration	-11.6499
とした	-11.65
▁charity	-11.6501
▁fury	-11.6503
ばかり	-11.6504
▁staring	-11.6504
ガイド	-11.6504
보다	-11.6504
▁Question	-11.6505
▁fewer	-11.6506
Just	-11.6506
▁parted	-11.6507
物流	-11.6508
▁Later	-11.6509
在线观看	-11.651
遭	-11.6511
重新	-11.6512
▁exercises	-11.6513
▁involving	-11.6513
标	-11.6514
▁gender	-11.6516
▁ending	-11.6517
si	-11.6519
▁artistic	-11.6521
▁whisper	-11.6521
接続	-11.6523
▁momentum	-11.6524
製造	-11.6525
▁¥	-11.6525
▁bonds	-11.6526
▁IS	-11.6527
▁sunlight	-11.6528
▁romantic	-11.6535
▁bars	-11.6536
也不	-11.6536
▁Space	-11.6537
▁gazing	-11.6539
▁반	-11.6539
酷	-11.6539
▁defeated	-11.654
▁알	-11.654
引き	-11.654
があれば	-11.6541
▁cooking	-11.6541
可能な	-11.6543
为什么	-11.6543
▁Lucy	-11.6544
▁arrow	-11.6545
宣布	-11.6548
▁hunt	-11.6549
ep	-11.655
▁avoided	-11.655
変	-11.6551
active	-11.6552
▁rotation	-11.6552
仅	-11.6553
▁disaster	-11.6554
St	-11.6555
亦	-11.6556
▁photo	-11.6556
哦	-11.656
勇	-11.656
▁obtaining	-11.6562
冠	-11.6563
▁영화	-11.6564
佐	-11.6565
▁mathematics	-11.6566
一旦	-11.6566
▁cash	-11.6568
私も	-11.6568
ブラック	-11.6568
▁substances	-11.6568
ax	-11.657
伦	-11.6572
正常	-11.6572
▁hostile	-11.6572
もあり	-11.6573
他們	-11.6573
請	-11.6574
ji	-11.6574
産業	-11.6577
经验	-11.6578
▁proceeding	-11.658
忠	-11.658
買取	-11.658
md	-11.6583
‑	-11.6584
改变	-11.6585
▁gallant	-11.6588
▁statue	-11.6588
▁integration	-11.6589
にとって	-11.659
▁plains	-11.659
▁스	-11.659
相信	-11.6592
シー	-11.6593
状态	-11.6593
▁Technology	-11.6597
▁hid	-11.6599
の方	-11.66
▁hastened	-11.6601
▁Edition	-11.6601
タイム	-11.6604
▁legislation	-11.6605
▁struggling	-11.6605
採用	-11.6607
▁bade	-11.6607
ette	-11.6607
▁occurrence	-11.6611
RE	-11.6611
等等	-11.6613
ola	-11.6614
足球	-11.6614
庄	-11.6616
perp	-11.6617
▁presentation	-11.6617
きた	-11.6618
Ｅ	-11.6619
項	-11.662
▁wounds	-11.6624
▁강	-11.6626
▁chains	-11.6627
▁wagon	-11.6627
举行	-11.6633
Array	-11.6633
▁drunk	-11.6634
▁oldest	-11.6637
大学生	-11.6637
看着	-11.6637
高速	-11.6638
▁continent	-11.6639
トップ	-11.664
script	-11.6642
兼	-11.6642
▁hesitated	-11.6644
á	-11.6644
▁dates	-11.6646
観光	-11.6651
▁drank	-11.6651
▁logical	-11.6652
▁sink	-11.6654
▁②	-11.6654
▁Ann	-11.6655
▁양	-11.6657
離	-11.6663
本体	-11.6665
思い	-11.6665
▁Neither	-11.6668
▁tales	-11.6668
▁norm	-11.6668
进行了	-11.6669
父母	-11.6671
ダイエット	-11.6671
▁conference	-11.6675
▁exciting	-11.6675
▁puts	-11.6675
入れ	-11.6677
▁};	-11.6678
ure	-11.6679
▁conversion	-11.668
▁submitted	-11.6684
▁fitting	-11.6684
AL	-11.6685
郭	-11.6686
开放	-11.6686
권	-11.6688
‬	-11.6691
便利	-11.6692
▁peaceful	-11.6692
找到	-11.6692
▁Albert	-11.6692
ini	-11.6693
)+\	-11.6694
苗	-11.6697
▁daring	-11.6697
▁Sub	-11.6698
終了	-11.6699
▁Between	-11.67
介護	-11.6701
▁consist	-11.6701
▁이번	-11.6702
地震	-11.6704
▁trap	-11.6705
くん	-11.6705
题	-11.6705
▁Betty	-11.6706
wa	-11.6707
▁Friday	-11.671
▁FIG	-11.671
yes	-11.6711
微信	-11.6711
▁quasi	-11.6713
莉	-11.6714
ai	-11.6714
ere	-11.6714
▁sighed	-11.6715
丝袜	-11.6716
되어	-11.6717
▁correspond	-11.6718
▁knocked	-11.672
移	-11.672
cut	-11.6721
▁저	-11.6724
▁improving	-11.6725
▁encounter	-11.6725
▁Francisco	-11.6727
圆	-11.6728
▁grandfather	-11.6729
▁Gordon	-11.6729
▁spell	-11.673
▁interface	-11.673
办理	-11.6734
ably	-11.6734
▁Food	-11.6735
今日は	-11.6735
½	-11.6735
専用	-11.6735
钢	-11.6736
Tr	-11.6736
▁database	-11.6738
)-\	-11.6739
艳	-11.674
▁rejected	-11.674
があって	-11.6742
▁governments	-11.6743
)\\	-11.6744
▁feathers	-11.6745
▁da	-11.6745
control	-11.6746
▁scores	-11.6746
▁printing	-11.6747
war	-11.6748
▁accordance	-11.6748
令人	-11.675
▁telephone	-11.6751
▁shapes	-11.6752
Le	-11.6753
▁reaches	-11.6754
footnote	-11.6755
勤	-11.6756
▁afforded	-11.6756
ible	-11.6757
出来る	-11.6757
させて	-11.6757
是非	-11.6758
▁stopping	-11.676
▁persuaded	-11.676
回転	-11.6763
▁Simon	-11.6763
ial	-11.6765
nes	-11.6766
过程中	-11.6766
▁darling	-11.6767
▁carries	-11.6767
應	-11.6769
詳細	-11.677
▁deemed	-11.677
創	-11.6771
▁disappointed	-11.6773
▁newspapers	-11.6773
▁vigorous	-11.6773
▁lively	-11.6774
▁obviously	-11.6774
▁brick	-11.6775
▁三	-11.6776
▁bush	-11.6776
网上	-11.6777
~$\	-11.678
▁발	-11.6781
▁owe	-11.6782
簡単に	-11.6782
▁adjacent	-11.6785
試合	-11.6785
▁angels	-11.6786
wise	-11.6787
させ	-11.6789
ですので	-11.679
▁enjoyment	-11.6791
▁acknowledge	-11.6794
▁ruined	-11.6794
▁aren	-11.6795
▁하지만	-11.6795
▁mis	-11.6796
杜	-11.6796
優	-11.6797
示	-11.6798
严	-11.6798
▁Pan	-11.6799
▁rely	-11.6801
just	-11.6805
Oct	-11.6806
▁shorter	-11.6807
浦	-11.6807
大変	-11.6807
周年	-11.6807
严重	-11.6809
▁Fred	-11.6809
▁obedience	-11.6809
려	-11.6814
▁daylight	-11.6816
▁procession	-11.6817
幼	-11.6818
不得	-11.6819
学科	-11.6819
庭	-11.682
]]	-11.6824
▁ancestors	-11.6826
▁variations	-11.6827
▁swear	-11.683
儿童	-11.6831
モノ	-11.6833
▁$|\	-11.6834
▁좋은	-11.6836
テーブル	-11.6837
edge	-11.6838
general	-11.6839
敬	-11.6842
珠	-11.6842
▁STEP	-11.6843
導入	-11.6843
▁unconscious	-11.6843
分别	-11.6844
可愛い	-11.6844
▁coefficient	-11.6851
抽	-11.6853
▁steamer	-11.6853
ロック	-11.6854
年代	-11.6857
▁간	-11.6858
▁posts	-11.6859
資源	-11.6861
攻略	-11.6863
告	-11.6863
鉄	-11.6865
遊	-11.6865
▁wherein	-11.6867
计	-11.6867
▁Despite	-11.6867
▁losses	-11.6867
iii	-11.6868
枪	-11.6869
▁Jacob	-11.687
索	-11.6871
サロン	-11.6872
阶段	-11.6873
以下の	-11.6874
▁graceful	-11.6876
â	-11.6876
▁funeral	-11.6877
▁anyway	-11.6878
▁traditions	-11.6878
享受	-11.6879
▁intercourse	-11.6881
강	-11.6881
②	-11.6883
似乎	-11.6884
▁Down	-11.6884
▁assuming	-11.6885
▁affects	-11.6885
升级	-11.6887
▁naval	-11.6887
▁lasted	-11.6887
Text	-11.6887
▁Mon	-11.6888
会員	-11.6889
▁(\<	-11.6889
▁manufacturing	-11.689
让人	-11.689
TH	-11.6891
文明	-11.6892
▁Fox	-11.6893
about	-11.6893
▁explicit	-11.6894
艾	-11.6895
編集	-11.6896
▁hiding	-11.6897
▁Max	-11.6897
▁folly	-11.69
▁tragedy	-11.6902
策	-11.6902
▁equilibrium	-11.6905
TO	-11.6907
▁verses	-11.6909
weight	-11.6909
脑	-11.6911
▁speaker	-11.6913
▁remedy	-11.6915
power	-11.6915
▁protest	-11.6915
提案	-11.6915
ny	-11.6916
对方	-11.692
小說	-11.692
▁rescue	-11.692
▁wilderness	-11.6921
▁occupy	-11.6924
▁severely	-11.6925
配送	-11.6925
)_{	-11.6925
▁promptly	-11.6926
▁proves	-11.6926
▁symbols	-11.6926
SO	-11.6927
设置	-11.6928
フル	-11.6929
灰	-11.6932
▁Report	-11.6933
▁사용	-11.6934
▁infantry	-11.6937
▁sequences	-11.6939
審査	-11.694
▁ghost	-11.6941
▁lunch	-11.6941
惠	-11.6946
▁contest	-11.6946
▁prediction	-11.6947
John	-11.6948
墨	-11.6952
▁diagnosis	-11.6953
属于	-11.6953
▁appreciate	-11.6953
美容	-11.6954
を用いて	-11.6955
と共に	-11.6956
▁involve	-11.6956
できません	-11.6958
▁intellect	-11.6958
▁Santa	-11.696
浅	-11.6961
▁listed	-11.6962
◎	-11.6964
▁Times	-11.6964
機器	-11.6965
ue	-11.6965
▁seal	-11.6966
バック	-11.6967
amp	-11.6967
リンク	-11.6967
▁apple	-11.6968
透	-11.6969
宜	-11.697
▁certainty	-11.6971
▁fatigue	-11.6971
▁unnecessary	-11.6971
(&	-11.6972
アクセス	-11.6974
)$-	-11.6976
苹果	-11.6977
ho	-11.6977
改造	-11.6982
弁	-11.6983
▁maintaining	-11.6983
프	-11.6983
机会	-11.6985
":{"	-11.6986
▁warned	-11.6987
▁judges	-11.6987
▁meetings	-11.6989
gl	-11.6989
계	-11.6989
征	-11.6989
xy	-11.6993
▁Nov	-11.6993
▁les	-11.6997
▁Fair	-11.6998
▁Could	-11.6999
▁troubles	-11.7001
论	-11.7002
▁conservation	-11.7003
菲	-11.7004
▁Unfortunately	-11.7004
耐	-11.7005
掲載	-11.7005
気持ち	-11.7005
▁schemes	-11.7008
計算	-11.7008
Model	-11.7008
ことに	-11.7009
评	-11.7009
▁corners	-11.7014
宏	-11.7015
▁=\	-11.702
▁furnish	-11.702
▁아니라	-11.7025
ちゃんと	-11.7025
金額	-11.7029
코	-11.7029
더	-11.7031
▁beneficial	-11.7031
考虑	-11.7033
▁responded	-11.7033
▁helpless	-11.7035
*)	-11.7035
.'"	-11.7036
協会	-11.7036
此外	-11.7036
臭	-11.7037
▁conclusions	-11.7041
ang	-11.7042
分の	-11.7045
来看	-11.7045
リスク	-11.7047
▁amusement	-11.7047
丁目	-11.7049
▁Top	-11.705
town	-11.7051
钟	-11.7051
_{(	-11.7054
▁derive	-11.7058
▁revenge	-11.7058
尊	-11.7059
▁visiting	-11.706
▁gloom	-11.7061
▁wandering	-11.7061
dev	-11.7061
va	-11.7061
▁romance	-11.7063
▁excessive	-11.7063
})}	-11.7064
如今	-11.7064
▁convention	-11.7066
上の	-11.7067
▁predicted	-11.7067
eight	-11.7067
第一次	-11.7068
判	-11.7069
▁viewed	-11.7069
▁gesture	-11.7069
▁manifest	-11.7071
▁divisions	-11.7072
▁manuscript	-11.7072
られ	-11.7073
置	-11.7075
▁applies	-11.7075
ach	-11.7079
▁없는	-11.7079
贵	-11.708
lock	-11.7081
日常	-11.7082
:\/\/	-11.7084
あと	-11.7085
▁Assume	-11.7087
▁virtues	-11.7087
之中	-11.7088
▁Mississippi	-11.7089
▁harder	-11.709
生态	-11.709
▁justified	-11.7091
▁survival	-11.7092
泽	-11.7093
ものの	-11.7094
AG	-11.7095
▁bigger	-11.7098
▁gradient	-11.7099
）」	-11.7099
营	-11.71
mar	-11.7103
▁Thanks	-11.7103
"}}	-11.7103
▁Creek	-11.7105
▁Back	-11.7105
▁induce	-11.7108
修理	-11.711
嘴	-11.7112
▁influences	-11.7113
▁relate	-11.7118
していない	-11.7118
資金	-11.7119
▁Roger	-11.712
▁connections	-11.712
석	-11.7121
▁torch	-11.7121
>\<	-11.7124
▁tips	-11.7126
▁Divine	-11.7127
剂	-11.7128
投资者	-11.7128
▁Pa	-11.7128
▁District	-11.7129
部材	-11.7129
辛	-11.7129
▁fence	-11.7132
餐	-11.7133
▁lieutenant	-11.7135
tes	-11.7138
▁inverse	-11.7139
▁encountered	-11.7141
规范	-11.7142
完善	-11.7142
source	-11.7142
▁expenses	-11.7142
▁chin	-11.7142
▁optimization	-11.7143
今後	-11.7145
遊び	-11.7148
▁なお	-11.715
▁categories	-11.7151
东西	-11.7152
爸爸	-11.7153
重量	-11.7153
GA	-11.7153
▁Check	-11.7153
婚	-11.7154
戴	-11.7154
稳定	-11.7157
今回	-11.7157
▁salvation	-11.7157
推進	-11.7158
そこで	-11.7158
▁settings	-11.7158
▁Students	-11.7159
▁perception	-11.7159
▁females	-11.7161
▁invasion	-11.7161
▁Director	-11.7162
▁climb	-11.7162
迅速	-11.7163
‫	-11.7165
番組	-11.7166
心配	-11.7166
object	-11.7166
체	-11.7168
人に	-11.7169
▁총	-11.7171
else	-11.7171
深圳	-11.7173
ative	-11.7174
安装	-11.7174
ワン	-11.7175
운	-11.7175
▁IX	-11.7175
▁specimen	-11.7176
码	-11.7176
▁dynamic	-11.7176
▁agency	-11.7177
▁declined	-11.7177
공	-11.7178
▁canal	-11.7178
될	-11.7178
▁trusted	-11.7179
桃	-11.7179
認定	-11.7182
最大的	-11.7182
isation	-11.7182
▁anchor	-11.7183
影響	-11.7184
最低	-11.7186
}}^{	-11.7187
人体	-11.7187
のうち	-11.7189
▁legend	-11.7191
▁기자	-11.7193
▁박	-11.7195
▁destined	-11.7199
child	-11.7199
▁contradiction	-11.7199
▁cord	-11.7199
▁camera	-11.72
额	-11.72
儿子	-11.7201
▁letting	-11.7201
夫妻	-11.7202
eyed	-11.7204
view	-11.7205
▁majesty	-11.7205
▁optical	-11.7205
课程	-11.7207
一名	-11.7207
▁Square	-11.7207
回路	-11.7208
▁removing	-11.7209
蒙	-11.721
}({\	-11.7211
ですから	-11.7211
フリー	-11.7211
▁defense	-11.7211
▁Hal	-11.7212
凯	-11.7215
▁coupling	-11.7215
▁shield	-11.7217
カン	-11.7217
▁risen	-11.7218
any	-11.7221
▁crept	-11.7222
炮	-11.7224
▁strings	-11.7224
▁dollar	-11.7225
ney	-11.7226
obj	-11.7226
鞋	-11.7228
的事情	-11.7228
▁computed	-11.7228
武器	-11.7231
因為	-11.7231
负	-11.7232
经常	-11.7233
▁garrison	-11.7233
主动	-11.7234
一日	-11.7237
▁harvest	-11.7238
▁Commons	-11.7239
▁ridge	-11.724
ドル	-11.7241
▁messages	-11.7241
▁guidance	-11.7241
uk	-11.7241
load	-11.7244
▁Abraham	-11.7244
块	-11.7245
▁font	-11.7245
するための	-11.7246
▁Moon	-11.7246
▁pressing	-11.7247
▁indignation	-11.7247
▁rang	-11.7248
del	-11.7248
陆	-11.7249
▁revenue	-11.7256
▁HIV	-11.7257
▁mobile	-11.7258
飯	-11.7259
▁sizes	-11.7259
▁Much	-11.7261
▁현재	-11.7261
▁coin	-11.7261
童	-11.7262
▁describing	-11.7264
丰	-11.7264
emptyset	-11.7264
歯	-11.7264
磨	-11.7265
を中心に	-11.7267
込み	-11.7267
奴	-11.7269
腿	-11.7269
タン	-11.7271
▁attributes	-11.7272
Nov	-11.7274
▁restricted	-11.7274
好きな	-11.7275
▁reckon	-11.7276
▁파	-11.7276
予想	-11.7277
挺	-11.7279
▁intervention	-11.728
▁earnestly	-11.7283
▁shallow	-11.7286
"、"	-11.7286
自分で	-11.7287
蛋	-11.7288
▁genes	-11.729
Exception	-11.7291
ワ	-11.7294
▁invitation	-11.7295
▁serves	-11.7299
▁다시	-11.7301
▁trans	-11.7301
曼	-11.7301
▁mist	-11.7302
multicolumn	-11.7302
▁observing	-11.7302
▁하고	-11.7303
▁labels	-11.7304
gate	-11.7304
▁denoted	-11.7306
藤	-11.7307
▁glow	-11.7311
▁interfere	-11.7312
▁shores	-11.7313
▁requested	-11.7315
▁passions	-11.7317
mc	-11.7317
▁beheld	-11.7319
▁computation	-11.7323
句	-11.7325
world	-11.7328
Take	-11.7329
터	-11.7329
网友	-11.733
▁assumptions	-11.733
▁binding	-11.7331
▁faculty	-11.7331
Input	-11.7333
移动	-11.7334
mode	-11.7335
저	-11.7337
采取	-11.7337
▁eighty	-11.7339
▁colonel	-11.734
プレゼント	-11.7341
AGA	-11.7341
纯	-11.7342
axis	-11.7342
▁candle	-11.7342
切り	-11.7343
测试	-11.7345
さま	-11.7346
▁orbit	-11.7346
▁α	-11.7348
oo	-11.735
出会い	-11.735
電気	-11.735
api	-11.7351
close	-11.7352
very	-11.7354
球队	-11.7354
ｄ	-11.7355
権	-11.7356
▁irregular	-11.7358
▁heap	-11.7358
細胞	-11.736
投票	-11.736
▁con	-11.7361
限	-11.7361
▁scholars	-11.7361
▁literally	-11.7361
▁performing	-11.7362
必要な	-11.7362
运营	-11.7363
ここで	-11.7363
린	-11.7363
制造	-11.7365
종	-11.7365
▁IT	-11.7366
▁taxes	-11.7367
▁boundaries	-11.7369
▁피	-11.737
▁swiftly	-11.737
幸福	-11.7371
era	-11.7371
细	-11.7373
農	-11.7373
を示す	-11.7373
▁pin	-11.7374
▁admirable	-11.7374
*{	-11.7377
出演	-11.7378
现代	-11.7378
傳	-11.738
グッズ	-11.7382
▁atoms	-11.7383
两人	-11.7385
熊	-11.7388
▁upright	-11.7389
后来	-11.7389
過去	-11.739
▁String	-11.7391
▁Arab	-11.7392
临	-11.7393
▁maximal	-11.7393
ez	-11.7395
▁statistical	-11.7396
幕	-11.7396
▁meantime	-11.7396
▁possibilities	-11.7396
▁東京	-11.7397
信用	-11.7397
▁JOHN	-11.7399
▁Spring	-11.7399
ok	-11.7399
피	-11.7402
不到	-11.7402
▁swung	-11.7403
▁warriors	-11.7405
クラス	-11.7406
OR	-11.7406
小さな	-11.7407
▁foe	-11.7407
费用	-11.7407
弹	-11.741
摩	-11.7412
▁circulation	-11.7412
▁sentiments	-11.7413
▁bias	-11.7413
▁pursue	-11.7413
▁Lo	-11.7414
▁conceive	-11.7414
▁thither	-11.7415
导	-11.7419
▁Posted	-11.742
▁Turkish	-11.7422
举	-11.7423
▁Georgia	-11.7423
▁supports	-11.7426
▁hut	-11.7427
勤務	-11.743
hi	-11.743
▁conquest	-11.7431
首次	-11.7431
脳	-11.7431
▁belt	-11.7432
life	-11.7432
▁cannon	-11.7433
企	-11.7436
UP	-11.7436
ng	-11.7439
だって	-11.7439
▁imposed	-11.7439
协议	-11.744
▁rail	-11.7442
▁disappointment	-11.7442
public	-11.7444
내	-11.7446
程序	-11.7446
總	-11.7447
fi	-11.7447
▁duke	-11.7447
▁specially	-11.7447
▁click	-11.7449
▁males	-11.7451
Greek	-11.7452
▁bushes	-11.7452
▁intend	-11.7452
大全	-11.7453
▁potentially	-11.7453
bs	-11.7456
▁Small	-11.7456
把握	-11.7458
Class	-11.7458
指导	-11.7461
北海道	-11.7462
▁climbed	-11.7462
▁isomorphism	-11.7464
▁Imperial	-11.7466
▁globe	-11.7466
ファイル	-11.7467
▁Hebrew	-11.7467
シャ	-11.7467
▁elaborate	-11.7468
ママ	-11.7468
怕	-11.7468
▁monarch	-11.747
玩家	-11.7471
▁Five	-11.7473
▁他	-11.7475
js	-11.7475
▁Child	-11.7476
部署	-11.7477
▁hyper	-11.7478
▁reminded	-11.7478
west	-11.7478
▁flowing	-11.7479
猛	-11.7481
日前	-11.7481
rie	-11.7481
スター	-11.7482
がありました	-11.7483
天下	-11.7483
▁discrete	-11.7486
の中に	-11.7487
▁roar	-11.7489
Message	-11.7492
▁accomplish	-11.7493
점	-11.7493
▁Third	-11.7494
▁lit	-11.7496
▁Definition	-11.7497
▁Medicine	-11.7498
full	-11.75
▁stupid	-11.7502
采	-11.7503
▁Fe	-11.7504
▁Ar	-11.7505
loss	-11.7505
▁ブログ	-11.7507
next	-11.7508
▁improvements	-11.7509
上で	-11.7509
▁wider	-11.7511
▁남	-11.7512
▁keys	-11.7514
▁objection	-11.7514
▁summary	-11.7516
典	-11.7516
ごとに	-11.7518
▁motives	-11.7519
▁chiefs	-11.752
▁Protestant	-11.7521
▁accompany	-11.7521
▁Anna	-11.7522
citet	-11.7522
▁Keep	-11.7523
みたい	-11.7523
▁Town	-11.7524
▁Kate	-11.7524
▁vicinity	-11.7525
▁Baron	-11.7525
犯罪	-11.7525
革命	-11.7526
▁engineer	-11.7527
▁representatives	-11.7528
??	-11.7529
▁emission	-11.7529
はありません	-11.7531
▁distances	-11.7531
▁Williams	-11.7531
▁drama	-11.7531
アメリカ	-11.7533
日間	-11.7535
案内	-11.7535
▁merchants	-11.7536
▁identification	-11.7536
▁suspended	-11.7537
▁historic	-11.7537
もし	-11.7537
両	-11.7539
娜	-11.7539
京都	-11.754
成绩	-11.7541
说明	-11.7541
▁jobs	-11.7541
核心	-11.7545
▁compound	-11.7546
简单	-11.7547
定期	-11.7549
を行い	-11.7553
盖	-11.7553
▁thorough	-11.7555
姿	-11.7555
ペ	-11.756
メディア	-11.756
▁ゲノム	-11.756
▁elevated	-11.7563
▁humour	-11.7564
ella	-11.7565
▁thermal	-11.7566
IS	-11.7566
▁ter	-11.7566
▁pulse	-11.7567
▁tropical	-11.7568
势	-11.7568
将来	-11.7568
▁crimes	-11.7569
have	-11.757
After	-11.7571
▁Rock	-11.7571
▁(@	-11.7572
▁corps	-11.7575
美味しい	-11.7576
▁witnessed	-11.7578
连续	-11.7578
▁routine	-11.7578
▁consumed	-11.758
记录	-11.758
▁implemented	-11.7581
▁commit	-11.7581
▁stirred	-11.7583
▁distributions	-11.7585
Some	-11.7585
임	-11.7586
▁spreading	-11.7587
數	-11.7588
▁num	-11.7588
들의	-11.7589
納	-11.7589
ft	-11.759
fill	-11.7591
▁summoned	-11.7592
▁Supreme	-11.7592
些	-11.7592
▁mischief	-11.7594
▁backward	-11.7598
▁어떤	-11.7599
▁dangers	-11.7601
▁moisture	-11.7601
运行	-11.7603
芳	-11.7604
じゃない	-11.7604
害	-11.7605
Mrs	-11.7605
▁Model	-11.7606
解説	-11.7609
▁canoe	-11.7611
地球	-11.7611
になると	-11.7611
rule	-11.7611
探索	-11.7614
庆	-11.7614
施	-11.7614
▁mice	-11.7615
当前	-11.7615
▁aims	-11.7616
Never	-11.7616
current	-11.7619
▁NO	-11.7619
▁delivery	-11.7619
System	-11.7621
cher	-11.7621
ica	-11.7623
祝	-11.7624
じゃ	-11.7628
いない	-11.763
default	-11.763
▁respectable	-11.7632
▁agony	-11.7632
▁negro	-11.7633
▁↑	-11.7633
▁advancing	-11.7634
▁transportation	-11.7635
▁상	-11.7635
▁hint	-11.7638
▁Mexican	-11.7639
位于	-11.7639
root	-11.764
スマホ	-11.7641
荣	-11.7641
▁therein	-11.7643
洪	-11.7643
▁bills	-11.7643
ホール	-11.7643
強い	-11.7644
ATION	-11.7644
생	-11.7644
固	-11.7645
▁tie	-11.7648
というか	-11.7649
Ｋ	-11.7654
▁argue	-11.7654
▁Har	-11.7655
▁Navy	-11.7655
跌	-11.7656
▁Bridge	-11.7657
▁quit	-11.7663
▁dated	-11.7669
险	-11.7672
大力	-11.7673
pl	-11.7674
▁veil	-11.7675
感想	-11.7675
▁Lawrence	-11.7676
」、「	-11.7677
pro	-11.7677
▁Following	-11.7678
实际	-11.7679
▁appearing	-11.7679
刻	-11.768
▁silently	-11.768
▁memories	-11.7681
▁wrapped	-11.7683
▁Camp	-11.7683
▁erect	-11.7683
▁flames	-11.7686
▁frontier	-11.7689
▁boiling	-11.7693
▁customers	-11.7694
レポート	-11.7694
自动	-11.7694
▁piano	-11.7695
▁gloomy	-11.7696
▁conquered	-11.7697
▁employees	-11.7697
▁Persian	-11.7699
▁computing	-11.7699
创业	-11.7701
▁interference	-11.7701
)」	-11.7703
▁renewed	-11.7703
训练	-11.7703
祖	-11.7703
▁spending	-11.7704
肯定	-11.7706
▁balls	-11.7707
▁personally	-11.7708
化学	-11.7708
▁promising	-11.7708
▁leadership	-11.7709
▁Presently	-11.7709
CH	-11.7709
敏	-11.7712
每个	-11.7712
▁painter	-11.7712
Box	-11.7713
制定	-11.7713
授業	-11.7714
Color	-11.7714
▁injuries	-11.7715
因素	-11.7716
▁indifferent	-11.7716
汇	-11.7716
▁diverse	-11.7718
吸引	-11.7719
▁図	-11.7719
ctx	-11.772
预计	-11.772
澤	-11.7722
▁Gospel	-11.7722
▁Hospital	-11.7722
om	-11.7724
届	-11.7724
扣	-11.7725
▁sunset	-11.7725
符合	-11.7725
iness	-11.7725
▁inflammation	-11.7726
食事	-11.7726
▁marine	-11.7727
しよう	-11.7727
지만	-11.7727
dom	-11.7728
배	-11.773
出版	-11.7731
▁あ	-11.7731
FC	-11.7733
params	-11.7733
してきた	-11.7734
▁hydrogen	-11.7734
▁messenger	-11.7735
▁Hope	-11.7736
why	-11.7737
ram	-11.7737
面白い	-11.7738
▁MR	-11.7738
昨日	-11.7739
▁uint	-11.7739
▁modest	-11.774
贝	-11.774
检测	-11.7742
小时	-11.7744
▁princess	-11.7746
送料無料	-11.7747
air	-11.7748
饭	-11.7749
べ	-11.7751
\}$.	-11.7756
瓶	-11.7756
▁simultaneously	-11.7756
老公	-11.7757
欧洲	-11.7758
second	-11.776
▁tenderness	-11.7761
▁어	-11.7761
í	-11.7765
也会	-11.7765
▁invented	-11.7768
▁↓	-11.7768
瀬	-11.7769
解析	-11.7769
帶	-11.777
轉	-11.7771
卵	-11.7773
英雄	-11.7776
湿	-11.7781
当地	-11.7782
▁등을	-11.7783
麦	-11.7784
▁reduces	-11.7787
lan	-11.7789
へと	-11.7789
leqslant	-11.779
ダウンロード	-11.779
dr	-11.7792
▁qui	-11.7793
▁misfortune	-11.7799
▁Put	-11.7802
もしくは	-11.7802
▁dispute	-11.7803
▁했다	-11.7803
Ｘ	-11.7805
电视	-11.7808
▁clergy	-11.7809
▁flies	-11.781
▁약	-11.781
▁PM	-11.7812
▁choosing	-11.7813
▁flashed	-11.7814
lesssim	-11.7815
det	-11.7816
ano	-11.7817
弄	-11.7819
スペース	-11.782
汤	-11.7821
크	-11.7822
股票	-11.7822
备	-11.7826
▁phone	-11.7831
ぶ	-11.7831
戦略	-11.7832
ura	-11.7833
▁frozen	-11.7834
▁exquisite	-11.7834
实力	-11.7835
ors	-11.7835
▁cheese	-11.7836
number	-11.7838
▁scenario	-11.7841
优化	-11.7842
▁Franklin	-11.7843
>>	-11.7843
▁murdered	-11.7844
文学	-11.7844
opt	-11.7845
▁appetite	-11.7847
到底	-11.7847
▁waist	-11.7847
▁Family	-11.7849
▁Aug	-11.7849
ハイ	-11.7852
▁Night	-11.7853
▁Oct	-11.7853
▁silly	-11.7856
純	-11.7858
▁canvas	-11.7864
▁leisure	-11.7866
키	-11.7867
ひ	-11.7868
감	-11.787
▁promises	-11.7871
すぎる	-11.7871
韓国	-11.7872
▁talent	-11.7872
▁clusters	-11.7873
▁arrows	-11.7873
▁chase	-11.7874
▁단	-11.7875
影片	-11.7875
勢	-11.7875
SP	-11.7876
ほ	-11.7876
そうな	-11.7877
キャラ	-11.7878
▁induction	-11.7878
Perhaps	-11.7879
bigl	-11.7879
▁proofs	-11.7881
培养	-11.7882
涨	-11.7882
日から	-11.7882
▁Adams	-11.7883
▁uniformly	-11.7884
ical	-11.7886
▁yielded	-11.7886
▁sentences	-11.7889
▁addressing	-11.789
bed	-11.7891
▁blows	-11.7891
▁vegetable	-11.7892
▁temples	-11.7892
どの	-11.7892
发挥	-11.7893
▁pleasing	-11.7894
带着	-11.7898
▁theme	-11.7899
▁stolen	-11.79
▁shout	-11.79
▁sunk	-11.7901
▁invisible	-11.7901
▁elevation	-11.7904
チャ	-11.7904
▁flux	-11.7906
▁노	-11.7906
▁Davis	-11.7907
▁variance	-11.7908
▁intermediate	-11.7908
ベ	-11.7911
▁STATE	-11.7911
▁Were	-11.7912
使い	-11.7913
▁Ca	-11.7913
under	-11.7914
▁measuring	-11.7914
yl	-11.7916
年齢	-11.7918
stream	-11.7918
秘	-11.7919
ix	-11.792
▁Stone	-11.792
ck	-11.792
▁blank	-11.7921
^^	-11.7921
广州	-11.7922
胃	-11.7923
▁walks	-11.7923
挑战	-11.793
++	-11.7931
데	-11.7931
▁새로운	-11.7933
des	-11.7934
▁survive	-11.7934
が多く	-11.7935
▁mingled	-11.7936
充分	-11.7936
▁respecting	-11.7941
▁Pen	-11.7942
オイル	-11.7942
▁sustained	-11.7943
▁recalled	-11.7945
!(	-11.7945
ときは	-11.7946
▁beard	-11.7946
▁laboratory	-11.7947
▁mothers	-11.7948
▁Non	-11.7949
▁Australian	-11.7951
粒	-11.7951
スタート	-11.7953
most	-11.7953
▁まずは	-11.7955
TC	-11.7956
▁doorway	-11.7957
▁conceal	-11.796
コンテンツ	-11.7961
整備	-11.7962
▁MRS	-11.7963
▁Norman	-11.7964
▁focused	-11.7965
▁holiday	-11.7966
▁winning	-11.7968
份	-11.7969
确定	-11.7969
を使った	-11.797
▁Show	-11.7972
▁witnesses	-11.7972
▁embrace	-11.7973
Op	-11.7974
▁strip	-11.7975
それぞれの	-11.7975
▁scalar	-11.7975
疾病	-11.7976
子供	-11.7976
▁vehicles	-11.7977
▁League	-11.7978
▁picturesque	-11.7979
售	-11.7981
となりました	-11.7981
▁pilot	-11.7982
民族	-11.7983
▁Englishman	-11.7983
▁prevailed	-11.7983
感到	-11.7984
ph	-11.7984
Thank	-11.7984
▁배	-11.7985
▁approval	-11.7985
ずに	-11.7986
ze	-11.7987
满足	-11.7987
ヘ	-11.7988
▁cart	-11.7988
▁Introduction	-11.7988
▁sore	-11.7988
▁rebellion	-11.7989
ことも	-11.7991
show	-11.7992
クリーム	-11.7992
▁obscure	-11.7992
性感	-11.7995
){\	-11.7997
限制	-11.7999
なぜ	-11.8002
▁cloak	-11.8004
newcommand	-11.8007
▁subtle	-11.8009
違う	-11.8009
Jan	-11.8009
▁Val	-11.8009
维护	-11.8009
▁ate	-11.8009
▁neutral	-11.8012
▁receives	-11.8012
▁もう	-11.8013
このような	-11.8013
면서	-11.8016
外部	-11.8016
焦	-11.8016
銀	-11.8017
▁Control	-11.8018
▁doi	-11.8018
▁fairy	-11.8019
嬉しい	-11.802
학	-11.8021
▁asks	-11.8021
▁discourse	-11.8022
としての	-11.8025
増	-11.8028
▁consult	-11.8028
▁인	-11.8028
晶	-11.8031
▁adventures	-11.8032
▁USA	-11.8032
伝	-11.8032
显	-11.8034
▁모두	-11.8034
▁Ex	-11.8034
▁Think	-11.8034
情報を	-11.8034
▁solving	-11.8035
淡	-11.8035
検討	-11.8036
▁sports	-11.8036
▁breaks	-11.8038
▁suited	-11.8039
▁sailor	-11.804
ほか	-11.804
▁barrier	-11.804
▁pollution	-11.8043
就可以	-11.8044
▁($\	-11.8045
測定	-11.8045
Config	-11.8047
▁ultimate	-11.8049
▁mining	-11.8049
！？	-11.805
棚	-11.8051
参照	-11.8052
落实	-11.8054
▁unpleasant	-11.8055
▁electron	-11.8056
▁atom	-11.8059
▁implement	-11.8059
鍋	-11.8063
ガン	-11.8064
︑	-11.8065
贸易	-11.8065
〕	-11.8065
bigr	-11.807
ゲ	-11.807
别人	-11.8071
▁entertained	-11.8071
を作る	-11.8073
的发展	-11.8073
▁XIV	-11.8075
▁essence	-11.8075
▁courses	-11.8077
週間	-11.8078
恋愛	-11.8079
▁Athens	-11.8081
ユニット	-11.8082
간	-11.8083
口コミ	-11.8085
是在	-11.8085
偷拍	-11.8086
居民	-11.8087
▁도	-11.8087
ター	-11.8087
农业	-11.8089
교	-11.809
▁ventured	-11.8091
搜索	-11.8096
▁Force	-11.8097
▁wealthy	-11.8098
に合わせて	-11.8098
ites	-11.81
▁Cardinal	-11.8101
他们的	-11.8102
厅	-11.8102
ロー	-11.8104
Proof	-11.8105
不同的	-11.8108
▁hoping	-11.8108
遇	-11.8109
▁elementary	-11.811
core	-11.811
▁sailors	-11.8111
tion	-11.8111
▁Gaussian	-11.8111
SE	-11.8113
▁Shall	-11.8114
▁ashore	-11.8114
有点	-11.8114
！　	-11.8115
▁offence	-11.8115
xx	-11.8116
▁CA	-11.8116
女儿	-11.8117
▁Mountain	-11.8117
▁ashes	-11.8118
▁systematic	-11.812
MP	-11.812
▁bio	-11.8122
Because	-11.8122
▁passionate	-11.8123
▁respond	-11.8124
凌	-11.8124
Man	-11.8125
郑	-11.8125
出了	-11.8127
▁미국	-11.8127
▁monitoring	-11.8128
First	-11.8129
▁argued	-11.813
谢	-11.8131
MAN	-11.8132
に係る	-11.8133
相互	-11.8134
▁경	-11.8135
▁Class	-11.8135
標準	-11.8137
▁heels	-11.8137
▁meals	-11.8138
高度	-11.8139
▁Whatever	-11.8139
なども	-11.814
▁choices	-11.814
▁sincere	-11.8142
のだ	-11.8142
▁neighbours	-11.8146
▁본	-11.8146
▁fails	-11.8148
▁reads	-11.8148
喷	-11.8148
ATT	-11.8149
▁declaration	-11.8149
Service	-11.815
▁reliable	-11.815
▁abruptly	-11.815
行く	-11.815
End	-11.8152
离开	-11.8153
深入	-11.8153
▁glimpse	-11.8154
CS	-11.8154
▁assisted	-11.8154
でき	-11.8154
理念	-11.8156
自動	-11.8157
AS	-11.8157
森林	-11.8158
▁sp	-11.8158
訪問	-11.8162
出し	-11.8162
▁Hotel	-11.8163
完了	-11.8164
▁predict	-11.8166
here	-11.8167
相手	-11.8168
▁AN	-11.8168
ula	-11.817
職員	-11.8171
▁commanding	-11.8172
母亲	-11.8172
CP	-11.8173
두	-11.8174
転	-11.8174
▁diversity	-11.8174
これから	-11.8174
同学	-11.8176
▁residents	-11.8176
單	-11.8176
▁batteries	-11.8178
headed	-11.8178
リア	-11.818
NA	-11.8181
里面	-11.8181
ぐらい	-11.8182
▁Sarah	-11.8182
ada	-11.8183
結合	-11.8183
考察	-11.8185
▁thickness	-11.8185
▁confession	-11.8186
事務	-11.8188
▁ruled	-11.8188
▁/**	-11.819
编	-11.819
▁controls	-11.8191
などが	-11.8193
▁imply	-11.8194
恒	-11.8194
翔	-11.8194
女孩	-11.8195
}/	-11.8195
))\	-11.8196
記憶	-11.8196
▁Ka	-11.8197
鹿	-11.8198
▁simulations	-11.82
이라는	-11.82
▁Edinburgh	-11.82
となっています	-11.8202
\|\	-11.8204
ほぼ	-11.8204
デジタル	-11.8207
同样	-11.8209
早く	-11.8209
號	-11.8209
舞台	-11.8211
慢	-11.8214
欠	-11.8217
▁Pictures	-11.8217
▁derivative	-11.8219
団	-11.8219
▁«	-11.822
▁Study	-11.822
▁Nat	-11.822
让我	-11.822
技巧	-11.8221
▁conjecture	-11.8221
怀	-11.8222
▁Retrieved	-11.8224
Net	-11.8224
▁paragraph	-11.8225
^*$	-11.8226
▁Appendix	-11.8228
烧	-11.823
▁Forest	-11.8231
남	-11.8231
▁creative	-11.8231
▁vengeance	-11.8238
▁AM	-11.8239
機械	-11.8239
ut	-11.8239
▁effected	-11.824
▁proteins	-11.8241
日本人	-11.8241
上下	-11.8242
▁中国	-11.8243
▁questioned	-11.8249
桜	-11.8251
▁robust	-11.8251
급	-11.8252
‐	-11.8253
戰	-11.8253
▁Total	-11.8254
▁emphasis	-11.8254
加快	-11.8255
▁Remember	-11.8255
用于	-11.8256
iota	-11.8259
はない	-11.8259
障害	-11.826
三个	-11.8261
▁factory	-11.8261
▁hay	-11.8263
パワー	-11.8264
▁Bull	-11.8266
▁token	-11.8268
◆	-11.827
▁considerations	-11.827
▁grim	-11.8271
おり	-11.8272
的大	-11.8273
▁yer	-11.8275
震	-11.8276
陣	-11.8276
Field	-11.8277
▁deserve	-11.8278
植	-11.8279
▁horn	-11.8279
務	-11.8281
つまり	-11.8281
건	-11.8284
▁glasses	-11.8289
▁lip	-11.829
uv	-11.8291
gh	-11.8293
妖	-11.8294
中学	-11.8294
浜	-11.8295
不動産	-11.8296
医学	-11.8296
建築	-11.8296
例如	-11.8297
$).	-11.8297
▁joke	-11.8299
统一	-11.83
▁crystal	-11.83
ベル	-11.8301
▁tracks	-11.8301
▁indifference	-11.8301
▁⊗	-11.8302
▁데	-11.8304
▁여	-11.8304
east	-11.8305
▁classroom	-11.8307
▁veins	-11.8312
lu	-11.8313
MC	-11.8313
▁nephew	-11.8315
▁no̲pop	-11.8319
▁indicating	-11.832
しっかり	-11.832
▁feedback	-11.8321
成了	-11.8322
魅力	-11.8324
▁procedures	-11.8326
推广	-11.8327
オン	-11.8327
ak	-11.8328
▁XI	-11.8329
▁justify	-11.8329
▁infected	-11.8329
負担	-11.8331
蛇	-11.8333
global	-11.8334
お金	-11.8336
▁CD	-11.8337
▁molecular	-11.8338
▁dat	-11.834
方便	-11.834
▁Missouri	-11.834
▁traced	-11.8341
避免	-11.8345
break	-11.8346
立即	-11.8346
者の	-11.8347
▁voltage	-11.8348
になっています	-11.8349
▁Name	-11.8349
▁wi	-11.835
合格	-11.8352
就业	-11.8352
屏	-11.8353
荷	-11.8353
App	-11.8353
foot	-11.8354
▁curse	-11.8354
活用	-11.8355
역	-11.8355
介	-11.8356
▁definitely	-11.8356
容量	-11.8359
變	-11.8361
过程	-11.8362
▁purity	-11.8363
▁funny	-11.8367
▁transparent	-11.8368
double	-11.8369
▁Portuguese	-11.8369
實	-11.8369
并没有	-11.8371
買い	-11.8371
pan	-11.8372
竟然	-11.8373
DVD	-11.8374
裡	-11.8376
会場	-11.8378
ユーザー	-11.8378
DB	-11.838
而言	-11.8381
依然	-11.8383
?’	-11.8384
天天	-11.8384
▁exercised	-11.8386
しかも	-11.8386
全集	-11.8387
上述	-11.8388
▁roses	-11.8389
▁springs	-11.8391
그	-11.8392
▁Based	-11.8393
キャリア	-11.8394
▁installed	-11.8394
メッセージ	-11.8395
関	-11.8397
▁infections	-11.8397
Sep	-11.8398
che	-11.8399
日本語	-11.84
釣り	-11.8401
修正	-11.8402
하다	-11.8402
▁Di	-11.8403
fold	-11.8406
▁__	-11.8408
行為	-11.8409
它的	-11.8411
テーマ	-11.8411
▁elegant	-11.8414
時には	-11.8414
▁Battle	-11.8415
▁sailing	-11.8415
终于	-11.8415
▁solved	-11.8415
意見	-11.8415
枠	-11.8415
歩	-11.8416
ｓ	-11.8416
ris	-11.8416
▁assertion	-11.8418
▁Scottish	-11.8418
aux	-11.8419
必須	-11.8419
▁temporal	-11.842
▁Providence	-11.8421
就能	-11.8422
LY	-11.8422
提示	-11.8422
▁illustrate	-11.8423
くる	-11.8424
▁특히	-11.8424
理论	-11.8425
▁saints	-11.8426
范围	-11.8426
▁sadly	-11.8428
▁있으며	-11.8428
▁jealous	-11.8428
▁Code	-11.8428
はず	-11.8429
做爱	-11.843
読み	-11.8431
▁Country	-11.8432
▁alarmed	-11.8434
bmatrix	-11.8434
▁cats	-11.8435
ane	-11.8437
▁Jew	-11.8439
▁relieve	-11.844
▁increasingly	-11.8441
仕様	-11.8442
▁applicable	-11.8443
美國	-11.8443
旗	-11.8444
▁thirteen	-11.8444
▁Analysis	-11.8445
▁ridiculous	-11.8445
母集団	-11.8447
还要	-11.8447
爽	-11.8449
fit	-11.8449
▁Po	-11.845
▁Line	-11.845
▁prophet	-11.8451
陰	-11.8451
距離	-11.8451
▁lifetime	-11.8451
マスク	-11.8452
▁Music	-11.8452
▁regime	-11.8452
▁\(\	-11.8454
ru	-11.8454
ay	-11.8454
これが	-11.8455
json	-11.8457
▁comrades	-11.8458
▁garments	-11.8458
性格	-11.8458
法国	-11.8459
月份	-11.846
▁biological	-11.846
环保	-11.846
ピン	-11.8462
▁register	-11.8462
顾	-11.8462
▁calmly	-11.8463
\/%	-11.8464
▁und	-11.8464
令和	-11.8465
琴	-11.8466
sky	-11.8468
▁strongest	-11.8469
▁pupil	-11.8471
勒	-11.8471
エネルギー	-11.8471
までの	-11.8472
拳	-11.8473
▁harsh	-11.8474
▁alongside	-11.8474
▁heroic	-11.8475
少なくとも	-11.8478
▁もちろん	-11.8479
身上	-11.848
▁potatoes	-11.848
包装	-11.8482
▁creates	-11.8483
墙	-11.8484
基板	-11.8486
출	-11.8488
德国	-11.8488
▁Virgin	-11.8493
▁이런	-11.8493
似	-11.8494
を通じて	-11.8494
▁openly	-11.8494
▁foul	-11.8494
▁Proof	-11.8494
▁limitations	-11.8495
护	-11.8495
仲	-11.8495
沒	-11.8496
▁travelled	-11.8498
衣服	-11.8498
▁twisted	-11.8499
紀	-11.8499
乃	-11.8499
▁tends	-11.8499
▁similarly	-11.8502
事例	-11.8502
スーパー	-11.8503
▁bend	-11.8505
▁Additionally	-11.8505
ボール	-11.8506
レス	-11.8506
▁Price	-11.8506
▁Admiral	-11.8507
挂	-11.8508
해서	-11.8509
▁enters	-11.8511
ja	-11.8511
▁Story	-11.8511
最終	-11.8513
▁corrected	-11.8514
フレーム	-11.8515
応援	-11.8515
▁determining	-11.8515
美しい	-11.8517
에도	-11.8518
▁caution	-11.8518
▁upwards	-11.8519
恶	-11.8519
▁believing	-11.8519
▁Credits	-11.8522
劇	-11.8522
はもちろん	-11.8522
撸	-11.8523
sch	-11.8524
▁integers	-11.8525
▁locations	-11.8526
}|\	-11.8528
的重要	-11.8531
▁farewell	-11.8532
▁equipped	-11.8533
▁scorn	-11.8535
▁우	-11.8536
▁transformed	-11.8537
▁bees	-11.8537
經	-11.8537
▁electronic	-11.8538
king	-11.8538
汁	-11.854
亿美元	-11.854
simeq	-11.8541
▁dx	-11.8541
Bar	-11.8541
SS	-11.8543
上に	-11.8543
▁Zealand	-11.8544
▁notions	-11.8545
首先	-11.8545
▁선수	-11.8547
▁fetch	-11.8547
靴	-11.8549
▁Cap	-11.855
即可	-11.8551
▁dose	-11.8551
other	-11.8552
▁philosopher	-11.8552
Ha	-11.8553
}})	-11.8554
嫁	-11.8554
ung	-11.8556
资	-11.8556
▁assurance	-11.8557
▁breeding	-11.8558
▁den	-11.8558
▁rod	-11.856
連絡	-11.856
lg	-11.8561
▁guards	-11.8562
▁juice	-11.8564
いく	-11.8564
▁incidents	-11.8565
警方	-11.8566
*(	-11.8566
▁sampling	-11.8566
発売	-11.8569
▁neighbor	-11.857
干部	-11.857
▁Studies	-11.857
deg	-11.857
▁confident	-11.8571
▁mortality	-11.8571
乌	-11.8573
などは	-11.8574
加速	-11.8575
朗	-11.8576
hp	-11.8577
▁constraint	-11.8577
▁engines	-11.8578
認識	-11.8579
▁folded	-11.858
基礎	-11.858
ess	-11.8581
樂	-11.8582
▁assault	-11.8582
レッスン	-11.8584
▁sends	-11.8585
▁dealt	-11.8586
▁exclusively	-11.8587
▁chemicals	-11.8587
▁attribute	-11.8587
▁sharing	-11.8587
▁operate	-11.8588
▁resemblance	-11.8589
▁liable	-11.8589
流量	-11.859
▁말했다	-11.859
＜	-11.859
~~	-11.859
逃	-11.8591
▁sheets	-11.8592
ning	-11.8595
智慧	-11.8596
▁vivid	-11.8597
ita	-11.8597
▁Convention	-11.8598
オープン	-11.8599
▁이상	-11.8599
飛	-11.8599
▁aimed	-11.86
▁heir	-11.8602
▁vitamin	-11.8604
シーン	-11.8604
NS	-11.8606
▁False	-11.8606
ブル	-11.8606
®	-11.8607
ピ	-11.8611
▁볼	-11.8611
▁restoration	-11.8613
Image	-11.8613
▁accessible	-11.8614
パック	-11.8616
▁destination	-11.8618
▁manufacture	-11.8618
▁positively	-11.8619
▁Douglas	-11.8619
▁lists	-11.862
▁heroes	-11.862
相比	-11.8621
特性	-11.8621
했습니다	-11.8622
▁shirt	-11.8623
的时间	-11.8623
▁partners	-11.8624
▁needle	-11.8627
▁affecting	-11.8629
php	-11.863
职	-11.8631
▁실	-11.8631
▁treating	-11.8633
Me	-11.8633
▁名無しさん	-11.8635
▁Anti	-11.8635
ガラス	-11.8635
泥	-11.8635
扬	-11.8636
▁bitterly	-11.8639
となっている	-11.8641
hbox	-11.8641
財	-11.8642
乾燥	-11.8643
istic	-11.8643
ls	-11.8644
掌握	-11.8645
▁warmth	-11.8645
▁acquire	-11.8646
▁tank	-11.8647
▁protocol	-11.8647
▁sickness	-11.8647
▁solely	-11.8648
楚	-11.8648
▁heights	-11.8648
消防	-11.8653
鸟	-11.8654
▁poly	-11.8655
▁mines	-11.8655
有着	-11.8657
▁selling	-11.8657
肝	-11.8658
gar	-11.8659
来源	-11.8662
iter	-11.8663
▁brains	-11.8663
▁chairs	-11.8663
挑	-11.8664
事務所	-11.8664
彼	-11.8665
▁Program	-11.8665
▁revelation	-11.8666
▁entries	-11.8667
▁conspicuous	-11.8668
Var	-11.8668
子ども	-11.8669
▁deprived	-11.8674
的方式	-11.8675
▁rigid	-11.8675
rt	-11.8678
运用	-11.8678
▁delicious	-11.8679
導	-11.868
▁mechanisms	-11.8682
▁lap	-11.8683
▁pseudo	-11.8684
▁Consequently	-11.8685
▁Tim	-11.8687
下来	-11.8687
▁neat	-11.8688
訳	-11.8688
▁saint	-11.8689
π	-11.8689
▁accurately	-11.869
物語	-11.8692
▁substitute	-11.8694
不好	-11.8694
▁os	-11.8694
台灣	-11.8696
▁papa	-11.8696
)||	-11.8696
系統	-11.8696
天然	-11.8696
bus	-11.8698
▁counting	-11.8699
車両	-11.8699
出す	-11.87
▁fiction	-11.8702
攻撃	-11.8702
仍然	-11.8703
pc	-11.8703
▁cultivation	-11.8703
▁molecules	-11.8706
minded	-11.8708
▁strangely	-11.871
▁emerged	-11.8712
部門	-11.8713
▁suggestions	-11.8713
▁namespace	-11.8713
▁Management	-11.8714
▁analyze	-11.8715
tu	-11.8716
▁obeyed	-11.8716
▁Low	-11.8716
シーズン	-11.8716
同時	-11.8719
▁Roy	-11.8721
▁– 	-11.8721
▁각	-11.8722
昔	-11.8723
▁stole	-11.8724
AD	-11.8725
nn	-11.8727
되고	-11.8727
ped	-11.8727
bra	-11.8728
▁luxury	-11.873
追求	-11.873
▁이후	-11.873
▁Grey	-11.8731
するために	-11.8732
车辆	-11.8733
▁endless	-11.8734
pin	-11.8739
室内	-11.8739
兽	-11.8739
]$.	-11.874
専門	-11.874
TTT	-11.874
▁bench	-11.874
tus	-11.874
打开	-11.8741
za	-11.8744
▁特に	-11.8744
▁Others	-11.8745
worth	-11.8746
▁sustainable	-11.8746
textsc	-11.8747
甜	-11.8748
年前	-11.8749
▁Hi	-11.8749
▁Jerry	-11.875
▁pretended	-11.8751
▁notable	-11.8751
融资	-11.8751
メンバー	-11.8752
▁utility	-11.8752
▁repose	-11.8752
▁cavity	-11.8752
▁arrange	-11.8753
回家	-11.8753
▁surroundings	-11.8754
においては	-11.8754
ており	-11.8755
発生	-11.8758
人类	-11.8758
▁pan	-11.8759
▁programming	-11.8759
▁biggest	-11.8759
一天	-11.876
贷款	-11.876
样	-11.8761
资本	-11.8761
ゼ	-11.8761
▁pit	-11.8761
明确	-11.8761
▁confessed	-11.8763
ります	-11.8763
▁relatives	-11.8764
印度	-11.8764
をしている	-11.8764
▁Everything	-11.8765
▁realm	-11.8766
↓	-11.8767
▁lifting	-11.8767
▁restriction	-11.8768
▁resolve	-11.8769
根本	-11.8769
▁bells	-11.877
▁handling	-11.8772
반	-11.8773
▁heavenly	-11.8774
▁inspection	-11.8774
を見	-11.8775
▁aboard	-11.8777
▁二	-11.8777
▁Nations	-11.8777
際	-11.878
球员	-11.8782
よい	-11.8783
吊	-11.8784
▁severity	-11.8785
▁disciples	-11.8785
▁happening	-11.8785
발	-11.8786
ids	-11.8789
Per	-11.879
▁quote	-11.8792
有了	-11.8793
▁Turkey	-11.8794
▁선	-11.8795
▁wandered	-11.8795
洲	-11.8796
▁convey	-11.8796
オリジナル	-11.8796
▁industries	-11.8797
▁관련	-11.8798
と思った	-11.8799
word	-11.8799
▁그러나	-11.8799
素敵な	-11.8801
稳	-11.8801
農業	-11.8804
網站	-11.8805
태	-11.8805
▁oral	-11.8806
▁energies	-11.8808
市の	-11.881
▁generalized	-11.8811
黃	-11.8813
ct	-11.8814
Response	-11.8814
Item	-11.8815
target	-11.8816
▁coordinate	-11.8817
Aug	-11.882
▁label	-11.882
▁breadth	-11.8821
▁algebraic	-11.8821
▁sixth	-11.8822
を持って	-11.8822
野菜	-11.8823
反映	-11.8824
American	-11.8824
に関しては	-11.8824
▁conveyed	-11.8826
▁insurance	-11.8827
▁eminent	-11.8828
电脑	-11.8828
GO	-11.8828
蔵	-11.883
▁formidable	-11.8831
▁Plato	-11.8832
▁Half	-11.8832
ソン	-11.8834
孝	-11.8834
载	-11.8836
▁Ross	-11.8837
▁automatically	-11.8839
▁packed	-11.8841
▁attending	-11.8842
▁Si	-11.8843
自信	-11.8845
▁reverence	-11.8845
▁blew	-11.8846
公布	-11.8847
▁carved	-11.8847
fn	-11.8847
あった	-11.8849
▁Illinois	-11.8849
▁mouse	-11.885
_),	-11.885
失敗	-11.885
▁gravely	-11.8851
▁favorable	-11.8851
|^{	-11.8852
_]	-11.8853
受付	-11.8853
▁Jefferson	-11.8854
トン	-11.8856
▁Something	-11.8856
全身	-11.8857
▁monument	-11.8858
▁vegetation	-11.8861
診断	-11.8863
▁aroused	-11.8864
yard	-11.8865
tz	-11.8865
强调	-11.8866
動物	-11.8867
映	-11.8867
代理	-11.8868
楽しく	-11.887
▁patch	-11.8874
押	-11.8875
▁chart	-11.8877
ｉ	-11.8877
▁Due	-11.8879
角度	-11.888
▁そこで	-11.8881
▁Standard	-11.8882
▁据	-11.8882
▁Hon	-11.8882
▁Gulf	-11.8885
部位	-11.8886
Tell	-11.8887
▁Palace	-11.8888
▁gracious	-11.8889
mes	-11.8889
▁constitute	-11.8889
▁現在	-11.889
損	-11.889
らない	-11.889
▁Write	-11.8893
▁Say	-11.8894
设	-11.8895
▁facility	-11.8895
▁sums	-11.8896
▁Modern	-11.8897
vee	-11.8899
▁pulling	-11.8899
泊	-11.89
每年	-11.89
パソコン	-11.8901
▁perpetual	-11.8903
empty	-11.8903
▁padding	-11.8903
＊	-11.8905
曾经	-11.8905
▁dominant	-11.8905
ric	-11.8908
書き	-11.8909
晚上	-11.8909
んだけど	-11.8915
Miss	-11.8915
]}	-11.8917
▁pig	-11.8917
▁amused	-11.8917
▁fan	-11.8918
▁staying	-11.8919
▁loyal	-11.8922
▁cheer	-11.8923
▁privileges	-11.8923
中で	-11.8924
使う	-11.8924
都在	-11.8925
▁イントロン	-11.8926
尤其是	-11.8927
を通して	-11.8931
▁alliance	-11.8934
▁Global	-11.8934
▁span	-11.8934
▁favourable	-11.8935
作家	-11.8936
燕	-11.8937
▁disgrace	-11.8937
▁definitions	-11.8937
▁Bo	-11.8938
MR	-11.8938
さんと	-11.8938
困难	-11.8938
▁alert	-11.8939
▁sweep	-11.8941
運転	-11.8941
に対し	-11.8942
実践	-11.8944
▁cognitive	-11.8946
mask	-11.8947
刑	-11.8948
▁treatments	-11.8949
False	-11.895
▁query	-11.8953
▁linen	-11.8957
宇宙	-11.8958
▁imperial	-11.8958
增强	-11.8961
▁forbidden	-11.8961
品質	-11.8966
행	-11.8967
外国	-11.8967
bot	-11.8968
▁versions	-11.897
▁XII	-11.8971
ó	-11.8971
론	-11.8973
▁Venice	-11.8973
binom	-11.8973
lon	-11.8974
気になる	-11.8975
我是	-11.8975
咨询	-11.8975
場合には	-11.8976
的故事	-11.8978
position	-11.8981
▁것입니다	-11.8981
名称	-11.8981
▁enables	-11.8984
食べ	-11.8984
▁heartily	-11.8984
獲得	-11.8985
▁Key	-11.8986
▁ranges	-11.8986
＾＾	-11.8986
宅	-11.8987
▁morality	-11.8988
▁infinitely	-11.899
▁puzzled	-11.8991
当日	-11.8991
▁abandon	-11.8992
也可以	-11.8992
comp	-11.8993
ボタン	-11.8994
grid	-11.8994
不再	-11.8997
更に	-11.8998
▁Hamiltonian	-11.8998
▁ours	-11.8998
▁トラックバック	-11.9
▁asserted	-11.9001
上涨	-11.9001
它们	-11.9001
blog	-11.9005
我想	-11.9006
▁arc	-11.9008
▁{}	-11.9009
［	-11.901
▁license	-11.9013
▁Mathematics	-11.9014
艺	-11.9015
てしまう	-11.9016
▁bloody	-11.9018
▁grains	-11.9018
▁markets	-11.9018
性的	-11.9019
哪	-11.902
相对	-11.902
形状	-11.902
▁lucky	-11.9021
……"	-11.9022
なのです	-11.9023
mark	-11.9023
▁leaped	-11.9024
マッサージ	-11.9025
fc	-11.9027
今まで	-11.9028
出席	-11.9028
창	-11.9029
卻	-11.903
▁believes	-11.9034
強化	-11.9035
▁enhance	-11.9036
CG	-11.9037
主题	-11.9038
▁allies	-11.9038
委员会	-11.904
▁confirm	-11.9041
意见	-11.9043
近日	-11.9044
福祉	-11.9044
▁crushed	-11.9046
ひと	-11.9047
▁regulation	-11.9048
呼吸	-11.9048
▁있도록	-11.9048
▁normally	-11.9048
▁Garden	-11.9048
補	-11.905
▁earn	-11.905
your	-11.9051
▁AS	-11.9051
讨论	-11.9051
▁crack	-11.9052
web	-11.9054
出力	-11.9055
▁tract	-11.9056
一条	-11.9056
▁governed	-11.9057
▁inquire	-11.9057
霊	-11.9059
ヘッド	-11.9061
▁gallery	-11.9061
敵	-11.9061
vspace	-11.9062
郎	-11.9064
▁breathe	-11.9065
食物	-11.9066
财	-11.9067
▁Sch	-11.9067
再度	-11.9068
fish	-11.9069
mg	-11.907
绿色	-11.9071
▁attempting	-11.9073
▁curtain	-11.9074
rich	-11.9075
▁dreamed	-11.9076
トレーニング	-11.9079
values	-11.9079
規定	-11.9079
▁separately	-11.9081
▁threatening	-11.9081
青春	-11.9082
预	-11.9082
온	-11.9084
▁subgroup	-11.9085
▁pleasures	-11.9086
▁completion	-11.9086
dist	-11.9087
▁guilt	-11.9089
▁subjected	-11.9089
▁expecting	-11.9089
▁responses	-11.9094
▁unfortunately	-11.9095
"><	-11.9095
價	-11.9096
▁insight	-11.9098
▁knock	-11.9099
已經	-11.9099
制限	-11.9099
▁lungs	-11.91
▁classic	-11.91
比例	-11.9101
▁Lane	-11.9102
▁steal	-11.9102
お客様	-11.9103
▁amusing	-11.9104
、、、	-11.9105
劳	-11.9105
晴	-11.9106
▁mob	-11.9107
ran	-11.9107
的工作	-11.9109
▁Eve	-11.9109
▁Victoria	-11.9109
によると	-11.9111
启动	-11.9111
来到	-11.9113
▁lecture	-11.9114
▁guarantee	-11.9114
というのが	-11.9114
▁Ni	-11.9114
▁wool	-11.9115
▁위	-11.9115
EQ	-11.9116
从而	-11.912
rr	-11.9121
하면서	-11.9122
证券	-11.9122
▁Alfred	-11.9122
神社	-11.9123
▁careless	-11.9124
▁Create	-11.9125
These	-11.9125
有的	-11.9126
拡大	-11.9126
▁tour	-11.9128
▁alter	-11.9129
▁selfish	-11.9129
▁admired	-11.9129
茂	-11.9133
经典	-11.9134
ること	-11.9135
▁lakes	-11.9137
▁hopeless	-11.9139
▁View	-11.9139
忙	-11.9142
▁cliff	-11.9143
네	-11.9144
▁successive	-11.9145
▁Par	-11.9148
▁＞	-11.9149
▁Till	-11.9149
装修	-11.9149
▁Cat	-11.915
PM	-11.915
▁dishes	-11.9151
normal	-11.9151
成长	-11.9151
▁Plan	-11.9152
校园	-11.9154
▁prescribed	-11.9155
▁lovers	-11.9156
▁prejudice	-11.9156
胶	-11.9156
転職	-11.9157
▁rocky	-11.9157
▁awareness	-11.9158
▁rounded	-11.9159
▁longing	-11.9159
轻松	-11.9159
ball	-11.916
以外	-11.916
销	-11.9161
hole	-11.9162
▁지역	-11.9162
続きを読む	-11.9163
混合	-11.9163
▁criteria	-11.9164
▁infrastructure	-11.9165
▁Nelson	-11.9165
▁washing	-11.9167
▁intersection	-11.9167
かわいい	-11.9168
▁서울	-11.9168
▁yonder	-11.9169
▁disc	-11.9169
▁cunning	-11.917
▁judged	-11.9171
처럼	-11.9172
▁regression	-11.9172
▁beef	-11.9172
▁Boy	-11.9173
心里	-11.9173
评价	-11.9173
심	-11.9174
▁Series	-11.9176
に行く	-11.9176
协会	-11.9177
▁cited	-11.9177
计算	-11.9178
莱	-11.9178
▁tune	-11.9178
特徴	-11.9179
▁earthly	-11.9181
▁coloured	-11.9181
▁differently	-11.9182
src	-11.9184
▁Orleans	-11.9184
▁Juan	-11.9184
脂肪	-11.9184
▁Allen	-11.9185
▁bestowed	-11.9186
▁세계	-11.9186
▁punished	-11.9186
せる	-11.9187
漫	-11.9188
▁defines	-11.9189
▁psychological	-11.9189
▁harbour	-11.9189
を受け	-11.9192
▁possesses	-11.9192
▁constitutional	-11.9194
通過	-11.9195
▁invariably	-11.9196
▁collar	-11.9198
指示	-11.9199
遇到	-11.9203
殺	-11.9203
范	-11.9204
▁eldest	-11.9204
▁healthcare	-11.9204
排名	-11.9207
▁assistant	-11.9209
▁varies	-11.9209
▁fore	-11.921
股份	-11.9212
▁매	-11.9213
ig	-11.9214
内に	-11.9214
▁まず	-11.9218
彦	-11.9218
▁bending	-11.922
安心して	-11.922
;--	-11.9221
▁fog	-11.9221
設	-11.9223
▁explicitly	-11.9226
▁weeping	-11.9226
多数	-11.9226
▁Tower	-11.9226
▁combine	-11.9226
▁beliefs	-11.9228
aa	-11.9229
▁deviation	-11.9229
▁examining	-11.9229
▁damp	-11.9232
上了	-11.9233
▁undertake	-11.9234
▁convenience	-11.9234
▁prayed	-11.9236
lam	-11.9236
▁Call	-11.9237
▁≫	-11.9237
mail	-11.9238
▁panic	-11.9239
▁squares	-11.9239
▁admission	-11.9239
Result	-11.924
スト	-11.9241
▁바로	-11.9241
特典	-11.9242
take	-11.9245
二人	-11.9246
▁magazine	-11.9248
▁scattering	-11.9251
▁regardless	-11.9252
用途	-11.9253
発送	-11.9254
home	-11.9259
▁jealousy	-11.926
时期	-11.926
种子	-11.926
ken	-11.9264
同志	-11.9265
▁roused	-11.9266
▁lace	-11.9267
最も	-11.9268
シン	-11.9268
Fi	-11.9271
欲しい	-11.9272
査定	-11.9272
news	-11.9272
珍	-11.9272
流行	-11.9274
▁apparatus	-11.9274
▁bowl	-11.9274
▁snake	-11.9276
▁amazing	-11.9276
▁launched	-11.9277
▁guided	-11.9278
▁successor	-11.9278
hr	-11.9278
昭和	-11.928
▁Sciences	-11.928
▁Taking	-11.9281
Nothing	-11.9282
▁deceived	-11.9285
ari	-11.9287
▁moonlight	-11.9291
持ち	-11.9292
売り	-11.9292
▁agencies	-11.9294
▁plunged	-11.9294
▁learnt	-11.9295
ことから	-11.9295
false	-11.9296
系の	-11.9296
▁Conference	-11.9296
▁interpreted	-11.9297
▁seize	-11.9297
▁exclusive	-11.9298
▁mount	-11.9298
▁cruelty	-11.9298
▁gospel	-11.93
▁humor	-11.93
是什么	-11.93
▁continuing	-11.9301
▁esteem	-11.9302
下面	-11.9302
▁equivalence	-11.9302
以为	-11.9302
ステージ	-11.9302
▁canonical	-11.9303
委員会	-11.9303
桑	-11.9304
就像	-11.9305
结婚	-11.9305
▁drag	-11.9306
▁societies	-11.931
RS	-11.931
ants	-11.9311
▁mineral	-11.9311
▁mi	-11.9314
营销	-11.9316
▁ア	-11.9317
していました	-11.9318
レース	-11.9319
博士	-11.9319
▁Monte	-11.9319
简	-11.9319
▁settlers	-11.9321
附	-11.9324
ホーム	-11.9324
▁Lu	-11.9325
▁patent	-11.9325
杂	-11.9325
来了	-11.9327
▁개	-11.9329
近期	-11.9329
▁courtesy	-11.933
▁candidates	-11.933
▁refined	-11.933
英语	-11.933
凉	-11.9333
答	-11.9335
▁addresses	-11.9335
术	-11.9335
▁entertainment	-11.9335
▁초	-11.9336
経	-11.9337
全く	-11.9339
▁warrant	-11.9339
かもしれない	-11.9341
▁shops	-11.9343
▁지원	-11.9343
▁neural	-11.9345
▁Way	-11.9346
意外	-11.9347
▁jest	-11.9347
{$\	-11.9348
突出	-11.9349
▁generic	-11.9349
▁Upper	-11.9351
▁Winter	-11.9351
ren	-11.9351
eh	-11.9352
護	-11.9352
▁associate	-11.9353
▁depart	-11.9355
嗎	-11.9356
▁concentrated	-11.9357
短期	-11.9357
▁Clark	-11.9358
▁attract	-11.9359
▁glowing	-11.9359
▁Feb	-11.936
いろいろ	-11.9361
▁investigated	-11.9362
▁dig	-11.9362
是不是	-11.9364
做出	-11.9364
Code	-11.9365
▁mamma	-11.9365
▁pious	-11.9365
▁Golden	-11.9366
▁seasons	-11.9366
▁val	-11.9367
爾	-11.9369
ࡿ	-11.937
戒	-11.937
▁fortunes	-11.937
機関	-11.9371
弟	-11.9371
さんに	-11.9373
▁lowered	-11.9375
▁monks	-11.9375
免費	-11.9377
▁当	-11.9378
▁associations	-11.938
不可能	-11.9381
LED	-11.9382
▁phases	-11.9383
σ	-11.9384
▁threats	-11.9384
▁retire	-11.9386
一场	-11.9388
終	-11.9388
▁Howard	-11.9389
▁Woman	-11.939
裸	-11.939
Ch	-11.9391
ence	-11.9393
▁leap	-11.9393
▁requiring	-11.9393
청	-11.9394
巨乳	-11.9394
鼓	-11.9396
ification	-11.9396
支出	-11.9397
▁fancied	-11.9397
▁structural	-11.9398
セル	-11.94
▁Luther	-11.94
売	-11.94
新規	-11.9401
だったら	-11.9403
表情	-11.9403
▁termed	-11.9404
レンズ	-11.9404
合成	-11.9404
call	-11.9405
重庆	-11.9405
ライフ	-11.9405
▁trend	-11.9406
有所	-11.9406
協力	-11.9406
▁	-11.9406
融合	-11.9407
是一种	-11.9408
ile	-11.9408
▁decade	-11.9408
节目	-11.9408
ros	-11.9408
ラー	-11.9408
シュ	-11.9409
不用	-11.9409
闻	-11.9409
の話	-11.941
▁MA	-11.9411
▁historian	-11.9411
▁Bi	-11.9411
インターネット	-11.9416
電源	-11.9416
▁arises	-11.9417
}}$.	-11.9418
▁handkerchief	-11.942
上げ	-11.9421
推薦	-11.9421
▁vanity	-11.9422
▁fits	-11.9422
からです	-11.9422
バン	-11.9425
▁Esq	-11.9427
▁bullet	-11.9428
▁Military	-11.9431
▁cable	-11.9431
创造	-11.9431
▁RE	-11.9433
▁	-11.9433
▁Heart	-11.9434
レシピ	-11.9434
宝宝	-11.9434
▁차	-11.9435
▁LORD	-11.9439
始	-11.9439
敢	-11.9439
▁Poland	-11.9443
保証	-11.9444
端末	-11.9444
▁boards	-11.9444
sel	-11.9444
ind	-11.9445
▁Solomon	-11.9446
替	-11.9447
▁pregnancy	-11.9447
▁preventing	-11.9447
してしまう	-11.9448
sq	-11.9448
▁beer	-11.9449
服装	-11.945
▁bronze	-11.9451
▁pockets	-11.9452
んですが	-11.9453
▁pistol	-11.9453
公里	-11.9455
▁attain	-11.9455
发行	-11.9456
ハウス	-11.9457
里的	-11.9457
偷	-11.946
▁barely	-11.946
メイク	-11.946
▁expectations	-11.9461
▁서비스	-11.9461
▁expanded	-11.9461
▁straightforward	-11.9461
应当	-11.9462
▁template	-11.9462
▁peasant	-11.9463
会员	-11.9464
Life	-11.9464
▁sq	-11.9464
更多的	-11.9465
▁dropping	-11.9465
ber	-11.9466
래	-11.9466
nan	-11.9467
APP	-11.9468
妻子	-11.9468
窗	-11.9469
页	-11.947
ペン	-11.947
▁viz	-11.947
▁ray	-11.9471
▁Station	-11.9471
距离	-11.9472
▁preference	-11.9472
▁injustice	-11.9473
▁advise	-11.9474
▁torture	-11.9474
筆	-11.9474
▁trembled	-11.9474
本身	-11.9475
▁popularity	-11.9475
alg	-11.9476
タイ	-11.9477
素晴らしい	-11.948
▁restless	-11.948
ぬ	-11.9481
给我	-11.9481
恢复	-11.9481
工業	-11.9482
ow	-11.9482
away	-11.9483
▁furious	-11.9483
恐怖	-11.9485
▁Mc	-11.9486
▁traveller	-11.9486
▁connecting	-11.9486
▁Level	-11.9487
せず	-11.9489
▁warfare	-11.949
っています	-11.9492
▁fro	-11.9492
push	-11.9493
扩大	-11.9493
▁역	-11.9494
▁communications	-11.9495
▁curvature	-11.9495
クリニック	-11.9495
放在	-11.9498
日々	-11.9498
▁borders	-11.9498
fer	-11.9503
▁Moore	-11.9504
▁festival	-11.9506
▁vulgar	-11.9506
添加	-11.9507
})$,	-11.9507
美人	-11.9509
▁thirst	-11.951
▁Ed	-11.9511
监督	-11.9511
SNS	-11.9512
▁surgeon	-11.9512
カレー	-11.9512
▁matching	-11.9513
random	-11.9514
ag	-11.9515
▁리	-11.9515
▁penalty	-11.9517
玲	-11.9517
▁hesitation	-11.9518
することができます	-11.9519
▁DC	-11.9519
的东西	-11.952
すべての	-11.952
since	-11.9521
nor	-11.9521
습니다	-11.9522
▁밝혔다	-11.9522
总是	-11.9524
スクール	-11.9524
▁ST	-11.9524
える	-11.9524
ストレス	-11.9524
随后	-11.9524
buf	-11.9525
アル	-11.9525
▁Notice	-11.9529
▁towers	-11.953
指标	-11.9531
▁dwelt	-11.9534
▁bite	-11.9535
its	-11.9535
トイレ	-11.9536
動き	-11.9536
ston	-11.9537
▁今回の	-11.9538
med	-11.9545
送信	-11.9546
予算	-11.9546
병	-11.9547
▁Morgan	-11.9548
小学校	-11.9548
▁Design	-11.9549
▁crimson	-11.9551
巨大	-11.9552
▁fer	-11.9553
カップ	-11.9553
▁Thursday	-11.9554
▁bunch	-11.9555
▁integrated	-11.9555
▁Full	-11.9555
because	-11.9556
证明	-11.9557
といえば	-11.956
▁healing	-11.956
색	-11.956
打ち	-11.9561
裂	-11.9561
逐渐	-11.9562
蒂	-11.9562
▁編集	-11.9563
梨	-11.9564
ν	-11.9565
BA	-11.9565
嫌	-11.9565
▁challenging	-11.9566
連携	-11.9566
にする	-11.9566
冊	-11.9566
于是	-11.9567
▁Pierre	-11.9567
▁youthful	-11.9567
▁swimming	-11.9567
▁Newton	-11.9567
▁flushed	-11.9569
▁Books	-11.9569
▁segment	-11.9569
β	-11.957
dale	-11.957
▁Ho	-11.957
OFF	-11.9571
▁Corps	-11.9572
▁agitation	-11.9574
満	-11.9575
▁코	-11.9575
▁Accordingly	-11.9575
んですけど	-11.9576
を使う	-11.9576
阻	-11.9576
▁batch	-11.9577
▁launch	-11.9582
▁reactions	-11.9583
▁nobles	-11.9583
絶対	-11.9584
ヌ	-11.9584
▁rushing	-11.9585
Event	-11.9585
▁Netherlands	-11.9586
음	-11.9586
柔	-11.9589
▁Ellen	-11.959
▁toil	-11.9591
▁goin	-11.9593
だよ	-11.9594
▁COVID	-11.9594
▁whip	-11.9595
▁limb	-11.9595
引起	-11.9595
▁scarlet	-11.9595
億円	-11.9595
ene	-11.9597
▁preservation	-11.9597
▁diamond	-11.96
▁repeatedly	-11.9601
▁boost	-11.9603
▁preliminary	-11.9605
坏	-11.9606
DC	-11.9606
▁farms	-11.9606
ヨ	-11.9607
▁trading	-11.9608
バイト	-11.9609
とし	-11.961
▁generating	-11.9611
注文	-11.9611
▁NOT	-11.9611
▁anxiously	-11.9612
hour	-11.9613
Pro	-11.9613
就要	-11.9613
▁signature	-11.9614
ρ	-11.9614
▁drift	-11.9614
工場	-11.9617
なくて	-11.9617
길	-11.9621
▁attachment	-11.9623
▁Try	-11.9624
▁savages	-11.9625
家长	-11.9626
▁입	-11.9627
version	-11.9627
▁pencil	-11.9627
▁산	-11.9628
涉及	-11.9628
赢	-11.963
▁absorption	-11.9636
▁participation	-11.9636
良かった	-11.9638
▁flock	-11.9638
▁Robin	-11.9639
ブルー	-11.964
殿	-11.964
^*(	-11.964
的情况	-11.9642
研究所	-11.9642
▁awakened	-11.9643
蘭	-11.9643
バンド	-11.9645
▁git	-11.9645
▁Mediterranean	-11.9645
ものを	-11.9645
今は	-11.9647
姆	-11.9647
▁atomic	-11.9648
▁occurring	-11.9651
玄	-11.9653
ec	-11.9654
▁parting	-11.9655
湾	-11.9658
DS	-11.9658
Client	-11.9659
翼	-11.966
が必要	-11.9663
▁buffer	-11.9664
歴史	-11.9664
できた	-11.9666
▁Special	-11.9667
▁compounds	-11.9668
▁monster	-11.9668
ising	-11.9669
FF	-11.9669
▁practised	-11.967
炉	-11.9671
▁Countess	-11.9672
▁cone	-11.9672
▁외	-11.9672
▁arising	-11.9673
▁comparing	-11.9673
박	-11.9673
▁heating	-11.9673
store	-11.9673
在这里	-11.9674
▁betrayed	-11.9675
了一个	-11.9676
▁Matthew	-11.9681
▁bloom	-11.9682
稿	-11.9682
Only	-11.9682
▁Jersey	-11.9682
doc	-11.9683
エンジン	-11.9683
跨	-11.9684
▁dearest	-11.9685
Ｕ	-11.9686
アート	-11.9687
道具	-11.9688
cs	-11.9688
▁angular	-11.9691
トリ	-11.9692
▁independently	-11.9693
ただし	-11.9693
▁decent	-11.9693
▁breed	-11.9693
did	-11.9694
Jul	-11.9694
▁pushing	-11.9695
染	-11.9697
▁proceeds	-11.9697
textup	-11.9698
涉	-11.9698
▁insect	-11.9698
尽管	-11.9699
▁legitimate	-11.9699
▁approximate	-11.9699
广东	-11.9699
几乎	-11.9701
接近	-11.9701
▁Vienna	-11.9702
ベース	-11.9702
▁Mountains	-11.9704
join	-11.9704
▁verify	-11.9704
太郎	-11.9706
▁Kentucky	-11.9708
責任	-11.9709
▁cathedral	-11.9709
square	-11.971
▁environments	-11.971
)[	-11.9711
今の	-11.9713
▁guarded	-11.9714
Eq	-11.9714
手術	-11.9717
羅	-11.9717
▁correction	-11.9717
▁persuade	-11.9718
▁meanwhile	-11.9718
▁Campbell	-11.972
vol	-11.9721
make	-11.9721
▁Article	-11.9725
▁enclosed	-11.9728
讯	-11.9729
刚刚	-11.973
▁Jo	-11.973
▁cooling	-11.973
▁annually	-11.9732
bt	-11.9733
係	-11.9733
▁republic	-11.9733
があるので	-11.9733
▁게임	-11.9734
串	-11.9734
说道	-11.9734
に関して	-11.9734
▁tri	-11.9734
▁speedily	-11.9734
▁geometric	-11.9735
ev	-11.9736
▁executive	-11.9737
▁acceptance	-11.9738
eg	-11.9738
▁deliberately	-11.974
▁③	-11.9741
▁jewels	-11.9741
▁scholar	-11.9743
^+	-11.9744
▁Brazil	-11.9745
▁babies	-11.9747
デバイス	-11.9749
瓜	-11.9749
と思って	-11.9751
▁nonsense	-11.9752
▁cake	-11.9752
▁dies	-11.9753
されていた	-11.9755
▁BE	-11.9755
之外	-11.9757
sharp	-11.9758
ky	-11.9759
概要	-11.9759
おいしい	-11.976
扎	-11.9761
▁resort	-11.9761
担任	-11.9762
などに	-11.9762
▁lighting	-11.9763
すぎ	-11.9763
▁justly	-11.9764
芽	-11.9765
▁Change	-11.9765
rb	-11.9766
oid	-11.9766
▁bedroom	-11.9767
▁temptation	-11.9767
▁cylinder	-11.9767
ロン	-11.9768
▁ladder	-11.9769
自我	-11.9769
こういう	-11.977
コート	-11.9775
▁pretend	-11.9775
女友	-11.9776
▁valleys	-11.9776
▁inserted	-11.9778
iz	-11.9779
▁gross	-11.9781
PDF	-11.9783
Out	-11.9783
▁jury	-11.9784
▁Lower	-11.9786
していて	-11.9786
Number	-11.9787
▁illustrations	-11.9788
▁drowned	-11.9788
会社の	-11.9788
岁的	-11.9789
▁headquarters	-11.9789
▁customer	-11.9792
きました	-11.9793
는데	-11.9796
談	-11.9796
▁incredible	-11.9796
▁wolf	-11.9798
季節	-11.9801
▁bleeding	-11.9801
▁△	-11.9802
▁Scholar	-11.9803
▁neighbouring	-11.9804
MA	-11.9807
▁discussions	-11.9807
▁lighter	-11.9808
▁discoveries	-11.9809
骚	-11.981
環	-11.981
ā	-11.9812
eff	-11.9812
に記載の	-11.9812
岳	-11.9812
充	-11.9813
▁blown	-11.9814
▁knights	-11.9814
缺	-11.9816
尘	-11.9816
▁peoples	-11.9816
すごく	-11.9818
▁교	-11.9818
▁businesses	-11.9819
▁tissues	-11.982
▁senior	-11.9821
阵	-11.9821
ここ	-11.9826
▁exhibition	-11.9826
▁imaginary	-11.9827
雰囲気	-11.9828
▁destiny	-11.983
▁Notes	-11.9831
広	-11.9831
人で	-11.9832
card	-11.9834
▁colleagues	-11.9834
▁Turks	-11.9838
Page	-11.9838
▁halted	-11.984
▁그는	-11.9841
nine	-11.9843
スポット	-11.9843
ルーム	-11.9844
▁warn	-11.9845
▁Tuesday	-11.9846
assert	-11.9848
宽	-11.9848
▁proving	-11.9851
摆	-11.9851
自慰	-11.9851
即使	-11.9852
▁proven	-11.9852
实行	-11.9852
▁sticks	-11.9856
ったり	-11.9858
▁Main	-11.9859
！！！	-11.986
high	-11.9861
▁Dave	-11.9861
ジャ	-11.9863
▁impacts	-11.9864
▁abode	-11.9864
食材	-11.9864
▁EU	-11.9867
▁cabinet	-11.9867
上升	-11.9867
▁vaccine	-11.9869
▁blowing	-11.987
▁Luke	-11.987
▁Richmond	-11.9871
全ての	-11.9871
▁bodily	-11.9871
▁faded	-11.9871
小学	-11.9872
eau	-11.9873
▁HOME	-11.9873
父亲	-11.9874
▁happily	-11.9874
▁inscription	-11.9875
▁Hudson	-11.9875
inch	-11.9876
static	-11.9876
▁obligation	-11.9876
▁ecclesiastical	-11.9878
ほとんど	-11.9879
▁likelihood	-11.9882
▁membrane	-11.9882
トラブル	-11.9883
[...]
