{
  "version": "1.0",
  "truncation": null,
  "padding": null,
  "added_tokens": [
    {
      "id": 0,
      "content": "<|unk|>",
      "single_word": false,
      "lstrip": false,
      "rstrip": false,
      "normalized": false,
      "special": true
    },
    {
      "id": 1,
      "content": "<|startoftext|>",
      "single_word": false,
      "lstrip": false,
      "rstrip": false,
      "normalized": false,
      "special": true
    },
    {
      "id": 2,
      "content": "<|return|>",
      "single_word": false,
      "lstrip": false,
      "rstrip": false,
      "normalized": false,
      "special": true
    },
    {
      "id": 3,
      "content": "<|mask|>",
      "single_word": false,
      "lstrip": false,
      "rstrip": false,
      "normalized": false,
      "special": true
    },
    {
      "id": 4,
      "content": "<|endoftext|>",
      "single_word": false,
      "lstrip": false,
      "rstrip": false,
      "normalized": false,
      "special": true
    },
    {
      "id": 5,
      "content": "<|cls|>",
      "single_word": false,
      "lstrip": false,
      "rstrip": false,
      "normalized": false,
      "special": true
    },
    {
      "id": 6,
      "content": "<|eod|>",
      "single_word": false,
      "lstrip": false,
      "rstrip": false,
      "normalized": false,
      "special": true
    },
    {
      "id": 7,
      "content": "<|sep|>",
      "single_word": false,
      "lstrip": false,
      "rstrip": false,
      "normalized": false,
      "special": true
    },
    {
      "id": 8,
      "content": "<|constrain|>",
      "single_word": false,
      "lstrip": false,
      "rstrip": false,
      "normalized": false,
      "special": true
    },
    {
      "id": 9,
      "content": "<|channel|>",
      "single_word": false,
      "lstrip": false,
      "rstrip": false,
      "normalized": false,
      "special": true
    },
    {
      "id": 10,
      "content": "<|start|>",
      "single_word": false,
      "lstrip": false,
      "rstrip": false,
      "normalized": false,
      "special": true
    },
    {
      "id": 11,
      "content": "<|end|>",
      "single_word": false,
      "lstrip": false,
      "rstrip": false,
      "normalized": false,
      "special": true
    },
    {
      "id": 12,
      "content": "<|message|>",
      "single_word": false,
      "lstrip": false,
      "rstrip": false,
      "normalized": false,
      "special": true
    },
    {
      "id": 13,
      "content": "<|call|>",
      "single_word": false,
      "lstrip": false,
      "rstrip": false,
      "normalized": false,
      "special": true
    },
    {
      "id": 14,
      "content": "<|reserved_006|>",
      "single_word": false,
      "lstrip": false,
      "rstrip": false,
      "normalized": false,
      "special": true
    },
    {
      "id": 15,
      "content": "<|reserved_007|>",
      "single_word": false,
      "lstrip": false,
      "rstrip": false,
      "normalized": false,
      "special": true
    },
    {
      "id": 16,
      "content": "<|reserved_008|>",
      "single_word": false,
      "lstrip": false,
      "rstrip": false,
      "normalized": false,
      "special": true
    },
    {
      "id": 17,
      "content": "<|reserved_009|>",
      "single_word": false,
      "lstrip": false,
      "rstrip": false,
      "normalized": false,
      "special": true
    },
    {
      "id": 18,
      "content": "<|reserved_010|>",
      "single_word": false,
      "lstrip": false,
      "rstrip": false,
      "normalized": false,
      "special": true
    },
    {
      "id": 19,
      "content": "<|reserved_011|>",
      "single_word": false,
      "lstrip": false,
      "rstrip": false,
      "normalized": false,
      "special": true
    },
    {
      "id": 20,
      "content": "<|reserved_012|>",
      "single_word": false,
      "lstrip": false,
      "rstrip": false,
      "normalized": false,
      "special": true
    },
    {
      "id": 21,
      "content": "<|reserved_013|>",
      "single_word": false,
      "lstrip": false,
      "rstrip": false,
      "normalized": false,
      "special": true
    },
    {
      "id": 22,
      "content": "<|reserved_014|>",
      "single_word": false,
      "lstrip": false,
      "rstrip": false,
      "normalized": false,
      "special": true
    },
    {
      "id": 23,
      "content": "<|reserved_015|>",
      "single_word": false,
      "lstrip": false,
      "rstrip": false,
      "normalized": false,
      "special": true
    },
    {
      "id": 24,
      "content": "<|reserved_016|>",
      "single_word": false,
      "lstrip": false,
      "rstrip": false,
      "normalized": false,
      "special": true
    },
    {
      "id": 25,
      "content": "<|reserved_017|>",
      "single_word": false,
      "lstrip": false,
      "rstrip": false,
      "normalized": false,
      "special": true
    },
    {
      "id": 26,
      "content": "<|reserved_018|>",
      "single_word": false,
      "lstrip": false,
      "rstrip": false,
      "normalized": false,
      "special": true
    },
    {
      "id": 27,
      "content": "<|reserved_019|>",
      "single_word": false,
      "lstrip": false,
      "rstrip": false,
      "normalized": false,
      "special": true
    },
    {
      "id": 28,
      "content": "<|reserved_020|>",
      "single_word": false,
      "lstrip": false,
      "rstrip": false,
      "normalized": false,
      "special": true
    },
    {
      "id": 29,
      "content": "<|reserved_021|>",
      "single_word": false,
      "lstrip": false,
      "rstrip": false,
      "normalized": false,
      "special": true
    },
    {
      "id": 30,
      "content": "<|reserved_022|>",
      "single_word": false,
      "lstrip": false,
      "rstrip": false,
      "normalized": false,
      "special": true
    },
    {
      "id": 31,
      "content": "<|reserved_023|>",
      "single_word": false,
      "lstrip": false,
      "rstrip": false,
      "normalized": false,
      "special": true
    },
    {
      "id": 32,
      "content": "<|reserved_024|>",
      "single_word": false,
      "lstrip": false,
      "rstrip": false,
      "normalized": false,
      "special": true
    },
    {
      "id": 33,
      "content": "<|reserved_025|>",
      "single_word": false,
      "lstrip": false,
      "rstrip": false,
      "normalized": false,
      "special": true
    },
    {
      "id": 34,
      "content": "<|reserved_026|>",
      "single_word": false,
      "lstrip": false,
      "rstrip": false,
      "normalized": false,
      "special": true
    },
    {
      "id": 35,
      "content": "<|reserved_027|>",
      "single_word": false,
      "lstrip": false,
      "rstrip": false,
      "normalized": false,
      "special": true
    },
    {
      "id": 36,
      "content": "<|reserved_028|>",
      "single_word": false,
      "lstrip": false,
      "rstrip": false,
      "normalized": false,
      "special": true
    },
    {
      "id": 37,
      "content": "<|reserved_029|>",
      "single_word": false,
      "lstrip": false,
      "rstrip": false,
      "normalized": false,
      "special": true
    },
    {
      "id": 38,
      "content": "<|reserved_030|>",
      "single_word": false,
      "lstrip": false,
      "rstrip": false,
      "normalized": false,
      "special": true
    },
    {
      "id": 39,
      "content": "<|reserved_031|>",
      "single_word": false,
      "lstrip": false,
      "rstrip": false,
      "normalized": false,
      "special": true
    },
    {
      "id": 40,
      "content": "<|reserved_032|>",
      "single_word": false,
      "lstrip": false,
      "rstrip": false,
      "normalized": false,
      "special": true
    },
    {
      "id": 41,
      "content": "<|reserved_033|>",
      "single_word": false,
      "lstrip": false,
      "rstrip": false,
      "normalized": false,
      "special": true
    },
    {
      "id": 42,
      "content": "<|reserved_034|>",
      "single_word": false,
      "lstrip": false,
      "rstrip": false,
      "normalized": false,
      "special": true
    },
    {
      "id": 43,
      "content": "<|reserved_035|>",
      "single_word": false,
      "lstrip": false,
      "rstrip": false,
      "normalized": false,
      "special": true
    },
    {
      "id": 44,
      "content": "<|reserved_036|>",
      "single_word": false,
      "lstrip": false,
      "rstrip": false,
      "normalized": false,
      "special": true
    },
    {
      "id": 45,
      "content": "<|reserved_037|>",
      "single_word": false,
      "lstrip": false,
      "rstrip": false,
      "normalized": false,
      "special": true
    },
    {
      "id": 46,
      "content": "<|reserved_038|>",
      "single_word": false,
      "lstrip": false,
      "rstrip": false,
      "normalized": false,
      "special": true
    },
    {
      "id": 47,
      "content": "<|reserved_039|>",
      "single_word": false,
      "lstrip": false,
      "rstrip": false,
      "normalized": false,
      "special": true
    },
    {
      "id": 48,
      "content": "<|reserved_040|>",
      "single_word": false,
      "lstrip": false,
      "rstrip": false,
      "normalized": false,
      "special": true
    },
    {
      "id": 49,
      "content": "<|reserved_041|>",
      "single_word": false,
      "lstrip": false,
      "rstrip": false,
      "normalized": false,
      "special": true
    },
    {
      "id": 50,
      "content": "<|reserved_042|>",
      "single_word": false,
      "lstrip": false,
      "rstrip": false,
      "normalized": false,
      "special": true
    },
    {
      "id": 51,
      "content": "<|reserved_043|>",
      "single_word": false,
      "lstrip": false,
      "rstrip": false,
      "normalized": false,
      "special": true
    },
    {
      "id": 52,
      "content": "<|reserved_044|>",
      "single_word": false,
      "lstrip": false,
      "rstrip": false,
      "normalized": false,
      "special": true
    },
    {
      "id": 53,
      "content": "<|reserved_045|>",
      "single_word": false,
      "lstrip": false,
      "rstrip": false,
      "normalized": false,
      "special": true
    },
    {
      "id": 54,
      "content": "<|reserved_046|>",
      "single_word": false,
      "lstrip": false,
      "rstrip": false,
      "normalized": false,
      "special": true
    },
    {
      "id": 55,
      "content": "<|reserved_047|>",
      "single_word": false,
      "lstrip": false,
      "rstrip": false,
      "normalized": false,
      "special": true
    },
    {
      "id": 56,
      "content": "<|reserved_048|>",
      "single_word": false,
      "lstrip": false,
      "rstrip": false,
      "normalized": false,
      "special": true
    },
    {
      "id": 57,
      "content": "<|reserved_049|>",
      "single_word": false,
      "lstrip": false,
      "rstrip": false,
      "normalized": false,
      "special": true
    },
    {
      "id": 58,
      "content": "<|reserved_050|>",
      "single_word": false,
      "lstrip": false,
      "rstrip": false,
      "normalized": false,
      "special": true
    },
    {
      "id": 59,
      "content": "<|reserved_051|>",
      "single_word": false,
      "lstrip": false,
      "rstrip": false,
      "normalized": false,
      "special": true
    },
    {
      "id": 60,
      "content": "<|reserved_052|>",
      "single_word": false,
      "lstrip": false,
      "rstrip": false,
      "normalized": false,
      "special": true
    },
    {
      "id": 61,
      "content": "<|reserved_053|>",
      "single_word": false,
      "lstrip": false,
      "rstrip": false,
      "normalized": false,
      "special": true
    },
    {
      "id": 62,
      "content": "<|reserved_054|>",
      "single_word": false,
      "lstrip": false,
      "rstrip": false,
      "normalized": false,
      "special": true
    },
    {
      "id": 63,
      "content": "<|reserved_055|>",
      "single_word": false,
      "lstrip": false,
      "rstrip": false,
      "normalized": false,
      "special": true
    },
    {
      "id": 64,
      "content": "<|reserved_056|>",
      "single_word": false,
      "lstrip": false,
      "rstrip": false,
      "normalized": false,
      "special": true
    },
    {
      "id": 65,
      "content": "<|reserved_057|>",
      "single_word": false,
      "lstrip": false,
      "rstrip": false,
      "normalized": false,
      "special": true
    },
    {
      "id": 66,
      "content": "<|reserved_058|>",
      "single_word": false,
      "lstrip": false,
      "rstrip": false,
      "normalized": false,
      "special": true
    },
    {
      "id": 67,
      "content": "<|reserved_059|>",
      "single_word": false,
      "lstrip": false,
      "rstrip": false,
      "normalized": false,
      "special": true
    },
    {
      "id": 68,
      "content": "<|reserved_060|>",
      "single_word": false,
      "lstrip": false,
      "rstrip": false,
      "normalized": false,
      "special": true
    },
    {
      "id": 69,
      "content": "<|reserved_061|>",
      "single_word": false,
      "lstrip": false,
      "rstrip": false,
      "normalized": false,
      "special": true
    },
    {
      "id": 70,
      "content": "<|reserved_062|>",
      "single_word": false,
      "lstrip": false,
      "rstrip": false,
      "normalized": false,
      "special": true
    },
    {
      "id": 71,
      "content": "<|reserved_063|>",
      "single_word": false,
      "lstrip": false,
      "rstrip": false,
      "normalized": false,
      "special": true
    },
    {
      "id": 72,
      "content": "<|reserved_064|>",
      "single_word": false,
      "lstrip": false,
      "rstrip": false,
      "normalized": false,
      "special": true
    },
    {
      "id": 73,
      "content": "<|reserved_065|>",
      "single_word": false,
      "lstrip": false,
      "rstrip": false,
      "normalized": false,
      "special": true
    },
    {
      "id": 74,
      "content": "<|reserved_066|>",
      "single_word": false,
      "lstrip": false,
      "rstrip": false,
      "normalized": false,
      "special": true
    },
    {
      "id": 75,
      "content": "<|reserved_067|>",
      "single_word": false,
      "lstrip": false,
      "rstrip": false,
      "normalized": false,
      "special": true
    },
    {
      "id": 76,
      "content": "<|reserved_068|>",
      "single_word": false,
      "lstrip": false,
      "rstrip": false,
      "normalized": false,
      "special": true
    },
    {
      "id": 77,
      "content": "<|reserved_069|>",
      "single_word": false,
      "lstrip": false,
      "rstrip": false,
      "normalized": false,
      "special": true
    },
    {
      "id": 78,
      "content": "<|reserved_070|>",
      "single_word": false,
      "lstrip": false,
      "rstrip": false,
      "normalized": false,
      "special": true
    },
    {
      "id": 79,
      "content": "<|reserved_071|>",
      "single_word": false,
      "lstrip": false,
      "rstrip": false,
      "normalized": false,
      "special": true
    },
    {
      "id": 80,
      "content": "<|reserved_072|>",
      "single_word": false,
      "lstrip": false,
      "rstrip": false,
      "normalized": false,
      "special": true
    },
    {
      "id": 81,
      "content": "<|reserved_073|>",
      "single_word": false,
      "lstrip": false,
      "rstrip": false,
      "normalized": false,
      "special": true
    },
    {
      "id": 82,
      "content": "<|reserved_074|>",
      "single_word": false,
      "lstrip": false,
      "rstrip": false,
      "normalized": false,
      "special": true
    },
    {
      "id": 83,
      "content": "<|reserved_075|>",
      "single_word": false,
      "lstrip": false,
      "rstrip": false,
      "normalized": false,
      "special": true
    },
    {
      "id": 84,
      "content": "<|reserved_076|>",
      "single_word": false,
      "lstrip": false,
      "rstrip": false,
      "normalized": false,
      "special": true
    },
    {
      "id": 85,
      "content": "<|reserved_077|>",
      "single_word": false,
      "lstrip": false,
      "rstrip": false,
      "normalized": false,
      "special": true
    },
    {
      "id": 86,
      "content": "<|reserved_078|>",
      "single_word": false,
      "lstrip": false,
      "rstrip": false,
      "normalized": false,
      "special": true
    },
    {
      "id": 87,
      "content": "<|reserved_079|>",
      "single_word": false,
      "lstrip": false,
      "rstrip": false,
      "normalized": false,
      "special": true
    },
    {
      "id": 88,
      "content": "<|reserved_080|>",
      "single_word": false,
      "lstrip": false,
      "rstrip": false,
      "normalized": false,
      "special": true
    },
    {
      "id": 89,
      "content": "<|reserved_081|>",
      "single_word": false,
      "lstrip": false,
      "rstrip": false,
      "normalized": false,
      "special": true
    },
    {
      "id": 90,
      "content": "<|reserved_082|>",
      "single_word": false,
      "lstrip": false,
      "rstrip": false,
      "normalized": false,
      "special": true
    },
    {
      "id": 91,
      "content": "<|reserved_083|>",
      "single_word": false,
      "lstrip": false,
      "rstrip": false,
      "normalized": false,
      "special": true
    },
    {
      "id": 92,
      "content": "<|reserved_084|>",
      "single_word": false,
      "lstrip": false,
      "rstrip": false,
      "normalized": false,
      "special": true
    },
    {
      "id": 93,
      "content": "<|reserved_085|>",
      "single_word": false,
      "lstrip": false,
      "rstrip": false,
      "normalized": false,
      "special": true
    },
    {
      "id": 94,
      "content": "<|reserved_086|>",
      "single_word": false,
      "lstrip": false,
      "rstrip": false,
      "normalized": false,
      "special": true
    },
    {
      "id": 95,
      "content": "<|reserved_087|>",
      "single_word": false,
      "lstrip": false,
      "rstrip": false,
      "normalized": false,
      "special": true
    },
    {
      "id": 96,
      "content": "<|reserved_088|>",
      "single_word": false,
      "lstrip": false,
      "rstrip": false,
      "normalized": false,
      "special": true
    },
    {
      "id": 97,
      "content": "<|reserved_089|>",
      "single_word": false,
      "lstrip": false,
      "rstrip": false,
      "normalized": false,
      "special": true
    },
    {
      "id": 98,
      "content": "<|reserved_090|>",
      "single_word": false,
      "lstrip": false,
      "rstrip": false,
      "normalized": false,
      "special": true
    },
    {
      "id": 99,
      "content": "<|reserved_091|>",
      "single_word": false,
      "lstrip": false,
      "rstrip": false,
      "normalized": false,
      "special": true
    },
    {
      "id": 100,
      "content": "<|reserved_092|>",
      "single_word": false,
      "lstrip": false,
      "rstrip": false,
      "normalized": false,
      "special": true
    },
    {
      "id": 101,
      "content": "<|reserved_093|>",
      "single_word": false,
      "lstrip": false,
      "rstrip": false,
      "normalized": false,
      "special": true
    },
    {
      "id": 102,
      "content": "<|reserved_094|>",
      "single_word": false,
      "lstrip": false,
      "rstrip": false,
      "normalized": false,
      "special": true
    },
    {
      "id": 103,
      "content": "<|reserved_095|>",
      "single_word": false,
      "lstrip": false,
      "rstrip": false,
      "normalized": false,
      "special": true
    },
    {
      "id": 104,
      "content": "<|reserved_096|>",
      "single_word": false,
      "lstrip": false,
      "rstrip": false,
      "normalized": false,
      "special": true
    },
    {
      "id": 105,
      "content": "<|reserved_097|>",
      "single_word": false,
      "lstrip": false,
      "rstrip": false,
      "normalized": false,
      "special": true
    },
    {
      "id": 106,
      "content": "<|reserved_098|>",
      "single_word": false,
      "lstrip": false,
      "rstrip": false,
      "normalized": false,
      "special": true
    },
    {
      "id": 107,
      "content": "<|reserved_099|>",
      "single_word": false,
      "lstrip": false,
      "rstrip": false,
      "normalized": false,
      "special": true
    },
    {
      "id": 108,
      "content": "<|reserved_100|>",
      "single_word": false,
      "lstrip": false,
      "rstrip": false,
      "normalized": false,
      "special": true
    },
    {
      "id": 109,
      "content": "<|reserved_101|>",
      "single_word": false,
      "lstrip": false,
      "rstrip": false,
      "normalized": false,
      "special": true
    },
    {
      "id": 110,
      "content": "<|reserved_102|>",
      "single_word": false,
      "lstrip": false,
      "rstrip": false,
      "normalized": false,
      "special": true
    },
    {
      "id": 111,
      "content": "<|reserved_103|>",
      "single_word": false,
      "lstrip": false,
      "rstrip": false,
      "normalized": false,
      "special": true
    },
    {
      "id": 112,
      "content": "<|reserved_104|>",
      "single_word": false,
      "lstrip": false,
      "rstrip": false,
      "normalized": false,
      "special": true
    },
    {
      "id": 113,
      "content": "<|reserved_105|>",
      "single_word": false,
      "lstrip": false,
      "rstrip": false,
      "normalized": false,
      "special": true
    },
    {
      "id": 114,
      "content": "<|reserved_106|>",
      "single_word": false,
      "lstrip": false,
      "rstrip": false,
      "normalized": false,
      "special": true
    },
    {
      "id": 115,
      "content": "<|reserved_107|>",
      "single_word": false,
      "lstrip": false,
      "rstrip": false,
      "normalized": false,
      "special": true
    },
    {
      "id": 116,
      "content": "<|reserved_108|>",
      "single_word": false,
      "lstrip": false,
      "rstrip": false,
      "normalized": false,
      "special": true
    },
    {
      "id": 117,
      "content": "<|reserved_109|>",
      "single_word": false,
      "lstrip": false,
      "rstrip": false,
      "normalized": false,
      "special": true
    },
    {
      "id": 118,
      "content": "<|reserved_110|>",
      "single_word": false,
      "lstrip": false,
      "rstrip": false,
      "normalized": false,
      "special": true
    },
    {
      "id": 119,
      "content": "<|reserved_111|>",
      "single_word": false,
      "lstrip": false,
      "rstrip": false,
      "normalized": false,
      "special": true
    },
    {
      "id": 120,
      "content": "<|reserved_112|>",
      "single_word": false,
      "lstrip": false,
      "rstrip": false,
      "normalized": false,
      "special": true
    },
    {
      "id": 121,
      "content": "<|reserved_113|>",
      "single_word": false,
      "lstrip": false,
      "rstrip": false,
      "normalized": false,
      "special": true
    },
    {
      "id": 122,
      "content": "<|reserved_114|>",
      "single_word": false,
      "lstrip": false,
      "rstrip": false,
      "normalized": false,
      "special": true
    },
    {
      "id": 123,
      "content": "<|reserved_115|>",
      "single_word": false,
      "lstrip": false,
      "rstrip": false,
      "normalized": false,
      "special": true
    },
    {
      "id": 124,
      "content": "<|reserved_116|>",
      "single_word": false,
      "lstrip": false,
      "rstrip": false,
      "normalized": false,
      "special": true
    },
    {
      "id": 125,
      "content": "<|reserved_117|>",
      "single_word": false,
      "lstrip": false,
      "rstrip": false,
      "normalized": false,
      "special": true
    },
    {
      "id": 126,
      "content": "<|reserved_118|>",
      "single_word": false,
      "lstrip": false,
      "rstrip": false,
      "normalized": false,
      "special": true
    },
    {
      "id": 127,
      "content": "<|reserved_119|>",
      "single_word": false,
      "lstrip": false,
      "rstrip": false,
      "normalized": false,
      "special": true
    },
    {
      "id": 128,
      "content": "<|reserved_120|>",
      "single_word": false,
      "lstrip": false,
      "rstrip": false,
      "normalized": false,
      "special": true
    },
    {
      "id": 129,
      "content": "<|reserved_121|>",
      "single_word": false,
      "lstrip": false,
      "rstrip": false,
      "normalized": false,
      "special": true
    },
    {
      "id": 130,
      "content": "<|reserved_122|>",
      "single_word": false,
      "lstrip": false,
      "rstrip": false,
      "normalized": false,
      "special": true
    },
    {
      "id": 131,
      "content": "<|reserved_123|>",
      "single_word": false,
      "lstrip": false,
      "rstrip": false,
      "normalized": false,
      "special": true
    },
    {
      "id": 132,
      "content": "<|reserved_124|>",
      "single_word": false,
      "lstrip": false,
      "rstrip": false,
      "normalized": false,
      "special": true
    },
    {
      "id": 133,
      "content": "<|reserved_125|>",
      "single_word": false,
      "lstrip": false,
      "rstrip": false,
      "normalized": false,
      "special": true
    },
    {
      "id": 134,
      "content": "<|reserved_126|>",
      "single_word": false,
      "lstrip": false,
      "rstrip": false,
      "normalized": false,
      "special": true
    },
    {
      "id": 135,
      "content": "<|reserved_127|>",
      "single_word": false,
      "lstrip": false,
      "rstrip": false,
      "normalized": false,
      "special": true
    },
    {
      "id": 136,
      "content": "<|reserved_128|>",
      "single_word": false,
      "lstrip": false,
      "rstrip": false,
      "normalized": false,
      "special": true
    },
    {
      "id": 137,
      "content": "<|reserved_129|>",
      "single_word": false,
      "lstrip": false,
      "rstrip": false,
      "normalized": false,
      "special": true
    },
    {
      "id": 138,
      "content": "<|reserved_130|>",
      "single_word": false,
      "lstrip": false,
      "rstrip": false,
      "normalized": false,
      "special": true
    },
    {
      "id": 139,
      "content": "<|reserved_131|>",
      "single_word": false,
      "lstrip": false,
      "rstrip": false,
      "normalized": false,
      "special": true
    },
    {
      "id": 140,
      "content": "<|reserved_132|>",
      "single_word": false,
      "lstrip": false,
      "rstrip": false,
      "normalized": false,
      "special": true
    },
    {
      "id": 141,
      "content": "<|reserved_133|>",
      "single_word": false,
      "lstrip": false,
      "rstrip": false,
      "normalized": false,
      "special": true
    },
    {
      "id": 142,
      "content": "<|reserved_134|>",
      "single_word": false,
      "lstrip": false,
      "rstrip": false,
      "normalized": false,
      "special": true
    },
    {
      "id": 143,
      "content": "<|reserved_135|>",
      "single_word": false,
      "lstrip": false,
      "rstrip": false,
      "normalized": false,
      "special": true
    },
    {
      "id": 144,
      "content": "<|reserved_136|>",
      "single_word": false,
      "lstrip": false,
      "rstrip": false,
      "normalized": false,
      "special": true
    },
    {
      "id": 145,
      "content": "<|reserved_137|>",
      "single_word": false,
      "lstrip": false,
      "rstrip": false,
      "normalized": false,
      "special": true
    },
    {
      "id": 146,
      "content": "<|reserved_138|>",
      "single_word": false,
      "lstrip": false,
      "rstrip": false,
      "normalized": false,
      "special": true
    },
    {
      "id": 147,
      "content": "<|reserved_139|>",
      "single_word": false,
      "lstrip": false,
      "rstrip": false,
      "normalized": false,
      "special": true
    },
    {
      "id": 148,
      "content": "<|reserved_140|>",
      "single_word": false,
      "lstrip": false,
      "rstrip": false,
      "normalized": false,
      "special": true
    },
    {
      "id": 149,
      "content": "<|reserved_141|>",
      "single_word": false,
      "lstrip": false,
      "rstrip": false,
      "normalized": false,
      "special": true
    },
    {
      "id": 150,
      "content": "<|reserved_142|>",
      "single_word": false,
      "lstrip": false,
      "rstrip": false,
      "normalized": false,
      "special": true
    },
    {
      "id": 151,
      "content": "<|reserved_143|>",
      "single_word": false,
      "lstrip": false,
      "rstrip": false,
      "normalized": false,
      "special": true
    },
    {
      "id": 152,
      "content": "<|reserved_144|>",
      "single_word": false,
      "lstrip": false,
      "rstrip": false,
      "normalized": false,
      "special": true
    },
    {
      "id": 153,
      "content": "<|reserved_145|>",
      "single_word": false,
      "lstrip": false,
      "rstrip": false,
      "normalized": false,
      "special": true
    },
    {
      "id": 154,
      "content": "<|reserved_146|>",
      "single_word": false,
      "lstrip": false,
      "rstrip": false,
      "normalized": false,
      "special": true
    },
    {
      "id": 155,
      "content": "<|reserved_147|>",
      "single_word": false,
      "lstrip": false,
      "rstrip": false,
      "normalized": false,
      "special": true
    },
    {
      "id": 156,
      "content": "<|reserved_148|>",
      "single_word": false,
      "lstrip": false,
      "rstrip": false,
      "normalized": false,
      "special": true
    },
    {
      "id": 157,
      "content": "<|reserved_149|>",
      "single_word": false,
      "lstrip": false,
      "rstrip": false,
      "normalized": false,
      "special": true
    },
    {
      "id": 158,
      "content": "<|reserved_150|>",
      "single_word": false,
      "lstrip": false,
      "rstrip": false,
      "normalized": false,
      "special": true
    },
    {
      "id": 159,
      "content": "<|reserved_151|>",
      "single_word": false,
      "lstrip": false,
      "rstrip": false,
      "normalized": false,
      "special": true
    },
    {
      "id": 160,
      "content": "<|reserved_152|>",
      "single_word": false,
      "lstrip": false,
      "rstrip": false,
      "normalized": false,
      "special": true
    },
    {
      "id": 161,
      "content": "<|reserved_153|>",
      "single_word": false,
      "lstrip": false,
      "rstrip": false,
      "normalized": false,
      "special": true
    },
    {
      "id": 162,
      "content": "<|reserved_154|>",
      "single_word": false,
      "lstrip": false,
      "rstrip": false,
      "normalized": false,
      "special": true
    },
    {
      "id": 163,
      "content": "<|reserved_155|>",
      "single_word": false,
      "lstrip": false,
      "rstrip": false,
      "normalized": false,
      "special": true
    },
    {
      "id": 164,
      "content": "<|reserved_156|>",
      "single_word": false,
      "lstrip": false,
      "rstrip": false,
      "normalized": false,
      "special": true
    },
    {
      "id": 165,
      "content": "<|reserved_157|>",
      "single_word": false,
      "lstrip": false,
      "rstrip": false,
      "normalized": false,
      "special": true
    },
    {
      "id": 166,
      "content": "<|reserved_158|>",
      "single_word": false,
      "lstrip": false,
      "rstrip": false,
      "normalized": false,
      "special": true
    },
    {
      "id": 167,
      "content": "<|reserved_159|>",
      "single_word": false,
      "lstrip": false,
      "rstrip": false,
      "normalized": false,
      "special": true
    },
    {
      "id": 168,
      "content": "<|reserved_160|>",
      "single_word": false,
      "lstrip": false,
      "rstrip": false,
      "normalized": false,
      "special": true
    },
    {
      "id": 169,
      "content": "<|reserved_161|>",
      "single_word": false,
      "lstrip": false,
      "rstrip": false,
      "normalized": false,
      "special": true
    },
    {
      "id": 170,
      "content": "<|reserved_162|>",
      "single_word": false,
      "lstrip": false,
      "rstrip": false,
      "normalized": false,
      "special": true
    },
    {
      "id": 171,
      "content": "<|reserved_163|>",
      "single_word": false,
      "lstrip": false,
      "rstrip": false,
      "normalized": false,
      "special": true
    },
    {
      "id": 172,
      "content": "<|reserved_164|>",
      "single_word": false,
      "lstrip": false,
      "rstrip": false,
      "normalized": false,
      "special": true
    },
    {
      "id": 173,
      "content": "<|reserved_165|>",
      "single_word": false,
      "lstrip": false,
      "rstrip": false,
      "normalized": false,
      "special": true
    },
    {
      "id": 174,
      "content": "<|reserved_166|>",
      "single_word": false,
      "lstrip": false,
      "rstrip": false,
      "normalized": false,
      "special": true
    },
    {
      "id": 175,
      "content": "<|reserved_167|>",
      "single_word": false,
      "lstrip": false,
      "rstrip": false,
      "normalized": false,
      "special": true
    },
    {
      "id": 176,
      "content": "<|reserved_168|>",
      "single_word": false,
      "lstrip": false,
      "rstrip": false,
      "normalized": false,
      "special": true
    },
    {
      "id": 177,
      "content": "<|reserved_169|>",
      "single_word": false,
      "lstrip": false,
      "rstrip": false,
      "normalized": false,
      "special": true
    },
    {
      "id": 178,
      "content": "<|reserved_170|>",
      "single_word": false,
      "lstrip": false,
      "rstrip": false,
      "normalized": false,
      "special": true
    },
    {
      "id": 179,
      "content": "<|reserved_171|>",
      "single_word": false,
      "lstrip": false,
      "rstrip": false,
      "normalized": false,
      "special": true
    },
    {
      "id": 180,
      "content": "<|reserved_172|>",
      "single_word": false,
      "lstrip": false,
      "rstrip": false,
      "normalized": false,
      "special": true
    },
    {
      "id": 181,
      "content": "<|reserved_173|>",
      "single_word": false,
      "lstrip": false,
      "rstrip": false,
      "normalized": false,
      "special": true
    },
    {
      "id": 182,
      "content": "<|reserved_174|>",
      "single_word": false,
      "lstrip": false,
      "rstrip": false,
      "normalized": false,
      "special": true
    },
    {
      "id": 183,
      "content": "<|reserved_175|>",
      "single_word": false,
      "lstrip": false,
      "rstrip": false,
      "normalized": false,
      "special": true
    },
    {
      "id": 184,
      "content": "<|reserved_176|>",
      "single_word": false,
      "lstrip": false,
      "rstrip": false,
      "normalized": false,
      "special": true
    },
    {
      "id": 185,
      "content": "<|reserved_177|>",
      "single_word": false,
      "lstrip": false,
      "rstrip": false,
      "normalized": false,
      "special": true
    },
    {
      "id": 186,
      "content": "<|reserved_178|>",
      "single_word": false,
      "lstrip": false,
      "rstrip": false,
      "normalized": false,
      "special": true
    },
    {
      "id": 187,
      "content": "<|reserved_179|>",
      "single_word": false,
      "lstrip": false,
      "rstrip": false,
      "normalized": false,
      "special": true
    },
    {
      "id": 188,
      "content": "<|reserved_180|>",
      "single_word": false,
      "lstrip": false,
      "rstrip": false,
      "normalized": false,
      "special": true
    },
    {
      "id": 189,
      "content": "<|reserved_181|>",
      "single_word": false,
      "lstrip": false,
      "rstrip": false,
      "normalized": false,
      "special": true
    },
    {
      "id": 190,
      "content": "<|reserved_182|>",
      "single_word": false,
      "lstrip": false,
      "rstrip": false,
      "normalized": false,
      "special": true
    },
    {
      "id": 191,
      "content": "<|reserved_183|>",
      "single_word": false,
      "lstrip": false,
      "rstrip": false,
      "normalized": false,
      "special": true
    },
    {
      "id": 192,
      "content": "<|reserved_184|>",
      "single_word": false,
      "lstrip": false,
      "rstrip": false,
      "normalized": false,
      "special": true
    },
    {
      "id": 193,
      "content": "<|reserved_185|>",
      "single_word": false,
      "lstrip": false,
      "rstrip": false,
      "normalized": false,
      "special": true
    },
    {
      "id": 194,
      "content": "<|reserved_186|>",
      "single_word": false,
      "lstrip": false,
      "rstrip": false,
      "normalized": false,
      "special": true
    },
    {
      "id": 195,
      "content": "<|reserved_187|>",
      "single_word": false,
      "lstrip": false,
      "rstrip": false,
      "normalized": false,
      "special": true
    },
    {
      "id": 196,
      "content": "<|reserved_188|>",
      "single_word": false,
      "lstrip": false,
      "rstrip": false,
      "normalized": false,
      "special": true
    },
    {
      "id": 197,
      "content": "<|reserved_189|>",
      "single_word": false,
      "lstrip": false,
      "rstrip": false,
      "normalized": false,
      "special": true
    },
    {
      "id": 198,
      "content": "<|reserved_190|>",
      "single_word": false,
      "lstrip": false,
      "rstrip": false,
      "normalized": false,
      "special": true
    },
    {
      "id": 199,
      "content": "<|reserved_191|>",
      "single_word": false,
      "lstrip": false,
      "rstrip": false,
      "normalized": false,
      "special": true
    },
    {
      "id": 200,
      "content": "<|reserved_192|>",
      "single_word": false,
      "lstrip": false,
      "rstrip": false,
      "normalized": false,
      "special": true
    },
    {
      "id": 201,
      "content": "<|reserved_193|>",
      "single_word": false,
      "lstrip": false,
      "rstrip": false,
      "normalized": false,
      "special": true
    },
    {
      "id": 202,
      "content": "<|reserved_194|>",
      "single_word": false,
      "lstrip": false,
      "rstrip": false,
      "normalized": false,
      "special": true
    },
    {
      "id": 203,
      "content": "<|reserved_195|>",
      "single_word": false,
      "lstrip": false,
      "rstrip": false,
      "normalized": false,
      "special": true
    },
    {
      "id": 204,
      "content": "<|reserved_196|>",
      "single_word": false,
      "lstrip": false,
      "rstrip": false,
      "normalized": false,
      "special": true
    },
    {
      "id": 205,
      "content": "<|reserved_197|>",
      "single_word": false,
      "lstrip": false,
      "rstrip": false,
      "normalized": false,
      "special": true
    },
    {
      "id": 206,
      "content": "<|reserved_198|>",
      "single_word": false,
      "lstrip": false,
      "rstrip": false,
      "normalized": false,
      "special": true
    },
    {
      "id": 207,
      "content": "<|reserved_199|>",
      "single_word": false,
      "lstrip": false,
      "rstrip": false,
      "normalized": false,
      "special": true
    },
    {
      "id": 208,
      "content": "<|reserved_200|>",
      "single_word": false,
      "lstrip": false,
      "rstrip": false,
      "normalized": false,
      "special": true
    },
    {
      "id": 209,
      "content": "<|reserved_201|>",
      "single_word": false,
      "lstrip": false,
      "rstrip": false,
      "normalized": false,
      "special": true
    },
    {
      "id": 210,
      "content": "<|reserved_202|>",
      "single_word": false,
      "lstrip": false,
      "rstrip": false,
      "normalized": false,
      "special": true
    },
    {
      "id": 211,
      "content": "<|reserved_203|>",
      "single_word": false,
      "lstrip": false,
      "rstrip": false,
      "normalized": false,
      "special": true
    },
    {
      "id": 212,
      "content": "<|reserved_204|>",
      "single_word": false,
      "lstrip": false,
      "rstrip": false,
      "normalized": false,
      "special": true
    },
    {
      "id": 213,
      "content": "<|reserved_205|>",
      "single_word": false,
      "lstrip": false,
      "rstrip": false,
      "normalized": false,
      "special": true
    },
    {
      "id": 214,
      "content": "<|reserved_206|>",
      "single_word": false,
      "lstrip": false,
      "rstrip": false,
      "normalized": false,
      "special": true
    },
    {
      "id": 215,
      "content": "<|reserved_207|>",
      "single_word": false,
      "lstrip": false,
      "rstrip": false,
      "normalized": false,
      "special": true
    },
    {
      "id": 216,
      "content": "<|reserved_208|>",
      "single_word": false,
      "lstrip": false,
      "rstrip": false,
      "normalized": false,
      "special": true
    },
    {
      "id": 217,
      "content": "<|reserved_209|>",
      "single_word": false,
      "lstrip": false,
      "rstrip": false,
      "normalized": false,
      "special": true
    },
    {
      "id": 218,
      "content": "<|reserved_210|>",
      "single_word": false,
      "lstrip": false,
      "rstrip": false,
      "normalized": false,
      "special": true
    },
    {
      "id": 219,
      "content": "<|reserved_211|>",
      "single_word": false,
      "lstrip": false,
      "rstrip": false,
      "normalized": false,
      "special": true
    },
    {
      "id": 220,
      "content": "<|reserved_212|>",
      "single_word": false,
      "lstrip": false,
      "rstrip": false,
      "normalized": false,
      "special": true
    },
    {
      "id": 221,
      "content": "<|reserved_213|>",
      "single_word": false,
      "lstrip": false,
      "rstrip": false,
      "normalized": false,
      "special": true
    },
    {
      "id": 222,
      "content": "<|reserved_214|>",
      "single_word": false,
      "lstrip": false,
      "rstrip": false,
      "normalized": false,
      "special": true
    },
    {
      "id": 223,
      "content": "<|reserved_215|>",
      "single_word": false,
      "lstrip": false,
      "rstrip": false,
      "normalized": false,
      "special": true
    },
    {
      "id": 224,
      "content": "<|reserved_216|>",
      "single_word": false,
      "lstrip": false,
      "rstrip": false,
      "normalized": false,
      "special": true
    },
    {
      "id": 225,
      "content": "<|reserved_217|>",
      "single_word": false,
      "lstrip": false,
      "rstrip": false,
      "normalized": false,
      "special": true
    },
    {
      "id": 226,
      "content": "<|reserved_218|>",
      "single_word": false,
      "lstrip": false,
      "rstrip": false,
      "normalized": false,
      "special": true
    },
    {
      "id": 227,
      "content": "<|reserved_219|>",
      "single_word": false,
      "lstrip": false,
      "rstrip": false,
      "normalized": false,
      "special": true
    },
    {
      "id": 228,
      "content": "<|reserved_220|>",
      "single_word": false,
      "lstrip": false,
      "rstrip": false,
      "normalized": false,
      "special": true
    },
    {
      "id": 229,
      "content": "<|reserved_221|>",
      "single_word": false,
      "lstrip": false,
      "rstrip": false,
      "normalized": false,
      "special": true
    },
    {
      "id": 230,
      "content": "<|reserved_222|>",
      "single_word": false,
      "lstrip": false,
      "rstrip": false,
      "normalized": false,
      "special": true
    },
    {
      "id": 231,
      "content": "<|reserved_223|>",
      "single_word": false,
      "lstrip": false,
      "rstrip": false,
      "normalized": false,
      "special": true
    },
    {
      "id": 232,
      "content": "<|reserved_224|>",
      "single_word": false,
      "lstrip": false,
      "rstrip": false,
      "normalized": false,
      "special": true
    },
    {
      "id": 233,
      "content": "<|reserved_225|>",
      "single_word": false,
      "lstrip": false,
      "rstrip": false,
      "normalized": false,
      "special": true
    },
    {
      "id": 234,
      "content": "<|reserved_226|>",
      "single_word": false,
      "lstrip": false,
      "rstrip": false,
      "normalized": false,
      "special": true
    },
    {
      "id": 235,
      "content": "<|reserved_227|>",
      "single_word": false,
      "lstrip": false,
      "rstrip": false,
      "normalized": false,
      "special": true
    },
    {
      "id": 236,
      "content": "<|reserved_228|>",
      "single_word": false,
      "lstrip": false,
      "rstrip": false,
      "normalized": false,
      "special": true
    },
    {
      "id": 237,
      "content": "<|reserved_229|>",
      "single_word": false,
      "lstrip": false,
      "rstrip": false,
      "normalized": false,
      "special": true
    },
    {
      "id": 238,
      "content": "<|reserved_230|>",
      "single_word": false,
      "lstrip": false,
      "rstrip": false,
      "normalized": false,
      "special": true
    },
    {
      "id": 239,
      "content": "<|reserved_231|>",
      "single_word": false,
      "lstrip": false,
      "rstrip": false,
      "normalized": false,
      "special": true
    },
    {
      "id": 240,
      "content": "<|reserved_232|>",
      "single_word": false,
      "lstrip": false,
      "rstrip": false,
      "normalized": false,
      "special": true
    },
    {
      "id": 241,
      "content": "<|reserved_233|>",
      "single_word": false,
      "lstrip": false,
      "rstrip": false,
      "normalized": false,
      "special": true
    },
    {
      "id": 242,
      "content": "<|reserved_234|>",
      "single_word": false,
      "lstrip": false,
      "rstrip": false,
      "normalized": false,
      "special": true
    },
    {
      "id": 243,
      "content": "<|reserved_235|>",
      "single_word": false,
      "lstrip": false,
      "rstrip": false,
      "normalized": false,
      "special": true
    },
    {
      "id": 244,
      "content": "<|reserved_236|>",
      "single_word": false,
      "lstrip": false,
      "rstrip": false,
      "normalized": false,
      "special": true
    },
    {
      "id": 245,
      "content": "<|reserved_237|>",
      "single_word": false,
      "lstrip": false,
      "rstrip": false,
      "normalized": false,
      "special": true
    },
    {
      "id": 246,
      "content": "<|reserved_238|>",
      "single_word": false,
      "lstrip": false,
      "rstrip": false,
      "normalized": false,
      "special": true
    },
    {
      "id": 247,
      "content": "<|reserved_239|>",
      "single_word": false,
      "lstrip": false,
      "rstrip": false,
      "normalized": false,
      "special": true
    },
    {
      "id": 248,
      "content": "<|reserved_240|>",
      "single_word": false,
      "lstrip": false,
      "rstrip": false,
      "normalized": false,
      "special": true
    },
    {
      "id": 249,
      "content": "<|reserved_241|>",
      "single_word": false,
      "lstrip": false,
      "rstrip": false,
      "normalized": false,
      "special": true
    },
    {
      "id": 250,
      "content": "<|reserved_242|>",
      "single_word": false,
      "lstrip": false,
      "rstrip": false,
      "normalized": false,
      "special": true
    },
    {
      "id": 251,
      "content": "<|reserved_243|>",
      "single_word": false,
      "lstrip": false,
      "rstrip": false,
      "normalized": false,
      "special": true
    },
    {
      "id": 252,
      "content": "<|reserved_244|>",
      "single_word": false,
      "lstrip": false,
      "rstrip": false,
      "normalized": false,
      "special": true
    },
    {
      "id": 253,
      "content": "<|reserved_245|>",
      "single_word": false,
      "lstrip": false,
      "rstrip": false,
      "normalized": false,
      "special": true
    },
    {
      "id": 254,
      "content": "<|reserved_246|>",
      "single_word": false,
      "lstrip": false,
      "rstrip": false,
      "normalized": false,
      "special": true
    },
    {
      "id": 255,
      "content": "<|reserved_247|>",
      "single_word": false,
      "lstrip": false,
      "rstrip": false,
      "normalized": false,
      "special": true
    },
    {
      "id": 256,
      "content": "<|reserved_248|>",
      "single_word": false,
      "lstrip": false,
      "rstrip": false,
      "normalized": false,
      "special": true
    },
    {
      "id": 257,
      "content": "<|reserved_249|>",
      "single_word": false,
      "lstrip": false,
      "rstrip": false,
      "normalized": false,
      "special": true
    },
    {
      "id": 258,
      "content": "<|reserved_250|>",
      "single_word": false,
      "lstrip": false,
      "rstrip": false,
      "normalized": false,
      "special": true
    },
    {
      "id": 259,
      "content": "<|reserved_251|>",
      "single_word": false,
      "lstrip": false,
      "rstrip": false,
      "normalized": false,
      "special": true
    },
    {
      "id": 260,
      "content": "<|reserved_252|>",
      "single_word": false,
      "lstrip": false,
      "rstrip": false,
      "normalized": false,
      "special": true
    },
    {
      "id": 261,
      "content": "<|reserved_253|>",
      "single_word": false,
      "lstrip": false,
      "rstrip": false,
      "normalized": false,
      "special": true
    },
    {
      "id": 262,
      "content": "<|reserved_254|>",
      "single_word": false,
      "lstrip": false,
      "rstrip": false,
      "normalized": false,
      "special": true
    },
    {
      "id": 263,
      "content": "<|reserved_255|>",
      "single_word": false,
      "lstrip": false,
      "rstrip": false,
      "normalized": false,
      "special": true
    },
    {
      "id": 264,
      "content": "<|reserved_256|>",
      "single_word": false,
      "lstrip": false,
      "rstrip": false,
      "normalized": false,
      "special": true
    },
    {
      "id": 265,
      "content": "<|reserved_257|>",
      "single_word": false,
      "lstrip": false,
      "rstrip": false,
      "normalized": false,
      "special": true
    },
    {
      "id": 266,
      "content": "<|reserved_258|>",
      "single_word": false,
      "lstrip": false,
      "rstrip": false,
      "normalized": false,
      "special": true
    },
    {
      "id": 267,
      "content": "<|reserved_259|>",
      "single_word": false,
      "lstrip": false,
      "rstrip": false,
      "normalized": false,
      "special": true
    },
    {
      "id": 268,
      "content": "<|reserved_260|>",
      "single_word": false,
      "lstrip": false,
      "rstrip": false,
      "normalized": false,
      "special": true
    },
    {
      "id": 269,
      "content": "<|reserved_261|>",
      "single_word": false,
      "lstrip": false,
      "rstrip": false,
      "normalized": false,
      "special": true
    },
    {
      "id": 270,
      "content": "<|reserved_262|>",
      "single_word": false,
      "lstrip": false,
      "rstrip": false,
      "normalized": false,
      "special": true
    },
    {
      "id": 271,
      "content": "<|reserved_263|>",
      "single_word": false,
      "lstrip": false,
      "rstrip": false,
      "normalized": false,
      "special": true
    },
    {
      "id": 272,
      "content": "<|reserved_264|>",
      "single_word": false,
      "lstrip": false,
      "rstrip": false,
      "normalized": false,
      "special": true
    },
    {
      "id": 273,
      "content": "<|reserved_265|>",
      "single_word": false,
      "lstrip": false,
      "rstrip": false,
      "normalized": false,
      "special": true
    },
    {
      "id": 274,
      "content": "<|reserved_266|>",
      "single_word": false,
      "lstrip": false,
      "rstrip": false,
      "normalized": false,
      "special": true
    },
    {
      "id": 275,
      "content": "<|reserved_267|>",
      "single_word": false,
      "lstrip": false,
      "rstrip": false,
      "normalized": false,
      "special": true
    },
    {
      "id": 276,
      "content": "<|reserved_268|>",
      "single_word": false,
      "lstrip": false,
      "rstrip": false,
      "normalized": false,
      "special": true
    },
    {
      "id": 277,
      "content": "<|reserved_269|>",
      "single_word": false,
      "lstrip": false,
      "rstrip": false,
      "normalized": false,
      "special": true
    },
    {
      "id": 278,
      "content": "<|reserved_270|>",
      "single_word": false,
      "lstrip": false,
      "rstrip": false,
      "normalized": false,
      "special": true
    },
    {
      "id": 279,
      "content": "<|reserved_271|>",
      "single_word": false,
      "lstrip": false,
      "rstrip": false,
      "normalized": false,
      "special": true
    },
    {
      "id": 280,
      "content": "<|reserved_272|>",
      "single_word": false,
      "lstrip": false,
      "rstrip": false,
      "normalized": false,
      "special": true
    },
    {
      "id": 281,
      "content": "<|reserved_273|>",
      "single_word": false,
      "lstrip": false,
      "rstrip": false,
      "normalized": false,
      "special": true
    },
    {
      "id": 282,
      "content": "<|reserved_274|>",
      "single_word": false,
      "lstrip": false,
      "rstrip": false,
      "normalized": false,
      "special": true
    },
    {
      "id": 283,
      "content": "<|reserved_275|>",
      "single_word": false,
      "lstrip": false,
      "rstrip": false,
      "normalized": false,
      "special": true
    },
    {
      "id": 284,
      "content": "<|reserved_276|>",
      "single_word": false,
      "lstrip": false,
      "rstrip": false,
      "normalized": false,
      "special": true
    },
    {
      "id": 285,
      "content": "<|reserved_277|>",
      "single_word": false,
      "lstrip": false,
      "rstrip": false,
      "normalized": false,
      "special": true
    },
    {
      "id": 286,
      "content": "<|reserved_278|>",
      "single_word": false,
      "lstrip": false,
      "rstrip": false,
      "normalized": false,
      "special": true
    },
    {
      "id": 287,
      "content": "<|reserved_279|>",
      "single_word": false,
      "lstrip": false,
      "rstrip": false,
      "normalized": false,
      "special": true
    },
    {
      "id": 288,
      "content": "<|reserved_280|>",
      "single_word": false,
      "lstrip": false,
      "rstrip": false,
      "normalized": false,
      "special": true
    },
    {
      "id": 289,
      "content": "<|reserved_281|>",
      "single_word": false,
      "lstrip": false,
      "rstrip": false,
      "normalized": false,
      "special": true
    },
    {
      "id": 290,
      "content": "<|reserved_282|>",
      "single_word": false,
      "lstrip": false,
      "rstrip": false,
      "normalized": false,
      "special": true
    },
    {
      "id": 291,
      "content": "<|reserved_283|>",
      "single_word": false,
      "lstrip": false,
      "rstrip": false,
      "normalized": false,
      "special": true
    },
    {
      "id": 292,
      "content": "<|reserved_284|>",
      "single_word": false,
      "lstrip": false,
      "rstrip": false,
      "normalized": false,
      "special": true
    },
    {
      "id": 293,
      "content": "<|reserved_285|>",
      "single_word": false,
      "lstrip": false,
      "rstrip": false,
      "normalized": false,
      "special": true
    },
    {
      "id": 294,
      "content": "<|reserved_286|>",
      "single_word": false,
      "lstrip": false,
      "rstrip": false,
      "normalized": false,
      "special": true
    },
    {
      "id": 295,
      "content": "<|reserved_287|>",
      "single_word": false,
      "lstrip": false,
      "rstrip": false,
      "normalized": false,
      "special": true
    },
    {
      "id": 296,
      "content": "<|reserved_288|>",
      "single_word": false,
      "lstrip": false,
      "rstrip": false,
      "normalized": false,
      "special": true
    },
    {
      "id": 297,
      "content": "<|reserved_289|>",
      "single_word": false,
      "lstrip": false,
      "rstrip": false,
      "normalized": false,
      "special": true
    },
    {
      "id": 298,
      "content": "<|reserved_290|>",
      "single_word": false,
      "lstrip": false,
      "rstrip": false,
      "normalized": false,
      "special": true
    },
    {
      "id": 299,
      "content": "<|reserved_291|>",
      "single_word": false,
      "lstrip": false,
      "rstrip": false,
      "normalized": false,
      "special": true
    },
    {
      "id": 300,
      "content": "<|reserved_292|>",
      "single_word": false,
      "lstrip": false,
      "rstrip": false,
      "normalized": false,
      "special": true
    },
    {
      "id": 301,
      "content": "<|reserved_293|>",
      "single_word": false,
      "lstrip": false,
      "rstrip": false,
      "normalized": false,
      "special": true
    },
    {
      "id": 302,
      "content": "<|reserved_294|>",
      "single_word": false,
      "lstrip": false,
      "rstrip": false,
      "normalized": false,
      "special": true
    },
    {
      "id": 303,
      "content": "<|reserved_295|>",
      "single_word": false,
      "lstrip": false,
      "rstrip": false,
      "normalized": false,
      "special": true
    },
    {
      "id": 304,
      "content": "<|reserved_296|>",
      "single_word": false,
      "lstrip": false,
      "rstrip": false,
      "normalized": false,
      "special": true
    },
    {
      "id": 305,
      "content": "<|reserved_297|>",
      "single_word": false,
      "lstrip": false,
      "rstrip": false,
      "normalized": false,
      "special": true
    },
    {
      "id": 306,
      "content": "<|reserved_298|>",
      "single_word": false,
      "lstrip": false,
      "rstrip": false,
      "normalized": false,
      "special": true
    },
    {
      "id": 307,
      "content": "<|reserved_299|>",
      "single_word": false,
      "lstrip": false,
      "rstrip": false,
      "normalized": false,
      "special": true
    },
    {
      "id": 308,
      "content": "<|reserved_300|>",
      "single_word": false,
      "lstrip": false,
      "rstrip": false,
      "normalized": false,
      "special": true
    },
    {
      "id": 309,
      "content": "<|reserved_301|>",
      "single_word": false,
      "lstrip": false,
      "rstrip": false,
      "normalized": false,
      "special": true
    },
    {
      "id": 310,
      "content": "<|reserved_302|>",
      "single_word": false,
      "lstrip": false,
      "rstrip": false,
      "normalized": false,
      "special": true
    },
    {
      "id": 311,
      "content": "<|reserved_303|>",
      "single_word": false,
      "lstrip": false,
      "rstrip": false,
      "normalized": false,
      "special": true
    },
    {
      "id": 312,
      "content": "<|reserved_304|>",
      "single_word": false,
      "lstrip": false,
      "rstrip": false,
      "normalized": false,
      "special": true
    },
    {
      "id": 313,
      "content": "<|reserved_305|>",
      "single_word": false,
      "lstrip": false,
      "rstrip": false,
      "normalized": false,
      "special": true
    },
    {
      "id": 314,
      "content": "<|reserved_306|>",
      "single_word": false,
      "lstrip": false,
      "rstrip": false,
      "normalized": false,
      "special": true
    },
    {
      "id": 315,
      "content": "<|reserved_307|>",
      "single_word": false,
      "lstrip": false,
      "rstrip": false,
      "normalized": false,
      "special": true
    },
    {
      "id": 316,
      "content": "<|reserved_308|>",
      "single_word": false,
      "lstrip": false,
      "rstrip": false,
      "normalized": false,
      "special": true
    },
    {
      "id": 317,
      "content": "<|reserved_309|>",
      "single_word": false,
      "lstrip": false,
      "rstrip": false,
      "normalized": false,
      "special": true
    },
    {
      "id": 318,
      "content": "<|reserved_310|>",
      "single_word": false,
      "lstrip": false,
      "rstrip": false,
      "normalized": false,
      "special": true
    },
    {
      "id": 319,
      "content": "<|reserved_311|>",
      "single_word": false,
      "lstrip": false,
      "rstrip": false,
      "normalized": false,
      "special": true
    },
    {
      "id": 320,
      "content": "<|reserved_312|>",
      "single_word": false,
      "lstrip": false,
      "rstrip": false,
      "normalized": false,
      "special": true
    },
    {
      "id": 321,
      "content": "<|reserved_313|>",
      "single_word": false,
      "lstrip": false,
      "rstrip": false,
      "normalized": false,
      "special": true
    },
    {
      "id": 322,
      "content": "<|reserved_314|>",
      "single_word": false,
      "lstrip": false,
      "rstrip": false,
      "normalized": false,
      "special": true
    },
    {
      "id": 323,
      "content": "<|reserved_315|>",
      "single_word": false,
      "lstrip": false,
      "rstrip": false,
      "normalized": false,
      "special": true
    },
    {
      "id": 324,
      "content": "<|reserved_316|>",
      "single_word": false,
      "lstrip": false,
      "rstrip": false,
      "normalized": false,
      "special": true
    },
    {
      "id": 325,
      "content": "<|reserved_317|>",
      "single_word": false,
      "lstrip": false,
      "rstrip": false,
      "normalized": false,
      "special": true
    },
    {
      "id": 326,
      "content": "<|reserved_318|>",
      "single_word": false,
      "lstrip": false,
      "rstrip": false,
      "normalized": false,
      "special": true
    },
    {
      "id": 327,
      "content": "<|reserved_319|>",
      "single_word": false,
      "lstrip": false,
      "rstrip": false,
      "normalized": false,
      "special": true
    },
    {
      "id": 328,
      "content": "<|reserved_320|>",
      "single_word": false,
      "lstrip": false,
      "rstrip": false,
      "normalized": false,
      "special": true
    },
    {
      "id": 329,
      "content": "<|reserved_321|>",
      "single_word": false,
      "lstrip": false,
      "rstrip": false,
      "normalized": false,
      "special": true
    },
    {
      "id": 330,
      "content": "<|reserved_322|>",
      "single_word": false,
      "lstrip": false,
      "rstrip": false,
      "normalized": false,
      "special": true
    },
    {
      "id": 331,
      "content": "<|reserved_323|>",
      "single_word": false,
      "lstrip": false,
      "rstrip": false,
      "normalized": false,
      "special": true
    },
    {
      "id": 332,
      "content": "<|reserved_324|>",
      "single_word": false,
      "lstrip": false,
      "rstrip": false,
      "normalized": false,
      "special": true
    },
    {
      "id": 333,
      "content": "<|reserved_325|>",
      "single_word": false,
      "lstrip": false,
      "rstrip": false,
      "normalized": false,
      "special": true
    },
    {
      "id": 334,
      "content": "<|reserved_326|>",
      "single_word": false,
      "lstrip": false,
      "rstrip": false,
      "normalized": false,
      "special": true
    },
    {
      "id": 335,
      "content": "<|reserved_327|>",
      "single_word": false,
      "lstrip": false,
      "rstrip": false,
      "normalized": false,
      "special": true
    },
    {
      "id": 336,
      "content": "<|reserved_328|>",
      "single_word": false,
      "lstrip": false,
      "rstrip": false,
      "normalized": false,
      "special": true
    },
    {
      "id": 337,
      "content": "<|reserved_329|>",
      "single_word": false,
      "lstrip": false,
      "rstrip": false,
      "normalized": false,
      "special": true
    },
    {
      "id": 338,
      "content": "<|reserved_330|>",
      "single_word": false,
      "lstrip": false,
      "rstrip": false,
      "normalized": false,
      "special": true
    },
    {
      "id": 339,
      "content": "<|reserved_331|>",
      "single_word": false,
      "lstrip": false,
      "rstrip": false,
      "normalized": false,
      "special": true
    },
    {
      "id": 340,
      "content": "<|reserved_332|>",
      "single_word": false,
      "lstrip": false,
      "rstrip": false,
      "normalized": false,
      "special": true
    },
    {
      "id": 341,
      "content": "<|reserved_333|>",
      "single_word": false,
      "lstrip": false,
      "rstrip": false,
      "normalized": false,
      "special": true
    },
    {
      "id": 342,
      "content": "<|reserved_334|>",
      "single_word": false,
      "lstrip": false,
      "rstrip": false,
      "normalized": false,
      "special": true
    },
    {
      "id": 343,
      "content": "<|reserved_335|>",
      "single_word": false,
      "lstrip": false,
      "rstrip": false,
      "normalized": false,
      "special": true
    },
    {
      "id": 344,
      "content": "<|reserved_336|>",
      "single_word": false,
      "lstrip": false,
      "rstrip": false,
      "normalized": false,
      "special": true
    },
    {
      "id": 345,
      "content": "<|reserved_337|>",
      "single_word": false,
      "lstrip": false,
      "rstrip": false,
      "normalized": false,
      "special": true
    },
    {
      "id": 346,
      "content": "<|reserved_338|>",
      "single_word": false,
      "lstrip": false,
      "rstrip": false,
      "normalized": false,
      "special": true
    },
    {
      "id": 347,
      "content": "<|reserved_339|>",
      "single_word": false,
      "lstrip": false,
      "rstrip": false,
      "normalized": false,
      "special": true
    },
    {
      "id": 348,
      "content": "<|reserved_340|>",
      "single_word": false,
      "lstrip": false,
      "rstrip": false,
      "normalized": false,
      "special": true
    },
    {
      "id": 349,
      "content": "<|reserved_341|>",
      "single_word": false,
      "lstrip": false,
      "rstrip": false,
      "normalized": false,
      "special": true
    },
    {
      "id": 350,
      "content": "<|reserved_342|>",
      "single_word": false,
      "lstrip": false,
      "rstrip": false,
      "normalized": false,
      "special": true
    },
    {
      "id": 351,
      "content": "<|reserved_343|>",
      "single_word": false,
      "lstrip": false,
      "rstrip": false,
      "normalized": false,
      "special": true
    }
  ],
  "normalizer": {
    "type": "Sequence",
    "normalizers": [
      {
        "type": "Replace",
        "pattern": {
          "Regex": "(?<!\\n)^"
        },
        "content": "▁"
      },
      {
        "type": "Replace",
        "pattern": {
          "Regex": " "
        },
        "content": "▁"
      }
    ]
  },
  "pre_tokenizer": null,
  "post_processor": {
    "type": "TemplateProcessing",
    "single": [
      {
        "Sequence": {
          "id": "A",
          "type_id": 0
        }
      }
    ],
    "pair": [
      {
        "Sequence": {
          "id": "A",
          "type_id": 0
        }
      },
      {
        "Sequence": {
          "id": "B",
          "type_id": 1
        }
      }
    ],
    "special_tokens": {}
  },
  "decoder": {
    "type": "Sequence",
    "decoders": [
      {
        "type": "ByteFallback"
      },
      {
        "type": "Replace",
        "pattern": {
          "Regex": "▁"
        },
        "content": " "
      },
      {
        "type": "Fuse"
      },
      {
        "type": "Replace",
        "pattern": {
          "Regex": "(?<!\\n)^ "
        },
        "content": ""
      }
    ]
  },
  "model": {
    "type": "Unigram",
    "unk_id": 0,
    "vocab": [
      [
        "<|unk|>",
        0.0
      ],
      [
        "<|startoftext|>",
        0.0
      ],
      [
        "<|return|>",
        0.0
      ],
      [
        "<|mask|>",
        0.0
      ],
      [
        "<|endoftext|>",
        0.0
      ],
      [
        "<|cls|>",
        0.0
      ],
      [
        "<|eod|>",
        0.0
      ],
      [
        "<|sep|>",
        0.0
      ],
      [
        "<|constrain|>",
        0.0
      ],
      [
        "<|channel|>",
        0.0
      ],
      [
        "<|start|>",
        0.0
      ],
      [
        "<|end|>",
        0.0
      ],
      [
        "<|message|>",
        0.0
      ],
      [
        "<|call|>",
        0.0
      ],
      [
        "<|reserved_006|>",
        0.0
      ],
      [
        "<|reserved_007|>",
        0.0
      ],
      [
        "<|reserved_008|>",
        0.0
      ],
      [
        "<|reserved_009|>",
        0.0
      ],
      [
        "<|reserved_010|>",
        0.0
      ],
      [
        "<|reserved_011|>",
        0.0
      ],
      [
        "<|reserved_012|>",
        0.0
      ],
      [
        "<|reserved_013|>",
        0.0
      ],
      [
        "<|reserved_014|>",
        0.0
      ],
      [
        "<|reserved_015|>",
        0.0
      ],
      [
        "<|reserved_016|>",
        0.0
      ],
      [
        "<|reserved_017|>",
        0.0
      ],
      [
        "<|reserved_018|>",
        0.0
      ],
      [
        "<|reserved_019|>",
        0.0
      ],
      [
        "<|reserved_020|>",
        0.0
      ],
      [
        "<|reserved_021|>",
        0.0
      ],
      [
        "<|reserved_022|>",
        0.0
      ],
      [
        "<|reserved_023|>",
        0.0
      ],
      [
        "<|reserved_024|>",
        0.0
      ],
      [
        "<|reserved_025|>",
        0.0
      ],
      [
        "<|reserved_026|>",
        0.0
      ],
      [
        "<|reserved_027|>",
        0.0
      ],
      [
        "<|reserved_028|>",
        0.0
      ],
      [
        "<|reserved_029|>",
        0.0
      ],
      [
        "<|reserved_030|>",
        0.0
      ],
      [
        "<|reserved_031|>",
        0.0
      ],
      [
        "<|reserved_032|>",
        0.0
      ],
      [
        "<|reserved_033|>",
        0.0
      ],
      [
        "<|reserved_034|>",
        0.0
      ],
      [
        "<|reserved_035|>",
        0.0
      ],
      [
        "<|reserved_036|>",
        0.0
      ],
      [
        "<|reserved_037|>",
        0.0
      ],
      [
        "<|reserved_038|>",
        0.0
      ],
      [
        "<|reserved_039|>",
        0.0
      ],
      [
        "<|reserved_040|>",
        0.0
      ],
      [
        "<|reserved_041|>",
        0.0
      ],
      [
        "<|reserved_042|>",
        0.0
      ],
      [
        "<|reserved_043|>",
        0.0
      ],
      [
        "<|reserved_044|>",
        0.0
      ],
      [
        "<|reserved_045|>",
        0.0
      ],
      [
        "<|reserved_046|>",
        0.0
      ],
      [
        "<|reserved_047|>",
        0.0
      ],
      [
        "<|reserved_048|>",
        0.0
      ],
      [
        "<|reserved_049|>",
        0.0
      ],
      [
        "<|reserved_050|>",
        0.0
      ],
      [
        "<|reserved_051|>",
        0.0
      ],
      [
        "<|reserved_052|>",
        0.0
      ],
      [
        "<|reserved_053|>",
        0.0
      ],
      [
        "<|reserved_054|>",
        0.0
      ],
      [
        "<|reserved_055|>",
        0.0
      ],
      [
        "<|reserved_056|>",
        0.0
      ],
      [
        "<|reserved_057|>",
        0.0
      ],
      [
        "<|reserved_058|>",
        0.0
      ],
      [
        "<|reserved_059|>",
        0.0
      ],
      [
        "<|reserved_060|>",
        0.0
      ],
      [
        "<|reserved_061|>",
        0.0
      ],
      [
        "<|reserved_062|>",
        0.0
      ],
      [
        "<|reserved_063|>",
        0.0
      ],
      [
        "<|reserved_064|>",
        0.0
      ],
      [
        "<|reserved_065|>",
        0.0
      ],
      [
        "<|reserved_066|>",
        0.0
      ],
      [
        "<|reserved_067|>",
        0.0
      ],
      [
        "<|reserved_068|>",
        0.0
      ],
      [
        "<|reserved_069|>",
        0.0
      ],
      [
        "<|reserved_070|>",
        0.0
      ],
      [
        "<|reserved_071|>",
        0.0
      ],
      [
        "<|reserved_072|>",
        0.0
      ],
      [
        "<|reserved_073|>",
        0.0
      ],
      [
        "<|reserved_074|>",
        0.0
      ],
      [
        "<|reserved_075|>",
        0.0
      ],
      [
        "<|reserved_076|>",
        0.0
      ],
      [
        "<|reserved_077|>",
        0.0
      ],
      [
        "<|reserved_078|>",
        0.0
      ],
      [
        "<|reserved_079|>",
        0.0
      ],
      [
        "<|reserved_080|>",
        0.0
      ],
      [
        "<|reserved_081|>",
        0.0
      ],
      [
        "<|reserved_082|>",
        0.0
      ],
      [
        "<|reserved_083|>",
        0.0
      ],
      [
        "<|reserved_084|>",
        0.0
      ],
      [
        "<|reserved_085|>",
        0.0
      ],
      [
        "<|reserved_086|>",
        0.0
      ],
      [
        "<|reserved_087|>",
        0.0
      ],
      [
        "<|reserved_088|>",
        0.0
      ],
      [
        "<|reserved_089|>",
        0.0
      ],
      [
        "<|reserved_090|>",
        0.0
      ],
      [
        "<|reserved_091|>",
        0.0
      ],
      [
        "<|reserved_092|>",
        0.0
      ],
      [
        "<|reserved_093|>",
        0.0
      ],
      [
        "<|reserved_094|>",
        0.0
      ],
      [
        "<|reserved_095|>",
        0.0
      ],
      [
        "<|reserved_096|>",
        0.0
      ],
      [
        "<|reserved_097|>",
        0.0
      ],
      [
        "<|reserved_098|>",
        0.0
      ],
      [
        "<|reserved_099|>",
        0.0
      ],
      [
        "<|reserved_100|>",
        0.0
      ],
      [
        "<|reserved_101|>",
        0.0
      ],
      [
        "<|reserved_102|>",
        0.0
      ],
      [
        "<|reserved_103|>",
        0.0
      ],
      [
        "<|reserved_104|>",
        0.0
      ],
      [
        "<|reserved_105|>",
        0.0
      ],
      [
        "<|reserved_106|>",
        0.0
      ],
      [
        "<|reserved_107|>",
        0.0
      ],
      [
        "<|reserved_108|>",
        0.0
      ],
      [
        "<|reserved_109|>",
        0.0
      ],
      [
        "<|reserved_110|>",
        0.0
      ],
      [
        "<|reserved_111|>",
        0.0
      ],
      [
        "<|reserved_112|>",
        0.0
      ],
      [
        "<|reserved_113|>",
        0.0
      ],
      [
        "<|reserved_114|>",
        0.0
      ],
      [
        "<|reserved_115|>",
        0.0
      ],
      [
        "<|reserved_116|>",
        0.0
      ],
      [
        "<|reserved_117|>",
        0.0
      ],
      [
        "<|reserved_118|>",
        0.0
      ],
      [
        "<|reserved_119|>",
        0.0
      ],
      [
        "<|reserved_120|>",
        0.0
      ],
      [
        "<|reserved_121|>",
        0.0
      ],
      [
        "<|reserved_122|>",
        0.0
      ],
      [
        "<|reserved_123|>",
        0.0
      ],
      [
        "<|reserved_124|>",
        0.0
      ],
      [
        "<|reserved_125|>",
        0.0
      ],
      [
        "<|reserved_126|>",
        0.0
      ],
      [
        "<|reserved_127|>",
        0.0
      ],
      [
        "<|reserved_128|>",
        0.0
      ],
      [
        "<|reserved_129|>",
        0.0
      ],
      [
        "<|reserved_130|>",
        0.0
      ],
      [
        "<|reserved_131|>",
        0.0
      ],
      [
        "<|reserved_132|>",
        0.0
      ],
      [
        "<|reserved_133|>",
        0.0
      ],
      [
        "<|reserved_134|>",
        0.0
      ],
      [
        "<|reserved_135|>",
        0.0
      ],
      [
        "<|reserved_136|>",
        0.0
      ],
      [
        "<|reserved_137|>",
        0.0
      ],
      [
        "<|reserved_138|>",
        0.0
      ],
      [
        "<|reserved_139|>",
        0.0
      ],
      [
        "<|reserved_140|>",
        0.0
      ],
      [
        "<|reserved_141|>",
        0.0
      ],
      [
        "<|reserved_142|>",
        0.0
      ],
      [
        "<|reserved_143|>",
        0.0
      ],
      [
        "<|reserved_144|>",
        0.0
      ],
      [
        "<|reserved_145|>",
        0.0
      ],
      [
        "<|reserved_146|>",
        0.0
      ],
      [
        "<|reserved_147|>",
        0.0
      ],
      [
        "<|reserved_148|>",
        0.0
      ],
      [
        "<|reserved_149|>",
        0.0
      ],
      [
        "<|reserved_150|>",
        0.0
      ],
      [
        "<|reserved_151|>",
        0.0
      ],
      [
        "<|reserved_152|>",
        0.0
      ],
      [
        "<|reserved_153|>",
        0.0
      ],
      [
        "<|reserved_154|>",
        0.0
      ],
      [
        "<|reserved_155|>",
        0.0
      ],
      [
        "<|reserved_156|>",
        0.0
      ],
      [
        "<|reserved_157|>",
        0.0
      ],
      [
        "<|reserved_158|>",
        0.0
      ],
      [
        "<|reserved_159|>",
        0.0
      ],
      [
        "<|reserved_160|>",
        0.0
      ],
      [
        "<|reserved_161|>",
        0.0
      ],
      [
        "<|reserved_162|>",
        0.0
      ],
      [
        "<|reserved_163|>",
        0.0
      ],
      [
        "<|reserved_164|>",
        0.0
      ],
      [
        "<|reserved_165|>",
        0.0
      ],
      [
        "<|reserved_166|>",
        0.0
      ],
      [
        "<|reserved_167|>",
        0.0
      ],
      [
        "<|reserved_168|>",
        0.0
      ],
      [
        "<|reserved_169|>",
        0.0
      ],
      [
        "<|reserved_170|>",
        0.0
      ],
      [
        "<|reserved_171|>",
        0.0
      ],
      [
        "<|reserved_172|>",
        0.0
      ],
      [
        "<|reserved_173|>",
        0.0
      ],
      [
        "<|reserved_174|>",
        0.0
      ],
      [
        "<|reserved_175|>",
        0.0
      ],
      [
        "<|reserved_176|>",
        0.0
      ],
      [
        "<|reserved_177|>",
        0.0
      ],
      [
        "<|reserved_178|>",
        0.0
      ],
      [
        "<|reserved_179|>",
        0.0
      ],
      [
        "<|reserved_180|>",
        0.0
      ],
      [
        "<|reserved_181|>",
        0.0
      ],
      [
        "<|reserved_182|>",
        0.0
      ],
      [
        "<|reserved_183|>",
        0.0
      ],
      [
        "<|reserved_184|>",
        0.0
      ],
      [
        "<|reserved_185|>",
        0.0
      ],
      [
        "<|reserved_186|>",
        0.0
      ],
      [
        "<|reserved_187|>",
        0.0
      ],
      [
        "<|reserved_188|>",
        0.0
      ],
      [
        "<|reserved_189|>",
        0.0
      ],
      [
        "<|reserved_190|>",
        0.0
      ],
      [
        "<|reserved_191|>",
        0.0
      ],
      [
        "<|reserved_192|>",
        0.0
      ],
      [
        "<|reserved_193|>",
        0.0
      ],
      [
        "<|reserved_194|>",
        0.0
      ],
      [
        "<|reserved_195|>",
        0.0
      ],
      [
        "<|reserved_196|>",
        0.0
      ],
      [
        "<|reserved_197|>",
        0.0
      ],
      [
        "<|reserved_198|>",
        0.0
      ],
      [
        "<|reserved_199|>",
        0.0
      ],
      [
        "<|reserved_200|>",
        0.0
      ],
      [
        "<|reserved_201|>",
        0.0
      ],
      [
        "<|reserved_202|>",
        0.0
      ],
      [
        "<|reserved_203|>",
        0.0
      ],
      [
        "<|reserved_204|>",
        0.0
      ],
      [
        "<|reserved_205|>",
        0.0
      ],
      [
        "<|reserved_206|>",
        0.0
      ],
      [
        "<|reserved_207|>",
        0.0
      ],
      [
        "<|reserved_208|>",
        0.0
      ],
      [
        "<|reserved_209|>",
        0.0
      ],
      [
        "<|reserved_210|>",
        0.0
      ],
      [
        "<|reserved_211|>",
        0.0
      ],
      [
        "<|reserved_212|>",
        0.0
      ],
      [
        "<|reserved_213|>",
        0.0
      ],
      [
        "<|reserved_214|>",
        0.0
      ],
      [
        "<|reserved_215|>",
        0.0
      ],
      [
        "<|reserved_216|>",
        0.0
      ],
      [
        "<|reserved_217|>",
        0.0
      ],
      [
        "<|reserved_218|>",
        0.0
      ],
      [
        "<|reserved_219|>",
        0.0
      ],
      [
        "<|reserved_220|>",
        0.0
      ],
      [
        "<|reserved_221|>",
        0.0
      ],
      [
        "<|reserved_222|>",
        0.0
      ],
      [
        "<|reserved_223|>",
        0.0
      ],
      [
        "<|reserved_224|>",
        0.0
      ],
      [
        "<|reserved_225|>",
        0.0
      ],
      [
        "<|reserved_226|>",
        0.0
      ],
      [
        "<|reserved_227|>",
        0.0
      ],
      [
        "<|reserved_228|>",
        0.0
      ],
      [
        "<|reserved_229|>",
        0.0
      ],
      [
        "<|reserved_230|>",
        0.0
      ],
      [
        "<|reserved_231|>",
        0.0
      ],
      [
        "<|reserved_232|>",
        0.0
      ],
      [
        "<|reserved_233|>",
        0.0
      ],
      [
        "<|reserved_234|>",
        0.0
      ],
      [
        "<|reserved_235|>",
        0.0
      ],
      [
        "<|reserved_236|>",
        0.0
      ],
      [
        "<|reserved_237|>",
        0.0
      ],
      [
        "<|reserved_238|>",
        0.0
      ],
      [
        "<|reserved_239|>",
        0.0
      ],
      [
        "<|reserved_240|>",
        0.0
      ],
      [
        "<|reserved_241|>",
        0.0
      ],
      [
        "<|reserved_242|>",
        0.0
      ],
      [
        "<|reserved_243|>",
        0.0
      ],
      [
        "<|reserved_244|>",
        0.0
      ],
      [
        "<|reserved_245|>",
        0.0
      ],
      [
        "<|reserved_246|>",
        0.0
      ],
      [
        "<|reserved_247|>",
        0.0
      ],
      [
        "<|reserved_248|>",
        0.0
      ],
      [
        "<|reserved_249|>",
        0.0
      ],
      [
        "<|reserved_250|>",
        0.0
      ],
      [
        "<|reserved_251|>",
        0.0
      ],
      [
        "<|reserved_252|>",
        0.0
      ],
      [
        "<|reserved_253|>",
        0.0
      ],
      [
        "<|reserved_254|>",
        0.0
      ],
      [
        "<|reserved_255|>",
        0.0
      ],
      [
        "<|reserved_256|>",
        0.0
      ],
      [
        "<|reserved_257|>",
        0.0
      ],
      [
        "<|reserved_258|>",
        0.0
      ],
      [
        "<|reserved_259|>",
        0.0
      ],
      [
        "<|reserved_260|>",
        0.0
      ],
      [
        "<|reserved_261|>",
        0.0
      ],
      [
        "<|reserved_262|>",
        0.0
      ],
      [
        "<|reserved_263|>",
        0.0
      ],
      [
        "<|reserved_264|>",
        0.0
      ],
      [
        "<|reserved_265|>",
        0.0
      ],
      [
        "<|reserved_266|>",
        0.0
      ],
      [
        "<|reserved_267|>",
        0.0
      ],
      [
        "<|reserved_268|>",
        0.0
      ],
      [
        "<|reserved_269|>",
        0.0
      ],
      [
        "<|reserved_270|>",
        0.0
      ],
      [
        "<|reserved_271|>",
        0.0
      ],
      [
        "<|reserved_272|>",
        0.0
      ],
      [
        "<|reserved_273|>",
        0.0
      ],
      [
        "<|reserved_274|>",
        0.0
      ],
      [
        "<|reserved_275|>",
        0.0
      ],
      [
        "<|reserved_276|>",
        0.0
      ],
      [
        "<|reserved_277|>",
        0.0
      ],
      [
        "<|reserved_278|>",
        0.0
      ],
      [
        "<|reserved_279|>",
        0.0
      ],
      [
        "<|reserved_280|>",
        0.0
      ],
      [
        "<|reserved_281|>",
        0.0
      ],
      [
        "<|reserved_282|>",
        0.0
      ],
      [
        "<|reserved_283|>",
        0.0
      ],
      [
        "<|reserved_284|>",
        0.0
      ],
      [
        "<|reserved_285|>",
        0.0
      ],
      [
        "<|reserved_286|>",
        0.0
      ],
      [
        "<|reserved_287|>",
        0.0
      ],
      [
        "<|reserved_288|>",
        0.0
      ],
      [
        "<|reserved_289|>",
        0.0
      ],
      [
        "<|reserved_290|>",
        0.0
      ],
      [
        "<|reserved_291|>",
        0.0
      ],
      [
        "<|reserved_292|>",
        0.0
      ],
      [
        "<|reserved_293|>",
        0.0
      ],
      [
        "<|reserved_294|>",
        0.0
      ],
      [
        "<|reserved_295|>",
        0.0
      ],
      [
        "<|reserved_296|>",
        0.0
      ],
      [
        "<|reserved_297|>",
        0.0
      ],
      [
        "<|reserved_298|>",
        0.0
      ],
      [
        "<|reserved_299|>",
        0.0
      ],
      [
        "<|reserved_300|>",
        0.0
      ],
      [
        "<|reserved_301|>",
        0.0
      ],
      [
        "<|reserved_302|>",
        0.0
      ],
      [
        "<|reserved_303|>",
        0.0
      ],
      [
        "<|reserved_304|>",
        0.0
      ],
      [
        "<|reserved_305|>",
        0.0
      ],
      [
        "<|reserved_306|>",
        0.0
      ],
      [
        "<|reserved_307|>",
        0.0
      ],
      [
        "<|reserved_308|>",
        0.0
      ],
      [
        "<|reserved_309|>",
        0.0
      ],
      [
        "<|reserved_310|>",
        0.0
      ],
      [
        "<|reserved_311|>",
        0.0
      ],
      [
        "<|reserved_312|>",
        0.0
      ],
      [
        "<|reserved_313|>",
        0.0
      ],
      [
        "<|reserved_314|>",
        0.0
      ],
      [
        "<|reserved_315|>",
        0.0
      ],
      [
        "<|reserved_316|>",
        0.0
      ],
      [
        "<|reserved_317|>",
        0.0
      ],
      [
        "<|reserved_318|>",
        0.0
      ],
      [
        "<|reserved_319|>",
        0.0
      ],
      [
        "<|reserved_320|>",
        0.0
      ],
      [
        "<|reserved_321|>",
        0.0
      ],
      [
        "<|reserved_322|>",
        0.0
      ],
      [
        "<|reserved_323|>",
        0.0
      ],
      [
        "<|reserved_324|>",
        0.0
      ],
      [
        "<|reserved_325|>",
        0.0
      ],
      [
        "<|reserved_326|>",
        0.0
      ],
      [
        "<|reserved_327|>",
        0.0
      ],
      [
        "<|reserved_328|>",
        0.0
      ],
      [
        "<|reserved_329|>",
        0.0
      ],
      [
        "<|reserved_330|>",
        0.0
      ],
      [
        "<|reserved_331|>",
        0.0
      ],
      [
        "<|reserved_332|>",
        0.0
      ],
      [
        "<|reserved_333|>",
        0.0
      ],
      [
        "<|reserved_334|>",
        0.0
      ],
      [
        "<|reserved_335|>",
        0.0
      ],
      [
        "<|reserved_336|>",
        0.0
      ],
      [
        "<|reserved_337|>",
        0.0
      ],
      [
        "<|reserved_338|>",
        0.0
      ],
      [
        "<|reserved_339|>",
        0.0
      ],
      [
        "<|reserved_340|>",
        0.0
      ],
      [
        "<|reserved_341|>",
        0.0
      ],
      [
        "<|reserved_342|>",
        0.0
      ],
      [
        "<|reserved_343|>",
        0.0
      ],
      [
        "<0x00>",
        0.0
      ],
      [
        "<0x01>",
        0.0
      ],
      [
        "<0x02>",
        0.0
      ],
      [
        "<0x03>",
        0.0
      ],
      [
        "<0x04>",
        0.0
      ],
      [
        "<0x05>",
        0.0
      ],
      [
        "<0x06>",
        0.0
      ],
      [
        "<0x07>",
        0.0
      ],
      [
        "<0x08>",
        0.0
      ],
      [
        "<0x09>",
        0.0
      ],
      [
        "<0x0A>",
        0.0
      ],
      [
        "<0x0B>",
        0.0
      ],
      [
        "<0x0C>",
        0.0
      ],
      [
        "<0x0D>",
        0.0
      ],
      [
        "<0x0E>",
        0.0
      ],
      [
        "<0x0F>",
        0.0
      ],
      [
        "<0x10>",
        0.0
      ],
      [
        "<0x11>",
        0.0
      ],
      [
        "<0x12>",
        0.0
      ],
      [
        "<0x13>",
        0.0
      ],
      [
        "<0x14>",
        0.0
      ],
      [
        "<0x15>",
        0.0
      ],
      [
        "<0x16>",
        0.0
      ],
      [
        "<0x17>",
        0.0
      ],
      [
        "<0x18>",
        0.0
      ],
      [
        "<0x19>",
        0.0
      ],
      [
        "<0x1A>",
        0.0
      ],
      [
        "<0x1B>",
        0.0
      ],
      [
        "<0x1C>",
        0.0
      ],
      [
        "<0x1D>",
        0.0
      ],
      [
        "<0x1E>",
        0.0
      ],
      [
        "<0x1F>",
        0.0
      ],
      [
        "<0x20>",
        0.0
      ],
      [
        "<0x21>",
        0.0
      ],
      [
        "<0x22>",
        0.0
      ],
      [
        "<0x23>",
        0.0
      ],
      [
        "<0x24>",
        0.0
      ],
      [
        "<0x25>",
        0.0
      ],
      [
        "<0x26>",
        0.0
      ],
      [
        "<0x27>",
        0.0
      ],
      [
        "<0x28>",
        0.0
      ],
      [
        "<0x29>",
        0.0
      ],
      [
        "<0x2A>",
        0.0
      ],
      [
        "<0x2B>",
        0.0
      ],
      [
        "<0x2C>",
        0.0
      ],
      [
        "<0x2D>",
        0.0
      ],
      [
        "<0x2E>",
        0.0
      ],
      [
        "<0x2F>",
        0.0
      ],
      [
        "<0x30>",
        0.0
      ],
      [
        "<0x31>",
        0.0
      ],
      [
        "<0x32>",
        0.0
      ],
      [
        "<0x33>",
        0.0
      ],
      [
        "<0x34>",
        0.0
      ],
      [
        "<0x35>",
        0.0
      ],
      [
        "<0x36>",
        0.0
      ],
      [
        "<0x37>",
        0.0
      ],
      [
        "<0x38>",
        0.0
      ],
      [
        "<0x39>",
        0.0
      ],
      [
        "<0x3A>",
        0.0
      ],
      [
        "<0x3B>",
        0.0
      ],
      [
        "<0x3C>",
        0.0
      ],
      [
        "<0x3D>",
        0.0
      ],
      [
        "<0x3E>",
        0.0
      ],
      [
        "<0x3F>",
        0.0
      ],
      [
        "<0x40>",
        0.0
      ],
      [
        "<0x41>",
        0.0
      ],
      [
        "<0x42>",
        0.0
      ],
      [
        "<0x43>",
        0.0
      ],
      [
        "<0x44>",
        0.0
      ],
      [
        "<0x45>",
        0.0
      ],
      [
        "<0x46>",
        0.0
      ],
      [
        "<0x47>",
        0.0
      ],
      [
        "<0x48>",
        0.0
      ],
      [
        "<0x49>",
        0.0
      ],
      [
        "<0x4A>",
        0.0
      ],
      [
        "<0x4B>",
        0.0
      ],
      [
        "<0x4C>",
        0.0
      ],
      [
        "<0x4D>",
        0.0
      ],
      [
        "<0x4E>",
        0.0
      ],
      [
        "<0x4F>",
        0.0
      ],
      [
        "<0x50>",
        0.0
      ],
      [
        "<0x51>",
        0.0
      ],
      [
        "<0x52>",
        0.0
      ],
      [
        "<0x53>",
        0.0
      ],
      [
        "<0x54>",
        0.0
      ],
      [
        "<0x55>",
        0.0
      ],
      [
        "<0x56>",
        0.0
      ],
      [
        "<0x57>",
        0.0
      ],
      [
        "<0x58>",
        0.0
      ],
      [
        "<0x59>",
        0.0
      ],
      [
        "<0x5A>",
        0.0
      ],
      [
        "<0x5B>",
        0.0
      ],
      [
        "<0x5C>",
        0.0
      ],
      [
        "<0x5D>",
        0.0
      ],
      [
        "<0x5E>",
        0.0
      ],
      [
        "<0x5F>",
        0.0
      ],
      [
        "<0x60>",
        0.0
      ],
      [
        "<0x61>",
        0.0
      ],
      [
        "<0x62>",
        0.0
      ],
      [
        "<0x63>",
        0.0
      ],
      [
        "<0x64>",
        0.0
      ],
      [
        "<0x65>",
        0.0
      ],
      [
        "<0x66>",
        0.0
      ],
      [
        "<0x67>",
        0.0
      ],
      [
        "<0x68>",
        0.0
      ],
      [
        "<0x69>",
        0.0
      ],
      [
        "<0x6A>",
        0.0
      ],
      [
        "<0x6B>",
        0.0
      ],
      [
        "<0x6C>",
        0.0
      ],
      [
        "<0x6D>",
        0.0
      ],
      [
        "<0x6E>",
        0.0
      ],
      [
        "<0x6F>",
        0.0
      ],
      [
        "<0x70>",
        0.0
      ],
      [
        "<0x71>",
        0.0
      ],
      [
        "<0x72>",
        0.0
      ],
      [
        "<0x73>",
        0.0
      ],
      [
        "<0x74>",
        0.0
      ],
      [
        "<0x75>",
        0.0
      ],
      [
        "<0x76>",
        0.0
      ],
      [
        "<0x77>",
        0.0
      ],
      [
        "<0x78>",
        0.0
      ],
      [
        "<0x79>",
        0.0
      ],
      [
        "<0x7A>",
        0.0
      ],
      [
        "<0x7B>",
        0.0
      ],
      [
        "<0x7C>",
        0.0
      ],
      [
        "<0x7D>",
        0.0
      ],
      [
        "<0x7E>",
        0.0
      ],
      [
        "<0x7F>",
        0.0
      ],
      [
        "<0x80>",
        0.0
      ],
      [
        "<0x81>",
        0.0
      ],
      [
        "<0x82>",
        0.0
      ],
      [
        "<0x83>",
        0.0
      ],
      [
        "<0x84>",
        0.0
      ],
      [
        "<0x85>",
        0.0
      ],
      [
        "<0x86>",
        0.0
      ],
      [
        "<0x87>",
        0.0
      ],
      [
        "<0x88>",
        0.0
      ],
      [
        "<0x89>",
        0.0
      ],
      [
        "<0x8A>",
        0.0
      ],
      [
        "<0x8B>",
        0.0
      ],
      [
        "<0x8C>",
        0.0
      ],
      [
        "<0x8D>",
        0.0
      ],
      [
        "<0x8E>",
        0.0
      ],
      [
        "<0x8F>",
        0.0
      ],
      [
        "<0x90>",
        0.0
      ],
      [
        "<0x91>",
        0.0
      ],
      [
        "<0x92>",
        0.0
      ],
      [
        "<0x93>",
        0.0
      ],
      [
        "<0x94>",
        0.0
      ],
      [
        "<0x95>",
        0.0
      ],
      [
        "<0x96>",
        0.0
      ],
      [
        "<0x97>",
        0.0
      ],
      [
        "<0x98>",
        0.0
      ],
      [
        "<0x99>",
        0.0
      ],
      [
        "<0x9A>",
        0.0
      ],
      [
        "<0x9B>",
        0.0
      ],
      [
        "<0x9C>",
        0.0
      ],
      [
        "<0x9D>",
        0.0
      ],
      [
        "<0x9E>",
        0.0
      ],
      [
        "<0x9F>",
        0.0
      ],
      [
        "<0xA0>",
        0.0
      ],
      [
        "<0xA1>",
        0.0
      ],
      [
        "<0xA2>",
        0.0
      ],
      [
        "<0xA3>",
        0.0
      ],
      [
        "<0xA4>",
        0.0
      ],
      [
        "<0xA5>",
        0.0
      ],
      [
        "<0xA6>",
        0.0
      ],
      [
        "<0xA7>",
        0.0
      ],
      [
        "<0xA8>",
        0.0
      ],
      [
        "<0xA9>",
        0.0
      ],
      [
        "<0xAA>",
        0.0
      ],
      [
        "<0xAB>",
        0.0
      ],
      [
        "<0xAC>",
        0.0
      ],
      [
        "<0xAD>",
        0.0
      ],
      [
        "<0xAE>",
        0.0
      ],
      [
        "<0xAF>",
        0.0
      ],
      [
        "<0xB0>",
        0.0
      ],
      [
        "<0xB1>",
        0.0
      ],
      [
        "<0xB2>",
        0.0
      ],
      [
        "<0xB3>",
        0.0
      ],
      [
        "<0xB4>",
        0.0
      ],
      [
        "<0xB5>",
        0.0
      ],
      [
        "<0xB6>",
        0.0
      ],
      [
        "<0xB7>",
        0.0
      ],
      [
        "<0xB8>",
        0.0
      ],
      [
        "<0xB9>",
        0.0
      ],
      [
        "<0xBA>",
        0.0
      ],
      [
        "<0xBB>",
        0.0
      ],
      [
        "<0xBC>",
        0.0
      ],
      [
        "<0xBD>",
        0.0
      ],
      [
        "<0xBE>",
        0.0
      ],
      [
        "<0xBF>",
        0.0
      ],
      [
        "<0xC0>",
        0.0
      ],
      [
        "<0xC1>",
        0.0
      ],
      [
        "<0xC2>",
        0.0
      ],
      [
        "<0xC3>",
        0.0
      ],
      [
        "<0xC4>",
        0.0
      ],
      [
        "<0xC5>",
        0.0
      ],
      [
        "<0xC6>",
        0.0
      ],
      [
        "<0xC7>",
        0.0
      ],
      [
        "<0xC8>",
        0.0
      ],
      [
        "<0xC9>",
        0.0
      ],
      [
        "<0xCA>",
        0.0
      ],
      [
        "<0xCB>",
        0.0
      ],
      [
        "<0xCC>",
        0.0
      ],
      [
        "<0xCD>",
        0.0
      ],
      [
        "<0xCE>",
        0.0
      ],
      [
        "<0xCF>",
        0.0
      ],
      [
        "<0xD0>",
        0.0
      ],
      [
        "<0xD1>",
        0.0
      ],
      [
        "<0xD2>",
        0.0
      ],
      [
        "<0xD3>",
        0.0
      ],
      [
        "<0xD4>",
        0.0
      ],
      [
        "<0xD5>",
        0.0
      ],
      [
        "<0xD6>",
        0.0
      ],
      [
        "<0xD7>",
        0.0
      ],
      [
        "<0xD8>",
        0.0
      ],
      [
        "<0xD9>",
        0.0
      ],
      [
        "<0xDA>",
        0.0
      ],
      [
        "<0xDB>",
        0.0
      ],
      [
        "<0xDC>",
        0.0
      ],
      [
        "<0xDD>",
        0.0
      ],
      [
        "<0xDE>",
        0.0
      ],
      [
        "<0xDF>",
        0.0
      ],
      [
        "<0xE0>",
        0.0
      ],
      [
        "<0xE1>",
        0.0
      ],
      [
        "<0xE2>",
        0.0
      ],
      [
        "<0xE3>",
        0.0
      ],
      [
        "<0xE4>",
        0.0
      ],
      [
        "<0xE5>",
        0.0
      ],
      [
        "<0xE6>",
        0.0
      ],
      [
        "<0xE7>",
        0.0
      ],
      [
        "<0xE8>",
        0.0
      ],
      [
        "<0xE9>",
        0.0
      ],
      [
        "<0xEA>",
        0.0
      ],
      [
        "<0xEB>",
        0.0
      ],
      [
        "<0xEC>",
        0.0
      ],
      [
        "<0xED>",
        0.0
      ],
      [
        "<0xEE>",
        0.0
      ],
      [
        "<0xEF>",
        0.0
      ],
      [
        "<0xF0>",
        0.0
      ],
      [
        "<0xF1>",
        0.0
      ],
      [
        "<0xF2>",
        0.0
      ],
      [
        "<0xF3>",
        0.0
      ],
      [
        "<0xF4>",
        0.0
      ],
      [
        "<0xF5>",
        0.0
      ],
      [
        "<0xF6>",
        0.0
      ],
      [
        "<0xF7>",
        0.0
      ],
      [
        "<0xF8>",
        0.0
      ],
      [
        "<0xF9>",
        0.0
      ],
      [
        "<0xFA>",
        0.0
      ],
      [
        "<0xFB>",
        0.0
      ],
      [
        "<0xFC>",
        0.0
      ],
      [
        "<0xFD>",
        0.0
      ],
      [
        "<0xFE>",
        0.0
      ],
      [
        "<0xFF>",
        0.0
      ],
      [
        ",",
        -3.1518735885620117
      ],
      [
        "▁",
        -3.566434144973755
      ],
      [
        "▁the",
        -3.574575424194336
      ],
      [
        ".",
        -3.5901594161987305
      ],
      [
        "▁of",
        -4.093443393707275
      ],
      [
        "▁and",
        -4.274054050445557
      ],
      [
        "▁to",
        -4.424656391143799
      ],
      [
        "1",
        -4.560029029846191
      ],
      [
        "▁a",
        -4.657285690307617
      ],
      [
        "0",
        -4.674370288848877
      ],
      [
        "▁in",
        -4.781397342681885
      ],
      [
        "2",
        -4.84342622756958
      ],
      [
        "、",
        -4.994344711303711
      ],
      [
        "。",
        -5.026805400848389
      ],
      [
        "s",
        -5.076236724853516
      ],
      [
        "-",
        -5.130374431610107
      ],
      [
        "_",
        -5.208319664001465
      ],
      [
        "▁that",
        -5.270935535430908
      ],
      [
        "▁is",
        -5.325380802154541
      ],
      [
        "3",
        -5.497777462005615
      ],
      [
        "'",
        -5.500718593597412
      ],
      [
        "▁was",
        -5.527298450469971
      ],
      [
        "▁\\",
        -5.529694080352783
      ],
      [
        "▁for",
        -5.580727577209473
      ],
      [
        ":",
        -5.593850612640381
      ],
      [
        "{",
        -5.610328197479248
      ],
      [
        ")",
        -5.627143859863281
      ],
      [
        ";",
        -5.642143249511719
      ],
      [
        "▁I",
        -5.645528316497803
      ],
      [
        "▁with",
        -5.6611785888671875
      ],
      [
        "5",
        -5.679136753082275
      ],
      [
        "▁it",
        -5.692069053649902
      ],
      [
        "4",
        -5.711879730224609
      ],
      [
        "▁\"",
        -5.728747844696045
      ],
      [
        "▁as",
        -5.746187686920166
      ],
      [
        "▁he",
        -5.856058597564697
      ],
      [
        "8",
        -5.862575054168701
      ],
      [
        "▁his",
        -5.865142822265625
      ],
      [
        "9",
        -5.8675971031188965
      ],
      [
        "(",
        -5.884523868560791
      ],
      [
        "▁be",
        -5.8862409591674805
      ],
      [
        "6",
        -5.896459102630615
      ],
      [
        "▁on",
        -5.932735443115234
      ],
      [
        "▁The",
        -5.933115005493164
      ],
      [
        "▁by",
        -5.953568458557129
      ],
      [
        "}",
        -5.960619926452637
      ],
      [
        "▁(",
        -5.997778415679932
      ],
      [
        "7",
        -5.999810218811035
      ],
      [
        "▁not",
        -6.094250679016113
      ],
      [
        "▁at",
        -6.107782363891602
      ],
      [
        "▁you",
        -6.149991512298584
      ],
      [
        "▁had",
        -6.158684253692627
      ],
      [
        "▁are",
        -6.187627792358398
      ],
      [
        "▁from",
        -6.196842670440674
      ],
      [
        "▁which",
        -6.212954521179199
      ],
      [
        "\\",
        -6.217805862426758
      ],
      [
        "▁have",
        -6.244167327880859
      ],
      [
        "▁this",
        -6.312783718109131
      ],
      [
        "▁or",
        -6.340267658233643
      ],
      [
        "▁▁▁▁",
        -6.360846519470215
      ],
      [
        "▁$",
        -6.3690104484558105
      ],
      [
        "t",
        -6.394245147705078
      ],
      [
        "▁her",
        -6.424633026123047
      ],
      [
        "▁but",
        -6.486039161682129
      ],
      [
        "▁an",
        -6.513293743133545
      ],
      [
        "▁all",
        -6.520370006561279
      ],
      [
        "▁we",
        -6.523977279663086
      ],
      [
        "▁were",
        -6.535546779632568
      ],
      [
        "▁they",
        -6.560141086578369
      ],
      [
        "の",
        -6.570785999298096
      ],
      [
        "\"",
        -6.586885929107666
      ],
      [
        "’",
        -6.609133720397949
      ],
      [
        "$",
        -6.61731481552124
      ],
      [
        "/",
        -6.625400543212891
      ],
      [
        "▁their",
        -6.636287212371826
      ],
      [
        "▁one",
        -6.645348072052002
      ],
      [
        "▁him",
        -6.689859390258789
      ],
      [
        "--",
        -6.712349891662598
      ],
      [
        "的",
        -6.723829746246338
      ],
      [
        "n",
        -6.733088970184326
      ],
      [
        "▁▁",
        -6.745438098907471
      ],
      [
        "!",
        -6.75796365737915
      ],
      [
        "?",
        -6.77497673034668
      ],
      [
        "は",
        -6.803802013397217
      ],
      [
        "▁so",
        -6.807582855224609
      ],
      [
        "▁she",
        -6.844699382781982
      ],
      [
        "▁_",
        -6.868274688720703
      ],
      [
        "▁will",
        -6.888867378234863
      ],
      [
        "▁been",
        -6.895197868347168
      ],
      [
        "▁=",
        -6.909151554107666
      ],
      [
        "▁can",
        -6.909668922424316
      ],
      [
        "▁my",
        -6.917787075042725
      ],
      [
        "▁-",
        -6.925055027008057
      ],
      [
        "▁them",
        -6.938718318939209
      ],
      [
        "▁“",
        -6.945694923400879
      ],
      [
        ".\"",
        -6.948814392089844
      ],
      [
        "▁who",
        -6.955491065979004
      ],
      [
        "]",
        -6.962680339813232
      ],
      [
        "▁me",
        -6.980616569519043
      ],
      [
        "▁would",
        -6.9807000160217285
      ],
      [
        "が",
        -6.990058898925781
      ],
      [
        "▁▁▁▁▁",
        -6.99516487121582
      ],
      [
        "▁if",
        -6.999906539916992
      ],
      [
        "▁more",
        -7.003518581390381
      ],
      [
        "▁has",
        -7.010868549346924
      ],
      [
        "▁$\\",
        -7.024500370025635
      ],
      [
        "▁there",
        -7.038188457489014
      ],
      [
        "▁said",
        -7.048201084136963
      ],
      [
        "▁no",
        -7.065525531768799
      ],
      [
        "▁when",
        -7.067932605743408
      ],
      [
        "i",
        -7.082996368408203
      ],
      [
        "x",
        -7.084780216217041
      ],
      [
        "▁A",
        -7.087508678436279
      ],
      [
        "_{",
        -7.097397804260254
      ],
      [
        "d",
        -7.104655742645264
      ],
      [
        "▁▁▁▁▁▁▁▁▁▁▁▁▁▁▁▁",
        -7.134085655212402
      ],
      [
        "▁out",
        -7.1422858238220215
      ],
      [
        "▁It",
        -7.142391204833984
      ],
      [
        "▁He",
        -7.142457962036133
      ],
      [
        "a",
        -7.148773670196533
      ],
      [
        ",\"",
        -7.1513190269470215
      ],
      [
        "▁In",
        -7.176277160644531
      ],
      [
        "▁into",
        -7.178385257720947
      ],
      [
        "▁up",
        -7.184473037719727
      ],
      [
        "I",
        -7.191601276397705
      ],
      [
        "で",
        -7.193982124328613
      ],
      [
        "e",
        -7.197391986846924
      ],
      [
        "と",
        -7.2003254890441895
      ],
      [
        "▁time",
        -7.2303314208984375
      ],
      [
        "▁your",
        -7.244684219360352
      ],
      [
        "」",
        -7.246081352233887
      ],
      [
        "を",
        -7.255167484283447
      ],
      [
        "▁other",
        -7.258318901062012
      ],
      [
        "・",
        -7.265884876251221
      ],
      [
        "▁some",
        -7.268711566925049
      ],
      [
        "▁▁▁",
        -7.271358966827393
      ],
      [
        "▁than",
        -7.280185699462891
      ],
      [
        "に",
        -7.295759677886963
      ],
      [
        "▁its",
        -7.296523094177246
      ],
      [
        "▁▁▁▁▁▁",
        -7.317878723144531
      ],
      [
        "in",
        -7.323066234588623
      ],
      [
        "▁do",
        -7.33890962600708
      ],
      [
        "▁about",
        -7.339405059814453
      ],
      [
        "m",
        -7.341671943664551
      ],
      [
        "▁our",
        -7.346742153167725
      ],
      [
        "▁only",
        -7.369911193847656
      ],
      [
        "▁what",
        -7.3742451667785645
      ],
      [
        "▁[",
        -7.376209259033203
      ],
      [
        "▁any",
        -7.390124320983887
      ],
      [
        "▁could",
        -7.400079250335693
      ],
      [
        "A",
        -7.408881187438965
      ],
      [
        "▁two",
        -7.414689540863037
      ],
      [
        "=",
        -7.426572799682617
      ],
      [
        "▁very",
        -7.434739589691162
      ],
      [
        "▁such",
        -7.455136775970459
      ],
      [
        "k",
        -7.462765693664551
      ],
      [
        "▁may",
        -7.472379207611084
      ],
      [
        "▁then",
        -7.478089332580566
      ],
      [
        "「",
        -7.492358207702637
      ],
      [
        "▁|",
        -7.495394229888916
      ],
      [
        "▁these",
        -7.49639892578125
      ],
      [
        "▁▁▁▁▁▁▁▁",
        -7.506536960601807
      ],
      [
        "▁man",
        -7.5190653800964355
      ],
      [
        "▁&",
        -7.539990425109863
      ],
      [
        "▁over",
        -7.5533928871154785
      ],
      [
        "▁like",
        -7.560164928436279
      ],
      [
        "▁This",
        -7.566372871398926
      ],
      [
        "▁first",
        -7.566819190979004
      ],
      [
        "^",
        -7.572329998016357
      ],
      [
        "S",
        -7.58123779296875
      ],
      [
        "▁But",
        -7.583806037902832
      ],
      [
        "[",
        -7.58523416519165
      ],
      [
        "▁now",
        -7.593499183654785
      ],
      [
        "▁where",
        -7.599913120269775
      ],
      [
        "１",
        -7.606629848480225
      ],
      [
        "）",
        -7.615771293640137
      ],
      [
        "（",
        -7.6206817626953125
      ],
      [
        "月",
        -7.621941089630127
      ],
      [
        "}\\",
        -7.625038146972656
      ],
      [
        "▁should",
        -7.626937389373779
      ],
      [
        "▁also",
        -7.630644798278809
      ],
      [
        "▁upon",
        -7.634626865386963
      ],
      [
        "年",
        -7.639678955078125
      ],
      [
        "▁And",
        -7.640157699584961
      ],
      [
        "p",
        -7.651813507080078
      ],
      [
        "▁made",
        -7.654455661773682
      ],
      [
        "▁'",
        -7.671582221984863
      ],
      [
        "y",
        -7.677796363830566
      ],
      [
        "{\\",
        -7.688783645629883
      ],
      [
        "end",
        -7.689499378204346
      ],
      [
        "▁little",
        -7.6977925300598145
      ],
      [
        "▁most",
        -7.707900047302246
      ],
      [
        "▁us",
        -7.717599391937256
      ],
      [
        "%",
        -7.727338790893555
      ],
      [
        "r",
        -7.729891300201416
      ],
      [
        "▁before",
        -7.732026100158691
      ],
      [
        "和",
        -7.733062744140625
      ],
      [
        "▁see",
        -7.7397685050964355
      ],
      [
        ">",
        -7.7435503005981445
      ],
      [
        "▁well",
        -7.748214244842529
      ],
      [
        "▁We",
        -7.748222827911377
      ],
      [
        "▁after",
        -7.748424053192139
      ],
      [
        "０",
        -7.761092185974121
      ],
      [
        "C",
        -7.76353645324707
      ],
      [
        "▁did",
        -7.76453971862793
      ],
      [
        "?\"",
        -7.767808437347412
      ],
      [
        "▁great",
        -7.775076389312744
      ],
      [
        "▁much",
        -7.776759147644043
      ],
      [
        "+",
        -7.781374454498291
      ],
      [
        "▁must",
        -7.782506465911865
      ],
      [
        "c",
        -7.784092426300049
      ],
      [
        "日",
        -7.787309169769287
      ],
      [
        "在",
        -7.788362503051758
      ],
      [
        "や",
        -7.797860622406006
      ],
      [
        "begin",
        -7.8116841316223145
      ],
      [
        "も",
        -7.815674781799316
      ],
      [
        "T",
        -7.840280055999756
      ],
      [
        "▁good",
        -7.840946674346924
      ],
      [
        "▁many",
        -7.844040870666504
      ],
      [
        "▁know",
        -7.848081588745117
      ],
      [
        "▁down",
        -7.857989311218262
      ],
      [
        "▁*",
        -7.861157417297363
      ],
      [
        "▁way",
        -7.869446754455566
      ],
      [
        "▁through",
        -7.879281520843506
      ],
      [
        "▁those",
        -7.884649276733398
      ],
      [
        "f",
        -7.892656326293945
      ],
      [
        "▁same",
        -7.904285907745361
      ],
      [
        "▁being",
        -7.912872791290283
      ],
      [
        "b",
        -7.9271416664123535
      ],
      [
        "▁long",
        -7.93915319442749
      ],
      [
        "▁make",
        -7.941004753112793
      ],
      [
        "▁people",
        -7.946369647979736
      ],
      [
        "】",
        -7.9485063552856445
      ],
      [
        "▁men",
        -7.9509782791137695
      ],
      [
        "▁day",
        -7.954562187194824
      ],
      [
        "|",
        -7.954719543457031
      ],
      [
        "▁how",
        -7.959632396697998
      ],
      [
        "２",
        -7.961541652679443
      ],
      [
        "▁Mr",
        -7.972867965698242
      ],
      [
        "ing",
        -7.989665985107422
      ],
      [
        "▁life",
        -7.99189567565918
      ],
      [
        "▁own",
        -7.992595672607422
      ],
      [
        "frac",
        -7.996828079223633
      ],
      [
        "▁even",
        -8.007096290588379
      ],
      [
        "　",
        -8.030308723449707
      ],
      [
        "▁old",
        -8.032411575317383
      ],
      [
        "です",
        -8.036602973937988
      ],
      [
        "▁between",
        -8.038496971130371
      ],
      [
        "j",
        -8.047308921813965
      ],
      [
        "▁each",
        -8.048493385314941
      ],
      [
        "▁under",
        -8.054764747619629
      ],
      [
        "▁work",
        -8.057901382446289
      ],
      [
        "▁They",
        -8.06226921081543
      ],
      [
        "▁back",
        -8.062410354614258
      ],
      [
        "▁every",
        -8.06637954711914
      ],
      [
        "▁found",
        -8.072561264038086
      ],
      [
        "了",
        -8.077272415161133
      ],
      [
        "▁never",
        -8.078283309936523
      ],
      [
        "B",
        -8.082798957824707
      ],
      [
        ".”",
        -8.083276748657227
      ],
      [
        "}$",
        -8.087126731872559
      ],
      [
        "▁go",
        -8.087628364562988
      ],
      [
        ").",
        -8.088364601135254
      ],
      [
        "から",
        -8.089690208435059
      ],
      [
        "!\"",
        -8.091083526611328
      ],
      [
        "▁come",
        -8.09274673461914
      ],
      [
        "▁new",
        -8.094098091125488
      ],
      [
        "▁came",
        -8.095966339111328
      ],
      [
        "g",
        -8.096359252929688
      ],
      [
        "▁She",
        -8.097436904907227
      ],
      [
        "▁without",
        -8.099738121032715
      ],
      [
        "▁If",
        -8.099857330322266
      ],
      [
        "D",
        -8.10340690612793
      ],
      [
        "▁here",
        -8.104864120483398
      ],
      [
        "R",
        -8.105362892150879
      ],
      [
        "ed",
        -8.105842590332031
      ],
      [
        "▁might",
        -8.107867240905762
      ],
      [
        "▁years",
        -8.115374565124512
      ],
      [
        "(\\",
        -8.11596393585205
      ],
      [
        "▁For",
        -8.120125770568848
      ],
      [
        "G",
        -8.120858192443848
      ],
      [
        "▁#",
        -8.125362396240234
      ],
      [
        "▁while",
        -8.125753402709961
      ],
      [
        "▁get",
        -8.126761436462402
      ],
      [
        "),",
        -8.131997108459473
      ],
      [
        "u",
        -8.140103340148926
      ],
      [
        "▁too",
        -8.145859718322754
      ],
      [
        "▁just",
        -8.148571968078613
      ],
      [
        "▁say",
        -8.152653694152832
      ],
      [
        "X",
        -8.158790588378906
      ],
      [
        "▁There",
        -8.165133476257324
      ],
      [
        "▁use",
        -8.168070793151855
      ],
      [
        "M",
        -8.177358627319336
      ],
      [
        "v",
        -8.178994178771973
      ],
      [
        "▁himself",
        -8.17945384979248
      ],
      [
        "▁+",
        -8.187271118164062
      ],
      [
        "▁take",
        -8.187981605529785
      ],
      [
        "▁【",
        -8.188026428222656
      ],
      [
        "}{",
        -8.189167022705078
      ],
      [
        "mathcal",
        -8.195486068725586
      ],
      [
        "▁C",
        -8.196045875549316
      ],
      [
        "The",
        -8.200789451599121
      ],
      [
        "N",
        -8.201617240905762
      ],
      [
        "▁again",
        -8.20355224609375
      ],
      [
        "▁still",
        -8.207855224609375
      ],
      [
        "▁three",
        -8.208356857299805
      ],
      [
        "L",
        -8.210800170898438
      ],
      [
        "▁last",
        -8.211064338684082
      ],
      [
        "▁used",
        -8.221187591552734
      ],
      [
        "▁{",
        -8.226639747619629
      ],
      [
        "▁place",
        -8.227518081665039
      ],
      [
        "▁▁▁▁▁▁▁▁▁▁▁▁",
        -8.230009078979492
      ],
      [
        "▁shall",
        -8.239007949829102
      ],
      [
        "ref",
        -8.242938995361328
      ],
      [
        "▁part",
        -8.243779182434082
      ],
      [
        "h",
        -8.243782043457031
      ],
      [
        "▁think",
        -8.246970176696777
      ],
      [
        "E",
        -8.247354507446289
      ],
      [
        "P",
        -8.247723579406738
      ],
      [
        "人",
        -8.252558708190918
      ],
      [
        "中",
        -8.255025863647461
      ],
      [
        "是",
        -8.262060165405273
      ],
      [
        "_{\\",
        -8.265007019042969
      ],
      [
        "▁set",
        -8.283794403076172
      ],
      [
        "▁right",
        -8.286757469177246
      ],
      [
        "▁As",
        -8.290183067321777
      ],
      [
        "▁hand",
        -8.290301322937012
      ],
      [
        "！",
        -8.291292190551758
      ],
      [
        "—",
        -8.300281524658203
      ],
      [
        "▁away",
        -8.30974006652832
      ],
      [
        "▁because",
        -8.311014175415039
      ],
      [
        "▁both",
        -8.313004493713379
      ],
      [
        "ll",
        -8.313026428222656
      ],
      [
        "▁▁▁▁▁▁▁▁▁",
        -8.320818901062012
      ],
      [
        "right",
        -8.321572303771973
      ],
      [
        "th",
        -8.325851440429688
      ],
      [
        "l",
        -8.330764770507812
      ],
      [
        "F",
        -8.335596084594727
      ],
      [
        "▁world",
        -8.337902069091797
      ],
      [
        "H",
        -8.340357780456543
      ],
      [
        "▁am",
        -8.34099292755127
      ],
      [
        ")$",
        -8.341108322143555
      ],
      [
        "의",
        -8.343666076660156
      ],
      [
        "left",
        -8.34531307220459
      ],
      [
        ",”",
        -8.349356651306152
      ],
      [
        "▁another",
        -8.350979804992676
      ],
      [
        "▁water",
        -8.354046821594238
      ],
      [
        "▁thought",
        -8.358354568481445
      ],
      [
        "to",
        -8.363327026367188
      ],
      [
        ");",
        -8.366540908813477
      ],
      [
        "▁went",
        -8.371277809143066
      ],
      [
        "the",
        -8.37714958190918
      ],
      [
        "z",
        -8.379168510437012
      ],
      [
        "”",
        -8.379440307617188
      ],
      [
        "▁against",
        -8.379576683044434
      ],
      [
        "▁To",
        -8.38049602508545
      ],
      [
        "▁S",
        -8.385236740112305
      ],
      [
        "and",
        -8.389175415039062
      ],
      [
        "▁off",
        -8.390251159667969
      ],
      [
        "▁M",
        -8.393075942993164
      ],
      [
        "▁left",
        -8.399209022521973
      ],
      [
        "^{",
        -8.404704093933105
      ],
      [
        "ly",
        -8.405659675598145
      ],
      [
        "▁When",
        -8.415074348449707
      ],
      [
        "label",
        -8.416253089904785
      ],
      [
        "▁find",
        -8.42267894744873
      ],
      [
        "$.",
        -8.424347877502441
      ],
      [
        "３",
        -8.426081657409668
      ],
      [
        "▁B",
        -8.427874565124512
      ],
      [
        "し",
        -8.429609298706055
      ],
      [
        "▁p",
        -8.433463096618652
      ],
      [
        "▁few",
        -8.43624496459961
      ],
      [
        "re",
        -8.438153266906738
      ],
      [
        "等",
        -8.438541412353516
      ],
      [
        "▁number",
        -8.443827629089355
      ],
      [
        "▁given",
        -8.444112777709961
      ],
      [
        "▁though",
        -8.44549560546875
      ],
      [
        "▁called",
        -8.44831657409668
      ],
      [
        "▁de",
        -8.448973655700684
      ],
      [
        "▁case",
        -8.450605392456055
      ],
      [
        "er",
        -8.452168464660645
      ],
      [
        "▁You",
        -8.455594062805176
      ],
      [
        "▁Then",
        -8.458512306213379
      ],
      [
        "}(",
        -8.459921836853027
      ],
      [
        "을",
        -8.467391014099121
      ],
      [
        "equation",
        -8.470375061035156
      ],
      [
        "mathbb",
        -8.471322059631348
      ],
      [
        "▁R",
        -8.471491813659668
      ],
      [
        "大",
        -8.475502014160156
      ],
      [
        "：",
        -8.47585678100586
      ],
      [
        "▁eyes",
        -8.477603912353516
      ],
      [
        "▁give",
        -8.481609344482422
      ],
      [
        "▁▁▁▁▁▁▁▁▁▁▁▁▁",
        -8.486617088317871
      ],
      [
        "*",
        -8.487696647644043
      ],
      [
        "▁God",
        -8.489606857299805
      ],
      [
        "▁name",
        -8.492640495300293
      ],
      [
        "▁yet",
        -8.498222351074219
      ],
      [
        "▁once",
        -8.503694534301758
      ],
      [
        "alpha",
        -8.50794506072998
      ],
      [
        "▁far",
        -8.518545150756836
      ],
      [
        "▁head",
        -8.525504112243652
      ],
      [
        "▁young",
        -8.52580738067627
      ],
      [
        "上",
        -8.530828475952148
      ],
      [
        "有",
        -8.531231880187988
      ],
      [
        "▁always",
        -8.531604766845703
      ],
      [
        "▁small",
        -8.535310745239258
      ],
      [
        "▁don",
        -8.535651206970215
      ],
      [
        "▁ever",
        -8.540793418884277
      ],
      [
        "▁put",
        -8.551490783691406
      ],
      [
        "▁side",
        -8.55297565460205
      ],
      [
        "▁things",
        -8.553878784179688
      ],
      [
        "▁different",
        -8.564098358154297
      ],
      [
        "▁face",
        -8.56425666809082
      ],
      [
        "$,",
        -8.564746856689453
      ],
      [
        "K",
        -8.56584358215332
      ],
      [
        "▁high",
        -8.567891120910645
      ],
      [
        "▁large",
        -8.574896812438965
      ],
      [
        "▁P",
        -8.583290100097656
      ],
      [
        "cite",
        -8.584029197692871
      ],
      [
        "o",
        -8.584141731262207
      ],
      [
        "▁does",
        -8.58565902709961
      ],
      [
        "▁x",
        -8.587688446044922
      ],
      [
        "▁house",
        -8.588421821594238
      ],
      [
        "q",
        -8.591567039489746
      ],
      [
        "▁order",
        -8.593130111694336
      ],
      [
        "▁took",
        -8.59782886505127
      ],
      [
        "▁<",
        -8.606145858764648
      ],
      [
        "▁i",
        -8.60783863067627
      ],
      [
        "▁end",
        -8.607892036437988
      ],
      [
        "▁nothing",
        -8.613338470458984
      ],
      [
        "▁At",
        -8.61447811126709
      ],
      [
        "▁His",
        -8.615519523620605
      ],
      [
        "▁let",
        -8.617655754089355
      ],
      [
        "▁country",
        -8.62117862701416
      ],
      [
        "▁better",
        -8.623367309570312
      ],
      [
        "▁night",
        -8.629495620727539
      ],
      [
        "에",
        -8.636801719665527
      ],
      [
        "▁home",
        -8.639217376708984
      ],
      [
        "w",
        -8.643298149108887
      ],
      [
        "▁whole",
        -8.643930435180664
      ],
      [
        "▁What",
        -8.650673866271973
      ],
      [
        "▁saw",
        -8.651450157165527
      ],
      [
        "▁H",
        -8.653546333312988
      ],
      [
        "▁seen",
        -8.654650688171387
      ],
      [
        "▁T",
        -8.656476974487305
      ],
      [
        "▁having",
        -8.65838623046875
      ],
      [
        ")\\",
        -8.661396026611328
      ],
      [
        "▁「",
        -8.66360855102539
      ],
      [
        "▁point",
        -8.669231414794922
      ],
      [
        "▁THE",
        -8.669285774230957
      ],
      [
        "▁done",
        -8.673019409179688
      ],
      [
        "▁form",
        -8.67421817779541
      ],
      [
        "▁power",
        -8.676769256591797
      ],
      [
        "▁look",
        -8.677337646484375
      ],
      [
        "▁year",
        -8.678955078125
      ],
      [
        "~",
        -8.679061889648438
      ],
      [
        "▁state",
        -8.681480407714844
      ],
      [
        "▁heart",
        -8.682123184204102
      ],
      [
        "▁following",
        -8.682588577270508
      ],
      [
        "▁among",
        -8.683206558227539
      ],
      [
        "▁mind",
        -8.68472957611084
      ],
      [
        "▁during",
        -8.688562393188477
      ],
      [
        "V",
        -8.690557479858398
      ],
      [
        "▁best",
        -8.691597938537598
      ],
      [
        "▁E",
        -8.691654205322266
      ],
      [
        "する",
        -8.693255424499512
      ],
      [
        "▁since",
        -8.693888664245605
      ],
      [
        "▁course",
        -8.694230079650879
      ],
      [
        "}}",
        -8.695330619812012
      ],
      [
        "▁going",
        -8.696438789367676
      ],
      [
        "▁days",
        -8.7022705078125
      ],
      [
        "▁however",
        -8.706275939941406
      ],
      [
        "▁light",
        -8.710308074951172
      ],
      [
        "▁half",
        -8.714512825012207
      ],
      [
        "▁above",
        -8.714628219604492
      ],
      [
        "一",
        -8.715394973754883
      ],
      [
        "▁▁▁▁▁▁▁",
        -8.715710639953613
      ],
      [
        "▁So",
        -8.716550827026367
      ],
      [
        "与",
        -8.716590881347656
      ],
      [
        "▁On",
        -8.718169212341309
      ],
      [
        "▁love",
        -8.71859359741211
      ],
      [
        "▁less",
        -8.72085189819336
      ],
      [
        "▁D",
        -8.723136901855469
      ],
      [
        "▁thing",
        -8.724973678588867
      ],
      [
        "▁present",
        -8.729135513305664
      ],
      [
        "▁children",
        -8.732278823852539
      ],
      [
        "이",
        -8.73420524597168
      ],
      [
        "...",
        -8.736796379089355
      ],
      [
        "▁enough",
        -8.739542007446289
      ],
      [
        "４",
        -8.74018383026123
      ],
      [
        "&",
        -8.744972229003906
      ],
      [
        "▁until",
        -8.747345924377441
      ],
      [
        "▁That",
        -8.752142906188965
      ],
      [
        "▁tell",
        -8.75367259979248
      ],
      [
        "▁L",
        -8.754868507385254
      ],
      [
        "▁often",
        -8.758868217468262
      ],
      [
        "▁need",
        -8.761451721191406
      ],
      [
        "な",
        -8.763175010681152
      ],
      [
        "▁help",
        -8.764695167541504
      ],
      [
        "▁known",
        -8.76612663269043
      ],
      [
        "▁something",
        -8.767899513244629
      ],
      [
        "}_",
        -8.768830299377441
      ],
      [
        "▁father",
        -8.771068572998047
      ],
      [
        "▁want",
        -8.771323204040527
      ],
      [
        "▁using",
        -8.771536827087402
      ],
      [
        "ve",
        -8.77919864654541
      ],
      [
        "▁No",
        -8.7822847366333
      ],
      [
        "为",
        -8.790453910827637
      ],
      [
        "▁system",
        -8.792356491088867
      ],
      [
        "▁almost",
        -8.793110847473145
      ],
      [
        "▁F",
        -8.794696807861328
      ],
      [
        "▁fact",
        -8.795351028442383
      ],
      [
        "▁taken",
        -8.796501159667969
      ],
      [
        "▁data",
        -8.797567367553711
      ],
      [
        "es",
        -8.797879219055176
      ],
      [
        "▁got",
        -8.79991626739502
      ],
      [
        "我",
        -8.800140380859375
      ],
      [
        "▁told",
        -8.800223350524902
      ],
      [
        "した",
        -8.80119800567627
      ],
      [
        "▁return",
        -8.803808212280273
      ],
      [
        "▁words",
        -8.806880950927734
      ],
      [
        "…",
        -8.813663482666016
      ],
      [
        "▁body",
        -8.818798065185547
      ],
      [
        "５",
        -8.820155143737793
      ],
      [
        "▁asked",
        -8.82026481628418
      ],
      [
        "▁next",
        -8.83661937713623
      ],
      [
        "▁true",
        -8.837729454040527
      ],
      [
        "不",
        -8.83903980255127
      ],
      [
        "▁looked",
        -8.840536117553711
      ],
      [
        "▁By",
        -8.841275215148926
      ],
      [
        "▁whom",
        -8.844048500061035
      ],
      [
        "▁within",
        -8.8447847366333
      ],
      [
        "▁Mrs",
        -8.845141410827637
      ],
      [
        "lambda",
        -8.847675323486328
      ],
      [
        "mu",
        -8.849141120910645
      ],
      [
        "▁others",
        -8.849876403808594
      ],
      [
        "▁moment",
        -8.851507186889648
      ],
      [
        "▁seemed",
        -8.852027893066406
      ],
      [
        "▁soon",
        -8.853341102600098
      ],
      [
        "▁means",
        -8.862005233764648
      ],
      [
        "▁full",
        -8.866724014282227
      ],
      [
        "는",
        -8.867122650146484
      ],
      [
        "▁heard",
        -8.867162704467773
      ],
      [
        "You",
        -8.872318267822266
      ],
      [
        "小",
        -8.873919486999512
      ],
      [
        "▁second",
        -8.8757963180542
      ],
      [
        "int",
        -8.876190185546875
      ],
      [
        "▁###",
        -8.876509666442871
      ],
      [
        "など",
        -8.882048606872559
      ],
      [
        "して",
        -8.883041381835938
      ],
      [
        "▁G",
        -8.88489818572998
      ],
      [
        "||",
        -8.8854398727417
      ],
      [
        "▁woman",
        -8.886058807373047
      ],
      [
        "▁whose",
        -8.888749122619629
      ],
      [
        "▁New",
        -8.889286041259766
      ],
      [
        "▁self",
        -8.889626502990723
      ],
      [
        "<",
        -8.88978099822998
      ],
      [
        "▁four",
        -8.890299797058105
      ],
      [
        "▁quite",
        -8.893571853637695
      ],
      [
        "W",
        -8.895398139953613
      ],
      [
        "▁{\\",
        -8.897574424743652
      ],
      [
        "分",
        -8.901312828063965
      ],
      [
        "▁N",
        -8.901322364807129
      ],
      [
        "には",
        -8.901840209960938
      ],
      [
        "▁together",
        -8.90186595916748
      ],
      [
        "对",
        -8.902276039123535
      ],
      [
        "▁general",
        -8.903867721557617
      ],
      [
        "▁white",
        -8.906133651733398
      ],
      [
        "를",
        -8.906205177307129
      ],
      [
        "▁around",
        -8.90812873840332
      ],
      [
        "},",
        -8.909536361694336
      ],
      [
        "▁possible",
        -8.909537315368652
      ],
      [
        "▁hands",
        -8.910639762878418
      ],
      [
        "▁knew",
        -8.91118335723877
      ],
      [
        "▁cannot",
        -8.911200523376465
      ],
      [
        "O",
        -8.912521362304688
      ],
      [
        "他",
        -8.919495582580566
      ],
      [
        "▁rather",
        -8.921677589416504
      ],
      [
        "▁themselves",
        -8.921866416931152
      ],
      [
        "▁certain",
        -8.922231674194336
      ],
      [
        "▁along",
        -8.923179626464844
      ],
      [
        "▁mother",
        -8.926024436950684
      ],
      [
        "▁death",
        -8.92691707611084
      ],
      [
        "::",
        -8.92706298828125
      ],
      [
        "では",
        -8.929035186767578
      ],
      [
        "▁These",
        -8.93083667755127
      ],
      [
        "▁several",
        -8.93107795715332
      ],
      [
        "▁‘",
        -8.931884765625
      ],
      [
        "▁room",
        -8.932350158691406
      ],
      [
        "은",
        -8.934163093566895
      ],
      [
        "▁gave",
        -8.93796443939209
      ],
      [
        "▁word",
        -8.939452171325684
      ],
      [
        "▁J",
        -8.94069766998291
      ],
      [
        "▁public",
        -8.941079139709473
      ],
      [
        "pi",
        -8.94230842590332
      ],
      [
        "▁show",
        -8.944337844848633
      ],
      [
        "▁line",
        -8.94510269165039
      ],
      [
        "▁near",
        -8.948904037475586
      ],
      [
        "▁Let",
        -8.95088005065918
      ],
      [
        "▁brought",
        -8.950942993164062
      ],
      [
        "▁open",
        -8.952621459960938
      ],
      [
        "用",
        -8.955636024475098
      ],
      [
        "▁One",
        -8.958929061889648
      ],
      [
        "▁least",
        -8.95961856842041
      ],
      [
        "▁times",
        -8.968951225280762
      ],
      [
        "▁matter",
        -8.969082832336426
      ],
      [
        "▁says",
        -8.97262954711914
      ],
      [
        "？",
        -8.972846984863281
      ],
      [
        "到",
        -8.975072860717773
      ],
      [
        "com",
        -8.97695541381836
      ],
      [
        "Y",
        -8.977439880371094
      ],
      [
        "_\\",
        -8.978302955627441
      ],
      [
        "▁thus",
        -8.981928825378418
      ],
      [
        "▁feet",
        -8.984286308288574
      ],
      [
        "地",
        -8.991042137145996
      ],
      [
        "Z",
        -8.992768287658691
      ],
      [
        "le",
        -8.99412727355957
      ],
      [
        "▁child",
        -8.995652198791504
      ],
      [
        ",\\",
        -8.995932579040527
      ],
      [
        "▁O",
        -8.99954891204834
      ],
      [
        "}^",
        -9.00075912475586
      ],
      [
        "가",
        -9.002187728881836
      ],
      [
        "U",
        -9.003087043762207
      ],
      [
        "▁W",
        -9.003484725952148
      ],
      [
        "▁}",
        -9.00354290008545
      ],
      [
        "▁important",
        -9.005520820617676
      ],
      [
        "▁All",
        -9.006385803222656
      ],
      [
        "▁began",
        -9.008536338806152
      ],
      [
        "▁class",
        -9.009623527526855
      ],
      [
        "▁women",
        -9.016637802124023
      ],
      [
        "▁kind",
        -9.018509864807129
      ],
      [
        "円",
        -9.020708084106445
      ],
      [
        "▁either",
        -9.023573875427246
      ],
      [
        "}_{",
        -9.024867057800293
      ],
      [
        "也",
        -9.029717445373535
      ],
      [
        "という",
        -9.030960083007812
      ],
      [
        "』",
        -9.033732414245605
      ],
      [
        "▁##",
        -9.035250663757324
      ],
      [
        "sum",
        -9.035595893859863
      ],
      [
        "▁keep",
        -9.036566734313965
      ],
      [
        "▁become",
        -9.037052154541016
      ],
      [
        "▁family",
        -9.03748607635498
      ],
      [
        "▁value",
        -9.039170265197754
      ],
      [
        "Q",
        -9.042336463928223
      ],
      [
        "▁air",
        -9.044297218322754
      ],
      [
        "▁Lord",
        -9.045605659484863
      ],
      [
        "It",
        -9.046804428100586
      ],
      [
        "▁function",
        -9.047436714172363
      ],
      [
        "▁already",
        -9.047640800476074
      ],
      [
        "被",
        -9.047794342041016
      ],
      [
        "▁human",
        -9.047906875610352
      ],
      [
        "text",
        -9.049466133117676
      ],
      [
        "▁turned",
        -9.052630424499512
      ],
      [
        "水",
        -9.054519653320312
      ],
      [
        "▁morning",
        -9.055821418762207
      ],
      [
        "▁V",
        -9.056453704833984
      ],
      [
        "or",
        -9.058269500732422
      ],
      [
        "▁door",
        -9.061180114746094
      ],
      [
        "▁English",
        -9.067662239074707
      ],
      [
        "▁\\\\",
        -9.067917823791504
      ],
      [
        "第",
        -9.069378852844238
      ],
      [
        "is",
        -9.069729804992676
      ],
      [
        "か",
        -9.070101737976074
      ],
      [
        "▁result",
        -9.073122024536133
      ],
      [
        "▁war",
        -9.073190689086914
      ],
      [
        "▁f",
        -9.073914527893066
      ],
      [
        "子",
        -9.074728012084961
      ],
      [
        "▁nor",
        -9.07591438293457
      ],
      [
        "▁John",
        -9.07602310180664
      ],
      [
        "leq",
        -9.077805519104004
      ],
      [
        "▁With",
        -9.080655097961426
      ],
      [
        "▁study",
        -9.086175918579102
      ],
      [
        "▁common",
        -9.086527824401855
      ],
      [
        "下",
        -9.087254524230957
      ],
      [
        "^{\\",
        -9.09074878692627
      ],
      [
        "▁land",
        -9.091278076171875
      ],
      [
        "})",
        -9.09216022491455
      ],
      [
        "it",
        -9.094365119934082
      ],
      [
        "▁question",
        -9.097216606140137
      ],
      [
        "▁K",
        -9.098359107971191
      ],
      [
        "▁c",
        -9.099055290222168
      ],
      [
        "beta",
        -9.099581718444824
      ],
      [
        "以",
        -9.100903511047363
      ],
      [
        "》",
        -9.103769302368164
      ],
      [
        "性",
        -9.105957984924316
      ],
      [
        "~\\",
        -9.109132766723633
      ],
      [
        "▁n",
        -9.109167098999023
      ],
      [
        "。\"",
        -9.110929489135742
      ],
      [
        "新",
        -9.111501693725586
      ],
      [
        "▁itself",
        -9.112634658813477
      ],
      [
        "▁poor",
        -9.114052772521973
      ],
      [
        "▁able",
        -9.117798805236816
      ],
      [
        "}^{",
        -9.118561744689941
      ],
      [
        "▁felt",
        -9.120832443237305
      ],
      [
        "▁money",
        -9.122064590454102
      ],
      [
        "～",
        -9.125170707702637
      ],
      [
        "▁Now",
        -9.125429153442383
      ],
      [
        "sigma",
        -9.125456809997559
      ],
      [
        "▁short",
        -9.125722885131836
      ],
      [
        "▁change",
        -9.127815246582031
      ],
      [
        "*}",
        -9.128399848937988
      ],
      [
        "▁information",
        -9.128451347351074
      ],
      [
        "▁nature",
        -9.128827095031738
      ],
      [
        "J",
        -9.131099700927734
      ],
      [
        "▁–",
        -9.131360054016113
      ],
      [
        "▁whether",
        -9.131796836853027
      ],
      [
        "６",
        -9.131867408752441
      ],
      [
        "▁sent",
        -9.132121086120605
      ],
      [
        "▁example",
        -9.133177757263184
      ],
      [
        "eq",
        -9.133845329284668
      ],
      [
        "://",
        -9.13463306427002
      ],
      [
        "《",
        -9.135686874389648
      ],
      [
        "▁round",
        -9.135818481445312
      ],
      [
        "▁early",
        -9.138620376586914
      ],
      [
        "就",
        -9.138813018798828
      ],
      [
        "▁fire",
        -9.139188766479492
      ],
      [
        "▁read",
        -9.139634132385254
      ],
      [
        "▁・",
        -9.139878273010254
      ],
      [
        "ので",
        -9.140920639038086
      ],
      [
        "この",
        -9.14139175415039
      ],
      [
        "而",
        -9.144355773925781
      ],
      [
        "▁therefore",
        -9.14545726776123
      ],
      [
        "▁sure",
        -9.147500038146973
      ],
      [
        "▁making",
        -9.148293495178223
      ],
      [
        "▁St",
        -9.148595809936523
      ],
      [
        "将",
        -9.149249076843262
      ],
      [
        "后",
        -9.150859832763672
      ],
      [
        "▁mean",
        -9.151820182800293
      ],
      [
        "▁person",
        -9.151925086975098
      ],
      [
        "▁believe",
        -9.152217864990234
      ],
      [
        "▁ground",
        -9.155223846435547
      ],
      [
        "▁city",
        -9.155617713928223
      ],
      [
        "):",
        -9.15710163116455
      ],
      [
        "▁▁▁▁▁▁▁▁▁▁",
        -9.157837867736816
      ],
      [
        "rm",
        -9.158085823059082
      ],
      [
        "mathrm",
        -9.158612251281738
      ],
      [
        "会",
        -9.15916633605957
      ],
      [
        "▁X",
        -9.159623146057129
      ],
      [
        "▁voice",
        -9.159692764282227
      ],
      [
        "▁OF",
        -9.162673950195312
      ],
      [
        "▁became",
        -9.164231300354004
      ],
      [
        "▁수",
        -9.16467571258545
      ],
      [
        "▁call",
        -9.165032386779785
      ],
      [
        "mathbf",
        -9.165678024291992
      ],
      [
        "▁anything",
        -9.167596817016602
      ],
      [
        "▁passed",
        -9.173421859741211
      ],
      [
        "▁d",
        -9.173582077026367
      ],
      [
        "として",
        -9.177087783813477
      ],
      [
        "▁held",
        -9.179577827453613
      ],
      [
        "▁//",
        -9.180830001831055
      ],
      [
        "▁free",
        -9.180859565734863
      ],
      [
        "って",
        -9.183798789978027
      ],
      [
        "▁How",
        -9.184538841247559
      ],
      [
        "▁U",
        -9.187170028686523
      ],
      [
        "And",
        -9.187322616577148
      ],
      [
        "▁care",
        -9.189529418945312
      ],
      [
        "?”",
        -9.189789772033691
      ],
      [
        "でも",
        -9.190868377685547
      ],
      [
        "▁v",
        -9.19106388092041
      ],
      [
        "▁why",
        -9.193414688110352
      ],
      [
        "▁King",
        -9.193649291992188
      ],
      [
        "▁▁▁▁▁▁▁▁▁▁▁▁▁▁▁",
        -9.193771362304688
      ],
      [
        "その",
        -9.196290016174316
      ],
      [
        "align",
        -9.198016166687012
      ],
      [
        "▁later",
        -9.198610305786133
      ],
      [
        "，",
        -9.199360847473145
      ],
      [
        "要",
        -9.20545768737793
      ],
      [
        "▁rest",
        -9.206019401550293
      ],
      [
        "▁friend",
        -9.206624031066895
      ],
      [
        "▁space",
        -9.2071533203125
      ],
      [
        "▁model",
        -9.207810401916504
      ],
      [
        "▁low",
        -9.208602905273438
      ],
      [
        "▁stood",
        -9.209829330444336
      ],
      [
        "▁wife",
        -9.212675094604492
      ],
      [
        "▁hundred",
        -9.214701652526855
      ],
      [
        "▁five",
        -9.215616226196289
      ],
      [
        "infty",
        -9.216307640075684
      ],
      [
        "来",
        -9.219330787658691
      ],
      [
        "▁age",
        -9.220449447631836
      ],
      [
        "市",
        -9.221259117126465
      ],
      [
        "gamma",
        -9.22246265411377
      ],
      [
        "▁After",
        -9.222979545593262
      ],
      [
        "時",
        -9.223611831665039
      ],
      [
        "▁till",
        -9.223650932312012
      ],
      [
        "▁black",
        -9.224115371704102
      ],
      [
        "高",
        -9.225496292114258
      ],
      [
        "=\"",
        -9.227219581604004
      ],
      [
        "▁real",
        -9.228697776794434
      ],
      [
        "▁reason",
        -9.229559898376465
      ],
      [
        "本",
        -9.231377601623535
      ],
      [
        "▁son",
        -9.233832359313965
      ],
      [
        "▁field",
        -9.234053611755371
      ],
      [
        "▁\\<",
        -9.234480857849121
      ],
      [
        "▁non",
        -9.235552787780762
      ],
      [
        "▁cause",
        -9.235738754272461
      ],
      [
        "▁England",
        -9.236868858337402
      ],
      [
        "▁girl",
        -9.238828659057617
      ],
      [
        "▁e",
        -9.239089965820312
      ],
      [
        "delta",
        -9.239198684692383
      ],
      [
        "if",
        -9.24022388458252
      ],
      [
        "▁really",
        -9.243383407592773
      ],
      [
        "▁$$",
        -9.247124671936035
      ],
      [
        "▁sea",
        -9.247515678405762
      ],
      [
        "▁close",
        -9.248068809509277
      ],
      [
        "▁results",
        -9.249080657958984
      ],
      [
        "出",
        -9.249761581420898
      ],
      [
        "▁myself",
        -9.249767303466797
      ],
      [
        "▁book",
        -9.253021240234375
      ],
      [
        "你",
        -9.25663948059082
      ],
      [
        "▁across",
        -9.257593154907227
      ],
      [
        "▁m",
        -9.258667945861816
      ],
      [
        "▁further",
        -9.25953483581543
      ],
      [
        "phi",
        -9.260839462280273
      ],
      [
        "▁alone",
        -9.262263298034668
      ],
      [
        "▁strong",
        -9.265554428100586
      ],
      [
        "▁law",
        -9.269134521484375
      ],
      [
        "theta",
        -9.269421577453613
      ],
      [
        "る",
        -9.270275115966797
      ],
      [
        "on",
        -9.270419120788574
      ],
      [
        "▁type",
        -9.271166801452637
      ],
      [
        "▁hard",
        -9.271942138671875
      ],
      [
        "tau",
        -9.271984100341797
      ],
      [
        "▁position",
        -9.273286819458008
      ],
      [
        "No",
        -9.276474952697754
      ],
      [
        "▁blood",
        -9.27754020690918
      ],
      [
        "▁else",
        -9.278100967407227
      ],
      [
        "▁perhaps",
        -9.279550552368164
      ],
      [
        "▁necessary",
        -9.283185958862305
      ],
      [
        "rho",
        -9.28322982788086
      ],
      [
        "▁business",
        -9.284159660339355
      ],
      [
        "者",
        -9.28901195526123
      ],
      [
        "\",",
        -9.290742874145508
      ],
      [
        "▁history",
        -9.290831565856934
      ],
      [
        "What",
        -9.292400360107422
      ],
      [
        "▁b",
        -9.29429817199707
      ],
      [
        "▁French",
        -9.29610538482666
      ],
      [
        "▁school",
        -9.297534942626953
      ],
      [
        "金",
        -9.29755973815918
      ],
      [
        "▁leave",
        -9.297951698303223
      ],
      [
        "▁American",
        -9.299213409423828
      ],
      [
        "▁natural",
        -9.300009727478027
      ],
      [
        "▁effect",
        -9.300704002380371
      ],
      [
        "▁o",
        -9.304221153259277
      ],
      [
        "al",
        -9.304567337036133
      ],
      [
        "▁An",
        -9.305145263671875
      ],
      [
        "时",
        -9.305290222167969
      ],
      [
        "▁paper",
        -9.306089401245117
      ],
      [
        "▁subject",
        -9.309760093688965
      ],
      [
        "▁Miss",
        -9.311657905578613
      ],
      [
        "▁behind",
        -9.312236785888672
      ],
      [
        "bar",
        -9.312273979187012
      ],
      [
        "都",
        -9.313511848449707
      ],
      [
        "さん",
        -9.316473007202148
      ],
      [
        "▁Sir",
        -9.318163871765137
      ],
      [
        "名",
        -9.318194389343262
      ],
      [
        "▁indeed",
        -9.318422317504883
      ],
      [
        "}(\\",
        -9.31875991821289
      ],
      [
        "()",
        -9.318963050842285
      ],
      [
        "▁From",
        -9.319596290588379
      ],
      [
        "从",
        -9.320584297180176
      ],
      [
        "▁herself",
        -9.323243141174316
      ],
      [
        "着",
        -9.324831008911133
      ],
      [
        "▁(\\",
        -9.32499885559082
      ],
      [
        "▁hope",
        -9.326586723327637
      ],
      [
        "as",
        -9.328856468200684
      ],
      [
        "▁boy",
        -9.329972267150879
      ],
      [
        "▁health",
        -9.330897331237793
      ],
      [
        "▁story",
        -9.33238410949707
      ],
      [
        "도",
        -9.333430290222168
      ],
      [
        "▁food",
        -9.333983421325684
      ],
      [
        "▁group",
        -9.335478782653809
      ],
      [
        "部",
        -9.337615966796875
      ],
      [
        "▁town",
        -9.338601112365723
      ],
      [
        "▁feel",
        -9.338714599609375
      ],
      [
        "▁account",
        -9.33937931060791
      ],
      [
        "▁gone",
        -9.340033531188965
      ],
      [
        "▁However",
        -9.341012954711914
      ],
      [
        "▁>",
        -9.341282844543457
      ],
      [
        "天",
        -9.342748641967773
      ],
      [
        "７",
        -9.34342098236084
      ],
      [
        "▁letter",
        -9.343831062316895
      ],
      [
        "▁sense",
        -9.344355583190918
      ],
      [
        "『",
        -9.34475040435791
      ],
      [
        "->",
        -9.34492015838623
      ],
      [
        "▁idea",
        -9.345778465270996
      ],
      [
        "partial",
        -9.346516609191895
      ],
      [
        "家",
        -9.347424507141113
      ],
      [
        "▁king",
        -9.347585678100586
      ],
      [
        "▁view",
        -9.348422050476074
      ],
      [
        "과",
        -9.348971366882324
      ],
      [
        "▁turn",
        -9.351207733154297
      ],
      [
        "▁single",
        -9.354731559753418
      ],
      [
        "▁understand",
        -9.355854034423828
      ],
      [
        "▁friends",
        -9.35608196258545
      ],
      [
        "▁lost",
        -9.35637378692627
      ],
      [
        "▁length",
        -9.356939315795898
      ],
      [
        "について",
        -9.357406616210938
      ],
      [
        "▁process",
        -9.357556343078613
      ],
      [
        "前",
        -9.357585906982422
      ],
      [
        "eqref",
        -9.358263969421387
      ],
      [
        "▁States",
        -9.358397483825684
      ],
      [
        "▁hear",
        -9.35876178741455
      ],
      [
        "多",
        -9.359838485717773
      ],
      [
        "▁seems",
        -9.36167049407959
      ],
      [
        "▁y",
        -9.363703727722168
      ],
      [
        "times",
        -9.364212036132812
      ],
      [
        "▁received",
        -9.36435317993164
      ],
      [
        "▁interest",
        -9.36508846282959
      ],
      [
        "回",
        -9.365656852722168
      ],
      [
        "▁towards",
        -9.367471694946289
      ],
      [
        "▁Here",
        -9.367966651916504
      ],
      [
        "$-",
        -9.368393898010254
      ],
      [
        "ell",
        -9.36923885345459
      ],
      [
        ".]",
        -9.36975383758545
      ],
      [
        "、「",
        -9.370877265930176
      ],
      [
        "▁live",
        -9.371228218078613
      ],
      [
        "▁manner",
        -9.372313499450684
      ],
      [
        "▁per",
        -9.372565269470215
      ],
      [
        "))",
        -9.37270450592041
      ],
      [
        "한",
        -9.372803688049316
      ],
      [
        "点",
        -9.372858047485352
      ],
      [
        "中国",
        -9.374907493591309
      ],
      [
        "▁energy",
        -9.375399589538574
      ],
      [
        "}.",
        -9.379205703735352
      ],
      [
        "之",
        -9.380516052246094
      ],
      [
        "▁character",
        -9.381285667419434
      ],
      [
        "▁force",
        -9.382290840148926
      ],
      [
        "▁lay",
        -9.384910583496094
      ],
      [
        "▁due",
        -9.386462211608887
      ],
      [
        "}{\\",
        -9.387701034545898
      ],
      [
        "▁answer",
        -9.38859748840332
      ],
      [
        "▁hour",
        -9.390117645263672
      ],
      [
        "可",
        -9.391677856445312
      ],
      [
        "▁earth",
        -9.392128944396973
      ],
      [
        "▁looking",
        -9.39297866821289
      ],
      [
        "^\\",
        -9.393017768859863
      ],
      [
        "▁coming",
        -9.398774147033691
      ],
      [
        "▁Of",
        -9.399106979370117
      ],
      [
        "である",
        -9.399589538574219
      ],
      [
        "但",
        -9.399735450744629
      ],
      [
        "▁various",
        -9.400090217590332
      ],
      [
        "▁problem",
        -9.400382995605469
      ],
      [
        "that",
        -9.400568962097168
      ],
      [
        "▁particular",
        -9.402058601379395
      ],
      [
        "８",
        -9.403454780578613
      ],
      [
        "▁My",
        -9.404507637023926
      ],
      [
        "▁dear",
        -9.405272483825684
      ],
      [
        "▁clear",
        -9.406702041625977
      ],
      [
        "▁dead",
        -9.408271789550781
      ],
      [
        "及",
        -9.411209106445312
      ],
      [
        "化",
        -9.412657737731934
      ],
      [
        "▁•",
        -9.412983894348145
      ],
      [
        "em",
        -9.41364574432373
      ],
      [
        "로",
        -9.415107727050781
      ],
      [
        "▁red",
        -9.417862892150879
      ],
      [
        "好",
        -9.417962074279785
      ],
      [
        "▁knowledge",
        -9.4187593460083
      ],
      [
        "▁government",
        -9.420689582824707
      ],
      [
        "^{-",
        -9.424057006835938
      ],
      [
        "▁Dr",
        -9.424734115600586
      ],
      [
        "▁below",
        -9.428348541259766
      ],
      [
        "▁followed",
        -9.429718017578125
      ],
      [
        "山",
        -9.43066120147705
      ],
      [
        "▁taking",
        -9.433723449707031
      ],
      [
        "▁condition",
        -9.435497283935547
      ],
      [
        "▁dark",
        -9.435537338256836
      ],
      [
        "Oh",
        -9.436006546020508
      ],
      [
        "omega",
        -9.436858177185059
      ],
      [
        "고",
        -9.438909530639648
      ],
      [
        "▁period",
        -9.43895149230957
      ],
      [
        "三",
        -9.439912796020508
      ],
      [
        "▁kept",
        -9.441279411315918
      ],
      [
        "▁speak",
        -9.441314697265625
      ],
      [
        "xi",
        -9.444010734558105
      ],
      [
        "▁Some",
        -9.44498062133789
      ],
      [
        "▁▁▁▁▁▁▁▁▁▁▁",
        -9.45112133026123
      ],
      [
        "cdot",
        -9.451200485229492
      ],
      [
        "▁size",
        -9.451492309570312
      ],
      [
        "hat",
        -9.452409744262695
      ],
      [
        "▁action",
        -9.4527587890625
      ],
      [
        "for",
        -9.453916549682617
      ],
      [
        "▁▁▁▁▁▁▁▁▁▁▁▁▁▁",
        -9.457175254821777
      ],
      [
        "▁cried",
        -9.457502365112305
      ],
      [
        "或",
        -9.457917213439941
      ],
      [
        "–",
        -9.458582878112793
      ],
      [
        "心",
        -9.461270332336426
      ],
      [
        "▁Q",
        -9.461443901062012
      ],
      [
        "▁sometimes",
        -9.461603164672852
      ],
      [
        "But",
        -9.462990760803223
      ],
      [
        "〜",
        -9.464466094970703
      ],
      [
        "에서",
        -9.467341423034668
      ],
      [
        "Illustration",
        -9.467450141906738
      ],
      [
        "▁run",
        -9.467564582824707
      ],
      [
        "us",
        -9.469522476196289
      ],
      [
        "We",
        -9.471366882324219
      ],
      [
        "まで",
        -9.471593856811523
      ],
      [
        "▁longer",
        -9.471826553344727
      ],
      [
        "▁six",
        -9.47393798828125
      ],
      [
        "▁table",
        -9.474011421203613
      ],
      [
        "▁past",
        -9.474536895751953
      ],
      [
        "Yes",
        -9.478089332580566
      ],
      [
        "▁cut",
        -9.478623390197754
      ],
      [
        "▁thou",
        -9.47878646850586
      ],
      [
        "▁fine",
        -9.479151725769043
      ],
      [
        "色",
        -9.479768753051758
      ],
      [
        "また",
        -9.48064136505127
      ],
      [
        "说",
        -9.481452941894531
      ],
      [
        "▁hold",
        -9.481781005859375
      ],
      [
        "man",
        -9.48204231262207
      ],
      [
        "▁replied",
        -9.483171463012695
      ],
      [
        "道",
        -9.484411239624023
      ],
      [
        "▁hours",
        -9.485736846923828
      ],
      [
        "美",
        -9.486855506896973
      ],
      [
        "▁shown",
        -9.487235069274902
      ],
      [
        "▁carried",
        -9.488358497619629
      ],
      [
        "▁distance",
        -9.48841381072998
      ],
      [
        "▁object",
        -9.488462448120117
      ],
      [
        "▁ten",
        -9.488471984863281
      ],
      [
        "id",
        -9.489402770996094
      ],
      [
        "▁$(",
        -9.491087913513184
      ],
      [
        "へ",
        -9.49298095703125
      ],
      [
        "日本",
        -9.493401527404785
      ],
      [
        "▁truth",
        -9.493667602539062
      ],
      [
        "▁cases",
        -9.495174407958984
      ],
      [
        "▁miles",
        -9.495213508605957
      ],
      [
        "▁service",
        -9.497241020202637
      ],
      [
        "▁simple",
        -9.500325202941895
      ],
      [
        "−",
        -9.503633499145508
      ],
      [
        "an",
        -9.503935813903809
      ],
      [
        "▁river",
        -9.504874229431152
      ],
      [
        "of",
        -9.505477905273438
      ],
      [
        "▁deep",
        -9.50659465789795
      ],
      [
        "▁...",
        -9.506930351257324
      ],
      [
        "▁method",
        -9.50710678100586
      ],
      [
        "▁un",
        -9.507522583007812
      ],
      [
        "▁conditions",
        -9.507536888122559
      ],
      [
        "▁answered",
        -9.508105278015137
      ],
      [
        "▁twenty",
        -9.50927734375
      ],
      [
        "▁United",
        -9.510496139526367
      ],
      [
        "▁Thus",
        -9.510515213012695
      ],
      [
        "▁bring",
        -9.511543273925781
      ],
      [
        "▁added",
        -9.516032218933105
      ],
      [
        "て",
        -9.516985893249512
      ],
      [
        "▁returned",
        -9.51766300201416
      ],
      [
        "▁beautiful",
        -9.517990112304688
      ],
      [
        "▁et",
        -9.519601821899414
      ],
      [
        "▁similar",
        -9.520804405212402
      ],
      [
        "▁fell",
        -9.522260665893555
      ],
      [
        "item",
        -9.52235221862793
      ],
      [
        "手",
        -9.523988723754883
      ],
      [
        "▁play",
        -9.524020195007324
      ],
      [
        "▁nearly",
        -9.529722213745117
      ],
      [
        "▁especially",
        -9.532414436340332
      ],
      [
        "▁thousand",
        -9.533815383911133
      ],
      [
        "内",
        -9.534749031066895
      ],
      [
        "▁written",
        -9.534882545471191
      ],
      [
        "▁sun",
        -9.536341667175293
      ],
      [
        "!”",
        -9.537442207336426
      ],
      [
        "▁lower",
        -9.537675857543945
      ],
      [
        "▁purpose",
        -9.540573120117188
      ],
      [
        "▁future",
        -9.542131423950195
      ],
      [
        "ers",
        -9.542177200317383
      ],
      [
        "▁makes",
        -9.54388427734375
      ],
      [
        "▁ready",
        -9.545845985412598
      ],
      [
        "▁art",
        -9.546775817871094
      ],
      [
        "He",
        -9.54753303527832
      ],
      [
        "▁living",
        -9.548502922058105
      ],
      [
        "▁London",
        -9.54958724975586
      ],
      [
        "▁wish",
        -9.551168441772461
      ],
      [
        "▁according",
        -9.551698684692383
      ],
      [
        "nu",
        -9.552081108093262
      ],
      [
        "▁t",
        -9.552095413208008
      ],
      [
        "▁eye",
        -9.553253173828125
      ],
      [
        "st",
        -9.554508209228516
      ],
      [
        "▁party",
        -9.555593490600586
      ],
      [
        "www",
        -9.557707786560059
      ],
      [
        "▁thy",
        -9.55797290802002
      ],
      [
        "en",
        -9.558737754821777
      ],
      [
        "▁higher",
        -9.558881759643555
      ],
      [
        "た",
        -9.560135841369629
      ],
      [
        "▁re",
        -9.560219764709473
      ],
      [
        "▁u",
        -9.560748100280762
      ],
      [
        "tilde",
        -9.560918807983398
      ],
      [
        "９",
        -9.561577796936035
      ],
      [
        "▁main",
        -9.562393188476562
      ],
      [
        "▁met",
        -9.563152313232422
      ],
      [
        "▁comes",
        -9.563193321228027
      ],
      [
        "▁follows",
        -9.563742637634277
      ],
      [
        "方",
        -9.564011573791504
      ],
      [
        "型",
        -9.564859390258789
      ],
      [
        "▁late",
        -9.565075874328613
      ],
      [
        "▁sat",
        -9.565126419067383
      ],
      [
        "数",
        -9.565324783325195
      ],
      [
        "▁seem",
        -9.565621376037598
      ],
      [
        "▁support",
        -9.567673683166504
      ],
      [
        "生",
        -9.567771911621094
      ],
      [
        "▁probably",
        -9.569025993347168
      ],
      [
        "▁Her",
        -9.570667266845703
      ],
      [
        "公司",
        -9.57078742980957
      ],
      [
        "varepsilon",
        -9.57167911529541
      ],
      [
        "▁doubt",
        -9.571728706359863
      ],
      [
        "▁church",
        -9.572735786437988
      ],
      [
        "▁parts",
        -9.573017120361328
      ],
      [
        "▁greater",
        -9.573285102844238
      ],
      [
        "▁rate",
        -9.574484825134277
      ],
      [
        "eta",
        -9.576321601867676
      ],
      [
        "▁considered",
        -9.577778816223145
      ],
      [
        "法",
        -9.577841758728027
      ],
      [
        "▁arms",
        -9.57787036895752
      ],
      [
        "▁road",
        -9.582530975341797
      ],
      [
        "去",
        -9.584639549255371
      ],
      [
        "▁/",
        -9.584857940673828
      ],
      [
        "所",
        -9.584866523742676
      ],
      [
        "년",
        -9.585103034973145
      ],
      [
        "▁terms",
        -9.58578109741211
      ],
      [
        "▁soul",
        -9.586536407470703
      ],
      [
        "bf",
        -9.587352752685547
      ],
      [
        "▁sort",
        -9.587791442871094
      ],
      [
        "▁won",
        -9.588154792785645
      ],
      [
        "▁reached",
        -9.588973045349121
      ],
      [
        "▁language",
        -9.589034080505371
      ],
      [
        ":\"",
        -9.590408325195312
      ],
      [
        "▁k",
        -9.590452194213867
      ],
      [
        "▁level",
        -9.59128189086914
      ],
      [
        "but",
        -9.59213638305664
      ],
      [
        "元",
        -9.593807220458984
      ],
      [
        "▁points",
        -9.594881057739258
      ],
      [
        "▁ask",
        -9.594982147216797
      ],
      [
        "▁brother",
        -9.595480918884277
      ],
      [
        "▁consider",
        -9.597027778625488
      ],
      [
        "▁attention",
        -9.597119331359863
      ],
      [
        "力",
        -9.597373008728027
      ],
      [
        "▁latter",
        -9.598671913146973
      ],
      [
        "Delta",
        -9.598989486694336
      ],
      [
        "▁spirit",
        -9.598999977111816
      ],
      [
        "▁front",
        -9.599176406860352
      ],
      [
        "里",
        -9.599618911743164
      ],
      [
        " ",
        -9.600275993347168
      ],
      [
        "▁big",
        -9.603281021118164
      ],
      [
        "【",
        -9.605097770690918
      ],
      [
        "Omega",
        -9.605703353881836
      ],
      [
        "▁continued",
        -9.606324195861816
      ],
      [
        "▁beyond",
        -9.606449127197266
      ],
      [
        "▁France",
        -9.606554985046387
      ],
      [
        "▁surface",
        -9.607565879821777
      ],
      [
        "・・・",
        -9.610944747924805
      ],
      [
        "より",
        -9.611503601074219
      ],
      [
        "▁fear",
        -9.61245059967041
      ],
      [
        "cm",
        -9.612761497497559
      ],
      [
        "▁students",
        -9.613912582397461
      ],
      [
        "▁lady",
        -9.614593505859375
      ],
      [
        "▁including",
        -9.6173677444458
      ],
      [
        "ness",
        -9.618026733398438
      ],
      [
        "▁century",
        -9.619328498840332
      ],
      [
        "▁forward",
        -9.620034217834473
      ],
      [
        "+\\",
        -9.621016502380371
      ],
      [
        "▁local",
        -9.6214599609375
      ],
      [
        "▁evening",
        -9.623088836669922
      ],
      [
        "▁although",
        -9.623313903808594
      ],
      [
        "▁sound",
        -9.623812675476074
      ],
      [
        "▁doing",
        -9.623897552490234
      ],
      [
        "▁cold",
        -9.624463081359863
      ],
      [
        "▁company",
        -9.626113891601562
      ],
      [
        "▁sir",
        -9.629284858703613
      ],
      [
        "▁sight",
        -9.630061149597168
      ],
      [
        "▁g",
        -9.631564140319824
      ],
      [
        "▁appeared",
        -9.632939338684082
      ],
      [
        "▁placed",
        -9.633069038391113
      ],
      [
        "▁control",
        -9.633795738220215
      ],
      [
        "▁everything",
        -9.635802268981934
      ],
      [
        "▁top",
        -9.63634967803955
      ],
      [
        "▁CHAPTER",
        -9.636760711669922
      ],
      [
        "▁led",
        -9.639779090881348
      ],
      [
        "▁York",
        -9.640372276306152
      ],
      [
        "·",
        -9.640530586242676
      ],
      [
        "▁experience",
        -9.64132022857666
      ],
      [
        "她",
        -9.641406059265137
      ],
      [
        "▁${\\",
        -9.643837928771973
      ],
      [
        "ます",
        -9.644402503967285
      ],
      [
        "▁social",
        -9.644876480102539
      ],
      [
        "day",
        -9.647343635559082
      ],
      [
        "事",
        -9.649309158325195
      ],
      [
        "ね",
        -9.650144577026367
      ],
      [
        "▁tree",
        -9.650276184082031
      ],
      [
        "▁act",
        -9.650437355041504
      ],
      [
        "▁meet",
        -9.650798797607422
      ],
      [
        "In",
        -9.65118408203125
      ],
      [
        "▁didn",
        -9.651573181152344
      ],
      [
        "▁talk",
        -9.652107238769531
      ],
      [
        "．",
        -9.653675079345703
      ],
      [
        ")}",
        -9.655133247375488
      ],
      [
        "花",
        -9.65654468536377
      ],
      [
        "能",
        -9.660248756408691
      ],
      [
        "している",
        -9.66088581085205
      ],
      [
        "▁fall",
        -9.661338806152344
      ],
      [
        "▁based",
        -9.662660598754883
      ],
      [
        "号",
        -9.66333293914795
      ],
      [
        "Well",
        -9.664114952087402
      ],
      [
        "▁test",
        -9.665273666381836
      ],
      [
        "可以",
        -9.665580749511719
      ],
      [
        "▁r",
        -9.665607452392578
      ],
      [
        "▁toward",
        -9.665672302246094
      ],
      [
        "▁ago",
        -9.666008949279785
      ],
      [
        "▁except",
        -9.666481971740723
      ],
      [
        "▁range",
        -9.667342185974121
      ],
      [
        "▁bed",
        -9.667908668518066
      ],
      [
        "文",
        -9.668012619018555
      ],
      [
        "図",
        -9.66807746887207
      ],
      [
        "psi",
        -9.668274879455566
      ],
      [
        "光",
        -9.669200897216797
      ],
      [
        "▁months",
        -9.670089721679688
      ],
      [
        "我们",
        -9.670916557312012
      ],
      [
        "并",
        -9.671239852905273
      ],
      [
        "工作",
        -9.673394203186035
      ],
      [
        "▁lines",
        -9.674192428588867
      ],
      [
        "▁horse",
        -9.674518585205078
      ],
      [
        "万",
        -9.675442695617676
      ],
      [
        "▁pass",
        -9.676694869995117
      ],
      [
        "(\"",
        -9.676732063293457
      ],
      [
        "▁write",
        -9.678091049194336
      ],
      [
        "▁step",
        -9.678275108337402
      ],
      [
        "▁try",
        -9.679749488830566
      ],
      [
        "▁development",
        -9.680022239685059
      ],
      [
        "▁died",
        -9.681159973144531
      ],
      [
        "That",
        -9.68348503112793
      ],
      [
        "自己",
        -9.68471908569336
      ],
      [
        "这",
        -9.684989929199219
      ],
      [
        "▁easy",
        -9.687318801879883
      ],
      [
        "▁species",
        -9.687767028808594
      ],
      [
        "します",
        -9.68818473815918
      ],
      [
        "▁Y",
        -9.690059661865234
      ],
      [
        "▁generally",
        -9.692026138305664
      ],
      [
        "▁instead",
        -9.69206714630127
      ],
      [
        "▁General",
        -9.692191123962402
      ],
      [
        "▁British",
        -9.692910194396973
      ],
      [
        "于",
        -9.693132400512695
      ],
      [
        "\\\\",
        -9.693199157714844
      ],
      [
        "와",
        -9.693656921386719
      ],
      [
        "网",
        -9.694759368896484
      ],
      [
        "使用",
        -9.695262908935547
      ],
      [
        "으로",
        -9.696131706237793
      ],
      [
        "▁works",
        -9.697172164916992
      ],
      [
        "▁note",
        -9.69791030883789
      ],
      [
        "▁trees",
        -9.700499534606934
      ],
      [
        "=\\",
        -9.701797485351562
      ],
      [
        "▁May",
        -9.701836585998535
      ],
      [
        "▁bad",
        -9.703624725341797
      ],
      [
        "時間",
        -9.706060409545898
      ],
      [
        "▁While",
        -9.707857131958008
      ],
      [
        "▁required",
        -9.708195686340332
      ],
      [
        "外",
        -9.708728790283203
      ],
      [
        "一个",
        -9.708792686462402
      ],
      [
        "♪",
        -9.71215534210205
      ],
      [
        "▁usually",
        -9.712329864501953
      ],
      [
        "▁none",
        -9.713266372680664
      ],
      [
        "sqrt",
        -9.713438034057617
      ],
      [
        "▁army",
        -9.714262962341309
      ],
      [
        "▁likely",
        -9.714421272277832
      ],
      [
        "▁Since",
        -9.718470573425293
      ],
      [
        "▁stand",
        -9.718506813049316
      ],
      [
        "▁start",
        -9.71921157836914
      ],
      [
        ".--",
        -9.719412803649902
      ],
      [
        "proof",
        -9.723248481750488
      ],
      [
        "向",
        -9.72442626953125
      ],
      [
        "▁gold",
        -9.725797653198242
      ],
      [
        "▁third",
        -9.726258277893066
      ],
      [
        "王",
        -9.726922035217285
      ],
      [
        "▁feeling",
        -9.728715896606445
      ],
      [
        "▁loss",
        -9.730195045471191
      ],
      [
        "}}\\",
        -9.730416297912598
      ],
      [
        "▁※",
        -9.731614112854004
      ],
      [
        "▁follow",
        -9.73188304901123
      ],
      [
        "笑",
        -9.732242584228516
      ],
      [
        "Gamma",
        -9.732297897338867
      ],
      [
        "▁wind",
        -9.732879638671875
      ],
      [
        "▁See",
        -9.733952522277832
      ],
      [
        "▁property",
        -9.734190940856934
      ],
      [
        "▁research",
        -9.73521900177002
      ],
      [
        "▁direction",
        -9.737560272216797
      ],
      [
        "▁respect",
        -9.738543510437012
      ],
      [
        "▁original",
        -9.738588333129883
      ],
      [
        "お",
        -9.739212989807129
      ],
      [
        "▁proof",
        -9.739401817321777
      ],
      [
        "--\"",
        -9.739601135253906
      ],
      [
        "he",
        -9.739861488342285
      ],
      [
        "▁Our",
        -9.740438461303711
      ],
      [
        "▁influence",
        -9.741897583007812
      ],
      [
        "▁area",
        -9.74194622039795
      ],
      [
        "▁obtained",
        -9.742753982543945
      ],
      [
        "▁State",
        -9.743066787719727
      ],
      [
        "-\\",
        -9.743300437927246
      ],
      [
        "▁equal",
        -9.743875503540039
      ],
      [
        "だ",
        -9.745402336120605
      ],
      [
        "▁complete",
        -9.74854850769043
      ],
      [
        "▁minutes",
        -9.74875545501709
      ],
      [
        "又",
        -9.749226570129395
      ],
      [
        ")=",
        -9.749482154846191
      ],
      [
        "#",
        -9.749594688415527
      ],
      [
        "▁shows",
        -9.74984359741211
      ],
      [
        "▁gives",
        -9.750632286071777
      ],
      [
        "にも",
        -9.75079345703125
      ],
      [
        "▁lead",
        -9.751432418823242
      ],
      [
        "▁learn",
        -9.75304126739502
      ],
      [
        "▁blue",
        -9.753232955932617
      ],
      [
        "よ",
        -9.753864288330078
      ],
      [
        "▁easily",
        -9.755118370056152
      ],
      [
        "▁current",
        -9.75565242767334
      ],
      [
        "女",
        -9.755717277526855
      ],
      [
        "▁total",
        -9.757704734802246
      ],
      [
        "▁hair",
        -9.75825023651123
      ],
      [
        "▁University",
        -9.758355140686035
      ],
      [
        "▁observed",
        -9.75906753540039
      ],
      [
        "▁saying",
        -9.759084701538086
      ],
      [
        "mm",
        -9.760334968566895
      ],
      [
        "▁pay",
        -9.761656761169434
      ],
      [
        "}$.",
        -9.763145446777344
      ],
      [
        "log",
        -9.763816833496094
      ],
      [
        "▁expected",
        -9.765270233154297
      ],
      [
        "▁solution",
        -9.765640258789062
      ],
      [
        "▁learning",
        -9.765700340270996
      ],
      [
        "▁l",
        -9.7660551071167
      ],
      [
        "国",
        -9.766109466552734
      ],
      [
        "▁appear",
        -9.766798973083496
      ],
      [
        "其",
        -9.768152236938477
      ],
      [
        "@",
        -9.769491195678711
      ],
      [
        "▁이",
        -9.7701997756958
      ],
      [
        "位",
        -9.770936012268066
      ],
      [
        "▁master",
        -9.770950317382812
      ],
      [
        "後",
        -9.773022651672363
      ],
      [
        "▁strength",
        -9.773531913757324
      ],
      [
        "▁disease",
        -9.774236679077148
      ],
      [
        "自",
        -9.77496337890625
      ],
      [
        ",--",
        -9.775311470031738
      ],
      [
        "big",
        -9.776191711425781
      ],
      [
        "ですが",
        -9.776654243469238
      ],
      [
        "chi",
        -9.776997566223145
      ],
      [
        "▁husband",
        -9.777314186096191
      ],
      [
        "▁green",
        -9.777336120605469
      ],
      [
        "▁suppose",
        -9.778103828430176
      ],
      [
        "▁expression",
        -9.779982566833496
      ],
      [
        "行",
        -9.78046703338623
      ],
      [
        "▁h",
        -9.780975341796875
      ],
      [
        "い",
        -9.78198528289795
      ],
      [
        "表示",
        -9.782453536987305
      ],
      [
        "▁fellow",
        -9.782476425170898
      ],
      [
        "り",
        -9.78410816192627
      ],
      [
        "▁II",
        -9.784942626953125
      ],
      [
        "▁amount",
        -9.785897254943848
      ],
      [
        "▁provide",
        -9.786134719848633
      ],
      [
        "海",
        -9.786151885986328
      ],
      [
        "▁ship",
        -9.786593437194824
      ],
      [
        "▁remember",
        -9.78763484954834
      ],
      [
        "▁America",
        -9.787734031677246
      ],
      [
        "▁suddenly",
        -9.788402557373047
      ],
      [
        "木",
        -9.78851318359375
      ],
      [
        "无",
        -9.789351463317871
      ],
      [
        "at",
        -9.789549827575684
      ],
      [
        "cal",
        -9.790602684020996
      ],
      [
        "▁ought",
        -9.790773391723633
      ],
      [
        "▁term",
        -9.791610717773438
      ],
      [
        "▁enemy",
        -9.791836738586426
      ],
      [
        "全",
        -9.793011665344238
      ],
      [
        "▁spoke",
        -9.793429374694824
      ],
      [
        "▁©",
        -9.794010162353516
      ],
      [
        "geq",
        -9.795228958129883
      ],
      [
        "▁states",
        -9.7960786819458
      ],
      [
        "▁foot",
        -9.796367645263672
      ],
      [
        "▁pretty",
        -9.798345565795898
      ],
      [
        "▁strange",
        -9.799066543579102
      ],
      [
        "成",
        -9.799080848693848
      ],
      [
        "▁theory",
        -9.800276756286621
      ],
      [
        "▁rose",
        -9.80088996887207
      ],
      [
        "self",
        -9.80113410949707
      ],
      [
        "区",
        -9.801650047302246
      ],
      [
        "▁difficult",
        -9.801725387573242
      ],
      [
        "▁daughter",
        -9.801916122436523
      ],
      [
        "▁window",
        -9.802359580993652
      ],
      [
        "得",
        -9.803709983825684
      ],
      [
        "mathfrak",
        -9.80390453338623
      ],
      [
        "とは",
        -9.804475784301758
      ],
      [
        "rangle",
        -9.804634094238281
      ],
      [
        "▁week",
        -9.804758071899414
      ],
      [
        "された",
        -9.80478572845459
      ],
      [
        "▁wanted",
        -9.804896354675293
      ],
      [
        "▁Do",
        -9.8053617477417
      ],
      [
        "일",
        -9.805439949035645
      ],
      [
        "▁Church",
        -9.805462837219238
      ],
      [
        "管理",
        -9.805854797363281
      ],
      [
        "▁working",
        -9.806573867797852
      ],
      [
        "▁values",
        -9.807124137878418
      ],
      [
        "epsilon",
        -9.807137489318848
      ],
      [
        "▁happy",
        -9.809131622314453
      ],
      [
        "no",
        -9.809292793273926
      ],
      [
        "▁AND",
        -9.809548377990723
      ],
      [
        "再",
        -9.809653282165527
      ],
      [
        "进行",
        -9.812033653259277
      ],
      [
        "▁South",
        -9.812335968017578
      ],
      [
        "▁beginning",
        -9.812535285949707
      ],
      [
        "とか",
        -9.812762260437012
      ],
      [
        "▁Z",
        -9.813329696655273
      ],
      [
        "二",
        -9.814031600952148
      ],
      [
        "▁heavy",
        -9.81431770324707
      ],
      [
        "▁sleep",
        -9.814523696899414
      ],
      [
        "▁degree",
        -9.815000534057617
      ],
      [
        "▁ye",
        -9.815878868103027
      ],
      [
        "把",
        -9.816779136657715
      ],
      [
        "による",
        -9.816875457763672
      ],
      [
        "▁immediately",
        -9.818175315856934
      ],
      [
        "▁population",
        -9.818547248840332
      ],
      [
        "▁started",
        -9.820012092590332
      ],
      [
        "▁special",
        -9.820965766906738
      ],
      [
        "varphi",
        -9.82107162475586
      ],
      [
        "def",
        -9.821308135986328
      ],
      [
        "比",
        -9.821503639221191
      ],
      [
        "▁peace",
        -9.821849822998047
      ],
      [
        "▁approach",
        -9.822884559631348
      ],
      [
        "各",
        -9.824319839477539
      ],
      [
        "▁fair",
        -9.82613468170166
      ],
      [
        "▁chief",
        -9.826752662658691
      ],
      [
        "▁forth",
        -9.826818466186523
      ],
      [
        "白",
        -9.82701587677002
      ],
      [
        "▁wild",
        -9.827341079711914
      ],
      [
        "▁presence",
        -9.829727172851562
      ],
      [
        "▁tried",
        -9.830381393432617
      ],
      [
        "▁Why",
        -9.830727577209473
      ],
      [
        "▁treatment",
        -9.830793380737305
      ],
      [
        "▁individual",
        -9.831616401672363
      ],
      [
        "▁@",
        -9.832064628601074
      ],
      [
        "}_{\\",
        -9.832313537597656
      ],
      [
        "▁increase",
        -9.83250617980957
      ],
      [
        "／",
        -9.832642555236816
      ],
      [
        "not",
        -9.832863807678223
      ],
      [
        "▁mass",
        -9.833268165588379
      ],
      [
        "▁opened",
        -9.835403442382812
      ],
      [
        "视频",
        -9.835888862609863
      ],
      [
        "还",
        -9.836337089538574
      ],
      [
        "지",
        -9.836465835571289
      ],
      [
        "fig",
        -9.837099075317383
      ],
      [
        "▁certainly",
        -9.83814525604248
      ],
      [
        "인",
        -9.83814525604248
      ],
      [
        "like",
        -9.83940601348877
      ],
      [
        "看",
        -9.840147972106934
      ],
      [
        "▁(_",
        -9.841163635253906
      ],
      [
        "▁entered",
        -9.842060089111328
      ],
      [
        "火",
        -9.843279838562012
      ],
      [
        "▁places",
        -9.843631744384766
      ],
      [
        "及び",
        -9.843707084655762
      ],
      [
        "overline",
        -9.844860076904297
      ],
      [
        "▁difference",
        -9.845965385437012
      ],
      [
        "▁simply",
        -9.846209526062012
      ],
      [
        "▁evidence",
        -9.846545219421387
      ],
      [
        "▁defined",
        -9.846696853637695
      ],
      [
        "▁building",
        -9.846770286560059
      ],
      [
        "那",
        -9.847236633300781
      ],
      [
        "▁outside",
        -9.847400665283203
      ],
      [
        "なら",
        -9.84773063659668
      ],
      [
        ")$.",
        -9.84813117980957
      ],
      [
        "▁German",
        -9.84824275970459
      ],
      [
        "▁built",
        -9.848897933959961
      ],
      [
        "▁boys",
        -9.850260734558105
      ],
      [
        "If",
        -9.851012229919434
      ],
      [
        "▁al",
        -9.851041793823242
      ],
      [
        "▁etc",
        -9.851097106933594
      ],
      [
        "店",
        -9.851101875305176
      ],
      [
        ".[",
        -9.851458549499512
      ],
      [
        "神",
        -9.851783752441406
      ],
      [
        "更",
        -9.85209846496582
      ],
      [
        "▁getting",
        -9.852374076843262
      ],
      [
        "物",
        -9.85253620147705
      ],
      [
        "▁structure",
        -9.852982521057129
      ],
      [
        "最",
        -9.85303020477295
      ],
      [
        "▁William",
        -9.853598594665527
      ],
      [
        "▁books",
        -9.854131698608398
      ],
      [
        "▁risk",
        -9.854307174682617
      ],
      [
        "▁wide",
        -9.855048179626465
      ],
      [
        "▁prove",
        -9.855779647827148
      ],
      [
        "To",
        -9.856274604797363
      ],
      [
        "ge",
        -9.857281684875488
      ],
      [
        "▁neither",
        -9.858024597167969
      ],
      [
        "quad",
        -9.858237266540527
      ],
      [
        "▁former",
        -9.858477592468262
      ],
      [
        "▁fixed",
        -9.860960006713867
      ],
      [
        "▁figure",
        -9.860978126525879
      ],
      [
        "▁numbers",
        -9.86119556427002
      ],
      [
        "▁George",
        -9.861600875854492
      ],
      [
        "▁Christ",
        -9.861705780029297
      ],
      [
        "由",
        -9.861800193786621
      ],
      [
        "by",
        -9.862130165100098
      ],
      [
        "▁formed",
        -9.862256050109863
      ],
      [
        "面",
        -9.863313674926758
      ],
      [
        "个",
        -9.864160537719727
      ],
      [
        "▁modern",
        -9.864956855773926
      ],
      [
        "▁described",
        -9.865137100219727
      ],
      [
        "▁lived",
        -9.865235328674316
      ],
      [
        "▁ancient",
        -9.865449905395508
      ],
      [
        "----------------",
        -9.865850448608398
      ],
      [
        "▁laid",
        -9.866487503051758
      ],
      [
        "get",
        -9.866508483886719
      ],
      [
        "▁weight",
        -9.866947174072266
      ],
      [
        "▁private",
        -9.867271423339844
      ],
      [
        "▁remained",
        -9.868000030517578
      ],
      [
        "▁save",
        -9.868231773376465
      ],
      [
        "情報",
        -9.868797302246094
      ],
      [
        "打",
        -9.869184494018555
      ],
      [
        "没有",
        -9.872328758239746
      ],
      [
        "▁forms",
        -9.872885704040527
      ],
      [
        "台",
        -9.873466491699219
      ],
      [
        "▁persons",
        -9.874249458312988
      ],
      [
        "ー",
        -9.875175476074219
      ],
      [
        "▁Not",
        -9.87520980834961
      ],
      [
        "▁==",
        -9.875353813171387
      ],
      [
        "▁cost",
        -9.875689506530762
      ],
      [
        "式",
        -9.875917434692383
      ],
      [
        "▁office",
        -9.876077651977539
      ],
      [
        "▁bound",
        -9.8773193359375
      ],
      [
        "▁color",
        -9.877656936645508
      ],
      [
        "▁deal",
        -9.878013610839844
      ],
      [
        "度",
        -9.880804061889648
      ],
      [
        "▁section",
        -9.881455421447754
      ],
      [
        "▁source",
        -9.882244110107422
      ],
      [
        "able",
        -9.882658004760742
      ],
      [
        "方法",
        -9.885231018066406
      ],
      [
        "でした",
        -9.885697364807129
      ],
      [
        "array",
        -9.886174201965332
      ],
      [
        "하는",
        -9.888212203979492
      ],
      [
        "▁Captain",
        -9.888554573059082
      ],
      [
        "▁chance",
        -9.888972282409668
      ],
      [
        "▁members",
        -9.889456748962402
      ],
      [
        "正",
        -9.889472961425781
      ],
      [
        "▁material",
        -9.890033721923828
      ],
      [
        "av",
        -9.893083572387695
      ],
      [
        "▁include",
        -9.893901824951172
      ],
      [
        "同",
        -9.89423942565918
      ],
      [
        "set",
        -9.894414901733398
      ],
      [
        "▁obtain",
        -9.896352767944336
      ],
      [
        "▁opinion",
        -9.89712905883789
      ],
      [
        "▁constant",
        -9.89760684967041
      ],
      [
        "]{",
        -9.898480415344238
      ],
      [
        "▁wrote",
        -9.899338722229004
      ],
      [
        "▁education",
        -9.900099754333496
      ],
      [
        "▁yourself",
        -9.900286674499512
      ],
      [
        "▁society",
        -9.901805877685547
      ],
      [
        "하고",
        -9.905922889709473
      ],
      [
        "}^{\\",
        -9.906432151794434
      ],
      [
        "▁list",
        -9.907389640808105
      ],
      [
        "▁instance",
        -9.907791137695312
      ],
      [
        "代",
        -9.909640312194824
      ],
      [
        "▁showed",
        -9.909870147705078
      ],
      [
        "▁key",
        -9.909934043884277
      ],
      [
        "▁political",
        -9.910382270812988
      ],
      [
        "▁この",
        -9.910662651062012
      ],
      [
        "▁positive",
        -9.910754203796387
      ],
      [
        "のは",
        -9.911073684692383
      ],
      [
        "you",
        -9.911869049072266
      ],
      [
        "体",
        -9.912419319152832
      ],
      [
        "▁arm",
        -9.912899017333984
      ],
      [
        "▁author",
        -9.913817405700684
      ],
      [
        "▁있다",
        -9.913824081420898
      ],
      [
        "▁thinking",
        -9.91589069366455
      ],
      [
        "▁post",
        -9.916170120239258
      ],
      [
        "▁measure",
        -9.916287422180176
      ],
      [
        "▁questions",
        -9.916738510131836
      ],
      [
        "▁bit",
        -9.917468070983887
      ],
      [
        "}$,",
        -9.917771339416504
      ],
      [
        "▁plan",
        -9.918466567993164
      ],
      [
        "▁proper",
        -9.91891860961914
      ],
      [
        "see",
        -9.919798851013184
      ],
      [
        "就是",
        -9.920319557189941
      ],
      [
        "▁mouth",
        -9.920903205871582
      ],
      [
        "▁quickly",
        -9.92244815826416
      ],
      [
        "▁（",
        -9.92339038848877
      ],
      [
        "▁ways",
        -9.923440933227539
      ],
      [
        "▁North",
        -9.923806190490723
      ],
      [
        "</",
        -9.924235343933105
      ],
      [
        "なので",
        -9.924837112426758
      ],
      [
        "▁add",
        -9.924958229064941
      ],
      [
        "up",
        -9.925241470336914
      ],
      [
        "otimes",
        -9.926531791687012
      ],
      [
        "しました",
        -9.92774772644043
      ],
      [
        "▁bear",
        -9.928139686584473
      ],
      [
        "▁produced",
        -9.928521156311035
      ],
      [
        "口",
        -9.929788589477539
      ],
      [
        "▁battle",
        -9.930794715881348
      ],
      [
        "▁available",
        -9.931954383850098
      ],
      [
        "▁cross",
        -9.932133674621582
      ],
      [
        "企业",
        -9.932493209838867
      ],
      [
        "다",
        -9.933431625366211
      ],
      [
        "▁music",
        -9.933877944946289
      ],
      [
        "▁effects",
        -9.934052467346191
      ],
      [
        "▁command",
        -9.934087753295898
      ],
      [
        "▁writing",
        -9.934714317321777
      ],
      [
        "▁visit",
        -9.935442924499512
      ],
      [
        "过",
        -9.93569278717041
      ],
      [
        "▁move",
        -9.935749053955078
      ],
      [
        "▁analysis",
        -9.936628341674805
      ],
      [
        "先",
        -9.936911582946777
      ],
      [
        "▁giving",
        -9.937260627746582
      ],
      [
        "▁appearance",
        -9.938580513000488
      ],
      [
        "▁rich",
        -9.939077377319336
      ],
      [
        "▁report",
        -9.939336776733398
      ],
      [
        "▁game",
        -9.939961433410645
      ],
      [
        "▁remain",
        -9.940679550170898
      ],
      [
        "▁image",
        -9.941082000732422
      ],
      [
        "▁allowed",
        -9.941521644592285
      ],
      [
        "生活",
        -9.942020416259766
      ],
      [
        "▁systems",
        -9.942750930786133
      ],
      [
        "入",
        -9.943703651428223
      ],
      [
        "▁wrong",
        -9.944001197814941
      ],
      [
        "▁success",
        -9.944437980651855
      ],
      [
        "▁lives",
        -9.946751594543457
      ],
      [
        "▁changes",
        -9.946853637695312
      ],
      [
        "▁path",
        -9.94703483581543
      ],
      [
        "▁north",
        -9.94732666015625
      ],
      [
        "▁physical",
        -9.949037551879883
      ],
      [
        "▁ran",
        -9.950401306152344
      ],
      [
        "让",
        -9.950432777404785
      ],
      [
        "ic",
        -9.950715065002441
      ],
      [
        "▁lot",
        -9.951339721679688
      ],
      [
        "data",
        -9.951470375061035
      ],
      [
        "▁■",
        -9.95297908782959
      ],
      [
        "当",
        -9.953097343444824
      ],
      [
        "▁また",
        -9.954174995422363
      ],
      [
        "▁pain",
        -9.955029487609863
      ],
      [
        "▁determined",
        -9.955906867980957
      ],
      [
        "▁carry",
        -9.956926345825195
      ],
      [
        "▁happened",
        -9.95721435546875
      ],
      [
        "de",
        -9.957649230957031
      ],
      [
        "▁stay",
        -9.95766830444336
      ],
      [
        "路",
        -9.95770263671875
      ],
      [
        "▁closed",
        -9.95891284942627
      ],
      [
        "▁series",
        -9.958979606628418
      ],
      [
        "▁error",
        -9.959394454956055
      ],
      [
        "▁letters",
        -9.960031509399414
      ],
      [
        "org",
        -9.960590362548828
      ],
      [
        "▁duty",
        -9.960885047912598
      ],
      [
        "▁stone",
        -9.961431503295898
      ],
      [
        "▁interesting",
        -9.96317195892334
      ],
      [
        "▁faith",
        -9.964069366455078
      ],
      [
        "▁practice",
        -9.964592933654785
      ],
      [
        "!!",
        -9.96472454071045
      ],
      [
        "▁send",
        -9.96538257598877
      ],
      [
        "▁personal",
        -9.966337203979492
      ],
      [
        "▁wall",
        -9.966517448425293
      ],
      [
        "×",
        -9.96706485748291
      ],
      [
        "ar",
        -9.967214584350586
      ],
      [
        "への",
        -9.96861743927002
      ],
      [
        "▁provided",
        -9.970550537109375
      ],
      [
        "▁die",
        -9.970787048339844
      ],
      [
        "▁middle",
        -9.971314430236816
      ],
      [
        "▁born",
        -9.972827911376953
      ],
      [
        "量",
        -9.973109245300293
      ],
      [
        "▁addition",
        -9.973444938659668
      ],
      [
        "eqnarray",
        -9.9747953414917
      ],
      [
        "▁Indian",
        -9.975260734558105
      ],
      [
        "▁desire",
        -9.975838661193848
      ],
      [
        "▁problems",
        -9.976351737976074
      ],
      [
        "▁broken",
        -9.977263450622559
      ],
      [
        "▁trouble",
        -9.977853775024414
      ],
      [
        "▁covered",
        -9.978219985961914
      ],
      [
        "▁methods",
        -9.978904724121094
      ],
      [
        "▁actually",
[...]
