<unk>	-80.0
<s>	-80.0
</s>	-80.0
<mask>	-80.0
<pad>	-80.0
<CLS>	-80.0
<SEP>	-80.0
<EOD>	-80.0
▁▁▁▁▁▁▁▁▁▁▁▁▁▁▁▁▁▁▁▁▁▁▁▁	-80.0
▁▁▁▁▁▁▁▁▁▁▁▁▁▁▁▁▁▁▁▁▁▁▁	-80.0
▁▁▁▁▁▁▁▁▁▁▁▁▁▁▁▁▁▁▁▁▁▁	-80.0
▁▁▁▁▁▁▁▁▁▁▁▁▁▁▁▁▁▁▁▁▁	-80.0
▁▁▁▁▁▁▁▁▁▁▁▁▁▁▁▁▁▁▁▁	-80.0
▁▁▁▁▁▁▁▁▁▁▁▁▁▁▁▁▁▁▁	-80.0
▁▁▁▁▁▁▁▁▁▁▁▁▁▁▁▁▁▁	-80.0
▁▁▁▁▁▁▁▁▁▁▁▁▁▁▁▁▁	-80.0
▁▁▁▁▁▁▁▁▁▁▁▁▁▁▁▁	-80.0
▁▁▁▁▁▁▁▁▁▁▁▁▁▁▁	-80.0
▁▁▁▁▁▁▁▁▁▁▁▁▁▁	-80.0
▁▁▁▁▁▁▁▁▁▁▁▁▁	-80.0
▁▁▁▁▁▁▁▁▁▁▁▁	-80.0
▁▁▁▁▁▁▁▁▁▁▁	-80.0
▁▁▁▁▁▁▁▁▁▁	-80.0
▁▁▁▁▁▁▁▁▁	-80.0
▁▁▁▁▁▁▁▁	-80.0
▁▁▁▁▁▁▁	-80.0
▁▁▁▁▁▁	-80.0
▁▁▁▁▁	-80.0
▁▁▁▁	-80.0
▁▁▁	-80.0
▁▁	-80.0
▁	-80.0

	-80.0
<0x00>	-80.0
<0x01>	-80.0
<0x02>	-80.0
<0x03>	-80.0
<0x04>	-80.0
<0x05>	-80.0
<0x06>	-80.0
<0x07>	-80.0
<0x08>	-80.0
<0x09>	-80.0
<0x0A>	-80.0
<0x0B>	-80.0
<0x0C>	-80.0
<0x0D>	-80.0
<0x0E>	-80.0
<0x0F>	-80.0
<0x10>	-80.0
<0x11>	-80.0
<0x12>	-80.0
<0x13>	-80.0
<0x14>	-80.0
<0x15>	-80.0
<0x16>	-80.0
<0x17>	-80.0
<0x18>	-80.0
<0x19>	-80.0
<0x1A>	-80.0
<0x1B>	-80.0
<0x1C>	-80.0
<0x1D>	-80.0
<0x1E>	-80.0
<0x1F>	-80.0
<0x20>	-80.0
<0x21>	-80.0
<0x22>	-80.0
<0x23>	-80.0
<0x24>	-80.0
<0x25>	-80.0
<0x26>	-80.0
<0x27>	-80.0
<0x28>	-80.0
<0x29>	-80.0
<0x2A>	-80.0
<0x2B>	-80.0
<0x2C>	-80.0
<0x2D>	-80.0
<0x2E>	-80.0
<0x2F>	-80.0
<0x30>	-80.0
<0x31>	-80.0
<0x32>	-80.0
<0x33>	-80.0
<0x34>	-80.0
<0x35>	-80.0
<0x36>	-80.0
<0x37>	-80.0
<0x38>	-80.0
<0x39>	-80.0
<0x3A>	-80.0
<0x3B>	-80.0
<0x3C>	-80.0
<0x3D>	-80.0
<0x3E>	-80.0
<0x3F>	-80.0
<0x40>	-80.0
<0x41>	-80.0
<0x42>	-80.0
<0x43>	-80.0
<0x44>	-80.0
<0x45>	-80.0
<0x46>	-80.0
<0x47>	-80.0
<0x48>	-80.0
<0x49>	-80.0
<0x4A>	-80.0
<0x4B>	-80.0
<0x4C>	-80.0
<0x4D>	-80.0
<0x4E>	-80.0
<0x4F>	-80.0
<0x50>	-80.0
<0x51>	-80.0
<0x52>	-80.0
<0x53>	-80.0
<0x54>	-80.0
<0x55>	-80.0
<0x56>	-80.0
<0x57>	-80.0
<0x58>	-80.0
<0x59>	-80.0
<0x5A>	-80.0
<0x5B>	-80.0
<0x5C>	-80.0
<0x5D>	-80.0
<0x5E>	-80.0
<0x5F>	-80.0
<0x60>	-80.0
<0x61>	-80.0
<0x62>	-80.0
<0x63>	-80.0
<0x64>	-80.0
<0x65>	-80.0
<0x66>	-80.0
<0x67>	-80.0
<0x68>	-80.0
<0x69>	-80.0
<0x6A>	-80.0
<0x6B>	-80.0
<0x6C>	-80.0
<0x6D>	-80.0
<0x6E>	-80.0
<0x6F>	-80.0
<0x70>	-80.0
<0x71>	-80.0
<0x72>	-80.0
<0x73>	-80.0
<0x74>	-80.0
<0x75>	-80.0
<0x76>	-80.0
<0x77>	-80.0
<0x78>	-80.0
<0x79>	-80.0
<0x7A>	-80.0
<0x7B>	-80.0
<0x7C>	-80.0
<0x7D>	-80.0
<0x7E>	-80.0
<0x7F>	-80.0
<0x80>	-80.0
<0x81>	-80.0
<0x82>	-80.0
<0x83>	-80.0
<0x84>	-80.0
<0x85>	-80.0
<0x86>	-80.0
<0x87>	-80.0
<0x88>	-80.0
<0x89>	-80.0
<0x8A>	-80.0
<0x8B>	-80.0
<0x8C>	-80.0
<0x8D>	-80.0
<0x8E>	-80.0
<0x8F>	-80.0
<0x90>	-80.0
<0x91>	-80.0
<0x92>	-80.0
<0x93>	-80.0
<0x94>	-80.0
<0x95>	-80.0
<0x96>	-80.0
<0x97>	-80.0
<0x98>	-80.0
<0x99>	-80.0
<0x9A>	-80.0
<0x9B>	-80.0
<0x9C>	-80.0
<0x9D>	-80.0
<0x9E>	-80.0
<0x9F>	-80.0
<0xA0>	-80.0
<0xA1>	-80.0
<0xA2>	-80.0
<0xA3>	-80.0
<0xA4>	-80.0
<0xA5>	-80.0
<0xA6>	-80.0
<0xA7>	-80.0
<0xA8>	-80.0
<0xA9>	-80.0
<0xAA>	-80.0
<0xAB>	-80.0
<0xAC>	-80.0
<0xAD>	-80.0
<0xAE>	-80.0
<0xAF>	-80.0
<0xB0>	-80.0
<0xB1>	-80.0
<0xB2>	-80.0
<0xB3>	-80.0
<0xB4>	-80.0
<0xB5>	-80.0
<0xB6>	-80.0
<0xB7>	-80.0
<0xB8>	-80.0
<0xB9>	-80.0
<0xBA>	-80.0
<0xBB>	-80.0
<0xBC>	-80.0
<0xBD>	-80.0
<0xBE>	-80.0
<0xBF>	-80.0
<0xC0>	-80.0
<0xC1>	-80.0
<0xC2>	-80.0
<0xC3>	-80.0
<0xC4>	-80.0
<0xC5>	-80.0
<0xC6>	-80.0
<0xC7>	-80.0
<0xC8>	-80.0
<0xC9>	-80.0
<0xCA>	-80.0
<0xCB>	-80.0
<0xCC>	-80.0
<0xCD>	-80.0
<0xCE>	-80.0
<0xCF>	-80.0
<0xD0>	-80.0
<0xD1>	-80.0
<0xD2>	-80.0
<0xD3>	-80.0
<0xD4>	-80.0
<0xD5>	-80.0
<0xD6>	-80.0
<0xD7>	-80.0
<0xD8>	-80.0
<0xD9>	-80.0
<0xDA>	-80.0
<0xDB>	-80.0
<0xDC>	-80.0
<0xDD>	-80.0
<0xDE>	-80.0
<0xDF>	-80.0
<0xE0>	-80.0
<0xE1>	-80.0
<0xE2>	-80.0
<0xE3>	-80.0
<0xE4>	-80.0
<0xE5>	-80.0
<0xE6>	-80.0
<0xE7>	-80.0
<0xE8>	-80.0
<0xE9>	-80.0
<0xEA>	-80.0
<0xEB>	-80.0
<0xEC>	-80.0
<0xED>	-80.0
<0xEE>	-80.0
<0xEF>	-80.0
<0xF0>	-80.0
<0xF1>	-80.0
<0xF2>	-80.0
<0xF3>	-80.0
<0xF4>	-80.0
<0xF5>	-80.0
<0xF6>	-80.0
<0xF7>	-80.0
<0xF8>	-80.0
<0xF9>	-80.0
<0xFA>	-80.0
<0xFB>	-80.0
<0xFC>	-80.0
<0xFD>	-80.0
<0xFE>	-80.0
<0xFF>	-80.0
_	-5.158874
0	-5.758016
,	-5.625586
(	-5.829798
1	-5.615553
x	-7.199372
2	-5.895418
;	-5.516629
)	-6.054112
.	-5.717579
▁*	-6.015978
3	-6.427078
▁=	-6.260252
);	-6.354970
s	-6.540777
4	-6.613042
6	-6.702598
8	-6.678603
->	-6.964869
5	-6.783736
▁#	-6.107443
t	-7.667655
▁{	-5.638025
7	-6.969901
▁*/	-6.373943
9	-6.567050
▁the	-6.478840
▁(	-6.571066
:	-6.290493
if	-7.250549
[	-7.690826
▁//	-6.721107
p	-8.151476
define	-7.508922
}	-6.198498
▁}	-5.653430
\	-8.427322
d	-8.265931
n	-8.130083
*	-7.074299
-	-6.843073
i	-8.391184
"	-7.678919
c	-8.408640
::	-8.200656
>	-7.320698
f	-8.598323
▁"	-7.369538
h	-7.638100
C	-8.421788
▁/*	-7.015066
S	-8.204587
/	-7.800274
▁to	-7.159903
return	-7.284404
a	-8.852897
e	-9.225877
▁of	-6.696625
A	-8.685486
b	-8.705705
u	-8.826422
int	-7.942907
▁int	-7.833090
]	-8.345112
",	-8.180837
▁&	-8.284220
▁<	-7.552413
▁-	-7.262278
r	-8.945912
D	-8.695296
/*	-7.724410
▁is	-7.594218
▁const	-8.313737
▁==	-8.239230
▁for	-7.632267
▁void	-7.789513
<	-8.298801
F	-8.838587
▁a	-7.736277
m	-8.721668
T	-8.780966
B	-8.827881
v	-8.898031
E	-9.094896
const	-8.664081
{	-7.124898
P	-8.992364
▁static	-7.980741
▁@	-8.017550
struct	-8.464049
▁in	-7.043455
type	-8.743389
X	-9.185871
U	-9.190709
▁NULL	-8.317362
include	-7.899946
void	-8.357315
▁and	-7.091466
L	-9.079648
data	-8.678714
'	-7.834754
id	-8.604329
l	-9.415784
size	-8.772251
&	-8.720542
H	-8.749667
R	-9.117063
ed	-8.475860
))	-8.723956
****************	-9.584556
I	-9.056358
▁+	-8.833743
name	-8.828220
get	-8.756039
▁if	-8.073283
set	-8.760899
ing	-8.328379
y	-8.990348
g	-9.276236
()	-8.270669
=	-8.396042
M	-9.221848
case	-8.535293
uint	-9.053586
endif	-7.192386
in	-8.881429
k	-9.100073
w	-9.315923
("	-8.790736
(&	-8.882488
len	-8.963911
▁char	-8.837580
();	-8.121316
▁be	-8.465136
N	-9.483694
▁!=	-8.918622
G	-9.507097
");	-8.887750
V	-9.527098
▁this	-8.450990
info	-9.161425
Type	-9.107046
object	-9.841858
string	-9.049081
▁return	-8.205679
buf	-9.218264
▁%	-9.407465
▁&&	-9.360745
));	-9.141340
),	-8.556571
▁lean	-9.258646
o	-9.799912
break	-8.297885
▁i	-8.995635
dev	-9.433961
param	-9.087731
W	-9.644731
is	-9.054550
ptr	-9.318846
value	-9.229902
q	-9.565804
state	-9.376147
ID	-9.458474
▁/**	-7.439542
//	-8.454568
];	-9.044743
j	-9.397620
char	-9.181198
▁<<	-9.790738
arg	-9.508114
else	-7.968861
▁that	-8.227485
+	-9.439753
----------------	-9.631152
▁The	-7.965668
z	-9.404103
to	-9.116467
▁not	-8.685101
▁struct	-8.700684
pyx	-9.968216
▁|	-7.905324
▁uint	-9.423900
out	-9.311754
list	-9.363200
Q	-9.731091
unsigned	-9.220070
▁or	-8.743680
▁with	-8.316188
▁};	-7.357873
▁value	-9.347058
xff	-11.127165
▁||	-9.556774
er	-9.208662
K	-9.802671
▁else	-8.499180
Get	-9.503388
str	-9.631162
▁bool	-9.224980
▁by	-8.235291
▁///	-8.752522
},	-9.184693
Data	-9.543925
val	-9.644918
▁on	-8.331323
TYPE	-9.630113
free	-9.375011
error	-9.479691
▁it	-8.687243
key	-9.640362
ctx	-9.732205
▁(!	-9.186795
▁((	-9.913994
addr	-9.820993
].	-9.753770
|	-9.624153
▁are	-8.725090
O	-9.939588
num	-9.720420
op	-10.000809
▁T	-9.166350
index	-9.724322
or	-9.564401
file	-9.547002
code	-9.760761
Y	-10.082228
▁This	-9.212036
▁std	-9.731027
▁typedef	-9.090548
add	-9.916258
Set	-9.711023
▁from	-8.130821
init	-9.578915
end	-8.884608
▁/**<	-10.594241
ret	-9.430560
count	-9.690666
buffer	-9.820740
▁we	-9.328389
map	-9.908741
for	-9.608530
reg	-10.013523
▁sizeof	-9.937606
Z	-10.116832
node	-9.883957
err	-9.598839
▁*)	-9.681156
▁an	-9.142536
▁**	-8.885509
MAX	-9.818961
xFF	-10.490290
▁size	-9.648742
INT	-10.015506
▁m	-9.367212
%	-9.806493
▁class	-8.879442
Info	-9.781321
String	-9.793390
std	-9.948802
Size	-9.861688
goto	-9.093785
UL	-10.410209
Value	-9.755728
Name	-9.751507
flags	-9.914995
obj	-9.989934
SIZE	-9.987549
NO	-9.946586
▁as	-8.395983
base	-9.914012
▁file	-9.641418
ERROR	-9.748666
bool	-9.595626
msg	-10.030886
st	-9.515402
al	-9.504031
*/	-8.147830
▁long	-9.683451
new	-9.769159
start	-9.640081
result	-9.756021
],	-10.033525
read	-9.959666
▁'	-9.754606
status	-9.870589
time	-9.803993
CH	-10.683668
ifndef	-9.283494
▁OR	-10.163355
max	-10.064196
lock	-10.020950
ifdef	-9.046169
write	-10.067311
io	-9.990951
Id	-9.946085
line	-9.706225
▁extern	-9.694774
In	-9.803472
class	-9.644100
ref	-10.016074
▁data	-9.546105
MASK	-10.418438
▁unsigned	-9.782530
▁can	-9.273292
API	-9.975490
Object	-9.953308
▁inline	-9.805041
▁+=	-9.703195
port	-10.116875
J	-10.259322
offset	-10.143259
float	-10.145048
▁will	-9.429258
▁use	-9.624169
List	-9.737572
ERR	-10.144674
vector	-10.134021
▁OF	-9.975893
table	-9.946382
device	-10.120096
re	-9.862315
▁public	-8.686950
++)	-10.120060
▁function	-9.642984
▁},	-9.794905
IN	-10.175607
NULL	-9.825501
ip	-10.143658
func	-10.268347
IS	-10.241042
REG	-10.358412
CTRL	-10.853049
▁true	-9.559202
config	-10.057057
To	-9.929926
ch	-10.148303
res	-9.909049
no	-9.706451
context	-10.177686
IO	-10.280247
brief	-9.879027
mode	-10.144609
mm	-10.384206
▁v	-9.837345
State	-9.957655
next	-9.995046
test	-10.024462
log	-10.253913
Buffer	-10.090304
DATA	-10.281448
▁false	-9.552667
tmp	-10.194171
================	-10.385020
ly	-9.351615
pos	-10.133589
cmd	-10.214247
es	-9.428123
at	-10.278329
*)	-10.339953
path	-10.128382
printf	-10.077722
Error	-9.972131
mask	-10.324755
▁used	-9.750054
gl	-10.344123
array	-10.131458
▁If	-9.968478
SET	-10.289930
▁get	-9.643728
▁defined	-10.078589
CONFIG	-10.079100
][	-10.592197
bit	-10.282584
this	-9.820112
double	-10.268973
entry	-10.274833
▁!	-9.815130
property	-10.144673
on	-9.853020
▁License	-9.765954
Index	-10.162823
fd	-10.270281
▁set	-9.661539
ED	-10.136077
Node	-10.188161
un	-10.252803
assert	-10.197893
▁?	-11.041914
File	-10.194271
src	-10.404963
▁GL	-10.125337
cb	-10.525388
LOG	-10.235252
▁/*!<	-10.861924
Ptr	-10.300414
Pos	-10.688818
DEFAULT	-11.051615
args	-10.280813
@	-9.742331
mem	-10.368604
sub	-10.356933
hash	-10.482651
▁new	-9.596456
▁>=	-10.295377
IF	-10.396858
(__	-10.014384
This	-10.361610
db	-10.414499
CC	-10.683769
Status	-10.127931
handle	-10.410867
EN	-10.627351
idx	-10.382052
event	-10.410524
GL	-10.386128
Context	-10.254348
le	-10.230093
▁at	-8.624249
▁error	-9.818816
▁Get	-10.040817
block	-10.367670
OP	-10.433462
▁number	-9.918320
:(	-10.496549
length	-10.253634
▁THE	-10.031017
var	-10.159654
▁all	-9.421449
stream	-10.384433
Key	-10.352218
▁have	-9.163867
sc	-10.545469
rc	-10.282503
MODE	-10.633314
▁must	-10.067511
load	-10.567429
▁mode	-10.538420
it	-10.153450
DMA	-11.003154
virtual	-10.365931
TX	-10.672747
▁template	-9.777755
▁Copyright	-10.410279
Array	-10.418145
CR	-10.699407
▁namespace	-9.210914
++	-10.158744
▁when	-9.689360
STATUS	-10.455240
DEBUG	-10.163648
BIT	-10.638183
able	-9.954575
EXT	-10.599084
ps	-10.345986
os	-10.008066
OK	-10.123198
▁using	-9.900176
▁buffer	-10.314341
[]	-10.268229
of	-10.158647
INFO	-10.417881
▁may	-9.677653
]);	-10.459488
sp	-10.423891
net	-10.380518
=>	-9.435034
as	-10.118884
xf	-11.451808
priv	-10.586849
Time	-10.488425
GET	-10.540253
long	-10.513519
link	-10.629240
▁any	-9.873866
default	-9.846323
▁has	-9.406453
(*	-10.332812
req	-10.621307
RX	-10.836932
Event	-10.432468
Base	-10.488408
▁double	-10.308562
alloc	-10.552617
Image	-10.531533
++;	-9.645740
▁should	-10.035670
ER	-10.681180
from	-10.449884
▁only	-9.854597
typename	-10.223913
▁which	-9.376530
input	-10.486920
Pyx	-10.555739
min	-10.361661
en	-10.043519
▁code	-10.078617
Count	-10.410593
check	-10.495818
self	-10.326045
xe	-11.535059
▁ANY	-10.415618
▁k	-10.220046
▁I	-8.674075
switch	-10.347352
▁you	-9.309929
ctor	-10.536657
KEY	-10.669106
ation	-10.062193
Int	-10.623160
lib	-10.599147
conn	-10.688860
Request	-10.564719
up	-10.153388
Vector	-10.678030
AS	-10.778330
fs	-10.488367
PORT	-10.796821
attr	-10.716882
▁<=	-10.651443
ING	-10.385630
Handle	-10.562866
ST	-10.913891
Lean	-11.486425
mp	-10.702295
static	-10.306178
dir	-10.562598
frame	-10.729022
hw	-10.821074
desc	-10.747368
field	-10.313758
▁ret	-9.757464
ar	-10.483330
xa	-11.466739
de	-10.163145
dec	-10.081641
</	-9.776489
IP	-10.796670
UI	-10.725578
ON	-10.932989
ok	-10.480910
Mode	-10.652268
▁do	-9.757028
params	-10.680697
PIN	-10.980581
Py	-10.818507
▁so	-9.895223
sizeof	-10.776945
▁float	-10.643435
▁bit	-10.643369
queue	-10.746624
Windows	-11.303109
and	-10.257518
NAME	-10.653902
GPIO	-11.272261
▁|=	-10.585146
cur	-10.762210
cast	-10.770492
ui	-10.756600
▁under	-9.817656
TO	-10.778304
BASE	-10.877671
bits	-10.757346
Block	-10.710135
▁one	-9.547119
null	-11.261807
▁source	-10.451462
ap	-10.511467
cpu	-10.895717
FILE	-10.518118
client	-10.711653
com	-9.974653
Device	-10.698764
cache	-10.763965
OS	-10.844932
▁Set	-10.437811
▁..	-11.288805
iVar	-10.305615
ASSERT	-10.541822
DB	-10.704747
#	-9.764259
▁(*	-10.596040
SHIFT	-11.027176
OUT	-10.825729
▁following	-9.902552
def	-10.619969
create	-10.640431
fp	-10.667668
xc	-11.555728
xF	-11.497457
")	-10.424569
View	-10.511356
▁list	-10.168112
call	-10.763274
STATE	-10.705185
▁override	-10.488092
user	-10.602093
Map	-10.634510
output	-10.713814
▁no	-9.923249
dst	-10.884137
ic	-10.301739
▁out	-9.507162
do	-9.983477
put	-10.650888
▁index	-10.520565
core	-10.725802
";	-10.154497
copy	-10.642760
cl	-10.728157
SR	-11.380867
format	-10.724431
image	-10.667934
])	-10.855616
▁"\	-11.110585
TEST	-10.636133
Init	-10.603826
▁copy	-10.460368
an	-10.177873
Var	-10.856860
...	-10.219196
opt	-10.817409
li	-10.374449
Is	-10.504682
▁but	-9.539579
request	-10.734422
last	-10.611387
page	-10.575828
old	-10.682307
)))	-10.929755
▁IN	-10.458997
current	-10.621273
▁result	-10.055209
lo	-10.956823
)->	-10.611263
item	-10.665810
thread	-10.800880
Table	-10.578338
▁register	-10.686944
host	-10.877205
▁address	-10.697989
▁input	-10.618770
Result	-10.608861
tx	-10.474605
sys	-10.556229
xd	-11.678266
off	-10.451720
rx	-10.787223
▁other	-9.793387
END	-10.256772
▁key	-10.480115
Input	-10.741538
be	-10.456792
while	-10.483682
},{	-13.947833
STR	-10.891761
width	-10.631408
?	-9.078824
rt	-10.847098
ext	-10.964210
cp	-10.813477
▁software	-10.370846
CLK	-11.317648
};	-9.587248
AL	-10.893901
ac	-10.681007
CMD	-10.950813
▁block	-10.683002
Stream	-10.767234
Message	-10.583899
▁pointer	-10.706954
▁>>	-10.974596
tree	-10.903197
Create	-10.806009
all	-10.722243
point	-10.756926
cc	-10.610691
attribute	-10.762460
▁current	-10.444471
Address	-10.809911
col	-10.950135
▁j	-10.617985
tag	-10.832180
Code	-10.768142
target	-10.772111
==	-10.922569
head	-10.532969
text	-10.137280
bytes	-10.862059
▁without	-10.252312
tp	-10.716662
us	-10.010059
Class	-10.698584
header	-10.835919
update	-10.800198
group	-10.766000
ent	-10.831261
▁operator	-10.774246
hdr	-11.002540
Re	-10.591348
AF	-11.107738
▁GPIO	-11.312341
av	-11.023512
IC	-10.736341
cfg	-11.031410
local	-10.814854
▁output	-10.677540
pool	-11.110321
mutex	-10.871069
`	-11.061371
per	-10.574722
inc	-10.386803
xb	-11.940702
▁end	-10.120542
byte	-10.858155
open	-10.779553
Callback	-10.952834
env	-10.933610
▁time	-9.911768
cs	-10.835618
RE	-10.976868
view	-11.025933
pc	-10.893649
vec	-11.110330
ARG	-10.960854
row	-10.687687
For	-10.663163
▁default	-10.382704
VERSION	-10.849388
Number	-10.940969
ADDR	-11.111270
function	-10.609276
SEL	-11.379867
▁IS	-10.883091
si	-10.770291
BOOL	-10.697039
xE	-11.904103
MIN	-10.881685
FLAG	-11.153220
UINT	-10.932577
ce	-10.741086
STRING	-10.913589
retval	-10.486948
▁memory	-10.718411
▁first	-9.775152
debug	-10.785292
▁glad	-10.536752
flag	-10.857324
win	-10.937387
▁enum	-10.017115
With	-10.859101
',	-10.646991
NOT	-10.756471
////////////////	-11.646685
ms	-10.612558
im	-10.840264
!	-9.394639
level	-10.782727
gen	-10.695635
ul	-10.438672
){	-10.428675
▁was	-8.643039
Offset	-10.982465
server	-10.925910
pg	-11.037797
LE	-10.906634
Test	-10.750262
AT	-11.447224
▁virtual	-10.546230
OF	-11.058956
UN	-10.961092
://	-10.432808
From	-10.762144
▁test	-10.600727
send	-10.965466
Item	-10.847230
Pointer	-10.914604
Function	-10.861528
am	-10.588246
ep	-10.903305
has	-10.606176
first	-10.733788
USE	-10.777321
Config	-10.944961
Color	-10.848992
Start	-11.008919
address	-10.940637
EXPORT	-10.799290
▁~	-10.634629
session	-11.249206
CHECK	-10.955294
AR	-11.350216
SPI	-11.287898
▁device	-10.725016
Text	-10.723402
close	-10.802480
stack	-10.949665
rel	-11.050670
SSL	-11.130327
DC	-11.130645
LL	-11.240185
Msk	-11.724707
VALUE	-10.956478
message	-10.835628
ff	-11.104735
IT	-11.018704
ns	-10.646086
Window	-10.907542
NUM	-11.113963
LEN	-11.096805
print	-10.793036
the	-10.360365
Source	-11.092463
$	-10.413974
Command	-10.973621
vm	-11.154471
VAL	-11.296063
PS	-11.056582
spec	-11.118158
(!	-10.684875
MEM	-11.056316
New	-10.702330
mod	-11.200284
▁start	-10.769770
///	-9.996569
argv	-10.907021
OR	-10.866107
▁into	-9.900188
pp	-10.933924
clear	-10.685652
▁values	-10.685886
http	-10.902203
private	-10.556263
dma	-11.178662
temp	-10.976172
internal	-10.893928
Path	-10.870810
nonatomic	-10.951325
Read	-10.936970
>&	-11.302287
>(	-11.008223
left	-10.108920
FF	-10.809182
SUCCESS	-10.710678
module	-11.005512
XFF	-14.302911
ld	-11.229087
PyObject	-11.301906
CFG	-11.363769
▁offset	-10.902978
▁while	-10.127118
System	-11.090896
dp	-11.126283
MSG	-11.094510
shared	-11.271198
▁version	-10.533039
stat	-11.002606
ADC	-11.719109
▁PyObject	-10.573926
ee	-10.996691
volatile	-11.276019
Client	-10.878066
▁call	-10.746833
ll	-10.601757
Instance	-11.064072
pr	-11.018541
Out	-10.848036
▁AND	-10.736770
NV	-11.119585
▁check	-10.676065
import	-10.515305
Call	-11.155057
sk	-10.984892
▁typename	-11.340980
PROC	-10.953117
▁read	-10.715032
Length	-10.931560
SYS	-10.999237
CS	-10.995928
▁length	-10.770950
rd	-10.667836
ENABLED	-10.766313
▁bytes	-11.008881
interface	-10.861897
Write	-10.995376
parent	-10.880570
fprintf	-11.069875
co	-10.597073
mb	-10.931268
lp	-11.106041
DEF	-11.132526
defined	-11.020250
<<	-11.320348
ec	-11.134279
rate	-11.174126
cnt	-11.041481
proc	-11.054635
▁FOR	-10.749794
fc	-11.288827
seq	-11.185262
Check	-10.925911
space	-10.873453
READ	-11.067737
move	-11.340421
Op	-11.148706
me	-10.658155
push	-11.037261
Frame	-11.018676
ad	-10.656881
\"	-12.494256
register	-10.958979
());	-10.682281
box	-10.883534
word	-11.206273
The	-9.868414
irq	-11.113521
▁Returns	-10.715311
color	-10.821437
zend	-11.263856
▁need	-10.519460
▁Py	-10.630302
Un	-11.039180
Sub	-10.981894
version	-10.860887
MS	-11.135729
sz	-10.998859
CODE	-11.083093
▁Software	-10.754383
CTL	-11.434463
mac	-11.153917
options	-11.065792
PTR	-11.161366
USB	-11.424185
hi	-11.046644
FS	-11.023337
AD	-11.308436
INIT	-10.985848
WRITE	-11.109484
End	-10.958066
md	-11.148898
ring	-10.933177
Format	-10.913793
(),	-10.772978
Memory	-10.983156
Point	-11.076958
^	-10.989298
LIB	-10.955801
use	-10.699246
▁All	-10.111794
Flags	-11.116564
ts	-10.206836
▁ADC	-11.571401
SC	-11.049662
▁//!	-10.181450
pl	-11.244788
▁SOFTWARE	-10.847756
sa	-10.606363
Add	-11.029738
channel	-11.214522
sig	-11.463198
Ref	-11.017706
PA	-11.426308
continue	-10.375331
ro	-10.733178
>::	-11.238123
Log	-11.138107
▁more	-9.842057
▁"%	-11.352663
AC	-11.229745
EC	-11.168704
ion	-10.784983
▁given	-10.562188
▁user	-10.886477
HAL	-11.215595
Num	-11.115608
number	-10.943120
sock	-11.162348
LINE	-11.175967
dc	-11.364252
▁`	-11.095001
ops	-11.096618
dw	-11.141268
one	-10.525175
INVALID	-11.054334
el	-10.546004
▁-(	-10.352723
conf	-11.203470
DEVICE	-11.238624
org	-10.630641
root	-11.061982
timer	-11.206945
app	-11.129806
Entry	-11.003045
begin	-10.624739
malloc	-11.141561
▁status	-10.437691
back	-10.654989
scan	-11.407796
CALL	-11.178744
BE	-11.287459
Global	-11.436450
')	-10.696906
▁USB	-11.305528
Field	-11.028378
','	-12.726167
xC	-11.983304
COLOR	-11.049357
AN	-12.130003
il	-11.069190
MAP	-11.146649
FUNC	-11.129469
Max	-11.208084
filter	-11.208236
stats	-11.115693
▁message	-10.883828
No	-10.581845
handler	-11.189411
▁PFNGL	-10.917811
Reg	-11.294905
ur	-11.113674
▁command	-10.839252
comp	-11.502470
CL	-11.050416
BUFFER	-11.155419
▁We	-10.231236
sym	-11.109469
ment	-10.705468
iterator	-11.140582
iter	-11.140806
▁its	-9.994547
unit	-11.419215
mark	-11.100504
DE	-11.208641
▁src	-11.197696
range	-11.156494
ENABLE	-11.114585
PC	-11.218435
▁WARRANTIES	-10.971507
IM	-11.111928
action	-11.172625
mi	-10.945426
Output	-11.047223
▁FALSE	-10.754167
ARRAY	-11.260331
▁above	-10.637644
Matrix	-11.192521
pre	-10.894333
CA	-11.318331
inline	-11.041921
Mask	-11.339213
Char	-11.098292
ca	-10.901022
':	-10.508009
/**	-9.580776
iv	-11.136072
▁DMA	-11.466250
Filter	-11.179609
▁failed	-10.978062
MAC	-11.348325
Model	-11.119640
th	-9.285325
enable	-11.088478
rs	-10.313075
tab	-11.314520
▁reserved	-10.788412
AP	-10.967865
CF	-11.227470
▁conditions	-10.673261
Handler	-11.104130
▁called	-10.621304
UP	-11.108754
PR	-11.354739
**	-9.881275
va	-10.793098
▁target	-11.112993
RPC	-11.251919
SD	-11.527924
pt	-10.667570
▁See	-8.510742
())	-10.633961
filename	-11.151825
▁then	-10.172264
wait	-11.087205
usb	-11.328591
▁max	-11.023914
▁private	-9.498493
LIST	-11.155714
memory	-10.963619
hr	-11.320759
▁request	-11.004514
prev	-11.095797
FUNCTION	-11.048221
LP	-11.243092
by	-10.477822
SW	-11.425201
linux	-10.705182
raw	-11.370478
▁node	-10.917831
unlock	-10.833568
fn	-11.089898
ex	-10.915589
expr	-11.333190
height	-11.092423
clk	-11.445993
sum	-11.294584
ctrl	-11.357745
SL	-11.191176
ssl	-11.371552
ev	-11.030795
▁Bit	-11.409399
source	-10.976487
TIM	-11.765231
parse	-11.295628
Element	-11.106698
NONE	-11.260695
Group	-11.045699
BT	-11.359209
trace	-11.405488
RT	-11.255218
packet	-11.455842
bus	-11.318495
▁rights	-10.564575
▁information	-10.400669
api	-11.072210
BLOCK	-11.269300
LONG	-11.268814
Free	-10.882628
method	-11.217583
▁HAL	-11.091589
pragma	-10.104482
exit	-10.811253
▁count	-10.943212
▁notice	-11.068888
cap	-11.375517
Version	-11.060029
▁array	-10.910577
right	-10.217637
match	-11.173514
OFFSET	-11.522316
term	-11.425190
prop	-11.445791
LOC	-12.337076
▁there	-10.034531
WIN	-10.964651
py	-10.979905
mc	-11.475169
Core	-11.295478
RC	-11.212780
User	-11.239156
▁specified	-11.094434
Control	-11.205552
da	-10.775286
ri	-11.150281
▁last	-10.578598
rb	-11.257768
sync	-11.215417
Thread	-11.084369
tuple	-11.300536
auto	-11.207329
sd	-11.225460
TRACE	-11.291830
DWORD	-11.001008
insert	-11.621949
work	-11.160426
cr	-11.221625
label	-10.811482
zero	-11.249587
▁TRUE	-10.836097
Range	-11.303660
().	-10.933621
▁'\	-11.191621
MP	-11.246273
##	-11.888526
skb	-11.423774
Expr	-11.374059
closed	-11.678174
BUF	-11.427645
NET	-11.110876
▁after	-10.115752
memcpy	-11.357125
scale	-11.461463
▁up	-10.098262
common	-11.169012
EVENT	-11.313123
▁Register	-10.824713
▁than	-10.220595
slot	-11.721611
▁provided	-10.774789
LA	-11.035951
ra	-10.894933
low	-11.308277
Module	-11.174841
task	-11.330608
▁re	-10.421237
Port	-11.364514
assign	-11.752583
CB	-11.378922
token	-11.350763
>>	-11.531211
command	-11.189320
▁mask	-11.401168
con	-11.286643
Lock	-11.184829
PG	-11.267592
cursor	-11.243418
callback	-11.359947
sec	-10.726194
▁sub	-10.826058
Line	-11.085822
query	-11.203923
UART	-11.562209
VAR	-11.332499
release	-11.252738
Local	-11.395611
enum	-11.066912
nd	-10.706951
▁UINT	-11.149809
~	-10.904927
rec	-11.401179
▁same	-10.504545
EX	-11.293772
font	-11.522074
window	-11.276068
IR	-11.347308
ator	-11.040822
Header	-11.187007
▁parameter	-11.177531
cm	-11.103641
CLASS	-11.296550
phy	-11.418065
pd	-11.350732
Str	-11.196817
impl	-11.372314
Task	-11.267876
NS	-11.234022
&&	-11.425382
▁Interrupt	-11.583627
find	-11.295732
ADD	-11.389010
dd	-11.284038
HANDLE	-11.259828
spi	-11.398731
▁copyright	-11.006149
▁Return	-10.863300
DIV	-11.894353
control	-11.307408
TIME	-11.283172
▁before	-10.400577
Hash	-11.274147
▁functions	-10.812012
Val	-11.367290
xA	-12.140666
SP	-11.197861
▁non	-10.682140
active	-11.126569
▁un	-10.500051
xB	-12.166339
TC	-11.418704
ds	-10.538191
json	-11.253485
em	-10.845166
CD	-10.722095
"),	-11.299182
sample	-11.683497
reset	-11.152027
LEVEL	-11.386599
AM	-11.642251
▁each	-10.585962
▁distributed	-11.320939
pkt	-11.531982
INLINE	-11.355321
MC	-11.177231
▁handle	-11.061358
▁HRESULT	-11.182473
On	-11.094522
uc	-11.482262
Options	-11.211885
ALL	-11.287615
stride	-11.582566
EP	-11.457399
▁structure	-10.874985
PM	-11.544252
PER	-11.420997
RTC	-11.779651
DT	-11.677878
real	-11.339267
fe	-11.291325
SS	-11.409515
ARB	-11.424480
tm	-11.500854
▁specific	-10.807683
sh	-10.932886
dump	-11.569408
ob	-11.511222
Register	-11.381056
▁been	-9.917781
TIMER	-11.799965
Param	-11.491175
Manager	-11.086142
Load	-11.198786
▁field	-10.869238
▁line	-10.770574
DF	-11.474576
Interface	-11.240806
region	-11.582500
texture	-11.729404
▁format	-11.102972
undef	-10.551496
oc	-11.154104
tr	-10.627605
fmt	-11.379532
CMU	-14.313177
shift	-11.760018
ir	-10.741860
SHA	-11.652534
▁err	-10.175253
▁Enable	-11.460643
▁flags	-10.928837
▁Mode	-11.984333
▁yy	-11.071261
ct	-11.379350
inode	-11.522674
▁USE	-11.181916
socket	-11.371184
▁event	-10.899681
▁support	-10.886598
DA	-11.428809
ive	-10.907167
=%	-12.176049
errno	-11.028554
▁/*!	-9.744827
ab	-11.215685
▁num	-11.100895
▁here	-10.417505
cd	-11.489271
nr	-11.362026
lua	-11.450884
sm	-11.193026
IRQ	-11.502727
chip	-11.669403
Property	-11.175091
Obj	-11.528191
Of	-11.044957
Bit	-11.488578
Level	-11.439207
DEV	-11.516508
GC	-11.376149
RETURN	-11.008594
Update	-11.325608
loop	-11.453140
▁It	-9.815633
▁CMU	-12.077716
not	-10.946456
ATTR	-11.505149
flow	-11.520666
FIELD	-11.319083
ge	-10.807653
LOCK	-11.445589
▁found	-10.476469
TAG	-11.476086
▁Shifted	-12.274678
▁context	-11.016370
MD	-11.574532
MT	-11.528559
HW	-11.625694
▁method	-10.968329
top	-10.966661
▁--	-10.793949
ot	-11.233013
enc	-11.607825
store	-11.389806
depth	-11.642706
xml	-11.200668
DR	-11.536994
types	-10.979422
proto	-11.409419
Arg	-11.623699
PRE	-11.406348
CON	-11.227921
Release	-11.164066
▁CONFIG	-10.798262
("%	-11.436933
.</	-11.355788
TS	-11.184812
DECL	-11.296346
act	-11.184750
fb	-11.686853
▁base	-10.902095
CP	-11.346191
heap	-11.467024
▁either	-10.929027
dest	-11.432402
CE	-11.434801
instance	-11.377351
exp	-11.569661
Service	-11.240652
par	-11.197696
▁create	-10.927823
template	-11.004202
REF	-11.429336
yy	-11.681148
parser	-11.420536
Page	-11.262887
MODULE	-11.188323
CK	-11.694160
dict	-11.329206
bp	-11.452887
SUB	-11.411284
OC	-11.639696
▁byte	-11.411748
FD	-11.398285
strcmp	-11.589923
START	-11.413981
▁interrupt	-11.394373
Query	-11.337749
▁make	-10.566329
OBJECT	-11.315096
COUNT	-11.459510
▁GLAPI	-11.257722
style	-10.796266
tcp	-11.547532
▁nullptr	-11.221556
Response	-11.346175
mul	-11.742553
Resource	-11.356769
▁write	-11.127318
Send	-11.378273
▁header	-11.222693
dim	-11.652983
▁You	-10.381363
lean	-11.830370
BYTE	-11.453117
FB	-11.790318
destroy	-11.290923
driver	-11.451132
▁module	-11.179855
▁does	-10.756588
TABLE	-11.387342
▁-=	-11.147951
chan	-11.421701
Default	-11.256473
sw	-11.295682
df	-11.564609
▁++	-11.374746
rv	-11.181623
Method	-11.291092
my	-10.862335
Debug	-11.249480
▁returns	-11.156678
empty	-11.302631
DO	-11.606864
memset	-11.429261
wpa	-11.785542
pm	-11.277384
IE	-11.517639
run	-11.195544
USER	-11.394561
www	-10.928046
ME	-11.315441
Queue	-11.508115
ci	-11.001075
sl	-11.322970
▁NOT	-11.144230
PARAM	-11.589986
--	-10.553340
▁some	-10.290407
CM	-10.727454
▁next	-10.750073
Cache	-11.319998
LOAD	-11.688452
MI	-11.609673
DS	-11.233500
▁tmp	-11.153200
CI	-11.464306
▁returned	-11.113614
pid	-11.323682
Exception	-11.060733
Flag	-11.485986
Mem	-11.409153
over	-11.208396
FC	-10.716050
shape	-11.767861
Len	-11.390465
xffff	-12.461804
FORMAT	-11.593720
▁program	-11.006745
trans	-11.708483
▁access	-11.019551
ma	-10.601468
CPU	-11.616084
PT	-11.469254
▁table	-10.798811
PP	-11.491009
sb	-11.409196
BLE	-11.655035
RD	-11.596757
with	-11.115152
bl	-11.470990
remove	-11.331184
▁{}	-11.208092
ig	-11.424750
true	-11.037281
ls	-11.039977
▁short	-10.746713
regs	-11.634777
setup	-11.713443
OPT	-11.588602
false	-11.109212
PHY	-11.732738
FE	-11.516673
FT	-11.601739
epi	-11.994498
OBJ	-11.656747
VM	-11.516307
APIENTRYP	-11.672596
ES	-11.067376
▁required	-11.011629
ATION	-11.255244
▁callback	-11.354745
NODE	-11.441066
NI	-11.372187
stderr	-11.494622
MOD	-11.667119
▁IMPLIED	-11.392563
De	-11.012568
Server	-11.333787
FALSE	-11.150460
COMP	-11.573595
cmp	-11.666203
▁Check	-11.064112
PL	-11.323381
Token	-11.437768
ea	-11.398282
rect	-11.798474
main	-11.183673
USART	-12.323578
timeout	-11.503121
multi	-11.807509
ast	-11.387184
▁NRF	-11.451016
less	-10.956990
**************	-11.751822
iface	-11.692661
unique	-11.719909
Next	-11.374465
▁point	-10.996566
▁instance	-11.259165
▁&=	-11.326006
pair	-11.766404
dr	-11.372752
CHAR	-11.407585
gpio	-11.682246
▁interface	-11.130705
▁GNU	-11.173870
--------------	-11.170297
Current	-11.514449
rm	-11.350877
DI	-11.408324
AB	-11.658922
PLL	-12.042484
fr	-11.460213
Channel	-11.613267
blk	-11.685229
▁thread	-11.305067
note	-11.012652
And	-11.067906
kind	-11.707418
▁already	-11.018999
▁don	-10.879309
App	-11.489642
macro	-11.913617
▁implementation	-11.281634
bd	-11.782872
append	-11.299539
fl	-11.593435
Process	-11.678562
XF	-12.143525
▁available	-10.972123
SM	-11.428672
▁image	-11.214679
▁channel	-11.359770
nl	-11.647135
pi	-10.956669
ol	-11.171975
GLenum	-12.127384
REQ	-11.923680
buff	-11.644813
INDEX	-11.621015
▁operation	-11.241100
exception	-11.442202
Func	-11.543101
WITH	-11.484147
GEN	-11.680770
peer	-11.957454
chain	-11.879296
xD	-12.395946
▁binary	-11.326238
tv	-11.604764
process	-11.401916
Texture	-11.569438
DBG	-11.713593
▁Public	-10.601190
Attribute	-11.498041
extra	-11.995607
cf	-11.741161
loc	-11.562224
▁level	-11.110282
▁port	-11.354693
.\	-11.126553
ib	-11.446596
Float	-11.602822
domain	-11.873452
TR	-11.495299
(((	-12.357243
STAT	-11.735435
Copy	-11.303888
ULONG	-11.271348
AV	-11.556534
"))	-11.554653
pci	-11.701389
ARM	-11.632292
RCC	-12.157328
gc	-11.686434
Min	-11.637293
▁constexpr	-11.577502
go	-10.800832
SH	-11.691841
ml	-11.503957
td	-11.115309
{"	-11.676542
INPUT	-11.768869
MM	-11.671551
Bits	-11.549670
▁GLint	-12.274945
▁For	-10.362815
ss	-10.783384
pixel	-12.040666
br	-11.040977
As	-11.230550
pad	-11.706486
lt	-11.478374
script	-11.224876
Access	-11.688896
bin	-11.387892
limit	-11.526232
mat	-11.671064
vp	-11.778662
▁LIMITED	-11.380123
AND	-11.514730
Meta	-11.992664
global	-11.529791
ter	-11.006569
▁position	-11.108884
delete	-11.399048
▁system	-10.723651
CONST	-11.704984
la	-10.942254
METHOD	-11.444289
EE	-11.818553
diff	-11.702696
▁General	-10.454016
flush	-11.568767
edge	-12.035574
bb	-11.505238
PAGE	-11.655728
▁page	-11.013112
CAN	-11.958049
VER	-11.572161
Target	-11.438076
AA	-11.923455
▁process	-11.021511
Iterator	-11.528978
Media	-11.723002
child	-11.451466
equal	-11.814989
▁dst	-11.664203
BA	-11.695982
connect	-11.818057
ia	-10.358738
GLuint	-11.973741
pipe	-11.903685
▁WITHOUT	-11.336789
)));	-11.670759
atomic	-11.508629
BC	-11.705345
▁BUT	-11.397210
Not	-11.462457
png	-11.866174
asm	-11.403600
▁bits	-11.559992
fill	-11.881013
resource	-11.690322
EM	-11.647294
lu	-11.726633
di	-10.821206
Tag	-11.599660
▁THIS	-11.392544
▁entry	-11.173961
ALT	-12.125894
connection	-11.549703
▁clock	-11.585515
graph	-11.533375
kernel	-11.644466
Draw	-11.537030
TLS	-11.709614
Button	-11.427432
US	-11.394726
dl	-11.531570
pin	-11.510671
ay	-11.706232
RESET	-11.809064
Pre	-11.586465
bt	-11.666707
▁auto	-11.216767
By	-11.391967
Action	-11.449800
mk	-11.802787
PD	-11.725255
CO	-11.673725
delay	-11.733687
system	-11.444827
Byte	-11.563690
Delete	-11.458827
▁configuration	-11.295843
▁LIABILITY	-11.700038
ef	-11.559540
▁part	-10.601996
GP	-11.767597
dm	-11.754625
▁window	-11.395120
inst	-11.814524
ram	-11.354110
ba	-11.096798
Struct	-11.592722
nb	-11.665970
ag	-11.678501
▁[[	-12.555170
rp	-11.596130
php	-11.277547
pa	-11.083099
Elab	-12.834645
union	-11.428064
▁valid	-11.482334
ence	-11.330865
bf	-11.973977
lc	-11.631211
sign	-11.891520
model	-11.466603
▁order	-10.814591
NSString	-11.382385
auth	-11.689238
um	-10.720774
values	-11.534656
CT	-11.626495
order	-11.458916
ROM	-11.941426
bo	-11.176226
Buf	-11.744760
▁FITNESS	-11.319905
tc	-11.476575
so	-10.902065
ant	-10.926541
DIR	-11.555945
pointer	-11.611414
CTX	-11.798439
▁element	-11.350986
▁MERCHANTABILITY	-11.304648
BR	-11.603723
▁just	-10.487934
SI	-11.521655
Vec	-11.953546
▁TO	-11.140085
▁flag	-11.485347
iParam	-11.878283
FAIL	-11.449243
MB	-11.677165
▁RTC	-12.022426
Msg	-11.712024
ck	-11.394600
▁==>	-12.331424
stop	-11.373392
part	-11.484415
eq	-11.555191
unlikely	-11.985930
se	-10.867505
Desc	-11.590414
body	-11.265925
section	-11.378445
position	-11.343713
"},	-11.657161
SA	-11.507968
used	-11.393248
valid	-11.543813
Or	-11.428393
▁PURPOSE	-11.314380
▁zero	-11.466898
Descriptor	-11.606792
uParam	-11.816708
DP	-11.591492
pending	-11.929666
▁done	-10.666307
lv	-11.808403
▁see	-10.725128
adapter	-11.758562
Parameter	-11.526674
!=	-11.715299
keys	-11.452304
▁frame	-11.426214
▁PARTICULAR	-11.334465
▁also	-8.395648
UNUSED	-11.584953
draw	-11.527421
screen	-11.901436
FIFO	-11.945602
=(	-11.312149
elem	-11.793777
▁once	-10.258004
TH	-11.468376
oid	-11.731775
tile	-11.596202
force	-11.927517
Internal	-11.454693
xFFFF	-12.666662
▁where	-10.354641
▁CHECK	-11.663299
save	-11.529202
sel	-11.440717
ack	-11.803083
ARGS	-11.698385
MA	-11.621896
▁hash	-11.399877
bc	-11.880264
RAM	-11.827565
HTTP	-11.600370
total	-11.593271
master	-11.606741
ate	-11.016587
rows	-11.833484
▁Note	-11.308141
▁EFI	-11.036535
None	-11.428975
ie	-10.746029
▁because	-10.686171
glGet	-11.819414
ity	-10.454520
TDMETHODCALLTYPE	-11.545780
swap	-11.619018
ctl	-11.807507
TEXTURE	-11.730758
PB	-11.946314
OFF	-11.723943
exec	-11.763852
SE	-11.499821
Tensor	-11.994160
surface	-12.048436
Record	-11.683243
Parse	-11.599238
DD	-11.781337
▁packet	-11.676662
PI	-11.633076
▁two	-10.096316
Rect	-11.829872
cell	-11.768919
report	-12.058201
▁parameters	-11.238258
▁update	-11.229031
BEGIN	-11.180282
signal	-11.684700
SRC	-11.908853
▁your	-10.095293
Invalid	-11.491842
sort	-11.560133
GR	-11.882485
Open	-11.506853
Display	-11.576469
element	-11.610273
bind	-11.826949
":	-10.213657
INCLUDING	-11.524120
▁gl	-11.426109
LENGTH	-11.820092
Store	-11.790299
bar	-10.946988
▁HAVE	-11.010723
tor	-11.215315
License	-11.475285
="	-9.192510
Stack	-11.517857
card	-11.639993
FP	-11.739301
pass	-11.600315
storage	-12.055189
▁old	-11.078523
doc	-11.490809
ABI	-11.849744
RA	-11.716050
glad	-11.798243
▁(((	-12.227006
▁path	-11.306223
Params	-11.715627
Packet	-11.787474
make	-11.636957
HI	-11.833029
TCP	-11.721737
ht	-11.918180
▁whether	-11.152103
ngx	-11.924818
recv	-11.875051
date	-11.596010
emit	-12.174151
TM	-11.864731
▁//*************	-10.492458
▁In	-9.231970
xFFFFFFFF	-10.884851
Connection	-11.513156
safe	-12.183149
Return	-11.401896
uv	-11.640904
EA	-11.798688
Multi	-11.740219
▁Use	-11.280147
▁ZEND	-11.755511
BITS	-11.881297
Label	-11.507320
RO	-11.646420
settings	-12.076809
▁otherwise	-11.370025
PATH	-11.643542
▁Inc	-11.282814
CORE	-11.710238
▁control	-11.194284
▁enable	-11.641391
post	-11.562657
bi	-11.265746
seg	-11.903273
Impl	-11.618488
▁range	-11.263583
spin	-11.475416
poll	-11.924300
CU	-11.645173
runtime	-11.678836
container	-11.989411
▁argument	-11.438513
Foundation	-11.873940
layout	-11.658327
MR	-12.011788
Width	-11.673845
Pin	-12.230798
Layout	-11.514042
Timer	-11.774968
arr	-11.727470
Link	-11.567914
pattern	-12.128427
Print	-11.923835
chunk	-11.933645
face	-11.909098
CAP	-11.681096
Parser	-11.852503
Kind	-11.700784
Position	-11.686472
util	-11.356981
pack	-11.923596
short	-11.615955
▁find	-11.055829
Addr	-11.875623
uart	-11.881022
▁noexcept	-11.825496
fa	-11.384925
bound	-11.956863
LINK	-11.764691
ti	-11.074698
bcm	-12.180773
Change	-11.690708
▁option	-11.510594
Tuple	-11.740598
▁Create	-11.458445
TRUE	-11.474961
▁No	-10.345640
Bool	-11.665432
aa	-12.039626
sf	-11.599051
ga	-11.112005
mov	-11.758991
:%	-12.511523
RGB	-11.897764
APP	-11.566612
Decl	-11.826472
track	-11.715741
red	-11.160475
FLOAT	-11.842705
▁connection	-11.564878
NEXT	-11.741656
FLAGS	-11.910671
▁license	-11.484252
HASH	-11.827278
readonly	-11.510052
Failed	-11.777448
display	-11.628728
area	-12.079745
▁TIM	-12.105463
STM	-12.293648
LD	-11.675423
FLASH	-12.004301
EINVAL	-11.032164
▁de	-10.077874
INTERFACE	-11.533114
member	-12.045515
bitmap	-11.889638
Loc	-11.767684
Storage	-11.782695
▁work	-10.478350
▁res	-11.140205
SIG	-11.712118
board	-11.497072
sta	-11.639549
wl	-11.851344
description	-11.637215
arm	-11.847680
IL	-11.731317
BB	-11.812976
response	-11.664945
SEC	-11.868472
mon	-11.406784
reference	-11.643395
▁integer	-11.614310
▁SPI	-11.817833
mapping	-12.267662
ssize	-11.539136
Enable	-11.717752
Web	-11.649716
Find	-12.292545
TP	-11.638360
shader	-11.913003
mv	-12.110301
CHANNEL	-11.946940
CONTROL	-11.939579
▁written	-10.830430
JS	-11.736830
CMP	-12.221721
RS	-11.624957
Session	-11.644923
stmt	-11.861881
matrix	-11.706087
▁reference	-11.409063
can	-11.249942
lower	-12.331615
PY	-11.726493
Tree	-11.664471
VT	-11.968153
access	-11.654081
disable	-11.652238
full	-11.826689
eb	-11.580365
FA	-11.591070
▁now	-10.562680
throw	-12.108386
▁UART	-11.914385
DAC	-12.257450
▁per	-11.310717
ue	-11.354772
lookup	-11.835875
eval	-12.111043
he	-11.631099
protocol	-11.657901
▁success	-11.335423
pb	-11.795031
reply	-12.031980
RES	-11.686089
decode	-11.880502
wm	-12.001210
ies	-10.763342
cond	-11.584462
slice	-12.135607
light	-11.319452
▁open	-11.195780
compare	-12.319791
elif	-11.445864
ni	-11.035108
';	-11.053263
prefix	-11.816945
▁matrix	-11.678652
Controller	-11.644710
tb	-11.716656
NT	-11.458340
STACK	-11.759373
nodes	-12.136486
hal	-11.562056
PE	-11.734174
only	-11.423054
▁delete	-11.799656
other	-11.512083
FOR	-11.769241
lpVtbl	-12.005319
FROM	-12.320755
cu	-11.851929
gp	-11.982923
WORD	-11.844764
select	-11.621461
delta	-11.651741
pix	-12.131890
search	-11.737077
tail	-11.711396
AES	-12.102205
▁modify	-11.660363
URL	-11.608407
RF	-11.872122
CG	-11.701675
option	-11.561394
▁implied	-11.463240
mesh	-11.890331
Operation	-11.867878
XXX	-12.187559
basic	-12.170681
tls	-11.921227
All	-11.153122
Reference	-11.456687
▁LL	-12.148829
Con	-11.750736
vl	-12.133646
clock	-11.764119
--------------*/	-10.821883
▁variable	-11.561908
CSR	-12.269735
PROP	-12.093127
▁between	-10.513995
]=	-11.867845
Space	-11.638032
Protocol	-11.659234
AUTO	-12.008595
public	-10.391615
▁send	-11.497685
round	-12.233555
vertex	-12.255797
"));	-11.854666
▁On	-10.508774
vi	-11.529235
▁documentation	-11.498205
man	-9.956282
fixed	-12.278425
random	-12.190760
payload	-11.859259
Bytes	-11.790595
np	-11.713468
dis	-11.701356
Identifier	-11.662643
RESULT	-11.751701
ne	-10.709308
Cell	-11.679022
Host	-11.594464
ating	-11.289942
ind	-11.622085
items	-12.041068
speed	-12.132749
▁left	-11.283206
YTHON	-11.831326
sg	-11.958205
optional	-11.849067
Parameters	-11.440031
Args	-11.784157
llvm	-11.854017
Pool	-11.666435
Font	-11.732194
▁reset	-11.687385
sem	-12.030213
ENTRY	-11.875604
EL	-11.492703
▁group	-10.957304
sha	-11.344308
EV	-12.000195
▁stack	-11.640021
remote	-12.298625
▁exit	-10.951452
tl	-11.710480
dbg	-11.996907
GE	-11.609271
LO	-11.798244
▁space	-11.419931
mo	-10.994944
pf	-11.783158
▁fields	-11.466627
record	-11.702184
▁fail	-11.081375
COPY	-11.755239
▁COPYRIGHT	-11.688463
▁width	-11.520270
STATIC	-11.707191
url	-11.424149
align	-10.193372
ud	-11.635144
abs	-12.008082
curr	-11.601044
Enum	-11.844563
]]	-11.998157
ETH	-12.056120
▁GLsizei	-12.697848
po	-11.429800
power	-11.731636
compiler	-12.216226
If	-11.354969
Sample	-11.757230
▁disclaimer	-11.620352
HOST	-11.907708
opcode	-11.929888
▁Add	-11.429167
SYNC	-12.002998
form	-11.311618
▁rc	-11.146352
First	-11.769753
vscale	-13.836590
STREAM	-11.913681
▁being	-10.650321
DISABLE	-11.868723
est	-11.095483
Cmd	-11.944798
At	-11.422827
au	-11.381410
cipher	-11.976786
Match	-11.779289
tion	-11.566071
RET	-11.868925
cert	-11.938515
▁associated	-11.375625
BD	-11.973391
PWM	-12.446244
Height	-11.765719
▁contains	-11.446029
▁local	-11.090665
att	-11.897656
EQ	-11.939858
FRAME	-12.051844
pop	-11.603453
FI	-11.740089
Component	-11.588419
DESC	-11.968546
*)(	-12.414273
scope	-11.915461
DM	-11.916712
scalar	-12.416029
▁{"	-11.871236
crypto	-11.883826
▁server	-11.425515
▁USART	-12.274284
codec	-12.077582
LED	-11.849384
ai	-11.415953
▁received	-11.100369
▁main	-10.804478
HAS	-11.805751
del	-11.404181
comm	-12.330175
wr	-12.005120
▁want	-10.997888
nc	-11.732735
cleanup	-11.320737
▁http	-11.278979
done	-11.460717
COM	-11.765987
pe	-11.385094
encoding	-12.269283
ve	-10.876609
Async	-12.069144
---------------	-10.655001
af	-11.517877
Box	-11.515475
OPEN	-11.794954
ASN	-12.128910
div	-10.503324
ITEM	-11.999223
controller	-12.316674
▁hr	-11.992702
PRI	-12.369390
Template	-11.837444
fast	-12.014754
SV	-11.953140
ice	-11.486757
meta	-12.087246
bfd	-12.149854
Audio	-11.693837
any	-11.619440
rule	-12.138982
▁library	-11.479877
▁Re	-10.113718
usage	-12.105198
▁internal	-11.531473
warning	-12.398134
Configuration	-11.701276
▁location	-11.650840
▁row	-11.593489
▁color	-11.516211
▁SSL	-11.841234
▁NS	-11.680578
▁change	-11.162247
step	-11.819645
ND	-11.933574
see	-11.193343
audio	-12.211668
Active	-11.751048
rq	-12.135173
INTERNAL	-11.825847
om	-11.633031
▁Is	-10.722451
complex	-12.239516
CNT	-12.384790
DEFINE	-11.916779
rk	-11.882975
fi	-11.336803
VA	-11.819022
acc	-12.157561
CONF	-12.062158
cplusplus	-10.780083
▁about	-9.909493
segment	-12.554904
▁terms	-11.238138
ENT	-11.606557
factor	-12.349077
licenses	-11.818110
service	-11.783457
FL	-11.675555
▁match	-11.343712
▁DEFAULT	-12.174286
bio	-11.835757
names	-11.557291
▁Redistributions	-11.701803
Transform	-11.816598
CRYPTO	-12.211320
▁driver	-11.589512
HEADER	-11.813003
▁GLenum	-12.488829
ZEND	-11.910824
TARGET	-11.831486
freq	-12.102371
▁these	-10.570516
Content	-11.290196
ha	-11.161136
Variable	-11.730949
sr	-11.826226
▁DAMAGES	-11.837807
Unit	-11.974603
DECLARE	-11.802443
▁(!(	-11.837780
ble	-11.657665
IMAGE	-11.826857
pages	-12.126442
▁NSString	-11.694338
CLOCK	-12.069846
cluster	-12.490781
direction	-12.474763
Row	-11.799218
dt	-11.531411
pthread	-11.779858
change	-11.780847
engine	-12.095879
Extension	-11.816439
profile	-12.187318
Co	-11.711596
fail	-11.775360
seconds	-12.148152
nk	-11.832871
▁CAN	-12.325332
Layer	-11.892689
▁task	-11.707107
img	-11.969734
▁except	-11.485178
google	-11.867867
symbol	-12.018566
MEMORY	-11.866291
▁supported	-11.600991
Private	-12.061781
ACTION	-11.928149
button	-12.089285
serial	-12.330427
RB	-11.883776
Pro	-11.793499
PAD	-12.307227
bs	-11.439319
▁final	-11.090509
FREE	-11.666818
▁even	-10.854876
down	-11.364585
▁rhs	-12.042172
▁over	-10.346827
video	-12.019286
our	-11.869421
▁run	-11.235893
EVP	-12.229692
generic	-12.335761
▁right	-11.055722
TMP	-12.605112
NL	-12.009695
plan	-11.915809
ance	-11.024217
extension	-12.434572
Video	-11.826002
LOW	-12.036279
CONTEXT	-12.041918
Def	-11.813311
MUX	-12.252861
ET	-11.669338
▁single	-11.049956
CY	-12.034455
FR	-12.076712
zone	-12.121142
▁KIND	-11.801151
Style	-11.577847
▁loop	-11.547812
GROUP	-12.008843
od	-11.536640
▁through	-10.657880
DL	-11.889695
asn	-12.146195
▁text	-11.425938
▁stream	-11.592440
Compare	-12.019522
fetch	-11.939948
▁strlen	-11.953490
Library	-12.068338
ACT	-11.795413
WR	-12.194313
counter	-11.917411
Last	-11.795168
▁signal	-11.972739
encode	-11.989699
pv	-12.087250
▁Read	-11.525043
metadata	-11.854087
CLIENT	-12.043481
layer	-12.016299
▁files	-11.531974
fix	-12.116231
interval	-12.410799
mt	-11.861688
▁permission	-11.493110
Inst	-12.062279
job	-12.435211
dv	-12.108965
qp	-12.307586
PARAMETER	-11.922547
plane	-12.186434
WAIT	-12.081024
rhs	-12.111491
Render	-11.917689
HAVE	-11.789936
wp	-12.012624
ke	-11.458067
drv	-12.117333
BAD	-11.947156
▁needed	-11.508604
policy	-12.294893
Container	-11.834627
son	-10.628266
CAL	-12.284815
verify	-12.425256
▁EXPRESS	-11.934432
▁Free	-11.163412
Net	-11.941279
Shader	-12.034318
opts	-11.935641
FILTER	-12.057153
RANGE	-12.081780
show	-11.581669
▁application	-11.532428
disk	-12.464662
rpc	-12.124763
tri	-12.168131
▁Default	-11.511838
▁record	-11.023975
CACHE	-12.047565
▁always	-11.304162
LS	-11.776168
LICENSE	-11.732245
menu	-12.091380
▁filter	-11.746924
fff	-12.956646
operator	-11.824757
winrt	-12.695689
▁client	-11.599373
BF	-12.242344
▁STM	-12.381122
HD	-12.248267
Term	-12.049755
--;	-11.182356
sensor	-12.658497
NE	-12.027949
▁enabled	-11.889023
ty	-10.776729
Ex	-11.524081
split	-11.961200
THREAD	-11.889389
descriptor	-12.029570
decl	-12.180643
SO	-11.967800
LY	-11.779511
FMT	-12.228490
OUTPUT	-12.034931
Generate	-11.920807
ry	-10.702970
Pixel	-12.042263
EB	-12.147621
netdev	-12.129420
ization	-10.971168
Attr	-11.997030
BUS	-12.125927
▁since	-11.003643
▁LIABLE	-11.948288
GT	-11.878775
Location	-11.270253
]->	-12.093925
OID	-12.259559
------------	-11.978986
▁PROVIDED	-11.934398
Vertex	-12.114153
Wait	-11.772071
entries	-12.024974
Build	-11.781058
led	-11.257564
▁character	-11.366494
▁$	-10.062170
AE	-12.176484
STRUCT	-11.984488
EXTI	-12.694872
NEW	-11.904247
▁SHALL	-11.919045
simple	-12.417204
build	-11.884174
Socket	-11.919154
PF	-12.083579
sv	-11.891317
FAILURE	-11.725316
big	-12.082184
EXIT	-11.679906
Double	-12.017124
vc	-12.109059
Network	-12.028477
Mono	-12.188250
▁WHETHER	-11.947398
partition	-12.569903
DECREF	-11.712595
▁RCC	-12.602824
render	-12.365122
Auto	-12.056500
REGISTER	-12.080021
PFNGL	-12.127678
channels	-12.323673
]*	-13.428294
▁different	-10.984211
▁back	-10.791424
Only	-12.328069
content	-11.591818
IA	-11.698638
wi	-11.850344
Err	-11.801128
timestamp	-11.990813
ACK	-12.261059
ABLE	-11.932105
signed	-12.559987
TIMEOUT	-12.129286
Option	-11.994505
nv	-12.003148
bg	-12.128913
Close	-11.522248
ver	-11.288680
▁form	-11.144724
boot	-12.134652
AWS	-12.253201
▁item	-11.702712
WS	-12.076024
enabled	-11.843682
mr	-12.069712
▁they	-10.031820
▁empty	-11.736773
▁(*((	-12.512631
▁SDL	-11.908549
LOCAL	-11.971226
async	-11.975235
TEXT	-11.987253
high	-11.962257
gt	-11.968771
▁AV	-11.949328
ng	-11.297225
feature	-12.502090
location	-11.799714
NA	-12.063672
PYX	-12.867213
▁instead	-11.515352
Counter	-12.190299
pdev	-11.994303
BS	-11.528710
▁created	-11.154394
▁/************	-11.510082
ADDRESS	-12.164624
sim	-12.062226
RATE	-12.242698
Run	-12.177506
▁ARISING	-12.027301
family	-11.917861
custom	-12.479622
▁When	-11.160456
▁writing	-11.419086
Widget	-11.941944
complete	-11.750544
▁protected	-10.421080
ub	-11.763679
ping	-11.594316
FEATURE	-12.029801
▁passed	-11.671696
OD	-12.260856
Use	-11.935325
lines	-11.890899
▁expected	-11.693061
▁"/	-12.173161
▁parent	-11.777597
non	-11.628151
▁failure	-11.586348
Program	-12.112918
mono	-12.060409
IB	-11.714841
▁arguments	-11.641159
tic	-11.287556
machine	-12.490368
("\	-11.690291
interrupt	-11.935299
▁wait	-12.036284
XX	-12.070436
▁print	-11.491363
ine	-10.852965
TI	-11.891731
boolean	-11.637057
sprintf	-12.184208
AST	-12.006289
▁generated	-11.732456
Settings	-11.923148
builtin	-12.195066
skip	-11.902673
TE	-12.049964
arch	-11.828275
Json	-12.013765
▁Apache	-11.819078
VI	-12.384252
dispatch	-12.028969
half	-12.567928
LT	-11.962018
ak	-11.200687
▁self	-11.184332
abort	-11.707413
Graph	-11.875095
▁response	-11.346274
SOURCE	-12.138432
manager	-12.163278
age	-10.679092
apply	-12.574579
WTIMER	-13.867169
snprintf	-12.239912
的	-10.209923
COMMAND	-12.043728
ill	-12.217953
OT	-11.922529
▁TORT	-11.987949
PRINT	-12.038043
NC	-11.729468
▁min	-11.765833
hci	-12.331755
Clear	-11.752124
▁later	-10.911804
proxy	-12.021648
Convert	-12.736195
POWER	-12.116876
Enabled	-11.991878
▁column	-11.861542
▁height	-11.715846
Real	-12.203872
alias	-12.498863
na	-10.610817
bm	-12.147238
Has	-12.218724
NR	-11.929836
Word	-12.097479
▁CONTRIBUTORS	-11.941971
abi	-11.952312
SCAN	-12.363111
▁could	-10.652373
SOC	-12.197487
STD	-12.009848
external	-12.702219
ANY	-12.156246
upper	-12.475510
▁both	-10.840230
insn	-12.295982
condition	-12.254782
fw	-12.135850
"\	-11.862363
▁store	-11.854419
ipv	-12.305389
cv	-12.094429
apache	-11.941811
eth	-11.804358
FN	-12.231235
Up	-11.697254
Save	-11.835756
▁full	-11.326766
aux	-11.833606
SDL	-12.197233
ting	-11.071503
dy	-11.191995
Generic	-11.997578
ft	-11.367471
▁such	-10.602326
try	-11.300420
RST	-12.611745
Idx	-12.162605
xfe	-13.167216
ACTIVE	-12.239953
Non	-12.173977
▁An	-10.735740
▁try	-11.265048
PH	-12.128663
forward	-12.422911
▁would	-10.206690
ell	-11.483292
platform	-11.903801
MESSAGE	-12.146852
xFE	-13.199012
rl	-11.926927
Scalar	-12.160638
▁distribution	-11.333529
APB	-12.836602
Pass	-12.134746
CLEAR	-12.161168
threads	-11.910712
zval	-11.951397
WIDTH	-12.160547
EXP	-12.101589
SAM	-12.710553
Tcl	-12.083569
▁transfer	-11.811187
▁them	-10.416933
signature	-12.640108
PyErr	-11.816049
IMPL	-12.145225
accept	-12.487798
▁temp	-11.621005
EF	-12.192198
Sync	-12.024989
▁OTHERWISE	-12.048240
ize	-11.503347
Stop	-11.782463
alpha	-11.669818
++]	-12.052216
join	-12.183232
SYSTEM	-12.104234
relation	-12.506079
bucket	-12.648945
Move	-11.914312
Destroy	-11.761905
▁System	-11.305464
ess	-12.062945
dot	-11.947253
▁CONTRACT	-12.050332
Delegate	-11.975063
▁OP	-11.739255
BN	-11.718979
Spec	-11.994441
gr	-12.020061
Application	-12.095189
owner	-12.190253
unused	-12.003864
Description	-11.712186
▁GLuint	-12.546864
▁Version	-11.726647
soc	-12.230824
sin	-11.787690
DIS	-12.148925
vs	-11.875634
BM	-12.341113
IV	-11.863206
ISR	-12.471344
▁Define	-11.925095
ROUTELOC	-13.851323
Req	-12.698506
EXTERN	-11.985859
cy	-11.646461
lambda	-12.138731
RV	-12.271009
edit	-12.341451
wchar	-12.292125
mf	-12.190032
▁language	-11.408298
Const	-11.932803
invalid	-12.122130
***************/	-10.587559
HT	-12.313473
orig	-12.165461
▁/**************	-10.293050
Scan	-11.919233
▁objects	-11.675275
detect	-13.039167
found	-11.679319
▁complete	-11.887326
ized	-11.312541
▁copies	-11.729876
▁Shift	-12.572134
▁pin	-12.119602
▁WARRANTY	-11.893454
ear	-12.049511
tbl	-12.241118
NRFX	-11.934325
axis	-12.563298
dist	-12.125164
CLR	-12.516495
uid	-12.289121
Stmt	-12.026268
SYMBOL	-12.031451
ESP	-12.244171
SUPPORT	-11.848270
SG	-12.159641
STOP	-12.177075
flash	-12.563452
JSON	-11.867944
native	-12.463697
sleep	-12.039788
▁Reserved	-12.036771
POINT	-12.107570
▁Mask	-12.599565
weak	-12.338248
grid	-12.473545
▁EVENT	-12.015736
slave	-12.563880
hy	-12.013405
CREATE	-12.136338
ws	-11.900852
BL	-11.944778
protobuf	-12.238694
Assert	-11.821468
tick	-12.237687
Long	-11.915855
▁GLfloat	-12.756595
notify	-12.054161
media	-11.942555
probe	-12.373166
hook	-12.409003
VP	-12.228681
column	-12.055905
nat	-12.021859
let	-11.341977
pw	-12.320821
▁during	-10.707629
LV	-12.236003
Col	-11.914504
▁types	-11.553334
cost	-12.455911
Shape	-12.150365
True	-12.131919
ML	-11.744308
▁details	-11.343147
▁<<<<<<<<<<<<<<	-12.296858
der	-11.106336
title	-11.708861
Region	-12.170090
▁maximum	-11.906695
▁directory	-11.866559
ular	-12.211983
esp	-12.380585
WARNING	-12.191171
UTF	-12.193290
bad	-11.895124
GPU	-12.147762
overflow	-11.924625
Mod	-12.491740
side	-11.426404
inter	-12.126983
acl	-12.434174
▁BE	-11.736853
Heap	-12.314371
▁possible	-11.356273
stm	-12.238753
▁options	-11.574220
Any	-12.349253
best	-12.521610
cos	-12.062856
WM	-12.245917
▁transaction	-11.978182
▁queue	-11.890920
Per	-11.980660
world	-12.155366
Builder	-11.849345
ated	-11.153923
Alloc	-12.179083
day	-11.351430
ov	-11.559571
COL	-12.367570
argc	-11.908891
▁</	-9.814016
SELECT	-11.830022
▁pre	-11.323315
UInt	-12.257537
ENC	-12.459269
HasBeenSet	-12.382978
MON	-12.286068
conv	-12.220804
▁obtain	-11.586782
ii	-11.543714
*************	-12.502903
▁express	-11.761568
▁descriptor	-11.982108
Off	-12.328230
unk	-12.180542
▁elements	-11.639685
DW	-12.381945
fields	-11.937307
Allocate	-12.057406
▁doesn	-11.630642
MONO	-12.152310
Allocator	-12.164736
Provider	-12.213742
comment	-12.567238
unknown	-12.364084
▁tree	-11.639509
▁expression	-11.600970
BO	-11.947141
Ctx	-12.331221
▁total	-11.377978
correct	-13.193119
Do	-11.607762
dup	-12.292844
Script	-11.881923
Rec	-12.015604
ENUM	-12.187534
SK	-12.064315
ids	-11.667726
SF	-11.573470
▁convert	-11.922398
closure	-12.285777
stdio	-11.386169
ready	-12.143988
▁sure	-11.529679
serialize	-12.127031
math	-11.330230
Common	-12.133939
drop	-12.263742
SQLITE	-12.132878
Sequence	-12.115363
BY	-12.112499
▁timeout	-12.040603
ACPI	-12.128478
synthesize	-12.614619
ULL	-12.793270
▁Initialize	-11.751998
▁names	-11.494713
KHR	-12.414120
PRS	-13.709263
rr	-11.875230
rand	-12.112147
▁socket	-11.993754
▁TIMER	-12.625043
▁cannot	-11.624279
disp	-12.207359
none	-12.220520
pu	-12.055091
PCI	-12.424452
helper	-12.084693
restrict	-12.378631
ACC	-12.326450
Ret	-11.853307
elements	-12.325393
weight	-11.823248
properties	-12.482981
Rel	-12.178772
Power	-12.401970
ial	-11.466941
NAMESPACE	-12.010138
ers	-9.653002
Lib	-11.884383
▁root	-11.808327
boost	-12.377390
blocks	-12.198358
algorithm	-12.607921
PWR	-12.554222
Oid	-11.993763
Capture	-12.286314
operand	-12.284126
ness	-11.024762
▁display	-11.669032
DEFINED	-12.069814
Cluster	-12.165856
Im	-12.693325
MX	-12.041762
Zero	-11.972239
DLL	-12.220479
Begin	-12.028384
▁clear	-11.433144
▁TODO	-11.905458
Transaction	-11.934676
rte	-12.101695
UT	-12.126294
lhs	-12.432684
transport	-12.472026
ru	-11.458464
▁caller	-12.101319
▁allow	-11.863434
▁wx	-12.081615
frames	-12.098966
LC	-11.885631
HS	-12.198213
tty	-11.945378
HIGH	-12.306078
xffffff	-13.222139
super	-12.310632
integer	-12.157880
▁what	-10.414899
clip	-12.685871
▁within	-11.116872
ignore	-12.681253
Null	-11.919872
||	-10.895947
▁real	-11.441617
SOCKET	-12.103370
second	-11.881580
Dis	-12.244783
▁too	-11.192843
replace	-12.429681
allocator	-12.268903
▁CPU	-12.071765
batch	-12.659636
▁allocated	-12.077278
GS	-12.058524
FAR	-12.320246
▁below	-11.357512
，	-12.259636
Main	-12.034746
thr	-12.527984
PRO	-12.438137
▁sqlite	-12.191218
Loop	-12.020385
Properties	-11.918052
▁example	-11.238365
▁invalid	-11.984556
NB	-12.356158
Rate	-12.208876
Surface	-12.204526
▁INCLUDING	-12.129184
AI	-12.173133
cat	-11.989981
FFF	-12.356798
▁pass	-11.874405
▁net	-11.848038
each	-11.865086
▁VK	-12.326197
**************/	-10.922929
MPI	-12.527012
LABEL	-12.229203
KERNEL	-12.126497
Macro	-12.251545
hex	-12.222343
dynamic	-12.422248
▁handler	-12.032711
Bar	-11.712535
html	-11.348599
CV	-12.133455
wrapper	-12.074420
ALLOC	-12.230341
StringCopy	-12.419419
+=	-12.036273
aws	-12.239662
Insert	-12.103677
}},	-12.759705
Trace	-11.977789
ins	-11.241955
Edge	-12.333200
Reader	-12.026783
MIT	-11.887955
atom	-12.282132
Column	-12.065639
scsi	-12.348661
Scale	-12.127915
sequence	-12.105156
Relation	-12.072584
ary	-10.787332
Proc	-12.053882
Mesh	-12.216362
▁until	-11.072892
vf	-12.517485
▁WTIMER	-13.191588
GB	-11.935043
Initialize	-11.991177
tra	-11.726216
wrap	-11.876856
columns	-12.841266
MOVE	-12.426139
▁PWM	-12.465923
▁PCI	-12.331943
Search	-12.173589
variable	-12.088892
ally	-11.393201
Policy	-12.185944
ae	-11.355365
worker	-12.561202
inner	-12.243561
events	-12.000199
ho	-11.856530
MSC	-12.179978
failed	-12.051577
XML	-12.116533
▁sequence	-11.865448
▁vtk	-12.122458
Part	-12.124647
dns	-12.401453
ber	-11.417124
points	-12.098362
Types	-11.662824
fm	-12.269365
Res	-11.939121
▁Do	-10.999640
Setup	-12.137535
▁MBEDTLS	-12.254610
blob	-12.359236
guard	-12.778927
/**<	-11.460206
▁multiple	-11.434394
fv	-12.343974
Profile	-11.974804
mux	-12.435750
▁Foundation	-11.426150
mouse	-12.583042
(*(	-12.519569
RM	-11.877200
psz	-12.301239
Step	-12.235489
Factory	-11.956412
High	-12.280965
▁/*-------------	-10.994044
▁Control	-11.822335
Changed	-12.100981
Reset	-12.059747
entity	-12.624134
HP	-12.027777
▁GB	-12.009575
TA	-11.772738
▁//#	-11.853938
vk	-12.639811
VOID	-11.427972
Driver	-11.919637
GO	-11.747781
wd	-12.178622
backend	-12.248654
REQUEST	-12.268885
▁added	-11.509317
Helper	-12.027648
snd	-12.345940
zip	-12.308842
export	-12.292963
▁modification	-11.793186
TASK	-12.415758
txt	-12.020680
cpp	-12.111222
▁sent	-11.795705
Game	-12.259688
Order	-11.985849
ten	-11.465909
printk	-12.281851
Temp	-12.266295
inv	-12.473293
▁permissions	-11.761468
uuid	-12.447013
RDY	-13.075951
extract	-13.094169
LI	-11.875686
▁NG	-12.701272
POS	-12.129407
Document	-11.901171
ens	-11.405105
resp	-12.193530
BCM	-12.402214
TREE	-12.285115
ONE	-12.003706
▁De	-10.625516
▁compute	-12.432921
RED	-12.116523
▁remove	-11.837995
▁///<	-12.633533
utf	-12.281931
GLOBAL	-12.241359
tensor	-12.999331
Dir	-12.029861
wc	-12.287129
Operand	-12.344662
Attributes	-12.071862
origin	-12.740094
Priority	-12.383150
rep	-12.270257
digits	-12.699415
▁setting	-11.947749
rank	-12.369972
RSA	-12.370763
▁Clear	-11.935151
ident	-12.328878
NON	-12.257607
convert	-12.277504
ier	-11.699519
▁//@	-11.795827
CRC	-12.685799
Integer	-12.103321
▁None	-11.106541
TypeDef	-12.389402
▁FT	-12.001044
fifo	-12.415934
▁avoid	-11.849315
Win	-11.509138
▁skip	-11.981569
PIO	-13.037883
MF	-12.063614
dn	-12.143523
period	-12.744874
headers	-12.042568
Root	-12.012891
__((	-12.195023
▁constant	-11.917994
threshold	-12.789603
indices	-12.931433
small	-12.512352
▁argc	-12.130578
DEC	-12.266846
Can	-12.313257
▁global	-11.776181
cq	-12.605972
reader	-12.450735
Left	-12.144055
Gen	-12.282992
UPDATE	-12.127753
direct	-12.430961
completion	-12.845585
jl	-12.741727
▁allocate	-12.197069
Slot	-12.191777
TF	-11.976364
One	-11.957872
ATTRIBUTE	-12.386503
▁@{	-10.815516
▁Function	-11.462431
WARN	-12.256939
Information	-12.180031
SQL	-11.880356
Symbol	-12.106605
[%	-12.771250
▁original	-11.278504
dummy	-12.175833
gs	-11.611936
hp	-12.105006
Report	-12.262932
rg	-12.112204
▁stored	-12.091555
QUEUE	-12.287039
Screen	-12.194793
OB	-12.083927
OVER	-11.986901
SB	-12.033875
POINTER	-12.359495
************/	-12.389584
Trigger	-12.288671
lb	-12.114450
Menu	-11.980628
Io	-12.246477
Clock	-12.229766
exc	-12.503400
TK	-12.182024
NUMBER	-12.289174
//!	-11.831948
vt	-12.211580
TT	-12.038958
expect	-12.828798
help	-12.333555
band	-11.883898
▁RNA	-12.515034
▁applicable	-11.794394
FAILED	-12.113690
Ext	-12.181958
▁including	-10.979267
typ	-12.343916
imm	-12.329616
Valid	-12.069793
got	-12.052103
ling	-10.875860
▁Write	-12.027135
tex	-12.288551
grpc	-12.673706
Date	-12.024060
Metadata	-12.219891
ION	-11.861937
stage	-12.681899
SN	-12.080007
Structure	-12.450531
sqlite	-12.404445
▁Aws	-12.074894
sq	-12.295634
▁means	-11.558318
ieee	-12.567100
▁points	-11.560427
DOWN	-12.288340
Instruction	-12.071792
uri	-11.698387
▁compliance	-11.971867
Values	-12.017502
og	-11.800089
Native	-12.361173
strlen	-12.382272
detail	-12.609942
transform	-12.222736
VERTEX	-12.327229
UNICODE	-12.296157
cookie	-12.314110
contents	-12.039095
▁initialize	-12.035548
▁might	-11.324125
bn	-12.265724
Used	-12.153936
Low	-12.644259
prepare	-12.579499
▁mp	-12.487903
Work	-12.385794
cancel	-12.215104
▁(%	-12.615156
eg	-11.558741
Definition	-11.783881
uintptr	-12.763596
commit	-12.476095
SERVER	-12.288536
frag	-12.337576
▁included	-11.359176
enter	-12.445911
UNKNOWN	-12.250940
▁volatile	-12.110153
rf	-12.154438
▁cache	-11.945416
RING	-12.298952
center	-10.561625
▁BOOL	-11.735922
(%	-12.449442
secp	-12.720560
Transfer	-11.950990
▁MP	-12.388186
extent	-12.783498
mutable	-12.157540
elf	-12.351510
tags	-12.182220
aligned	-11.445038
Raw	-12.400388
features	-12.640416
distance	-12.505215
alt	-11.981608
expected	-12.269647
utils	-11.988668
exists	-12.942393
▁OUT	-11.962740
OPENSSL	-12.063919
component	-12.288767
▁^	-12.517850
VIEW	-12.284601
Limit	-12.152255
]))	-12.519667
selection	-12.937681
▁WINAPI	-11.956684
Success	-11.918332
typedef	-11.709812
ped	-12.010661
PASS	-12.153131
vert	-11.900927
rgb	-12.601456
yych	-12.035976
Parent	-12.075372
▁prior	-11.539464
DRV	-12.523627
iov	-12.618890
▁second	-10.939740
▁OTHER	-12.293440
▁my	-10.322551
INTR	-12.472503
adc	-12.550268
RI	-12.048575
samples	-12.903532
writer	-12.100177
DONE	-12.503710
ecs	-12.335601
▁like	-10.413453
STA	-12.503563
▁*)&	-12.661644
ACCESS	-12.385374
▁timer	-12.077198
ANT	-12.309843
adv	-12.489248
Complete	-12.358756
▁selected	-11.862329
▁initial	-11.887311
angle	-12.641846
oo	-11.845518
ZERO	-12.218885
-------------	-11.620255
CONNECTION	-12.341693
Section	-12.335896
▁Description	-10.137936
IEN	-13.215857
MPU	-12.838292
Full	-12.306973
▁Licensed	-12.157057
escape	-12.996842
Depth	-12.337965
▁registers	-12.052729
mu	-11.555298
▁keep	-11.627761
constant	-12.364732
ALIGN	-12.351312
▁trigger	-12.424402
Rx	-12.096472
crc	-12.550877
RW	-12.367569
player	-12.211683
FW	-12.223710
progress	-12.617952
Kernel	-12.293033
ctxt	-12.284363
><	-12.702206
namespace	-11.840678
DOUBLE	-12.324062
Src	-12.524684
xffffffff	-12.539310
\":	-12.751355
UM	-11.998019
Empty	-12.119760
UNIT	-12.447342
negative	-13.032731
LIMIT	-12.355939
Proxy	-12.257866
▁useful	-11.888362
▁retain	-12.089519
▁prefix	-12.290525
▁Channel	-12.180330
RUN	-12.408316
▁based	-10.679084
INTER	-12.277350
tk	-12.334768
▁query	-11.987763
▁Vk	-12.083926
route	-12.623797
digest	-12.379678
Scope	-12.182065
Comp	-12.175293
pcm	-12.516652
▁currently	-11.643403
Expression	-12.086761
\\	-11.646451
▁save	-11.886279
seed	-12.732356
Custom	-11.922448
pro	-12.225270
RESERVED	-12.546882
nn	-11.967045
▁definition	-11.887760
▁token	-12.045767
soap	-13.046500
monitor	-12.759309
vars	-12.297446
network	-12.349108
▁our	-10.747157
glew	-12.458359
bounds	-12.365754
▁how	-10.874497
▁variables	-11.739639
▁needs	-11.799115
▁Disable	-12.235561
IDX	-12.550636
▁snd	-12.562851
▁derived	-12.036287
scroll	-12.193488
RL	-12.298648
MO	-12.171205
cycle	-12.316930
art	-11.704976
vb	-12.582785
strdup	-12.320776
Cursor	-12.295063
BIO	-12.392827
project	-12.656837
IER	-12.731645
▁child	-11.598386
bv	-12.573753
INTEGER	-12.220933
▁receive	-11.877595
▁cpu	-12.219684
ted	-11.383139
WINED	-12.799354
▁vec	-12.365087
home	-12.342559
fname	-12.309134
▁search	-11.765875
▁XK	-13.030883
▁uses	-11.395028
sector	-12.878540
Normal	-12.182144
▁calls	-11.982653
▁HOLDERS	-12.229898
▁previous	-11.741672
ang	-11.341220
sql	-12.180427
▁parse	-12.043094
ostream	-12.425435
tok	-12.264402
ow	-11.964331
▁special	-11.480369
rev	-12.277447
FULL	-12.410251
FX	-12.273428
warn	-12.325126
xmm	-12.831153
js	-11.592767
Tab	-12.265275
Ch	-12.359265
CONN	-12.443791
External	-12.580414
encoder	-12.468336
▁limitations	-11.395768
binding	-12.570393
BACK	-11.891450
Remove	-12.250551
alignment	-13.157385
evt	-12.592117
dep	-12.500918
Child	-12.130574
ORDER	-12.123458
construct	-12.670745
Select	-12.217001
LCD	-12.707072
glVertexAttrib	-12.584708
good	-12.873881
phase	-12.773346
VR	-12.221560
HE	-12.436339
Switch	-12.517869
leaf	-12.615735
gap	-12.624737
-------	-13.069257
▁governing	-11.827587
SPEC	-12.440907
urb	-12.462868
▁still	-11.079302
PROTO	-12.260019
ECC	-12.663487
Shared	-12.218551
IRQn	-12.720301
{};	-11.841548
MULTI	-12.166819
▁met	-11.371397
▁entries	-12.161199
reduce	-12.891802
▁mono	-12.211092
ONLY	-12.351547
Collection	-12.206884
Binary	-12.329086
now	-11.944245
▁explicit	-12.319895
agg	-12.446750
▁characters	-11.271499
▁BASIS	-12.230643
LLVM	-12.388176
ability	-11.489385
ical	-11.486824
schema	-12.196090
▁Update	-11.829447
restore	-12.775851
Mat	-12.785363
HDR	-12.531966
configure	-12.220142
specific	-12.051991
▁PRS	-13.375822
En	-12.405236
----------	-12.254556
SEQ	-12.697306
PID	-12.474794
Constraint	-12.328315
Runtime	-12.134102
ARCH	-12.292172
SZ	-12.503010
VK	-12.709408
nic	-12.060046
Right	-12.226556
sched	-12.343613
Entity	-12.225817
▁tag	-11.973033
TRANS	-12.428626
о	-13.859092
EMPTY	-12.343059
Edit	-12.188347
frequency	-13.372803
USBD	-12.472019
▁friend	-11.745843
*>(	-12.506661
hwnd	-12.500104
▁CONSEQUENTIAL	-12.241011
rtc	-12.282152
▁RT	-12.303247
PU	-12.186224
Engine	-12.103029
Inter	-12.284452
▁PFNGLGET	-12.340012
ah	-11.491362
PRIVATE	-12.444894
interp	-12.389194
expand	-12.929471
rain	-12.944844
collection	-12.682652
author	-11.875575
Exp	-12.083221
curve	-12.852390
fragment	-12.817435
bottom	-12.268262
FORCE	-12.548131
]),	-12.573245
HCI	-12.536065
ioctl	-12.470693
▁law	-11.035360
parameters	-12.350872
padding	-12.074489
DNS	-12.408289
▁MPI	-12.706817
Domain	-12.332795
▁materials	-11.790858
effect	-12.848284
volume	-12.878588
▁platform	-12.148001
serv	-12.339680
clause	-13.016415
TEMPLATE	-12.792864
▁least	-11.504074
▁events	-11.057540
▁CONDITIONS	-12.166228
NORMAL	-12.415203
▁select	-12.003644
Player	-12.264431
stdlib	-11.613760
▁SPECIAL	-12.206780
Standard	-13.102444
Constant	-12.304036
alg	-12.448458
SYM	-12.510980
▁LOSS	-12.438271
mgr	-12.574926
PyUnicode	-12.516550
CFGR	-13.284170
Selection	-12.201670
▁bt	-12.643761
account	-13.079485
icon	-12.028003
CHIP	-12.455754
vacc	-13.617296
TOP	-12.376758
schedule	-12.626759
pdu	-12.832856
▁network	-11.638215
CAST	-12.295122
Scene	-12.516205
saved	-12.886750
trigger	-12.543991
UE	-12.422325
VS	-12.127579
VC	-12.177159
Disable	-12.360929
▁calling	-12.093530
▁INCIDENTAL	-12.313254
▁APIENTRY	-12.473305
▁active	-11.915625
SECTION	-12.226793
kInstruction	-12.671160
prog	-12.452653
document	-12.265058
IEEE	-13.147899
resize	-12.341888
OO	-12.794169
Dev	-12.575572
RESOURCE	-12.448343
scene	-12.691349
CASE	-12.234840
Fill	-12.313589
"%	-12.489459
summary	-11.307171
▁BY	-11.999195
finish	-12.647925
▁kernel	-12.180778
▁permitted	-11.952847
SIMD	-12.686848
normal	-12.251379
mg	-12.559552
IG	-12.302480
major	-12.647697
wise	-12.175469
vim	-12.279700
@@	-12.704935
intel	-12.476272
constraint	-12.367967
Member	-12.248429
transfer	-12.431037
validate	-12.318192
score	-12.206390
security	-12.651119
Timeout	-12.344422
▁another	-11.136607
Security	-12.549713
VL	-12.796063
pow	-12.995882
RR	-12.348174
Mark	-12.487152
Gr	-12.478693
Equal	-12.132361
FAST	-12.370810
Receive	-12.492302
Support	-12.553216
Cur	-12.273330
GUID	-12.491714
INSTANCE	-12.596144
Endpoint	-12.532300
Static	-12.291221
▁PHP	-12.028029
HEAD	-12.230125
Track	-12.380981
mrb	-12.938560
▁show	-11.310730
EQUAL	-12.575009
lr	-12.396134
DRIVER	-12.423010
▁INDIRECT	-12.346970
AUDIO	-12.531408
VF	-12.652249
▁%#	-12.859409
Back	-12.058642
PROTOCOL	-12.448497
tables	-12.065011
▁their	-10.023199
isl	-12.581255
errmsg	-12.420200
ki	-11.441207
SAMPLE	-12.576726
▁@}	-11.025498
clang	-12.091383
TL	-12.219247
▁STRICT	-12.397543
My	-11.818686
▁Reset	-12.193817
INET	-12.283930
raise	-12.631587
SPACE	-12.433093
Operator	-12.182977
xdc	-13.197375
CWindows	-12.972532
AG	-12.050125
Permission	-12.345108
▁limit	-12.266415
Sys	-12.215402
ify	-12.067138
▁way	-11.093700
Magick	-12.197919
ative	-11.717717
RIGHT	-12.352905
▁off	-11.202403
▁These	-11.426687
children	-12.458444
▁IP	-12.251403
ph	-11.575448
▁PROFITS	-12.472927
IPV	-12.420707
▁changed	-11.836308
neg	-12.347113
FUN	-12.398988
▁YY	-12.032589
(!__	-13.361035
Mac	-12.385277
AMD	-12.468643
Ver	-12.327343
UC	-12.301519
xaa	-13.689009
▁PIO	-13.232909
processor	-12.602328
nil	-12.426351
guid	-12.778424
▁via	-11.850851
▁defines	-12.139178
▁service	-11.119301
Push	-12.526524
Trans	-12.580627
digit	-12.705673
seek	-12.682529
ath	-11.911823
mount	-12.245696
foo	-12.164382
glyph	-12.556673
FEAT	-11.950982
tid	-12.270979
ified	-11.837093
PROTOBUF	-12.624720
PUBLIC	-12.410479
fit	-12.857436
gpu	-12.535402
CURL	-12.483597
program	-12.259952
IOC	-12.524060
need	-12.186406
▁database	-11.887142
gb	-12.469286
BOX	-12.238627
▁draw	-12.003606
Tex	-12.262152
PREFIX	-12.771449
rw	-12.440948
MBEDTLS	-12.462138
rn	-12.178511
BUTTON	-12.572644
Pair	-12.354652
GUI	-12.229422
▁shall	-11.782048
▁allocation	-12.210061
VECTOR	-12.587251
Import	-12.244668
Com	-12.235481
.");	-12.154420
compile	-12.337239
devices	-12.951581
▁got	-11.549168
Face	-12.563084
Remote	-12.494983
clean	-12.880383
WINRT	-12.899492
Env	-12.477879
Iter	-12.305141
password	-12.657093
Fixed	-12.392997
Usage	-12.051283
WCHAR	-12.499030
Show	-12.341401
Dynamic	-12.243763
UR	-12.365737
▁DIRECT	-12.368891
modified	-13.379369
▁sockaddr	-12.400929
Append	-12.334190
▁symbol	-12.278520
Direct	-12.850100
gui	-12.083011
▁*((	-12.369154
▁disable	-12.332808
VALID	-12.610283
mid	-12.319744
grp	-12.650765
▁power	-11.368726
mission	-12.023794
caps	-12.420257
Simple	-12.164177
<=	-12.498536
ible	-11.719833
ISO	-12.562934
widget	-12.260103
MODEL	-12.665888
idle	-12.422667
web	-12.005862
arena	-12.787645
hard	-12.319688
uni	-12.288081
FM	-11.849091
▁counter	-12.059098
IVE	-12.634220
mpi	-12.536301
Uint	-12.442954
Form	-12.201435
WD	-12.810812
details	-12.071451
▁iParam	-13.106446
▁Unless	-12.117651
PRIORITY	-12.513724
cached	-12.397103
PK	-12.614924
increment	-12.351098
Account	-12.502088
▁subject	-11.681359
Bus	-12.583623
▁EVEN	-12.447394
!\	-12.611742
ATE	-12.230069
apr	-12.458788
hand	-12.036423
Light	-12.350956
capacity	-12.825977
eap	-12.601618
bh	-12.154012
reinterpret	-12.776741
Tick	-12.363389
packed	-12.228135
INC	-12.234318
▁component	-12.159329
connected	-12.909225
ever	-12.140599
xfc	-13.393517
parameter	-12.397334
gd	-12.503028
Argument	-12.260327
▁//!<	-12.825910
▁ADVISED	-12.438984
▁NEGLIGENCE	-12.417139
Dialog	-12.171025
▁POSSIBILITY	-12.133162
Http	-12.281987
▁Make	-11.937410
▁WM	-12.482064
ele	-12.050019
SEND	-12.517055
argument	-12.451860
▁forms	-11.856570
▁'%	-12.603753
▁dest	-12.413673
allocated	-12.434557
Devices	-12.806482
VIDEO	-12.456347
idl	-12.777861
variant	-12.731394
catch	-12.602876
ray	-11.723641
▁Position	-12.730969
attrs	-12.481825
▁SUCH	-11.932343
NSObject	-12.147547
Prop	-12.275481
vol	-12.202342
ALPHA	-12.599324
▁results	-10.753777
ual	-11.660155
▁content	-11.557827
BUSY	-12.437450
ctr	-12.906352
lf	-12.371408
hit	-12.638770
ffe	-12.828280
single	-12.431105
▁take	-11.230003
▁section	-11.691493
YY	-12.517474
Stats	-12.255908
NP	-12.524204
ull	-12.339951
*)&	-12.750011
perf	-12.529205
Body	-12.098408
▁agreed	-11.888197
cont	-12.377609
PROPERTY	-12.556955
Generator	-12.389926
game	-12.397113
lm	-12.182418
cg	-12.610625
border	-12.498264
▁\"%	-12.857203
▁Open	-11.286832
ei	-11.648325
vr	-12.404753
▁never	-11.321397
GI	-12.151559
Notification	-12.429451
▁mbedtls	-12.825134
NX	-12.688353
NK	-12.110494
inet	-12.374947
visit	-12.999602
▁resource	-12.144338
▁SYSCTL	-12.926848
▁Select	-12.299251
▁disabled	-12.370173
MATCH	-12.574526
udp	-12.651527
Pattern	-12.408809
cli	-12.362016
dimension	-13.667293
▁actual	-12.021311
RG	-12.512569
QUERY	-12.531770
MISC	-12.790395
xef	-13.851731
▁Redistribution	-12.307794
▁happen	-12.476506
(&(	-12.409326
▁reproduce	-12.239696
▁DAMAGE	-11.906233
Post	-12.275876
soft	-12.645214
Xaml	-13.467744
ise	-11.409545
framework	-12.680251
▁methods	-11.596313
TRA	-12.481075
magic	-12.784772
▁host	-11.894531
▁exception	-12.034374
ide	-11.793856
changed	-12.450333
Dec	-12.617139
Bind	-12.632044
patch	-12.463276
▁**/	-10.550886
APORT	-14.437717
STORE	-12.615771
ROW	-12.439075
KP	-12.852980
rsp	-12.698789
give	-13.599112
cor	-12.405742
pic	-12.225114
Unknown	-12.072275
tain	-11.905416
kill	-12.379397
">	-10.596877
resources	-12.875183
ash	-12.312394
capture	-12.980493
matches	-13.185097
▁NVIC	-12.812367
Mutex	-12.392687
phys	-12.447093
Virtual	-12.239962
Graphics	-12.453482
cn	-12.285348
WINDOW	-12.444824
▁priority	-12.391752
▁stbi	-12.701439
▁determine	-12.166397
cred	-12.670654
▁HOWEVER	-12.448702
TOKEN	-12.508404
charge	-13.421101
▁merge	-12.584693
▁instruction	-12.239802
UV	-12.563289
▁ARE	-12.315859
▁requested	-12.216207
diag	-12.848912
GOTREF	-12.341361
▁Timer	-12.603741
▁corresponding	-12.143665
loaded	-12.773410
UDP	-12.631649
Bitmap	-12.506370
ENOMEM	-11.792326
DRM	-12.711890
strcpy	-12.359733
Decode	-12.550090
present	-11.654425
future	-13.322875
dirty	-12.655451
vd	-12.536625
▁bad	-11.601235
▁SERVICES	-12.496676
▁destination	-12.199898
issue	-12.704076
▁chunk	-12.394296
▁containing	-12.051035
span	-11.927754
IID	-12.995156
PACKET	-12.619283
lineno	-12.935628
▁XML	-12.166060
▁CAUSED	-12.464210
VEC	-12.842476
DX	-12.477993
plugin	-12.176409
gid	-12.707526
▁Clock	-12.655215
gm	-12.608930
Delay	-12.451294
Down	-12.312023
nm	-12.459512
Boolean	-12.183308
packets	-12.454444
▁generate	-12.231912
reserve	-12.731304
TD	-12.156336
▁high	-11.155002
DSP	-12.705633
words	-12.603522
role	-12.612512
XDECREF	-12.233820
binary	-12.473904
SHADER	-12.677904
outer	-12.880500
ian	-10.495646
▁identifier	-12.413660
FIX	-12.504004
que	-11.486415
▁alpha	-12.706040
ITY	-12.010077
REGION	-12.946905
vlan	-12.770444
▁enough	-11.690171
▁LICENSE	-12.053300
MAKE	-12.546142
adjust	-13.204381
▁...)	-12.709131
▁!(	-12.749225
numeric	-12.629576
ZVAL	-12.296323
**********	-13.448010
relative	-13.296054
tool	-12.614675
locked	-12.617183
AUTH	-12.517212
Aws	-13.168429
Segment	-12.520750
PKT	-12.809828
xFFFE	-13.436884
compute	-12.573313
IFS	-13.315626
▁step	-11.986750
OM	-12.378731
LAST	-12.519192
LEFT	-12.514527
Single	-12.378847
▁model	-11.444019
SWIG	-12.722446
AHB	-13.203900
DDR	-12.950217
▁know	-11.014717
▁ImGui	-12.643117
▁BUSINESS	-12.520118
▁GOODS	-12.492078
calc	-12.445568
▁stop	-11.824366
sctp	-12.746857
norm	-12.854060
indent	-12.419343
OLD	-12.697278
branch	-12.935058
NGX	-12.439905
▁PROCUREMENT	-12.444153
PARSE	-12.496093
▁DISCLAIMED	-12.460241
▁SUBSTITUTE	-12.486301
duration	-12.992335
TB	-12.372637
CALLBACK	-12.563548
▁GTEST	-12.982867
▁additional	-11.473463
ASM	-12.497838
▁routine	-12.341844
▁NOTE	-12.120040
Auth	-12.374823
▁protocol	-12.176974
linear	-12.773625
consume	-13.520748
Material	-12.215327
Top	-11.991474
Mouse	-12.447448
REL	-12.340435
▁conversion	-12.247987
RP	-12.152044
Tri	-12.841380
merge	-12.537847
lnum	-12.698878
hf	-12.689016
'\	-12.462471
priority	-12.575413
▁operations	-11.768776
vo	-11.831545
offsetof	-12.902079
*>	-12.380679
{{	-12.790691
HC	-12.377322
▁perform	-12.032170
remaining	-13.149364
rtl	-12.868899
Tile	-12.780338
slots	-12.260008
▁THEORY	-12.442578
Condition	-12.252497
Tool	-12.277283
WT	-12.737038
▁wined	-12.883561
endian	-12.582232
PIXEL	-12.630100
Effect	-12.069633
LR	-12.569482
▁INTERRUPTION	-12.525454
mapped	-13.052978
▁allowed	-12.005580
ELEMENT	-12.652768
xcb	-13.064971
MV	-12.336121
▁peripheral	-12.358061
listener	-12.508332
▁large	-11.538525
MARK	-12.571584
▁EXEMPLARY	-12.419600
▁hardware	-12.192302
builder	-12.356703
▁messages	-12.174456
des	-11.285926
▁%%	-12.673011
▁redistribute	-12.389554
Serialize	-12.501232
reserved	-12.431570
Platform	-12.082395
minor	-12.735804
▁PyLong	-13.105379
xbf	-13.801037
▁necessary	-11.875394
git	-12.231346
micro	-13.050602
stdout	-12.311971
▁CRC	-13.071439
kw	-12.409254
▁transform	-12.568895
pub	-12.732244
▁Sk	-12.004066
и	-13.646210
lin	-11.324009
encoded	-13.163860
Connect	-12.272244
▁were	-9.813658
hl	-12.050189
console	-12.621425
BYTES	-12.796877
Notify	-12.466832
touch	-12.873181
BPF	-12.994724
REC	-12.487486
poly	-12.834177
▁many	-10.856475
using	-11.957687
GD	-12.751847
]));	-12.751038
▁contain	-12.256086
PAL	-12.914448
▁layer	-12.228806
gnu	-12.536663
Sig	-12.837241
Sort	-12.575711
Variant	-12.263585
INV	-12.702455
▁LCD	-12.816691
Ty	-12.705850
after	-12.148581
lg	-12.560099
GPL	-12.272264
Total	-12.458604
▁WAY	-12.553426
reverse	-13.044915
CIPHER	-12.687632
▁own	-11.049193
UIKit	-12.521905
lane	-12.555182
▁yet	-11.711016
Rule	-12.372303
▁down	-11.157759
▁again	-11.231835
Signal	-12.668577
REAL	-12.517031
▁"",	-12.209684
fold	-12.455723
CN	-12.419998
PX	-12.599201
SCB	-13.389753
▁present	-11.452167
Feature	-12.184732
▁build	-11.877612
camera	-13.022607
visible	-12.627009
plus	-12.739221
BAR	-12.594137
NN	-12.639662
rdev	-12.691033
Swap	-12.512691
erase	-12.476608
windows	-12.610270
SOCK	-12.585400
STATS	-12.567390
ser	-11.911751
SERCOM	-13.511196
Serial	-12.399018
clone	-12.396710
decoder	-12.661635
DELAY	-12.702680
Camera	-12.390546
Datum	-11.897193
play	-11.713704
ENTER	-12.292115
VERIFY	-12.744336
amp	-12.020871
SSE	-12.698092
▁along	-11.498796
archive	-12.140277
dims	-12.770426
▁//-------------	-11.327291
▁Created	-12.521010
lit	-12.426031
limits	-12.317086
▁{{{	-12.582906
logical	-12.157061
retry	-12.327988
Chain	-12.416521
live	-12.559661
pll	-13.012324
▁most	-10.809748
FONT	-12.646264
▁side	-11.549325
OTG	-13.129139
)((	-13.078974
calloc	-12.815891
Exit	-12.061997
Dictionary	-12.335573
BU	-12.387746
shutdown	-12.396112
▁published	-11.195712
Cor	-12.460396
▁granted	-12.136147
▁changes	-11.610563
▁removed	-12.063275
bridge	-12.286788
literal	-12.505824
publish	-12.481799
CX	-12.354426
BI	-12.301445
dyn	-12.596004
Interval	-12.588600
partial	-12.453546
▁ensure	-12.175599
cal	-11.777676
PO	-12.339573
▁products	-11.814156
dpy	-12.680419
gain	-13.218086
▁successful	-12.014843
wallet	-12.635375
Monitor	-12.268005
xFC	-13.382061
XE	-13.274960
NF	-12.624269
%^	-14.581356
files	-12.200806
NG	-12.196431
数	-10.516129
insertion	-13.040715
invoke	-12.681327
OV	-12.839516
attach	-12.794500
stbi	-13.073978
Project	-12.575580
bu	-11.943828
vma	-12.798874
Allocation	-12.569319
Configure	-12.403921
category	-12.790261
▁every	-11.433117
tg	-12.413983
PIPE	-12.649748
initial	-12.520294
Optional	-12.458742
DEPTH	-12.624142
we	-11.660650
pred	-12.702574
OPTION	-12.637306
persistent	-12.934945
▁Remove	-12.302289
▁"-	-12.375617
а	-13.816004
TV	-11.296530
▁((__	-13.021246
PRESC	-14.018391
Basic	-12.232872
RTE	-12.646993
fg	-12.588549
TEMP	-12.628141
cols	-12.659670
Amazon	-13.813516
groups	-12.600315
▁blocks	-12.364690
Writer	-12.232376
nullable	-12.637798
▁~(	-12.822170
CURRENT	-12.670827
▁asn	-13.489008
suspend	-12.640994
FIRST	-12.587693
▁https	-12.107931
HID	-12.763371
DISP	-12.965540
primary	-12.872266
support	-12.357310
intr	-12.608490
BOOLEAN	-12.155298
svn	-12.811807
▁cause	-12.094236
TCC	-13.241136
DRAW	-12.665030
▁constructor	-12.113198
///////////////	-12.622542
Dest	-12.734992
Signature	-12.436445
▁nothing	-11.697765
coin	-12.730428
ACMP	-14.008921
vcpu	-12.979988
verbose	-12.353038
traits	-12.591415
pk	-12.725605
▁drm	-12.689806
but	-11.876266
SQ	-13.020666
▁running	-11.840716
SWIFT	-12.852389
Vk	-12.718907
require	-12.871257
jump	-13.072640
SCTP	-12.806874
known	-12.860367
▁directly	-11.992876
PHP	-12.531419
cam	-12.504846
callbacks	-12.464656
INCREF	-12.329633
retain	-12.766520
exclusive	-12.731916
Fast	-12.813275
▁product	-11.967709
rad	-12.581262
▁warranty	-12.245682
SLOT	-12.675362
OSC	-13.118245
IW	-12.741765
▁initialized	-12.517648
mock	-12.593885
Functions	-12.084377
▁So	-10.795970
Seq	-12.649958
ApplicationModel	-13.269722
spdk	-12.825522
lang	-11.941219
▁PNG	-12.523174
marker	-13.084236
ATI	-12.737872
","	-13.059858
license	-12.427908
arc	-12.541305
▁amount	-12.006473
routine	-12.571449
Master	-12.579683
compression	-12.977938
▁deal	-11.870810
▁lapack	-13.169540
sink	-12.954074
likely	-12.845485
Maximum	-12.549251
FLOW	-12.703590
kvm	-12.885114
aes	-12.808548
▁BSD	-12.492072
HandleTypeDef	-12.801455
initialize	-12.352928
annotation	-12.136771
▁endpoint	-12.569208
uiv	-12.874757
PLAYER	-13.366516
PLATFORM	-12.519308
Void	-12.872235
shell	-12.686934
Abstract	-12.031155
lat	-12.387713
▁etc	-12.077784
SMP	-12.942097
drm	-12.715447
assume	-14.181948
▁lhs	-12.877699
PPC	-12.852501
minimum	-13.788568
Over	-12.614286
SIM	-12.812267
▁normal	-12.036331
Job	-12.720226
precision	-13.073823
background	-11.018508
pcb	-12.841615
▁execute	-12.393690
COR	-12.426924
tyObject	-13.731845
certificate	-13.633412
ification	-11.881645
bank	-12.515003
PCM	-12.748767
arp	-12.834074
eat	-12.933576
her	-11.830588
Other	-12.715716
Software	-12.637452
transaction	-12.563259
ln	-12.445771
green	-12.672556
Failure	-12.511131
▁promote	-12.263672
implement	-13.174241
▁reason	-12.031585
IMP	-12.795991
ANSI	-12.697640
SUPPORTED	-12.507624
WDT	-13.084918
Elements	-12.403566
MHz	-12.708105
▁Compute	-12.561484
EDIT	-12.796691
dead	-12.957912
IDLE	-12.834341
ENS	-13.250921
EVT	-12.923540
ATT	-12.880760
е	-13.466128
nrf	-12.883520
fault	-13.058454
Unicode	-12.558939
bw	-12.833676
roll	-12.276811
mer	-11.543634
LAT	-12.761002
package	-12.939326
▁statement	-12.050069
(...)	-12.306361
notification	-12.484593
Describe	-13.008452
▁top	-11.445053
Kit	-12.423353
Lo	-12.428381
▁distribute	-12.595083
install	-12.829835
bss	-12.965726
Initial	-12.958674
scratch	-13.221331
FLT	-13.073833
SCALE	-12.851847
Interrupt	-12.579841
ndim	-12.871450
site	-12.437136
▁/**/	-10.454230
endpoint	-12.777691
ities	-11.389169
KERN	-12.747961
pend	-12.891220
coord	-12.925098
TOR	-12.450192
▁look	-11.659868
RIS	-12.985829
xxx	-12.922865
Std	-12.798049
CLOSE	-12.514400
▁standard	-11.864415
After	-12.605025
▁strong	-12.043093
offsets	-12.590605
PUSH	-12.676688
walk	-12.639211
▁place	-11.144884
allow	-12.292374
Encode	-12.655939
execution	-13.663474
▁specify	-12.596217
Scroll	-12.555780
MENT	-11.894909
kfree	-11.988102
mit	-12.185296
▁//==========	-13.970788
/***************	-11.599127
ade	-11.867548
lex	-12.594654
BIG	-12.384166
bias	-12.915102
MAGIC	-12.590075
PART	-12.701589
attempt	-14.155721
Plan	-12.519170
riid	-12.769611
transmit	-13.460455
aw	-12.177484
gamma	-12.314152
Zone	-12.740436
Put	-12.943373
DH	-12.668157
Opt	-12.624234
REV	-12.908519
listen	-13.019087
compressed	-13.053163
EG	-12.333712
general	-13.200019
SDK	-12.677681
▁QString	-12.652696
Skip	-12.489588
▁FIXME	-12.609730
Head	-12.434098
PKEY	-12.933535
GLAD	-12.608726
SAFE	-12.696817
nfs	-12.762966
THIS	-12.618651
Stat	-12.813003
classes	-12.927893
IMGUI	-13.112017
jit	-12.683547
PyExc	-12.444101
IZE	-12.486708
COUNTER	-12.879911
final	-11.927784
Exec	-12.446907
sion	-11.932392
IPv	-12.768705
ail	-12.159810
▁initialization	-12.399701
success	-12.317963
NU	-12.915015
gfx	-12.707285
Enter	-12.301211
Plugin	-12.521636
$$	-12.509070
▁©	-12.700342
Clause	-12.512910
ning	-11.851168
MAIN	-12.547747
coeff	-13.045890
puts	-12.310865
cls	-12.681090
problem	-13.957576
PRINTF	-12.705909
▁attributes	-12.319077
▁pixels	-12.913349
detach	-12.718584
Peripheral	-12.676525
acpi	-12.685513
parallel	-13.303720
UB	-12.666724
PIC	-12.751099
▁pointers	-12.495150
defgroup	-12.539005
Api	-12.611996
▁exist	-12.272458
MSK	-13.243912
POST	-12.445108
SDIO	-13.154567
refcount	-12.691716
calculate	-13.469244
Author	-12.868742
rem	-12.198468
**)	-12.622359
Grid	-12.367508
rom	-12.621375
Progress	-12.374831
RNG	-12.903774
Chunk	-12.742415
separate	-13.855359
BOOT	-12.723927
cid	-12.469345
zz	-12.602523
▁IDirect	-12.730958
sqrt	-12.076160
compress	-12.683667
shadow	-12.825994
Sim	-12.735046
oper	-12.978709
MAN	-12.039327
VENDOR	-12.999200
SPEED	-12.777829
▁classdump	-12.830298
EMU	-13.253762
RAW	-12.761870
ssid	-12.969396
collect	-13.221757
▁processing	-12.150916
IMM	-12.955359
cdef	-12.634846
pat	-12.354274
Make	-12.629146
mean	-13.093200
MATRIX	-12.954550
▁existing	-12.221007
Verify	-12.553761
prot	-12.883002
front	-12.531713
Expected	-12.800301
MK	-12.742112
INTEL	-12.894159
PyArray	-12.896322
stdcall	-12.967649
errors	-12.284492
written	-12.329902
Adapter	-12.607151
identity	-13.020594
PARAMS	-12.674636
DataType	-12.673714
False	-12.731708
crtc	-13.069060
xAA	-14.228905
SIL	-12.593486
environment	-13.508408
▁errors	-12.244627
gate	-12.250033
Try	-13.243688
TWI	-12.986949
BG	-12.713400
Cancel	-12.434943
SCRIPT	-12.553571
EFI	-12.466205
▁}}}	-11.317244
qual	-12.597328
▁*)(	-12.780077
▁actually	-11.844695
Proto	-12.557100
curwin	-12.794993
dyld	-12.812599
▁GLEW	-12.908231
Binding	-12.548215
xbe	-14.105815
quad	-12.450209
XC	-12.914503
allocate	-12.700266
rarg	-13.432608
Animation	-12.367388
EOF	-12.419411
TICK	-12.774613
Green	-13.141407
extended	-13.151117
reloc	-12.848827
tz	-11.846224
IFC	-13.549376
related	-12.100693
NIL	-12.576968
▁pname	-12.906415
INTERRUPT	-12.786106
book	-12.008264
▁restriction	-12.586854
Me	-12.078956
MAJOR	-12.665882
tup	-12.696988
hid	-12.677811
▁CWE	-13.088170
Flow	-12.507848
rtx	-12.953702
HYPRE	-12.990525
GRP	-13.077445
COMPONENT	-12.722324
▁Otherwise	-12.597669
quote	-12.409247
NSArray	-12.569487
place	-12.066325
pfn	-12.979716
focus	-12.639071
WORK	-12.530869
available	-12.452545
HANDLER	-12.716733
▁nor	-12.403049
sound	-12.727118
watch	-12.714397
BOARD	-12.700158
CUR	-12.520039
PROT	-13.390793
txn	-12.912308
DES	-12.642266
SHORT	-12.737132
Card	-12.759731
resume	-12.869782
Random	-12.418661
APPLE	-12.609947
Icon	-12.473635
Bad	-12.782861
wide	-12.574478
Wrapper	-12.613653
Slice	-12.761558
ACL	-12.785892
late	-12.439722
Old	-12.641382
restart	-13.116052
Names	-12.302124
PROGRAM	-12.718809
TIFF	-12.869947
realloc	-12.900946
Forward	-12.284512
pose	-12.724761
loader	-12.645119
beta	-12.236431
Constructor	-12.341029
INCLUDE	-12.417598
Ready	-12.667149
PV	-12.320536
INST	-12.906805
are	-11.465825
▁did	-10.881229
physical	-13.396618
tim	-12.340468
Pack	-12.853563
Place	-12.777763
drive	-13.132187
xdf	-14.270668
TER	-11.941425
xbd	-14.058174
leave	-13.108771
wasm	-13.396008
IX	-12.268050
ingroup	-11.988939
TSRMLS	-13.159011
TION	-12.404211
where	-12.323550
snapshot	-12.672562
gre	-12.377555
CARD	-12.777280
▁contributors	-12.562825
BLI	-12.753099
Doc	-12.529287
way	-11.115865
BP	-12.581411
components	-13.190029
PRIO	-12.732234
elt	-12.669287
factory	-12.878596
Alpha	-12.763943
++){	-12.719328
operation	-12.506023
WU	-13.445178
pte	-13.114457
Traits	-12.737115
LF	-12.587456
Direction	-12.519572
primitive	-13.151420
CPP	-12.712211
ulation	-12.182919
radius	-13.099140
ous	-11.150074
wire	-12.845500
geometry	-13.034004
▁implemented	-12.420626
reason	-12.541260
vid	-12.450711
т	-13.745874
states	-12.845238
WE	-12.486715
instr	-12.898934
CCR	-13.368750
wrong	-13.737551
BUILD	-12.550281
LOOP	-12.755197
missing	-13.248230
checksum	-12.794698
IST	-12.493714
SINGLE	-12.863299
ao	-11.876223
avail	-12.650984
room	-12.228004
Results	-12.092445
Short	-12.428871
take	-12.537452
EDGE	-12.982536
fil	-12.731271
declaration	-13.719948
Lookup	-12.712678
。	-7.605106
crypt	-12.652358
INS	-12.606065
Drop	-12.534483
▁those	-11.083960
Clip	-12.572995
Directory	-12.403048
which	-12.231301
GCC	-12.541158
memcmp	-13.114499
ENR	-13.610418
HTML	-12.253774
GA	-11.975860
ratio	-13.049764
<>	-11.997929
POLL	-12.753644
ENV	-12.696069
QT	-12.324932
fxp	-13.316139
Encoding	-12.767440
")));	-12.960181
QSPI	-13.078596
[],	-12.552798
▁strings	-12.349775
sparse	-13.484237
IPC	-12.857012
Export	-12.554747
srv	-12.980459
ong	-11.875906
ios	-12.319918
ulate	-12.722506
dat	-12.788479
▁endorse	-12.615777
:%.*]]	-14.215697
Dim	-12.615426
catalog	-12.901161
LESENSE	-14.094012
netif	-12.822132
cons	-12.326650
Volume	-12.746641
hint	-13.021761
▁starting	-12.179897
LWIP	-12.717909
den	-11.209054
WINDOWS	-12.457760
sent	-12.370576
should	-12.565337
GrB	-12.610089
usr	-12.745417
thing	-12.484835
dll	-12.796221
stub	-12.716583
ROUND	-12.509867
Speed	-12.328001
PCNT	-14.225492
DN	-12.711792
Db	-12.452089
Play	-12.560541
Cloud	-12.311818
WI	-12.790696
▁GLdouble	-13.399162
▁Corporation	-11.969258
renderer	-12.755389
Warning	-12.175753
▁cases	-11.634898
locale	-12.651446
logging	-12.496263
execute	-12.656430
UNLOCK	-12.574675
glProgramUniform	-13.059920
fatal	-12.888261
CERT	-12.852371
pins	-12.684876
pData	-12.819638
generator	-13.318270
RefNanny	-12.276307
▁There	-11.016840
POL	-12.893828
MEDIA	-12.755361
CLI	-12.796310
▁ignored	-12.491574
>=	-12.763027
Ctrl	-12.781358
SERVICE	-12.802472
lic	-12.176015
dom	-12.189296
POOL	-12.832947
HL	-12.494699
backup	-13.215147
blue	-12.840651
deprecated	-12.734243
▁<>	-12.032680
nullptr	-12.734684
UUID	-12.908790
▁definitions	-12.207218
activate	-13.123452
Java	-13.013439
compatible	-12.617415
carry	-13.959754
ioc	-12.899723
blas	-13.001882
II	-11.611491
sse	-12.503849
year	-11.786456
Mon	-12.853862
Force	-13.024508
inf	-12.540101
Listener	-12.420570
Geometry	-12.691119
xfb	-13.851115
bug	-12.557891
pull	-13.266989
ger	-11.639103
delegate	-12.601636
Present	-12.791824
supported	-12.670886
ports	-12.376375
wk	-12.885194
TEX	-12.372654
TRIGGER	-12.988506
mix	-12.933985
fds	-12.822314
constraints	-13.368947
COMMON	-12.752908
IND	-12.423742
Machine	-12.908905
PRESENT	-12.765106
READWRITE	-12.189296
▁well	-10.876950
CBC	-12.626759
TU	-12.640895
FREQ	-13.100506
checked	-13.157010
Uni	-13.317950
wake	-12.851028
###	-13.912727
EXEC	-12.757068
FileName	-12.701563
Dump	-12.601471
Named	-12.657895
▁sets	-12.216959
HA	-12.532230
friend	-12.374665
fun	-12.908253
CODEC	-12.971628
Hz	-13.329076
▁appear	-12.393842
dtype	-12.747397
COMM	-12.900262
plain	-12.789379
ulong	-12.845281
Sym	-12.962439
Fetch	-12.734941
▁hope	-11.947518
pwm	-13.093744
errcode	-12.702139
blend	-13.155071
SCSI	-12.855619
behavior	-14.141209
scanf	-12.793440
White	-12.989025
EO	-12.908862
ENTITY	-13.224294
▁allows	-12.294128
SMALL	-12.800925
unicode	-12.706469
shim	-12.766794
▁reading	-10.288005
az	-11.905178
curl	-13.093422
opaque	-12.800519
MASTER	-12.818937
FNGLVERTEXATTRIB	-12.815643
members	-13.160448
Util	-12.512538
SESSION	-12.807918
sds	-12.814923
share	-13.006802
▁requires	-12.262492
lan	-11.522773
Title	-12.419281
Peer	-12.756149
Case	-12.382019
▁licensed	-12.718618
Shift	-12.859378
TERM	-12.618365
ATOMIC	-12.832749
EventArgs	-13.266052
iz	-11.821455
rotation	-13.653635
DV	-13.067261
prod	-12.975706
STS	-13.116823
erts	-12.830249
()->	-12.438341
mult	-12.949278
UnityEngine	-13.729974
cent	-12.057932
ROUTE	-13.108845
*************/	-12.175179
==============	-11.561162
>*	-13.024285
grad	-12.720808
initWith	-12.794535
TRI	-12.654003
ImGui	-13.363992
pol	-12.814243
rcu	-12.621303
unpack	-12.999647
Geo	-13.068547
▁indicate	-12.595556
Sign	-12.892667
]+	-13.545511
ard	-11.279856
rest	-12.179553
timing	-13.367319
OVERRIDE	-12.807325
▁Lesser	-12.375602
history	-12.808656
trap	-13.026090
opline	-13.065127
ied	-12.425334
arginfo	-13.228040
ENDIAN	-12.591434
bdev	-13.062621
Route	-12.724717
radio	-12.777647
purpose	-13.566551
SCI	-13.034148
Transmit	-13.016289
LDAP	-12.745569
▁updated	-12.390368
QString	-12.655462
mmc	-13.017820
STORAGE	-12.955363
BSP	-12.999842
hot	-13.072684
BUG	-12.546939
tell	-13.012852
actions	-12.375013
ez	-11.467989
lim	-12.332574
finished	-13.197630
Processor	-12.695086
EXTPROC	-12.979837
Rep	-12.805714
READY	-12.892874
keep	-12.695769
WL	-12.831489
OES	-13.063985
scr	-12.763671
Man	-12.160809
iso	-12.567831
attributes	-12.647736
FFFF	-12.761420
Utils	-12.389950
btrfs	-12.872098
svc	-12.960551
GLint	-13.177611
keyword	-12.571855
vch	-12.990635
SCR	-12.584864
Schema	-12.658239
BSD	-12.631925
STEP	-12.849448
kb	-12.846118
Batch	-12.792202
optimize	-13.479633
▁interrupts	-12.562863
></	-11.911358
ICON	-12.924812
Events	-12.514573
URI	-12.688102
motion	-12.772455
Flush	-12.616957
MACRO	-12.836022
scheme	-13.356145
PRSCH	-14.643228
PED	-13.137067
AK	-12.629440
gi	-11.543506
SWAP	-12.960742
OL	-12.104505
secret	-13.123100
coll	-12.983460
sat	-12.866223
)?	-12.881803
BACKEND	-12.952768
NFC	-12.871542
las	-12.100336
▁appropriate	-12.171004
busy	-13.038928
Background	-12.574412
failure	-12.619137
Elem	-12.959043
ownership	-14.119131
LUA	-12.814224
wa	-11.567203
▁according	-11.860890
acquire	-13.208237
MOV	-13.054998
stdint	-12.008435
dentry	-12.936984
PAR	-12.669074
sep	-12.650093
BLK	-13.079767
▁itself	-11.928659
EST	-12.375020
DSI	-13.329630
vertices	-13.455879
prim	-12.870317
===============	-11.094548
EMIT	-13.341533
SER	-12.909345
eof	-12.828717
FLEX	-13.410697
aff	-12.632937
RAC	-13.490940
Safe	-12.884130
Validate	-12.571355
▁GLboolean	-12.920599
Asset	-12.821639
ron	-11.485869
ful	-11.691967
▁Sets	-12.545532
Sink	-12.736228
processed	-13.657557
xcc	-13.871181
LM	-12.591169
PQ	-12.595281
SAVE	-12.765832
Owner	-12.598698
▁requests	-12.466259
ViewController	-12.708823
nvme	-13.124915
Contact	-12.555013
vg	-12.872969
expression	-12.621266
Construct	-12.676072
▁Also	-12.059554
edges	-13.258828
▁indicates	-12.481565
klass	-13.035001
CONSTANT	-12.923463
broadcast	-13.265361
Blue	-13.099154
LIGHT	-12.685873
expire	-13.044963
avg	-13.106021
Character	-12.533358
DELETE	-12.585778
ASCII	-12.866452
ze	-11.597437
cvt	-13.382970
vers	-11.938850
MG	-12.571229
guint	-12.685552
▁hereby	-12.725581
QP	-13.052827
prec	-12.653562
▁inside	-12.002768
PERI	-13.599610
material	-12.859066
anon	-12.718591
-----------	-12.275768
ACE	-12.509075
Factor	-12.879943
MMC	-13.006257
Cfg	-13.066137
Area	-12.700115
most	-12.447890
FOUNDATION	-12.694780
inherit	-12.787287
:%.*]],	-15.055738
Cast	-12.709307
SLEEP	-13.045743
advance	-13.280758
xfd	-13.753181
AZ	-12.569554
cpi	-13.107617
blocking	-13.155714
Arena	-12.874473
Extra	-12.450846
numpy	-13.226871
``	-13.104711
Weight	-12.524284
rot	-12.336473
palette	-12.934721
AddRef	-12.715101
pipeline	-13.427760
▁LAB	-12.487354
Coord	-12.741914
Cached	-12.672359
SUN	-12.674608
pixels	-12.939843
▁provide	-11.814683
NIM	-12.762509
ZEPHIR	-12.809173
ick	-12.164400
Allow	-12.740455
fid	-12.919526
quant	-12.745958
disconnect	-12.761991
strerror	-12.837958
▁"../	-12.299565
extensions	-12.564342
dsp	-13.167775
CAM	-12.743704
PACK	-12.915021
ish	-11.490508
CRYPT	-12.876178
xce	-14.326077
quality	-13.131743
SERIAL	-12.826642
gtk	-12.964130
Nullable	-13.151678
strncmp	-13.184693
RELEASE	-12.788442
ATOR	-12.713408
Conv	-12.769169
DST	-13.145283
coding	-12.611848
ASSIGN	-12.799211
linked	-13.375960
CONNECT	-12.934443
disc	-12.820853
TPM	-13.138460
EXPECT	-12.699967
EXCEPTION	-12.766904
▁Rights	-12.276944
▁Neither	-12.799754
docs	-12.992818
PERF	-12.951499
Unlock	-12.545356
SUM	-12.793857
have	-12.585587
MALLOC	-12.853198
Example	-11.942628
FORM	-12.989578
unregister	-12.704181
MUL	-13.065105
glUniform	-13.071886
actual	-12.792334
RK	-12.527536
Self	-12.834188
COMPLETE	-12.858750
MIPS	-12.973657
HFXO	-14.049115
translate	-13.241992
Dispatch	-12.805849
startup	-13.361124
para	-12.492056
*)"	-13.254303
Pr	-12.411646
two	-12.564880
Calculate	-14.283070
units	-13.487195
strip	-13.197147
MY	-12.388920
WLAN	-12.975164
retrieve	-14.799501
flatbuffers	-13.327030
----	-13.294470
Go	-12.391185
assoc	-13.048643
provider	-13.150404
)(((	-13.743874
vendor	-12.785306
--)	-12.643260
GENERIC	-12.965435
ino	-11.536832
syn	-13.162714
POSITION	-13.034772
phi	-11.971085
unexpected	-13.904850
ToString	-12.683620
Pop	-12.843303
CHAN	-13.047080
sam	-12.635206
CHANGE	-12.900477
▁^=	-12.800221
Uniform	-12.619340
GF	-12.918813
trail	-13.540158
lw	-12.927925
SPH	-13.718594
milli	-12.751793
router	-12.868188
Complex	-13.139387
AUTHOR	-12.874902
SND	-13.085389
MU	-12.653107
NEED	-12.873372
SEG	-13.018913
msi	-13.109028
TAB	-12.888047
GNUC	-12.754643
Setting	-12.667319
repeat	-13.180832
KB	-12.837912
▁made	-10.817814
xaf	-13.880597
▁zx	-13.595741
hostname	-12.878583
syscall	-12.682044
ASYNC	-13.052212
shm	-13.011663
Database	-12.201115
xbb	-14.081500
ovs	-12.941107
same	-12.750520
pq	-12.798216
CNTL	-13.210919
protoc	-13.299088
repl	-13.170596
suite	-13.019442
AVX	-13.141024
Statics	-13.535421
mz	-13.213172
QueryInterface	-12.996827
outputs	-12.655687
xab	-13.941808
memoryview	-13.519772
methods	-12.766966
▁prevent	-12.300379
AUD	-13.066234
undefined	-12.566850
modifier	-12.852080
vtk	-12.701208
PULL	-13.354256
▁due	-11.560973
prob	-13.189270
sorted	-12.803625
chk	-12.874622
Should	-12.496663
pitch	-13.378717
Wrap	-12.882760
Cnt	-12.894309
pri	-13.108822
ticks	-12.865677
PROCESS	-12.832767
transition	-13.453878
die	-12.073902
Cost	-13.134460
refresh	-12.628046
RECT	-12.944641
firmware	-12.856840
pan	-12.333393
handlers	-12.790452
WO	-13.092057
xfa	-14.020704
misc	-12.763384
▁NUL	-12.815435
▁inputs	-12.665786
far	-12.660439
//--------------	-11.962331
discard	-13.011720
▁handling	-12.453937
PMC	-13.540708
white	-11.920664
dq	-13.153510
Black	-12.939404
accel	-13.027653
Eigen	-12.952921
LU	-12.341692
colors	-13.162244
Sec	-11.483568
MESH	-13.066704
metric	-12.955995
LFA	-14.266277
fib	-13.200271
bpf	-13.075418
LAN	-13.179701
PROFILE	-12.934609
pick	-13.410225
rsa	-12.950681
joaat	-13.017176
LW	-13.023169
KE	-13.040576
uchar	-12.992647
Assign	-12.874550
LLU	-13.259608
resolution	-13.598800
syntax	-13.288589
Blob	-12.909264
combine	-13.489696
INSERT	-12.773645
Cap	-12.839389
ABS	-12.886559
duplicate	-13.797630
kv	-13.000095
ration	-12.255492
ata	-11.320393
))))	-13.383650
functions	-12.739593
▁uLocal	-12.582172
ereport	-12.222989
rtw	-13.211109
Sensor	-12.944435
Mapping	-12.755062
pubkey	-13.300652
▁macros	-12.587744
CONV	-13.045368
THR	-12.899192
VO	-12.890626
Abort	-12.709150
BANK	-13.243470
instruction	-12.980244
implicit	-12.847143
mbuf	-12.965692
Wallet	-12.835810
Must	-12.599279
Payload	-12.950868
▁href	-12.478463
▁permit	-12.490946
Split	-12.655646
descr	-12.960940
LANG	-12.684654
picture	-13.112775
MSI	-13.202355
copied	-14.218427
car	-11.833894
Flash	-13.321109
desired	-14.308557
Python	-12.434638
FWD	-12.940723
`.	-12.771554
POP	-12.532945
parsed	-12.853324
▁successfully	-12.496347
VARIANT	-12.964886
Arguments	-12.204149
MOS	-12.986883
wine	-12.992448
more	-11.904429
Identity	-12.784136
stuff	-13.750354
▁automatically	-12.545624
Comm	-13.107976
thrift	-13.257799
MemoryView	-12.729692
resolve	-13.315059
sect	-12.688614
Period	-12.738325
connector	-13.216081
DIM	-13.243528
▁University	-9.710918
HEX	-13.300580
mq	-13.099365
Product	-12.355446
globals	-12.970765
iLocal	-13.066621
HEAP	-12.965539
▁AUTHORS	-12.890005
coordinate	-13.547855
PIX	-13.068146
hist	-12.875357
▁GFP	-13.089349
intern	-12.835472
"#	-12.731641
Partition	-12.806661
Invoke	-13.026805
ips	-12.768285
Some	-13.211708
Eq	-13.503825
pSrc	-13.121762
zephir	-13.078438
https	-12.306911
DATE	-12.866277
cross	-12.674189
imag	-13.269800
structure	-12.744011
Category	-12.454256
ach	-11.815936
overlap	-13.689622
rna	-12.688753
LPC	-13.085427
baud	-13.035311
▁Don	-11.594759
DOM	-12.752029
CAT	-13.132842
intptr	-13.260566
Compute	-13.082610
Focus	-12.700519
izer	-12.481767
identifier	-12.792921
SRAM	-13.285811
н	-13.403798
openssl	-12.705450
▁NPY	-12.985790
Literal	-12.874919
ination	-12.649496
smart	-13.019781
sol	-12.495249
SGIX	-13.075279
tasks	-13.349706
gram	-12.622184
FAULT	-13.351875
GetLastError	-12.968167
Pending	-12.908871
TOOL	-12.873633
MENU	-12.865779
prov	-13.043003
RGBA	-13.074003
Language	-12.934087
fee	-13.540538
TYPES	-12.812498
MII	-13.303728
Pipeline	-12.699716
AUX	-13.258820
Dimension	-12.766846
Alias	-12.943239
▁portions	-12.410756
Note	-12.506333
Blend	-12.962893
extend	-13.309795
EXTENSION	-13.027590
Tactic	-13.832653
Xml	-12.871983
EXPR	-12.778648
Derived	-12.750391
dialog	-12.714370
NimStringDesc	-13.044317
Math	-12.883006
xfer	-13.102641
ErrorCode	-12.843001
Fields	-12.580115
terminated	-13.457646
[];	-12.255784
Destination	-12.786883
Prefix	-12.845346
hresult	-13.019097
DPROC	-12.985162
PFN	-13.195156
UNDEF	-12.732687
▁checks	-12.623089
▁includes	-11.776849
NumberOf	-12.973433
Overflow	-13.024084
THROW	-12.830289
HF	-12.894861
▁---	-10.733396
Big	-12.391968
wifi	-12.906988
secure	-13.183674
Eval	-12.876512
Semaphore	-13.060819
Sampler	-13.074906
Services	-12.867982
once	-12.860268
▁refer	-11.097835
SENSOR	-13.053746
meter	-12.614698
chartInstance	-13.115258
TMR	-13.222683
extern	-12.632623
DISABLED	-13.177665
SKIP	-12.983200
Ind	-12.844580
sqInt	-12.749207
PKCS	-13.240813
ipc	-13.113742
▁representation	-12.285858
SEM	-13.013671
like	-12.197545
temporary	-14.116059
▁Called	-12.735454
csr	-13.266960
USED	-12.675830
DISPLAY	-12.989530
rules	-13.226774
bundle	-13.348336
IOM	-13.447193
Mo	-12.058634
ros	-11.919897
Outcome	-13.451593
HR	-12.627464
TRIG	-13.623427
parts	-13.198551
Aux	-13.039446
Renderer	-12.819334
air	-11.997597
Statement	-12.546706
pause	-13.091543
▁sell	-12.570866
running	-12.632750
CRITICAL	-12.654763
FATAL	-12.913616
evaluate	-13.903139
PDU	-13.331054
special	-12.870991
▁configured	-12.831719
flip	-13.322692
mysql	-12.674396
Points	-12.426597
ofs	-13.153158
wo	-12.564462
mach	-12.765795
dense	-13.760777
Primitive	-12.998892
GFX	-13.179426
simd	-13.369051
gg	-12.233280
greater	-14.349851
boundary	-13.913311
perm	-12.945033
ICE	-12.599832
ADV	-12.640571
GLFW	-12.992555
ute	-12.031332
▁Intel	-12.618032
BKE	-13.016600
▁produce	-12.787904
POSIX	-12.838120
Mul	-13.313870
agent	-13.147245
%%%%%%%%%%%%%%%%	-14.931392
dimensions	-13.934712
xFD	-13.834584
ka	-11.101880
sess	-12.963007
Disk	-12.861739
handshake	-13.022850
Execute	-12.635751
Observer	-12.809326
Supported	-12.875737
RECORD	-13.014143
Done	-12.493839
INCLUDED	-12.710327
Restore	-12.833107
MAT	-12.968433
COMPARE	-12.968415
application	-12.655879
statistics	-13.581574
funcs	-13.059290
ql	-13.280461
-----	-13.013872
Details	-12.948168
Special	-12.965014
Replace	-12.858616
MZ	-13.080787
Merge	-12.789493
Sound	-12.850824
▁provides	-12.095589
BINARY	-12.930742
topic	-13.194050
RN	-12.854828
oss	-12.322261
ssh	-12.992375
critical	-13.251078
RTL	-13.052959
generation	-13.285161
DER	-12.752157
▁matching	-12.711031
izing	-12.165329
CONT	-12.905680
lcd	-13.105965
candidate	-13.482893
amazon	-13.361799
ARP	-13.061319
assembly	-13.614886
nested	-12.858492
vertical	-13.268402
HWND	-12.913758
ABORT	-12.899762
maps	-12.969840
*********	-13.929193
CDC	-13.138451
semaphore	-12.937581
Atom	-12.880265
▁SPDX	-12.739064
jpeg	-13.068528
emu	-13.262010
rcv	-13.206635
oy	-12.085623
FRAMEBUFFER	-13.003015
flat	-13.198657
SWITCH	-13.091486
atoi	-12.875786
abstract	-12.966881
Dst	-13.282262
Atomic	-12.858670
click	-12.665267
SSI	-13.422272
tlv	-13.258352
buflen	-12.935996
redis	-12.936059
mgmt	-13.269292
Compiler	-12.961147
Keys	-12.745018
pmd	-13.494308
TILE	-13.141855
Ignore	-12.791587
sense	-13.219713
BREAK	-12.553208
square	-13.140354
cuda	-13.045942
Break	-12.948143
PUT	-12.994568
JIT	-13.099882
cloud	-12.964110
hidden	-12.986380
//////////////	-13.058692
modules	-12.535725
logger	-12.717404
HFRCO	-14.181463
encrypt	-13.121495
creation	-14.201153
AIN	-13.503697
bk	-13.250464
PAIR	-13.157865
KS	-12.657888
@@@	-14.383004
INSN	-13.456283
IDR	-13.692206
▁NONINFRINGEMENT	-12.850370
/%	-13.557499
SETUP	-12.788250
relid	-13.148353
Thr	-13.471172
nor	-12.497008
recursive	-12.851686
IVPROC	-12.939326
NETWORK	-13.134639
SHARED	-13.085876
GMAC	-13.934674
FOREACH	-13.078770
writel	-13.149898
WPA	-13.198743
virt	-13.066077
lda	-12.951997
Bucket	-13.111443
%%	-13.239080
Could	-12.776583
Apply	-12.827054
Desktop	-13.256572
EAR	-13.000207
txid	-13.790556
RID	-13.125252
Modifier	-13.059582
▁particular	-11.995291
SEQUENCE	-12.895701
sender	-12.869857
STBI	-13.021001
You	-11.476425
FOUND	-12.996273
smp	-12.995648
strcasecmp	-13.178529
little	-13.824816
Lower	-13.053795
kp	-13.074024
Dict	-12.976828
▁substantial	-12.330583
Completion	-13.075074
mmap	-13.092693
▁obtaining	-12.836966
paths	-12.628368
symbols	-13.615511
WK	-13.247995
DEPRECATED	-12.973593
Stride	-13.258156
Certificate	-12.960902
unix	-12.941435
Items	-12.694489
SOL	-12.833976
clamp	-13.526093
cycles	-12.855941
SAI	-13.290731
truncate	-12.966196
▁checking	-12.711572
ecc	-13.318388
Need	-13.346594
slow	-13.307053
NATIVE	-13.099800
DMAC	-13.710750
indirect	-12.907487
MAY	-13.622068
generate	-13.001165
CHK	-13.259186
IsValid	-12.761092
objc	-12.923732
decrypt	-13.082844
Package	-12.759893
usec	-13.292902
DIRECT	-13.232319
DDS	-13.270257
Worker	-12.858588
unordered	-12.937998
wb	-12.981674
choice	-13.305288
Stub	-12.646729
hpp	-12.467783
Fault	-13.052149
CTR	-13.366002
MSR	-13.267449
hres	-13.170939
▁limitation	-12.676479
Reply	-12.854643
▁whom	-12.207676
boxed	-13.719870
BV	-13.088214
RNA	-12.474908
LATE	-12.984156
Reserved	-12.900062
\",\	-14.194943
fffffff	-13.723933
terminal	-13.485631
ascii	-12.997236
Delta	-12.359294
tools	-12.795447
!!	-11.801846
Framebuffer	-13.168091
ARE	-12.837415
EXC	-12.716357
explicit	-12.895183
python	-12.634036
miss	-12.717993
ROOT	-13.088033
DOT	-13.223971
TSC	-13.515523
attrib	-13.068798
SERIALIZE	-12.627751
▁something	-11.467439
conflict	-13.760412
ole	-12.218619
neighbor	-13.264528
Crypto	-13.308131
vel	-12.460539
▁numbers	-12.025456
Alignment	-12.961421
suffix	-12.947871
ELEM	-13.267579
▁DEALINGS	-12.897727
finalize	-13.000911
PERIPH	-13.477665
Sum	-13.055679
large	-12.711848
PAN	-12.950092
Small	-13.204739
Timestamp	-12.919019
operands	-13.110036
rng	-13.282017
own	-12.493648
MLX	-13.327985
levels	-13.481741
SetString	-12.809848
weights	-13.033585
PULLUP	-13.584949
gcc	-13.056963
Objects	-12.714455
▁around	-11.349814
nz	-12.616101
Decoder	-13.040413
xBF	-13.759680
EGL	-13.210156
xcf	-14.073825
receive	-13.082007
vfs	-13.159919
RADIO	-13.036987
DUMP	-13.046272
before	-12.423188
Compile	-12.825210
CAPS	-13.296600
ELF	-12.996774
mca	-13.325123
rdp	-13.261369
Got	-13.145537
props	-12.718580
OE	-13.025831
regex	-12.862124
mag	-12.550056
cpy	-13.307548
Fail	-12.794616
▁fails	-12.746505
toggle	-12.872420
directory	-12.868573
Super	-12.864586
Glyph	-13.155351
hdl	-13.265763
Distance	-12.746750
▁Authors	-12.471417
xba	-14.426957
tran	-13.021157
RFC	-12.893054
Pad	-13.164548
Transport	-12.814984
performance	-14.075031
datatype	-13.124756
REGS	-13.241953
Include	-12.494491
Url	-12.747599
UTIL	-12.935652
ppc	-13.102910
GH	-12.854769
CFE	-13.478139
ward	-11.998947
panel	-13.099152
SYSCFG	-13.800389
FMC	-13.580478
utility	-12.541466
NAND	-13.197061
compiled	-13.893914
BW	-13.225194
Sha	-12.766516
ARR	-13.420118
anim	-13.115533
▁immediately	-12.325746
OTHER	-13.014323
rnd	-13.377674
submit	-13.190249
ALG	-13.144827
race	-12.833697
MOCK	-13.220125
counters	-12.969256
RTS	-13.117003
▁persons	-12.514041
legacy	-13.558743
▁longer	-12.142235
DEL	-13.048613
exact	-13.505165
TY	-12.464792
See	-12.208151
Unique	-12.947513
interfaces	-12.739069
▁'/'	-12.959208
aom	-13.704565
Same	-12.889587
Boot	-13.109898
tokens	-12.876959
▁furnished	-12.788840
ValueType	-13.032600
ftp	-13.177949
MQTT	-13.195885
META	-13.106914
============	-12.430438
OW	-12.686063
Required	-12.796656
pref	-13.389462
lk	-12.576530
decimal	-13.403770
mar	-11.719238
Bound	-12.674143
Cert	-13.065513
ERTS	-13.152005
Sleep	-12.636647
Override	-11.842725
MIC	-13.225923
Accept	-12.800787
▁diagnostic	-12.501527
LSB	-13.340922
TG	-12.925251
EEPROM	-13.163634
SIGSEL	-14.463176
holder	-12.846544
OUR	-12.860874
PVOID	-12.859476
Watch	-12.858322
Fix	-13.294758
flex	-12.706182
NAT	-13.339777
ENA	-13.404372
OPCODE	-13.072466
barrier	-13.177770
---------	-12.778843
initialized	-12.731377
prototype	-13.365525
nxt	-13.228446
Guid	-12.921283
)==	-13.327365
Ob	-13.324266
unmap	-12.992474
declare	-13.507104
Final	-12.821389
Pipe	-12.897896
sprite	-13.096357
override	-12.846264
ication	-15.069601
BAND	-13.272965
qos	-13.411819
adj	-12.831383
CGAL	-13.008560
IDE	-12.795974
chr	-12.785679
fclose	-12.350818
▁entire	-12.247183
selmon	-13.193045
noise	-13.464854
itk	-12.708130
WSA	-13.032693
Visual	-13.228267
LPTIM	-13.601645
trust	-13.120909
ans	-11.517453
logic	-13.506984
REFERENCE	-13.080064
solver	-13.113856
Received	-13.065545
▁very	-11.083793
blank	-12.823860
Side	-13.025510
imp	-12.883954
sampling	-13.477094
fence	-13.260526
dictionary	-13.557376
required	-12.221876
Stage	-13.008873
WIFI	-13.231789
Blocks	-12.958724
USAGE	-13.119478
IES	-12.828481
################	-13.497185
Throw	-12.863993
World	-12.479038
▁GTLR	-13.224819
queues	-13.021382
receiver	-13.759360
allocation	-13.120103
Disabled	-13.035388
DAT	-13.398184
ENGINE	-13.038454
selected	-12.742247
sampler	-13.227527
Before	-12.962511
mtu	-13.335967
bulk	-13.379522
DROP	-12.987581
bot	-11.908848
mic	-12.629670
transpose	-13.248505
IMR	-13.873184
---	-12.177310
finite	-13.350679
Available	-12.783742
Found	-12.457362
▁mlx	-13.345878
DICT	-13.155557
Snapshot	-13.017833
based	-11.833364
IUnknown	-12.980589
glVertex	-13.292252
SHR	-13.162059
Conversion	-13.008919
ATA	-12.786275
ann	-12.687241
QE	-13.602358
modes	-13.299384
horizontal	-13.643274
MODEM	-13.842192
MANAGER	-13.078891
ture	-12.284788
voltage	-13.773186
FETCH	-13.192178
UNIFORM	-13.173623
Threshold	-13.109602
early	-13.302254
always	-12.961995
Extract	-12.952955
MOUSE	-13.116189
defaults	-12.842445
Fee	-13.035288
uct	-13.658936
slab	-12.950683
Center	-12.979024
Cannot	-13.130529
Drag	-12.959925
vis	-12.109423
Retrieve	-12.970455
LFXO	-14.366251
BLEND	-13.239470
Align	-13.173770
ship	-11.360954
WEB	-12.319447
circ	-12.815747
INF	-12.678549
QSTR	-14.146745
NTSTATUS	-12.323112
pkey	-13.138933
DateTime	-13.011914
icmp	-13.302237
LTE	-13.359199
setting	-12.994535
sad	-13.072042
wakeup	-13.062281
getter	-13.340467
reload	-13.011098
▁sublicense	-13.246832
FreeRTOS	-13.076019
third	-13.259789
land	-10.762911
ite	-11.865804
PyDict	-13.360782
capnp	-13.623866
filled	-13.812284
ler	-11.215339
positive	-13.734688
Secure	-13.054356
FLUSH	-13.140807
ATTRIB	-13.224915
prio	-13.249954
latest	-13.662415
InitStruct	-12.983847
generated	-12.756348
clients	-13.461934
PEN	-13.412625
Perform	-12.703733
product	-12.761828
strchr	-13.153341
Revision	-12.912632
VLAN	-13.290027
cut	-12.279710
LOCATION	-13.208921
Prev	-13.070942
▁anything	-12.018960
MEMBER	-13.186092
HRTIM	-13.636511
*/].	-14.048227
MCU	-13.408726
HZ	-13.367446
GAIN	-13.381186
tap	-13.125869
NVPROC	-13.319624
▁structures	-11.494854
tun	-12.886092
Par	-12.526974
exist	-13.142686
BIN	-12.933831
UCHAR	-12.960743
backward	-14.077430
though	-14.234361
loss	-12.874522
Google	-13.337251
MIS	-13.173394
xbc	-14.195564
LFRCO	-14.410960
CONTRACT	-13.021502
opal	-13.100547
Plane	-13.163483
declspec	-13.354442
Band	-13.105425
xcd	-14.365250
jo	-11.779478
DUK	-13.406114
Join	-12.731783
remain	-14.018759
blink	-12.773111
keyboard	-13.511427
fork	-12.793620
NOR	-13.367839
DESCRIPTOR	-13.231079
month	-12.923572
Angle	-13.057320
▁ImVec	-14.149696
HO	-12.649497
ker	-11.734659
NM	-13.024116
Mix	-13.188055
JPEG	-13.160730
ERRCODE	-13.118003
EVAL	-13.034891
▁Each	-12.488165
SIGNAL	-12.996910
recovery	-13.633705
Environment	-13.042741
RENDER	-13.324737
Linux	-13.622249
endl	-13.047227
TBL	-13.552318
Vtbl	-13.334159
strict	-13.596694
CSS	-13.346545
ipp	-12.980526
nla	-13.294492
DHCP	-13.180376
Clk	-13.488260
maybe	-13.523478
▁works	-11.156158
ffi	-12.858586
UNI	-12.730981
estimate	-13.850305
''	-12.361749
incoming	-13.045208
VX	-13.453290
quick	-13.774190
Acc	-13.290711
xFB	-13.929109
OVS	-13.341912
mini	-12.643020
Detect	-13.116553
previous	-12.914438
seen	-13.328376
bpp	-13.288886
compat	-13.063358
latency	-13.648129
DISPATCH	-12.932239
▁much	-11.183491
REPORT	-13.122163
FVPROC	-13.093490
OpenGL	-13.113766
ecma	-13.453913
Archive	-12.804030
strides	-13.415694
SIGN	-13.323891
▁executed	-12.601346
lab	-12.580221
Syntax	-13.125308
terminate	-12.869651
NOTIFY	-13.162275
mpl	-12.830316
DYNAMIC	-13.099499
compatibility	-12.887374
vq	-13.499367
chunks	-13.067897
Bounds	-13.130495
ether	-12.778427
BITMAP	-13.028274
team	-12.947126
COMPRESSED	-13.323743
difference	-14.021579
Linear	-12.809074
absolute	-13.908135
IOCTL	-13.257013
Opcode	-13.141712
tunnel	-13.456342
KIND	-12.858855
EIF	-13.717427
FPU	-13.545855
mtx	-13.201465
hz	-13.402199
TypeInfo	-13.189457
grow	-13.512784
omap	-13.339232
▁routines	-12.829004
SCHED	-13.139937
lpfc	-13.413951
▁IDS	-13.327682
EMAC	-13.592263
datum	-13.183356
IMPORT	-13.017993
dhcp	-13.398833
IGNORE	-12.984773
underlying	-15.025459
ITER	-12.961859
PINMUX	-13.815593
cms	-13.389723
exponent	-13.892911
undo	-12.756441
DIFF	-13.280160
Matcher	-13.217220
EIC	-14.065212
streams	-12.860288
BIND	-13.274651
KV	-12.815769
xdd	-14.448286
curbuf	-13.271144
duk	-13.260460
salt	-13.485197
scheduler	-13.092971
geo	-13.231974
MATH	-13.115366
EVENTS	-13.499408
MSB	-13.452478
▁really	-11.641724
NEG	-13.240273
arrow	-12.416842
Management	-13.430451
Execution	-12.986182
Algorithm	-12.914784
segments	-13.781833
tuples	-13.193166
MUST	-13.253156
LINUX	-12.965022
▁specifies	-13.134753
ada	-11.863532
EXTRA	-13.076341
LEUART	-14.433730
PRT	-13.773956
Namespace	-12.971596
ZIP	-12.999332
SUCCEEDED	-13.291088
TNode	-13.759971
Cpp	-13.289487
krb	-13.303986
PyInt	-13.433666
contact	-13.573321
download	-13.528528
▁whole	-11.984540
▁GLubyte	-13.810609
hole	-12.952813
cairo	-13.207403
shuffle	-13.507689
gemm	-13.759332
SOFT	-13.027289
unlink	-12.968646
IDirect	-13.366044
radeon	-13.316257
MIDL	-13.664830
foreach	-12.664458
actor	-13.164153
strcat	-13.011604
Codec	-13.129121
peak	-13.137874
Anim	-12.986925
Half	-13.342412
floor	-13.415950
coords	-13.322915
Sparse	-13.276234
qua	-11.975125
Duration	-12.999390
Nav	-12.865053
Increment	-12.992865
REMOVE	-13.201297
Stencil	-13.351084
bmc	-13.987688
parm	-13.320540
GATE	-13.121307
mail	-12.568227
attached	-14.137111
=\"	-13.892991
▁takes	-12.289517
folder	-13.546322
cmdline	-13.124348
initializer	-13.087355
usart	-13.310181
Quad	-13.050962
Shell	-12.726747
Spi	-13.372380
nbytes	-13.120144
SPROC	-13.088469
NVIC	-13.445588
allowed	-13.089236
Hook	-12.860621
omp	-12.823811
dac	-13.113768
Diagnostic	-13.173873
ranges	-12.821329
divide	-13.851590
Console	-12.786534
ero	-11.986549
Define	-13.038869
prime	-13.034278
Includes	-12.841335
UCS	-13.227934
NAMED	-13.334378
INTERVAL	-13.301084
StringRef	-13.153893
specs	-13.404237
LESS	-13.063575
Resolve	-13.088226
NRF	-13.572185
Locale	-13.196294
Curve	-13.176755
rval	-12.852638
Axis	-13.075464
)*(	-13.210546
NIC	-13.056315
BSTR	-13.134100
BINDING	-13.229628
▁versions	-12.203664
xea	-14.356212
tegra	-13.916546
▁'.'	-13.148586
XMC	-13.682537
UID	-13.180244
Entries	-13.085162
SourceLocation	-13.027837
▁Creates	-13.002320
Adjust	-12.971829
Outputs	-13.256831
OWNER	-13.161546
Round	-13.211216
java	-12.385171
Emit	-13.044026
hub	-13.325997
pch	-13.270928
MDB	-13.329149
▁come	-11.695758
OG	-12.665318
jmp	-13.217622
BER	-12.835559
FIXED	-13.246381
xBB	-14.462694
HEIGHT	-13.329218
Slave	-13.611702
Prepare	-12.937960
Rows	-13.139493
PLUS	-13.184331
eps	-12.949076
echo	-12.764623
NSNumber	-13.048879
Filename	-13.183135
lies	-12.280476
DDevice	-13.460705
р	-13.871032
wq	-13.334269
PNG	-13.227886
FFFFFF	-13.439801
ALLOW	-13.046955
UNSIGNED	-13.284887
Features	-12.243839
RESPONSE	-13.273408
DOMAIN	-13.306313
mavlink	-13.731587
fac	-13.030881
sas	-13.040238
.......	-14.632880
RESP	-13.417305
PPU	-14.383560
PCIE	-13.627839
▁against	-11.056261
frac	-11.583478
btree	-13.267395
filters	-12.970259
Bin	-13.395620
▁represents	-12.671641
database	-12.929251
WRAP	-13.347002
GOTO	-13.372015
follow	-13.840287
ISC	-13.003287
metrics	-13.049290
rectangle	-14.056325
quit	-12.959194
Idle	-13.196421
▁handles	-12.953454
jj	-13.335187
vtable	-13.496563
▁beginning	-12.274316
xeb	-14.380295
ssa	-12.821483
Span	-13.078421
paint	-13.407008
Particle	-13.110537
SMC	-13.372615
▁coordinates	-12.893219
PDF	-12.608244
indexes	-13.140814
OPTIONS	-13.117895
▁floating	-13.004814
hints	-13.111015
LZ	-13.450276
SSP	-13.384735
▁However	-11.608668
CXX	-12.809188
Cpu	-13.282404
VID	-13.283494
xae	-14.474726
Micro	-13.551154
PARAMETERS	-13.007551
gem	-12.949091
▁freed	-13.043995
wave	-13.188202
GATT	-13.400030
gboolean	-12.455398
management	-13.959401
eal	-12.605931
▁NID	-13.341730
hop	-12.743753
▁Whether	-12.879746
Extended	-12.697359
reflection	-13.445040
PARSER	-13.140411
Declaration	-12.932658
clineno	-14.059517
===========	-12.737802
Comment	-13.164395
Microsoft	-13.747851
pda	-14.005626
▁won	-11.364272
fuse	-13.336548
PEND	-13.766253
Origin	-12.088093
ile	-11.881488
EXIST	-13.181113
uniform	-13.581578
▁fall	-12.429806
Composition	-13.655584
balance	-13.217625
Browser	-12.811025
cells	-13.444419
absl	-13.269758
Fragment	-12.967242
black	-13.068900
rts	-13.080397
AGE	-12.252420
▁assigned	-12.678123
comparison	-14.893276
deref	-13.511564
TAMP	-14.085994
minus	-13.178208
Rpc	-13.050774
Will	-13.175956
spl	-12.922740
selector	-12.909651
procedure	-14.476840
frm	-13.437377
fake	-13.556909
Acquire	-13.098781
ICR	-13.758857
invert	-13.131612
protect	-13.593780
workspace	-13.290789
MMU	-13.357077
reject	-13.804393
History	-12.749703
journal	-13.126481
SDMMC	-13.749050
Networking	-13.491603
since	-12.584874
ROT	-13.194731
Border	-13.117393
VPROC	-13.251367
------	-13.002845
Download	-12.781986
ordered	-13.396751
Attrib	-12.723852
PFNGLGET	-13.482567
ASH	-12.904370
Advance	-14.409969
Finish	-12.916196
isolate	-13.165954
SAMPLER	-13.291135
Updated	-13.089273
Encoder	-13.189763
NORM	-13.338494
pwr	-13.461124
received	-13.170529
DIG	-13.584784
pmix	-13.556697
Conn	-12.798162
SCREEN	-13.257489
pts	-13.230511
tensorflow	-13.092352
xEF	-14.129847
CRL	-13.541648
hba	-13.460640
ature	-12.856901
XOR	-13.526702
mbedtls	-13.289359
Selected	-12.888065
NONNULL	-12.632923
Frequency	-13.159277
FLD	-13.434141
degree	-13.684240
validation	-12.898420
alarm	-13.642078
Implementation	-12.564982
Folder	-13.133522
claim	-12.823076
graphics	-13.309295
mut	-13.273499
hdc	-13.334786
Role	-13.054307
CUDA	-13.125475
SEEK	-13.292708
QUIC	-13.260114
formats	-12.861166
Selector	-13.091866
LARGE	-13.116930
uring	-12.682554
Unsigned	-13.258618
glMultiTexCoord	-13.467150
Divide	-13.980656
fffff	-14.319365
CONTENT	-13.191601
BUILTIN	-13.336454
Registry	-12.996341
Exist	-13.012116
ave	-12.752913
Marker	-13.227798
Tmp	-13.328987
nonce	-13.452879
particle	-13.818784
Branch	-13.289149
STRUCTURE	-13.556283
EXTERNAL	-13.343472
Purpose	-12.601546
Loader	-12.994294
TLV	-13.491916
framebuffer	-13.256281
instancetype	-13.094259
Constants	-12.942672
tvb	-13.964434
IPROC	-13.234928
kafka	-13.408817
STYLE	-13.121887
Reason	-13.150111
ucs	-13.371622
FINAL	-12.999532
Agent	-13.238612
CUI	-13.554911
TCB	-13.542975
rotate	-13.748957
TRY	-12.854952
Family	-12.648315
Diff	-13.082703
OBSERVER	-13.149526
htim	-13.321659
unable	-13.806187
Password	-12.931991
strncpy	-13.418561
CCM	-13.615037
VertexAttrib	-13.442224
easy	-13.288038
AVAILABLE	-13.378354
Poly	-12.933957
compl	-13.393480
xabababab	-14.468661
Malloc	-13.328957
HeapTuple	-12.833090
ppvObject	-13.286501
ArrayRef	-13.339101
tsk	-13.102296
Smart	-13.479140
xFA	-14.127639
Sprite	-13.280242
tgt	-13.519209
scoped	-13.222895
Keyboard	-12.710577
VkDevice	-13.297710
EK	-13.354157
hour	-13.132511
reached	-13.758103
pal	-12.706975
LVL	-13.645016
elog	-13.356787
Bridge	-13.078618
Authentication	-13.406074
cJSON	-13.541333
Editor	-12.867687
Logger	-13.039638
glfw	-13.258817
DECLSPEC	-13.418040
TRIM	-14.071183
MAVLINK	-13.841758
HSI	-13.731740
gatt	-13.568533
************	-13.203884
REP	-13.375847
inject	-13.582352
ibility	-12.678311
Numeric	-13.123991
INPUTSEL	-15.082925
odd	-13.534102
OLE	-13.344744
subscribe	-13.148373
IMF	-13.173493
PARTITION	-13.519929
delayed	-13.559662
mime	-13.311778
COND	-13.345982
Framework	-12.926464
mnt	-13.466790
mmu	-13.273669
revision	-13.736156
▁care	-11.888481
▁become	-11.947725
HashTable	-13.194088
configuration	-12.909724
Inv	-13.339349
ALWAYS	-13.175964
COORD	-13.335338
▁ZAP	-14.480664
Commit	-13.050768
glBind	-13.372588
LETIMER	-14.634567
Alter	-13.611360
Using	-13.605293
Two	-12.983231
THRESHOLD	-13.480884
sPer	-13.418849
library	-12.942554
▁sending	-12.922420
▁Operating	-13.171679
▁accompanying	-12.864248
YYCURSOR	-12.768471
pcie	-13.493188
sph	-13.236428
▁SCIP	-13.407014
Freq	-13.410621
vsi	-13.651383
DESCRIPTION	-12.736173
SIZEOF	-13.305028
▁doing	-11.998338
SIMPLE	-13.351749
GTK	-13.398227
labels	-13.428970
FINISH	-13.148406
moving	-13.889320
▁previously	-12.277716
▁Ro	-11.730864
SQR	-14.026145
addtogroup	-12.747172
ctrlr	-13.784022
USR	-13.515025
▁handled	-12.964977
Receiver	-13.177808
accessor	-13.426329
Resize	-13.250997
▁instances	-12.953293
detection	-14.554624
registry	-13.136730
scaled	-13.350114
▁instructions	-12.705306
PATCH	-13.163562
softc	-13.384360
owned	-13.108142
clr	-13.381637
POLICY	-13.388416
Shadow	-13.202547
ffffff	-14.069885
▁Cyan	-12.166350
==============*/	-12.312112
trim	-13.181570
destructor	-13.065210
THREADS	-12.933222
▁USA	-12.102123
demo	-13.446677
STENCIL	-13.378953
CHUNK	-13.402866
SCOPE	-13.290763
Tk	-13.196385
launch	-13.404958
DISC	-12.374404
describe	-14.240744
bond	-13.581000
Hub	-13.049282
Unsafe	-13.819045
NVM	-13.653524
pulse	-13.617204
INITIAL	-13.295362
ILL	-12.588749
animation	-13.802800
▁Magenta	-12.201327
OMP	-13.348908
▁COPYING	-13.318618
Paint	-12.774057
mtd	-13.543879
Keep	-13.569523
phone	-12.427703
browser	-13.440510
SECURITY	-13.317231
Interp	-12.929908
INTENSET	-14.029565
confirm	-13.478853
NSDictionary	-13.092132
triangle	-13.066170
LAYER	-13.375955
▁occur	-12.764578
incr	-13.446609
abc	-13.411414
lun	-13.284317
Hit	-13.307347
corner	-14.077743
Dlg	-13.440242
Unable	-13.345420
▁Yellow	-12.018788
Touch	-12.806075
onic	-12.877776
circuit	-13.946444
]*/	-13.325028
STDMETHOD	-13.285965
Overlay	-13.518806
xnn	-13.960183
Second	-13.117545
protected	-12.094825
CreateInfo	-13.432311
press	-12.515503
BufferSize	-13.248282
▁larger	-12.540194
prompt	-13.009756
arguments	-13.099910
INTEN	-13.649004
spawn	-13.224179
Exported	-13.037370
todo	-12.831857
PURE	-13.245749
rdma	-13.506357
Inputs	-13.172411
arity	-12.908240
rename	-13.326929
ENET	-13.608747
ili	-12.012204
▁reuse	-13.127734
Soft	-12.824148
rtp	-13.516732
alter	-13.960616
▁makes	-12.094003
PERIOD	-13.565140
fire	-12.764779
FILL	-13.003729
lut	-13.195229
nonnull	-13.468930
ASSUME	-12.657654
eta	-12.408382
ALIAS	-13.364596
▁better	-11.685101
pdf	-12.943717
HMAC	-13.492622
buckets	-13.366966
Prim	-13.197023
rettv	-13.365718
wcs	-13.492984
▁governed	-13.074717
username	-12.893728
▁vectors	-12.994689
scanner	-13.277310
star	-12.391936
Apple	-13.735167
modify	-13.337634
notifier	-13.453098
plat	-13.164267
lws	-13.623000
Pixels	-13.496055
CCP	-13.343099
dealloc	-12.910747
lld	-13.756781
MIX	-13.203697
CTS	-13.312995
MUTEX	-13.245506
GLEW	-13.608050
','\	-16.325376
LOS	-13.369778
FACE	-13.258462
avctx	-13.551437
Logical	-13.218746
Hdr	-13.449345
▁occurred	-12.571583
ffd	-14.052551
what	-12.970326
FFI	-12.933177
TAILQ	-13.414042
gpointer	-13.083875
nargs	-13.377001
gst	-13.443143
sections	-13.506722
BLAS	-13.682658
viewport	-13.406900
RULE	-12.951721
LEAVE	-13.029369
AMP	-12.849427
adapt	-13.994718
example	-12.657591
MGMT	-13.475590
SSH	-13.193648
TypeError	-13.137829
invalidate	-13.189782
nand	-13.126323
EXPECTED	-13.565756
colon	-13.267190
Amount	-13.224296
vout	-13.685592
parms	-13.536585
▁simde	-13.756116
Del	-13.180728
encryption	-14.378117
LPUART	-13.831465
Click	-12.656432
▁PGUID	-14.856491
HARD	-13.228953
ubi	-13.173713
strong	-12.906522
ough	-12.689217
Instr	-13.412844
Viewport	-13.481493
▁Enables	-13.381471
HSE	-13.693663
TRACK	-13.281780
YUV	-13.561248
uck	-12.606852
PubKey	-13.554599
scaling	-14.017791
PROXY	-13.369011
▁developers	-13.039991
OpenSSL	-13.340272
Gui	-12.945499
mdb	-13.676081
lvl	-13.543448
▁METH	-13.739439
statement	-13.096924
admin	-12.632028
damage	-14.049497
Share	-13.233349
CUSTOM	-13.301606
amount	-13.048295
▁invoked	-13.184266
INFORMATION	-13.280117
multiply	-14.206814
GIVEREF	-13.205788
visual	-13.466236
steps	-13.564466
Tail	-13.125100
analysis	-13.686327
managed	-13.817680
multicast	-13.398302
disabled	-12.984179
Attach	-13.224718
except	-12.884857
phalcon	-13.913942
Ident	-13.003697
authentication	-14.345698
illegal	-14.042967
MINOR	-13.441331
UNIX	-12.931503
PSK	-13.535523
ANCE	-12.728644
ENCODING	-13.298581
▁CSL	-13.894092
▁performed	-12.152173
INSTR	-13.637335
wnd	-13.518910
OVR	-13.943973
BOUND	-13.397954
layers	-13.479618
anchor	-13.577159
rates	-13.104723
▁had	-9.953082
Alarm	-13.676228
▁whose	-12.247549
even	-12.817649
▁Curl	-12.971211
COMPILE	-13.236012
PMIX	-13.333293
apic	-13.624028
OPERAND	-13.494735
collision	-14.071033
matched	-13.706715
built	-13.729623
resolved	-13.432762
placement	-13.176093
SMB	-13.520028
Dist	-13.291616
Payment	-13.223142
sysbios	-14.347790
dependent	-13.065894
SLAVE	-13.537477
Phase	-12.997577
snap	-13.681075
grant	-13.378825
ale	-11.953645
▁jint	-13.890932
CHAIN	-13.363691
WOLFSSL	-13.303840
Motion	-13.366602
REQUIRE	-13.290289
dsverifier	-14.394839
spinlock	-13.076488
abfd	-13.509299
bitwidth	-13.460097
▁outside	-12.113328
Enc	-13.396757
could	-13.287056
crash	-14.208964
dword	-13.508108
SPC	-13.513022
Wake	-13.725603
ldap	-13.462077
strm	-13.312230
msr	-13.646774
Ok	-13.068048
highest	-13.591449
Press	-12.739674
PENDING	-13.411902
GAP	-13.634166
PPI	-13.543910
Major	-13.169486
SEARCH	-13.284510
SDHC	-13.966039
PFNGLUNIFORM	-13.338202
piece	-13.260731
xyz	-13.667503
choose	-13.960801
pairs	-13.847785
▁addition	-12.058049
Analysis	-13.280343
ICMP	-13.384399
cannot	-13.305466
Sel	-13.270907
▁marked	-12.784119
temperature	-14.121338
variance	-13.250581
slash	-13.057442
fld	-13.518117
Added	-13.091079
▁fopen	-13.263098
zalloc	-13.438351
unistd	-12.576636
▁creating	-12.638696
****/	-13.440657
Channels	-13.268292
nsec	-13.562243
needed	-13.187513
bmp	-13.507691
glTexCoord	-13.557003
joint	-13.467207
fbb	-12.727091
ofproto	-13.714680
github	-12.818386
mos	-12.658658
Buff	-13.254234
CRYP	-13.612402
velocity	-13.954792
hWnd	-13.361312
Weak	-13.193775
Seg	-13.504978
identify	-14.618830
SIZ	-13.599280
separator	-13.217477
swift	-13.021009
predicate	-13.966506
RELOC	-13.418680
▁going	-11.500816
▁references	-11.958406
hide	-12.910743
///<	-13.215688
optarg	-13.213330
optimization	-14.448583
BIAS	-13.847116
STRLEN	-13.547348
esc	-13.076583
▁GPLv	-13.823424
Demo	-12.595726
glm	-13.489899
vNV	-13.890044
Backend	-13.269380
blaze	-13.155372
elems	-13.472017
▁/*******	-13.148587
Calc	-12.922238
GPR	-13.609741
elab	-14.271594
Accessor	-13.229479
▁>>=	-12.960196
nest	-13.317806
prof	-13.209890
Phy	-13.634807
Original	-13.212433
▁Lim	-12.924064
OPERATION	-13.425805
ko	-11.454643
COMPILER	-13.133057
Coins	-13.062621
filesystem	-13.182418
hoo	-13.767599
brush	-13.693267
Collect	-13.625140
CLKSEL	-14.295960
gsl	-13.792087
nan	-12.285841
YES	-12.915996
translation	-13.668835
hmac	-13.627373
ATOM	-13.411018
answer	-13.594391
Look	-13.537652
resolver	-13.540960
SCALAR	-13.268849
Raise	-13.220812
Alt	-13.064786
Maybe	-13.524066
!");	-13.228930
Patch	-13.208428
ffff	-13.875283
USING	-13.075223
▁Mountain	-12.269420
DIGIT	-13.427768
fraction	-13.825071
Div	-13.075459
Specifies	-13.521288
//////////	-13.773719
Automation	-13.775828
▁equivalent	-12.643185
Visible	-13.119042
FORWARD	-13.367567
octet	-13.553261
RTT	-13.670132
printer	-13.542520
Photo	-13.019694
TIC	-13.142621
fact	-13.258493
overlay	-13.317038
concat	-13.157990
Wire	-13.002139
Acpi	-13.208089
cbmc	-14.274436
rewrite	-13.294388
capabilities	-13.843637
▁certain	-12.143622
CLIP	-13.348075
original	-12.951894
Inline	-13.236812
DCHECK	-13.156341
Pred	-13.399197
isset	-13.357738
GetCurrent	-13.306425
pybuffer	-14.459219
drag	-13.658181
decoded	-13.334170
RUNTIME	-13.239498
posix	-13.342912
DIE	-13.463285
SOAP	-13.691344
operations	-13.177861
glColor	-13.534080
ENCE	-13.209554
UIVPROC	-13.353884
GLAPIENTRY	-13.453684
Disp	-13.345693
RHS	-13.549389
exe	-13.111835
VARIABLE	-13.315054
epoch	-13.965260
character	-13.154572
dtor	-13.276419
Book	-12.982363
snmp	-13.536533
Install	-12.823389
burst	-13.675924
TTY	-13.357973
GRAPH	-13.235609
mirror	-13.675190
EIO	-12.748823
▁/=	-13.031963
odp	-13.532840
PHYS	-13.610525
Comparator	-13.579716
leading	-14.012103
XY	-13.411252
SLJIT	-14.116667
▁applied	-12.520329
Modify	-13.507064
mbox	-13.110407
Elf	-13.281591
STL	-13.517644
LIBXSMM	-13.962047
SIMDE	-13.712375
tcg	-13.708911
crt	-13.520043
Suite	-13.781863
SORT	-13.356001
Cleanup	-12.932396
thresh	-13.629731
Mgr	-13.396385
yes	-12.926886
topology	-13.820059
ldb	-13.589495
YCH	-14.937474
ByteArray	-13.459492
fwd	-13.477753
XMM	-13.993117
EACH	-12.995794
Drive	-13.593817
setter	-13.615719
▁things	-11.682838
irqrestore	-13.322983
Transition	-13.079983
vision	-12.825269
Take	-13.366117
Upper	-13.397642
Given	-14.275879
LUT	-13.685851
intra	-13.643446
PSR	-13.887511
Public	-13.011859
▁various	-11.845672
▁treat	-13.103387
Bundle	-13.007426
▁occurs	-12.708945
TRANSFORM	-13.183174
StatusTypeDef	-13.655549
chrono	-13.137892
alert	-13.436377
when	-12.953839
▁iteration	-13.159349
INTENCLR	-14.078166
RSP	-13.566216
grab	-13.646819
▁rather	-12.064520
srna	-13.636274
CRT	-13.435393
neos	-13.896438
Ensure	-13.269164
solution	-13.898686
Sup	-13.334273
ATH	-13.525245
ushort	-13.597015
lite	-13.007408
GetItem	-13.663555
queued	-13.276228
Cut	-13.536920
Digital	-14.101269
xmit	-13.680633
PCR	-13.488878
IMG	-13.460422
Launch	-12.921384
nam	-12.644640
Minimum	-13.271161
Recv	-13.454871
mips	-13.511693
dai	-13.091358
drw	-13.949341
sigma	-12.691143
Builtin	-13.110675
AUXHFRCO	-14.632925
DEVINFO	-14.256890
CURSOR	-13.359734
party	-13.284455
prv	-13.443721
stamp	-13.390725
SCL	-13.800365
PJ	-13.366799
phba	-13.551841
geom	-13.493767
deliver	-14.090686
MCR	-13.949511
BasicBlock	-13.441103
▁higher	-12.213080
▁EIGEN	-13.389542
mqtt	-13.656737
-----------+	-12.594494
Bank	-13.281325
strategy	-13.771378
ENCODE	-13.606471
gpr	-13.676167
protection	-14.523994
CYCLES	-14.451688
ZCL	-13.769717
drvdata	-13.451891
Coin	-13.035000
DBL	-13.720607
Cycle	-13.096122
ETM	-15.027847
HFCLK	-14.893628
cube	-13.683238
Capacity	-13.321232
▁Elias	-13.634922
FACTOR	-13.917070
DETECT	-13.554212
esbmc	-14.404096
ashcho	-14.403944
computation	-14.771810
SFD	-13.837693
PSM	-14.049936
\"\	-13.881040
CONVERT	-13.660811
design	-13.651890
argvars	-13.600132
TIMING	-13.813728
mpz	-13.767555
ffffffe	-14.382251
SENSE	-13.630115
Indexed	-13.560631
libc	-13.137586
middle	-13.712768
▁converted	-12.938062
bVar	-12.919704
must	-13.149286
Clone	-13.254716
NOTICE	-13.237888
remap	-13.577331
populate	-13.598237
hcd	-13.725357
immediate	-14.036828
SFR	-13.635455
MYSQL	-13.521798
NFS	-13.467544
VERBOSE	-13.238607
VDAC	-14.900116
ovld	-13.526778
HOOK	-13.286362
Persistent	-13.450573
Front	-13.243367
ccb	-13.858732
Multiple	-13.572329
INSTRUCTION	-13.528413
buttons	-13.163138
Nonnull	-13.873740
'\\'	-13.359977
Parameteriv	-13.571743
Analog	-13.395062
▁please	-12.461628
lease	-13.906547
eng	-12.290882
definition	-13.226924
CLUSTER	-13.548646
Credential	-13.522475
Expand	-13.630215
capability	-13.906928
▁further	-11.779961
Specific	-12.755337
GLX	-13.339635
gray	-13.517047
Steam	-14.130159
SDH	-13.335550
▁declarations	-12.772090
cospi	-14.686783
Arr	-13.317906
eeprom	-13.621936
OPTIONAL	-13.467817
▁transactions	-12.996165
orientation	-13.723502
elm	-13.586756
services	-13.613704
▁Please	-12.475527
Own	-13.628620
panic	-13.269613
meth	-13.186780
GAME	-13.194163
GUARD	-13.451025
FIT	-13.877345
IFG	-14.218199
exchange	-13.718551
Lite	-13.311013
endcode	-12.223772
margin	-12.993498
ZSTR	-14.113760
PARM	-13.607447
▁IPT	-13.799534
semantic	-14.631090
Panel	-12.850890
RECEIVE	-13.613867
entropy	-13.953953
Schedule	-13.512641
PyCFunction	-13.864169
drivers	-13.766055
neon	-13.776451
destruct	-13.337199
ESC	-13.466491
mmio	-13.625616
ECDH	-13.746116
folly	-13.357847
JOIN	-13.250551
Board	-13.460328
aggregate	-14.024285
Intrinsic	-13.653712
Bluetooth	-13.524119
daemon	-13.333405
ware	-12.764389
DXGI	-13.533994
Isolate	-13.367873
hyg	-14.264143
peek	-13.382295
FFFFFFF	-13.656185
parity	-13.469663
regmap	-13.815446
▁explicitly	-13.082885
OOM	-13.677113
stencil	-13.538566
▁consider	-12.437185
ARGUMENT	-13.349701
regval	-13.483522
▁contained	-12.785209
stroke	-13.170320
mip	-13.558895
NEON	-13.560529
Ray	-13.224910
quic	-13.505521
axi	-13.438459
Initialization	-13.106596
PCD	-13.680694
Radio	-13.086122
pseudo	-14.023871
Jump	-13.016615
Indices	-13.481480
PHASE	-13.546845
RAD	-13.422884
BORINGSSL	-14.613929
Gtk	-13.294014
Scheme	-13.204411
▁*-------------	-11.994614
repeated	-14.203328
ONCE	-13.507227
destination	-13.361016
dbus	-13.455888
MAG	-13.504947
tiny	-12.964263
cause	-13.569751
Indirect	-13.501005
pkg	-13.249080
fixup	-13.659072
opensource	-13.510811
REQUIRED	-13.574235
txq	-13.708914
VOL	-12.882834
HOT	-13.256421
Visitor	-13.028984
activity	-13.139801
Coll	-12.933650
Under	-13.096140
Imm	-13.257704
encrypted	-13.403029
dropped	-14.017098
blocked	-13.783629
spell	-13.680211
Summary	-11.877935
FEC	-14.091759
ANGLE	-13.217724
▁BLAZE	-13.347789
mixer	-13.426277
napi	-13.697937
ium	-11.500596
EBI	-14.463244
WINAPI	-13.624614
hdma	-13.568434
theta	-12.811631
USHORT	-13.282157
TXT	-13.541489
SECOND	-13.454359
ROR	-13.593514
mii	-13.639353
TAP	-13.626673
GENERATED	-13.040597
jiffies	-13.532552
Preview	-13.552727
bson	-13.219427
ValueError	-13.284779
▁indicating	-13.108450
standard	-13.101492
TOO	-13.237054
login	-12.946031
har	-12.033731
▁Boston	-11.978793
OTA	-13.568119
Pci	-13.605939
Validation	-13.236747
MagickFalse	-13.123160
Collections	-12.818713
regulator	-14.011360
SPDK	-13.747538
deep	-13.557506
PERM	-13.338657
nlmsg	-13.584458
TransactionId	-13.353748
Columns	-13.306917
mega	-14.171027
flt	-13.836743
ically	-12.848655
DVPROC	-13.453927
upb	-13.797313
upload	-13.053709
NAN	-13.336024
redirect	-13.682762
average	-14.119277
AXIS	-13.693861
inverse	-13.268103
usable	-13.380336
Phone	-13.194255
beacon	-13.528495
Collision	-13.464732
FTM	-14.058593
efficient	-13.799826
▁':'	-13.360746
converter	-13.588243
substream	-13.752034
Matches	-12.516655
Ethernet	-13.342392
TSS	-13.620565
Team	-13.279410
COLUMN	-13.393459
QUE	-13.001029
packages	-13.279578
Neg	-13.695463
Visit	-13.678885
ALIGNED	-13.531717
algo	-13.409771
PRIV	-13.382996
traverse	-14.012567
Routine	-12.904747
MSP	-13.522213
Additional	-14.032613
SYN	-13.436751
Mutable	-13.428491
ISP	-13.549755
Printf	-13.546860
BSS	-13.703547
interpret	-14.140807
CHILD	-13.444553
measure	-13.997993
▁debugging	-13.199146
chroma	-13.524955
Hex	-13.286683
noop	-13.371370
▁CAmount	-13.517401
IXGBE	-13.791368
depend	-13.589204
Extent	-13.412420
popup	-13.476735
SINGLECTRL	-15.180694
IRQHandler	-13.232179
fini	-13.054181
accum	-13.696236
vport	-13.793502
MPEG	-13.587426
csum	-13.686079
riscv	-14.308864
DOCTEST	-13.684442
was	-11.681072
ana	-11.228870
Rtl	-13.438871
MemoryContext	-13.165495
SHIM	-14.107845
PTE	-13.828675
multiplication	-15.519954
▁hri	-14.383140
IInspectable	-13.575005
Keyword	-13.379574
GEO	-13.468465
▁taken	-11.982731
Walk	-13.631094
SHOW	-12.952967
▁probably	-12.261788
MICRO	-13.137036
("(%	-13.690750
Rotation	-13.345260
ode	-12.434585
DIPSETTING	-13.850176
Let	-13.059149
Xfer	-13.591579
fabs	-13.819941
memmove	-13.676483
GCM	-13.772912
CPL	-13.739920
▁adding	-12.831757
readl	-13.576177
unref	-13.278461
PROBE	-13.541763
PROV	-13.533932
Subscription	-13.497226
Metrics	-13.401430
WMI	-13.620023
Modified	-13.272769
mailbox	-13.495375
▁increase	-12.516662
near	-13.703588
Usb	-13.594549
mempool	-13.628494
gather	-13.903385
Always	-13.132455
▁resulting	-12.723026
Actor	-13.425952
▁Ho	-11.839994
graphic	-12.742203
Leave	-13.449994
ODR	-14.089273
emlrt	-14.039536
Floor	-14.631232
Site	-13.254158
consistent	-14.407515
GRE	-13.422297
Conf	-13.454986
SPR	-13.570219
▁representing	-12.868173
Fire	-13.404451
SMU	-14.277714
MFP	-14.780598
IHTML	-13.647656
PLAY	-13.364290
▁simply	-12.389857
Activity	-12.769153
DEP	-13.466153
yyvsp	-14.100396
▁correctly	-12.988181
MULT	-13.864486
rho	-12.693131
letter	-13.461156
NTI	-14.029402
Agg	-13.363325
\"",	-13.684491
wlan	-13.637497
dig	-12.880480
ObjC	-13.444001
language	-10.881055
▁correspond	-14.092238
nxv	-15.186235
canvas	-13.713188
ARBPROC	-13.641110
llu	-13.820445
quot	-13.428775
tlb	-13.658672
activation	-13.689469
Quantum	-13.491598
CELL	-13.568294
DAY	-12.847167
▁*****	-12.449364
recover	-14.006177
CONTROLLER	-13.678110
voice	-13.023389
Caps	-13.362567
**)&	-13.786719
Repeat	-13.150804
succeed	-14.566858
individual	-15.006554
STAGE	-13.394719
BIOS	-13.497859
TRIS	-14.016467
hyper	-13.875326
normalized	-14.278828
consumer	-13.912984
SURFACE	-13.636683
userdata	-13.521986
Rev	-13.458360
exclude	-13.389196
Pull	-13.367315
FTP	-13.390292
Exchange	-13.553681
percent	-13.637682
InstancePtr	-13.641647
REMOTE	-13.646357
Barrier	-13.389098
PSU	-13.829239
gra	-12.499177
DECODER	-13.333608
Spatial	-13.697418
Diag	-13.292530
hang	-13.117876
Sock	-13.347061
upstream	-13.776479
normalize	-13.330377
▁smaller	-12.600168
msec	-13.654135
irqsave	-13.455682
PyTypeObject	-13.513551
glVertexAttribI	-13.675237
libxsmm	-14.213834
Once	-13.718816
rivateFrameworks	-13.816021
DET	-13.742998
synchronous	-13.439072
orte	-13.267419
Coordinate	-13.441254
gradient	-14.035143
obliv	-14.483450
PEER	-13.618885
bandwidth	-14.008015
conditional	-13.269663
PROTECT	-13.155413
Holder	-13.199832
PQExpBuffer	-12.849913
▁ACTIONS	-13.376040
strstr	-13.651515
ABILITY	-13.607251
eur	-12.840520
stopped	-14.142023
▁dart	-13.110876
tracking	-14.134167
watchdog	-13.504847
ETHER	-13.479345
Protection	-14.036123
Mock	-13.064988
crl	-13.801079
redraw	-13.279711
Triangle	-13.386361
Picture	-13.534212
Orientation	-13.425786
▁across	-11.961553
▁represent	-12.842514
UserData	-13.737187
bra	-12.429703
Hardware	-13.135036
CCMR	-14.346872
DIGEST	-13.648416
TOK	-13.397933
TexImage	-13.855511
XLog	-13.169374
▁holds	-12.749974
huff	-13.982275
GENERAL	-13.559004
padapter	-13.675856
typval	-14.029410
yield	-13.667594
observer	-13.896355
Live	-12.796960
icate	-13.260363
▁APR	-13.295301
BaseType	-13.587635
preferred	-14.123212
Protect	-13.401598
repo	-13.401718
secondary	-13.774071
Poll	-13.640348
▁IDC	-13.449762
JNIEnv	-13.649756
EFAULT	-12.882260
ATL	-13.544370
buffered	-13.489101
Backup	-13.465743
▁holding	-12.745481
IPP	-13.864886
here	-12.802086
ado	-12.134471
bParam	-13.575031
Parallel	-13.319146
SYNCBUSY	-14.527616
CSI	-13.310357
btn	-13.147754
ALTER	-13.514219
Mar	-12.562163
tyEnum	-14.467684
Unexpected	-13.475521
divider	-13.664572
IBM	-13.660182
lsm	-13.994408
HUB	-13.733494
Navigation	-13.123041
Dummy	-13.445998
▁Ipp	-14.360263
NDIS	-13.679260
CLKEN	-14.310770
subject	-13.326294
Toggle	-13.478755
subtype	-13.501540
Playback	-13.684968
ATTACHMENT	-13.538583
▁Distributed	-13.124793
▁LSM	-13.767973
ACCEPT	-13.537004
dwFlags	-13.602107
ZSTD	-13.852803
ERASE	-13.855692
Cond	-13.328388
fcntl	-13.083222
OPAL	-13.528417
UNDER	-13.483848
LAYOUT	-13.698857
visibility	-13.232090
PRSSEL	-14.897489
DECODE	-13.558276
checkpoint	-13.468101
fallback	-13.421000
VEXTPROC	-13.796435
OVERFLOW	-13.542254
fsm	-13.716613
ppp	-13.790446
DSA	-13.695060
OPERATOR	-13.408132
▁BITCOIN	-13.001110
ena	-11.910460
Crypt	-13.311609
Ctl	-13.643635
guest	-13.895322
analyze	-14.007535
fine	-13.647241
LITERAL	-13.829582
netlink	-13.568256
CDTI	-14.964204
editor	-13.142375
*>(&	-14.143361
assertion	-14.229344
Hal	-13.707309
WHITE	-13.458436
Wave	-13.541293
PRODUCT	-13.525362
Picker	-13.462476
enqueue	-13.610640
▁exactly	-12.649699
ZONE	-13.502428
iterate	-13.447849
▁sbitmap	-13.178335
NaN	-13.481637
coap	-13.835697
SRV	-13.804151
Running	-13.276188
Physical	-13.669349
PRIu	-14.104953
wall	-13.030396
FSMC	-14.202293
Signed	-13.497030
Quant	-13.160926
vlib	-13.803590
bone	-13.075360
qla	-13.925354
amdgpu	-13.685691
Help	-12.768437
TRANSFER	-13.699720
▁(;;)	-12.500838
manage	-14.338511
LBL	-13.754761
ung	-11.598066
Inner	-13.122470
WAY	-13.355773
PPP	-13.518522
FAMILY	-13.626639
executable	-13.412137
DPLL	-14.280600
effective	-13.693882
ENODEV	-12.829607
zlib	-13.567011
PAUSE	-13.551813
LPCWSTR	-13.619089
MCS	-13.750808
adr	-12.591873
▁inserted	-13.286943
NDRV	-13.769000
dual	-13.720646
Chip	-13.260797
RefCount	-13.309334
elapsed	-13.477228
▁considered	-12.047349
STMT	-13.562059
LITTLE	-13.247684
WRAPPER	-13.554096
▁implements	-13.023244
FRAGMENT	-13.674148
SYSCALL	-13.525655
GLsizei	-13.716704
registration	-14.025953
Vpn	-14.494707
DataSize	-13.574187
Refresh	-13.313236
Masternode	-13.476907
Printer	-13.500583
▁cleared	-13.306985
▁having	-11.719270
WAVE	-13.307519
NSInteger	-13.470920
Tracker	-13.440886
ticket	-13.912727
TRANSPORT	-13.699319
▁everything	-12.291428
transparent	-14.214011
LINEAR	-13.519839
ARN	-13.791153
siz	-13.815949
Gradient	-13.539208
RESETVALUE	-14.333239
VTK	-13.625141
ABCDEF	-14.794402
vwsn	-14.572251
Gain	-13.477711
Inject	-13.934012
DRIVE	-13.709535
LSE	-13.620091
GREEN	-13.477089
mongoc	-13.629520
PEM	-13.881424
cxt	-13.495597
under	-12.531232
ompi	-13.562317
tune	-13.680750
******	-14.809479
SVG	-13.618686
CONSTRAINT	-13.640331
infer	-13.906603
▁follows	-12.035882
Closure	-13.246979
UPD	-14.246384
Solver	-13.613070
Attachment	-13.543683
subsystem	-13.542340
VERIFIER	-13.515393
SIGNATURE	-13.750636
REPLY	-13.656081
derive	-14.878468
tries	-13.756064
surf	-13.826726
QUAL	-13.739346
SPECIAL	-13.304102
ZZ	-13.305482
attack	-13.606069
Chat	-13.589996
UNSUPPORTED	-13.509025
Contains	-13.419035
VISIBLE	-13.680301
PMU	-13.940678
TIMESTAMP	-13.499091
possibly	-14.498660
BOOST	-13.761123
ldr	-13.835435
MTU	-13.736349
FAT	-13.622203
Gpu	-13.689740
NIMCALL	-14.573135
trunc	-13.528326
Shutdown	-13.260124
IMPLEMENT	-13.335439
interest	-13.769126
gettext	-13.606917
mvm	-14.131449
Hold	-13.342176
▁upon	-11.746573
.....	-13.928998
kern	-13.557026
ious	-12.324738
plot	-13.310676
abb	-12.927502
stdin	-13.322785
HFPERCLKEN	-14.702000
mass	-13.687813
PULSE	-14.197384
TAIL	-13.787057
gevent	-14.229243
APIENTRY	-13.769474
Declarations	-12.825332
Connected	-13.409148
▁loading	-13.164239
raster	-13.650576
dependency	-12.932480
DISALLOW	-13.516612
MONITOR	-13.663193
ask	-13.278514
magick	-13.497023
want	-13.310133
Utility	-13.348737
Activate	-13.442151
ivity	-12.784583
▁released	-11.641364
POLY	-13.377137
huge	-13.899087
Day	-13.090195
Foo	-12.933033
DIST	-13.237868
▁CScript	-13.471533
BLUE	-13.035067
executor	-13.514386
serialization	-13.326484
JUMP	-13.424067
OSPEED	-14.806873
Android	-13.399231
ANG	-13.626819
Phalcon	-13.693414
PCRE	-13.766805
CAPTURE	-13.825674
ENCRYPT	-13.673261
RECV	-13.619143
LOOKUP	-13.767794
ution	-12.492211
GetDatum	-13.683477
Partial	-13.071023
vreinterpret	-14.489612
▁depending	-13.057133
QUAD	-13.754565
pkcs	-13.820653
eve	-13.159994
matcher	-13.627185
Jo	-13.272326
▁/********	-13.041023
Dense	-13.606136
▁few	-11.665691
▁/*=============	-12.397142
contiguous	-13.603267
significant	-14.605204
BODY	-13.239996
ESS	-13.161042
smooth	-14.099251
respond	-13.482007
Plus	-13.484640
marshal	-13.295454
HDMI	-13.732870
recent	-14.595357
Bottom	-12.712342
Disconnect	-13.453430
overload	-13.470758
Finalize	-13.521888
coef	-13.932768
corrupt	-14.548207
Trust	-13.407038
Broadcast	-12.983927
repr	-13.493158
pnt	-13.897284
broken	-14.313565
asoc	-13.781949
pDst	-13.809122
EVE	-13.742177
boxes	-13.886974
unsupported	-13.472832
FIND	-13.554738
GenTree	-13.982863
FLG	-13.972904
water	-12.295856
leak	-14.181214
some	-12.530903
Rectangle	-13.523927
Cookie	-13.264735
Cython	-14.180945
LOWER	-13.717119
Statistics	-13.409711
helpstring	-13.809626
alive	-13.247846
including	-12.875899
WiFi	-13.694240
Erase	-13.629267
BIGNUM	-13.787851
GNU	-13.146135
glob	-13.363327
REASON	-13.692008
DIAG	-13.413498
Polygon	-13.554491
otg	-14.084742
closing	-13.900723
GOT	-13.598216
sky	-12.178377
IDENT	-13.334560
lap	-13.170686
Capabilities	-13.647394
privilege	-14.202766
agreement	-15.499122
Joint	-13.640342
Predicate	-13.530743
PARENT	-13.644545
asset	-13.190798
▁described	-11.026404
ppendPQExpBuffer	-13.779320
PROGRESS	-13.561843
pmu	-13.847190
attachment	-14.245449
Ratio	-13.436053
Seconds	-13.523319
SOUND	-13.423317
angular	-13.466325
UIView	-13.353469
Reduce	-13.454258
slide	-13.582891
WDOG	-14.520585
Publish	-13.130145
polygon	-13.547894
RLE	-13.946349
analog	-14.511676
Admin	-13.394095
Balance	-13.380653
PyList	-13.791965
SECP	-14.075549
▁properly	-12.817398
rounding	-13.185913
QOS	-13.976950
//==============	-12.792631
Brush	-13.551000
ACCEL	-13.752804
lifetime	-14.340534
IRDA	-13.836872
station	-13.527684
Representation	-13.144094
PROGRAMUNIFORM	-13.676980
UNDEFINED	-13.586316
lParam	-13.785831
Clean	-13.898252
hashtable	-13.650993
iommu	-13.813562
fileName	-13.479780
Vma	-13.570134
Transpose	-13.572246
Detail	-13.217997
COMPAT	-13.230686
Nat	-14.009541
Timing	-13.556903
SDRAM	-13.919639
DTLS	-13.697122
Encrypt	-13.652670
proj	-13.691801
IKE	-13.453950
▁calculation	-13.363619
REPLACE	-13.669358
PMD	-13.752557
minute	-13.596444
PDM	-13.759039
Severity	-13.696615
who	-13.435727
Home	-13.022345
Caller	-13.538008
HALF	-13.774046
Pause	-13.456734
cgi	-13.749607
envoy	-14.059318
DEST	-13.853203
predictor	-14.448579
nghttp	-13.751211
kit	-12.584408
advertising	-14.999643
pressed	-13.058386
measurement	-14.723950
VEHICLE	-14.581440
MOUNT	-13.799732
cdecl	-13.690715
learn	-13.745489
SETTINGS	-13.629835
nothrow	-14.048511
phrase	-13.519871
▁MKL	-15.055517
gasnet	-14.067100
Large	-13.585847
▁past	-12.010174
fmadd	-14.259801
Future	-13.578096
Palette	-13.659713
SCHEMA	-13.742023
MHZ	-14.357730
DISK	-13.641042
Mass	-13.525610
PLANE	-13.867444
foreign	-13.978270
▁CTransaction	-13.559962
compound	-14.166404
ANALOG	-14.158030
Quic	-13.430627
RAND	-13.605100
Appointment	-14.098117
SIDE	-13.088176
▁functionality	-13.173736
CANCEL	-13.493280
▁XED	-13.860211
compact	-13.905597
+-----------	-12.798074
METRIC	-13.760294
ntDefaultHandler	-13.504494
MAIL	-13.663123
Prototype	-13.168400
Implement	-13.132200
izable	-13.227974
verb	-12.949461
CONSOLE	-13.529527
DCDC	-14.390754
HIDDEN	-13.656157
mutation	-13.972681
Voice	-13.473980
▁GLshort	-14.199770
▁specification	-13.072810
PATTERN	-13.693916
arrange	-13.336365
hello	-13.120374
mismatch	-13.614668
bfa	-14.336578
sdk	-13.452300
sentinel	-13.587760
When	-12.749677
Reverse	-13.260663
Fmt	-13.804414
Bitcoin	-14.419293
Strategy	-13.175488
sibling	-13.650978
ransformFeedback	-14.131631
relay	-14.242166
NSError	-13.835667
colour	-13.837423
mlme	-14.138755
RADEON	-13.945023
aarch	-14.083411
Radius	-13.612312
TLB	-13.937289
▁-*-	-13.914732
LITE	-13.566900
VDD	-14.430807
circle	-13.747952
GenericClass	-14.886484
basis	-14.327023
Secret	-13.371818
MESA	-13.899818
▁reach	-12.963947
FilePath	-13.522977
Missing	-13.160173
Combine	-13.675517
ADAPTER	-13.710815
glIs	-13.739321
CriticalSection	-13.322668
lpsz	-13.782259
Behavior	-13.066229
▁maintain	-12.963334
Alert	-13.395069
Alternate	-13.481015
itter	-13.115445
wrapped	-14.111205
Attempt	-13.447640
mechanism	-15.237676
encap	-13.906817
clinic	-12.898592
concurrent	-14.301326
trig	-13.587923
INITIALIZER	-13.787117
RANDOM	-13.632639
MODIFY	-13.873712
timespec	-13.503904
highbd	-14.433780
Renderbuffer	-13.864923
LCK	-14.381566
histogram	-13.596463
TOTAL	-13.778529
nodiscard	-13.842967
SECURE	-13.794323
Seek	-13.589701
energy	-13.813383
SysTick	-13.873442
solve	-13.762852
readable	-13.463188
VNVPROC	-13.939214
glDelete	-13.800317
upgrade	-13.926920
possible	-13.644308
series	-13.187135
Turn	-13.837787
SMARTCARD	-13.956153
NSURL	-13.564486
Previous	-13.747937
Mux	-14.112804
ality	-12.916543
Popup	-13.781947
Reflection	-13.436302
Processing	-13.374772
BTN	-13.824764
LOCKED	-13.977165
Restrict	-13.541132
IZATION	-13.577315
BASIC	-13.488545
Uri	-13.523637
Scoped	-13.582211
GCLK	-14.443603
feed	-13.696201
▁thus	-12.354464
sysctl	-13.666568
STUB	-13.713984
Velocity	-13.674953
ANIM	-13.999237
ANDROID	-13.461190
highlight	-13.841972
VOLUME	-13.747610
VIRTUAL	-13.662417
Invalidate	-13.585465
?$	-15.195562
kmp	-14.143986
IFIED	-13.647655
Dependency	-13.574189
PyLong	-13.663534
raft	-13.684805
BNX	-14.101034
Like	-13.538882
mpeg	-13.589990
unsafe	-13.277154
Best	-12.688141
Wide	-13.743147
bssid	-13.903933
easing	-13.762666
EXTINT	-14.613750
motor	-14.014036
TEE	-13.616766
Padding	-13.529562
Just	-13.248769
ECDSA	-13.865860
MSVC	-13.650028
EVSYS	-14.521414
PDC	-13.811585
CLOUD	-13.923824
periph	-13.533543
▁timeval	-13.242950
knowledge	-13.176152
▁VTSS	-14.696590
▁That	-11.612020
Resolution	-13.646625
remainder	-14.425125
interpreter	-13.461990
OMX	-13.849964
zoom	-13.445814
Leaf	-13.715023
iomem	-13.597604
BROWSER	-13.909112
JOB	-13.674583
Rank	-13.199262
decompress	-13.801087
Canvas	-13.505896
ATTRIBUTES	-13.555554
supply	-14.239911
▁jlong	-14.285758
propget	-13.936148
Unsupported	-13.617052
lac	-13.065168
SiS	-14.716881
collation	-13.766887
KEYWORD	-13.828965
LFB	-14.866028
PROG	-13.859731
AVR	-13.841348
Rotate	-13.656414
independent	-14.117554
SPLIT	-13.717277
replica	-14.388033
sheet	-12.886887
raid	-13.743409
FromString	-13.429260
▁htons	-13.724869
ndarray	-14.197866
Registration	-13.362529
HOLD	-13.873823
Destructor	-13.199835
Translate	-13.417128
Converter	-13.499192
General	-12.689939
Recursive	-13.537298
Finished	-13.285749
MACHINE	-13.491813
establish	-14.127792
SGIS	-13.856827
deferred	-13.577572
Encryption	-13.724360
AREA	-13.881587
compose	-13.567834
EXPAND	-13.801686
Legacy	-13.880075
▁VMA	-13.766276
XYZ	-13.850377
COMPUTE	-13.760662
RETRY	-13.800786
CONDITION	-13.749832
lexer	-13.750356
HELPER	-13.719487
RESTRICT	-13.814382
Undefined	-13.485408
Remaining	-13.247518
digital	-14.110922
▁UniValue	-14.082040
Occurred	-13.676656
▁CBlockIndex	-13.477868
scatter	-13.671017
ecere	-14.990318
Printing	-13.864263
SYSCLK	-14.059133
▁moved	-12.114514
directive	-13.437801
DFMT	-14.332766
Arn	-14.155278
usually	-14.412826
wParam	-13.835692
▁{&__	-14.605438
replacement	-14.424361
BLOB	-13.766764
ixgbe	-13.977203
PCTL	-14.253483
deinit	-13.537595
Flat	-13.420235
expansion	-14.646147
vkGet	-14.266110
sysfs	-13.680297
ett	-12.399833
▁newly	-13.031587
mbus	-13.644774
PARITY	-13.950963
Opaque	-13.736062
▁NoneT	-15.919148
COIN	-13.605792
▁Indicates	-13.688953
Needed	-13.521711
rspamd	-13.902760
Stamp	-13.376535
ENDPOINT	-13.839902
GETARG	-13.889692
projection	-14.438610
Functor	-13.649940
glClear	-13.823004
MULTITEXCOORD	-13.742590
cnfn	-13.746606
Have	-13.334205
leader	-13.558989
pwd	-13.647037
LHS	-14.058265
Parameterfv	-13.871069
GMP	-13.930343
iterations	-13.606554
▁Ltd	-12.654541
Parm	-13.705486
syslog	-13.637113
Pick	-13.868269
SHELL	-13.601099
audit	-13.942875
{{.*}}	-14.305366
manual	-14.269499
QWidget	-13.369056
Managed	-13.619937
Vendor	-13.649649
Provide	-13.368723
rssi	-13.946344
through	-12.743065
SSID	-13.878075
printLine	-13.186613
supplicant	-13.920954
hwloc	-14.069190
▁proper	-12.757395
crop	-13.279379
FORCEINLINE	-13.688256
swig	-13.927309
Immediate	-13.652043
vote	-13.997823
Lua	-13.561357
UNEXPECTED	-13.799595
▁authors	-12.448095
compilation	-14.839560
offload	-13.829307
▁REFIID	-13.512306
SUSPEND	-13.789344
BMP	-13.791770
WaitFor	-13.726245
prefetch	-13.795038
Theme	-13.022995
KEEP	-13.468265
!!!	-13.124106
deflate	-13.795639
vkCmd	-14.228141
UNIVERSAL	-13.742105
multiplier	-13.782927
CLEAN	-13.316349
▁away	-11.804205
Relative	-13.342824
SUPP	-12.862366
FLAC	-13.910275
▁EFM	-14.100736
▁declared	-12.746734
▁anyway	-13.075099
CWallet	-13.704243
newline	-13.515523
Declare	-13.325725
Assignment	-13.288769
STANDARD	-13.530413
VkPhysicalDevice	-13.727030
Interaction	-13.451669
aries	-11.842726
Perl	-13.555903
CUBE	-13.731965
ensure	-13.521759
NMI	-14.072978
Dead	-13.695229
rwlock	-13.884697
inflate	-13.621065
AsyncCaller	-14.856716
alternative	-14.778783
that	-12.670485
TUPLE	-13.933413
UNIFORMMATRIX	-13.901963
▁didn	-12.021932
AFTER	-13.633986
overwrite	-13.693383
spirit	-13.996186
Copyright	-12.893497
ease	-13.058329
TORSO	-14.054087
CHANGED	-13.908056
MGR	-14.005556
CGFloat	-13.602341
COMPLEX	-13.511432
RTOS	-13.774702
android	-12.490486
SEED	-13.845104
Performance	-13.741761
Children	-13.051701
periodic	-14.261116
READONLY	-13.819231
Resume	-13.534035
propagate	-14.605482
▁meaning	-12.646149
Para	-13.467177
Candidate	-13.603380
Seed	-13.400847
fffffffffffff	-14.446079
Actual	-13.716228
embedded	-14.736929
'='	-13.666014
▁followed	-12.383586
▁kGTLR	-13.955721
above	-13.782240
division	-13.612979
Histogram	-13.761137
PyBytes	-13.986171
Strip	-13.913570
Norm	-13.521377
dirent	-13.557710
▁respect	-12.505456
Packed	-13.934795
Compressed	-13.812879
Bias	-13.802064
composite	-14.195565
Known	-13.413543
STALL	-14.155563
locate	-13.574892
replication	-14.451450
feedback	-14.016213
EventHandler	-13.634544
SMBUS	-14.137352
SendMessage	-14.027790
RUNNING	-13.777111
Primary	-13.575481
PyThreadState	-13.783817
email	-13.381715
credentials	-14.242108
subscription	-14.180805
DTFC	-15.349573
Metric	-13.624268
▁Does	-12.644892
VertexArray	-13.914623
PLUGIN	-13.678848
VREF	-14.370632
intrinsic	-14.427848
WHERE	-14.239850
VALIDATE	-13.885107
???	-13.472116
online	-13.502495
JNI	-13.950808
mDNS	-14.139086
Union	-13.397974
HELP	-13.546382
Upload	-13.600911
integral	-14.282919
expose	-15.100945
INTFLAG	-14.939812
************//**	-12.769996
Credit	-13.298666
canonical	-13.471660
▁HOLDER	-13.695770
IOTHUB	-14.532094
lru	-13.937632
ROLE	-13.767859
▁represented	-12.530343
FRAG	-13.889767
RCV	-13.951026
XDMAC	-15.388643
WAKEUP	-14.075362
pure	-13.954624
Sector	-13.478643
▁purposes	-12.780729
dependencies	-13.033498
PTP	-13.927845
feat	-13.488830
hcryp	-13.972005
FREQUENCY	-13.954950
TRG	-14.416653
lazy	-13.553647
calibration	-14.798323
stddef	-13.004103
RefPtr	-13.872174
Scaling	-13.914138
prom	-13.744401
strength	-14.159759
ceil	-14.039124
bitmask	-13.803098
UTILS	-13.684957
hdmi	-13.987205
Merkle	-13.725985
PROCESSOR	-13.859775
Logging	-13.529680
constructor	-13.469940
dissect	-14.367060
tracing	-13.585539
OWN	-13.432213
icroelectronics	-13.786811
▁obtained	-12.594599
lowest	-14.637586
guarantee	-16.060740
KVM	-13.947567
queries	-14.523472
▁stbt	-14.317818
Unary	-13.805803
▁exceed	-13.068192
................	-14.135810
▁recommend	-13.679710
Capability	-13.787172
RenderTarget	-13.964386
MARKER	-13.642877
IAM	-13.190374
persist	-14.628772
▁COBJMACROS	-12.443627
matrices	-15.437667
sensitive	-13.556193
TWIS	-13.764175
IoT	-13.621173
AGG	-13.786142
NSData	-13.576381
distribution	-13.329472
altivec	-13.823451
PIPELINE	-13.979847
Endian	-13.716398
Executor	-13.540010
IMETHOD	-14.288833
INDIRECT	-13.821956
appendStringInfo	-13.613510
▁//=============	-11.179606
Raster	-13.459225
ENOENT	-13.272360
Activation	-13.790327
associate	-14.657014
PyModule	-13.851224
embed	-13.876069
BLACK	-13.362213
DEAD	-13.646138
deserialize	-13.763160
ROUTINE	-13.772072
hapd	-13.993010
Sql	-13.513893
drain	-13.967763
▁rendering	-13.464197
MORE	-13.307794
▁trying	-12.267405
suppress	-14.277441
TWO	-13.570246
addReply	-13.567424
traffic	-14.451185
lead	-13.920421
Periph	-14.225434
▁building	-11.956177
LDO	-14.294381
Arch	-13.234379
RESTART	-13.806793
Where	-13.121449
CHROME	-14.096729
indicator	-14.117791
contrib	-14.442428
DYN	-13.941807
UIImage	-13.588249
Gpio	-14.215869
LETTER	-14.088260
outgoing	-13.734435
formatter	-13.834888
battery	-14.178713
VERTEXATTRIBI	-13.717907
kcontrol	-14.199568
RSSI	-14.152563
SEGMENT	-13.900206
More	-13.427061
accepted	-14.622621
BGR	-14.281295
Guide	-14.361131
cython	-14.099531
intersect	-14.415749
commercial	-14.836713
PARA	-13.283338
nano	-13.873718
delim	-13.656407
▁affiliates	-13.339110
Polarity	-14.098428
SHADOW	-13.824593
Good	-13.095939
Deriving	-14.764115
▁reported	-12.252057
UIPROC	-13.768353
▁ovsdb	-13.924310
Annotation	-13.578105
VGA	-13.764912
Optimize	-13.692870
SetItem	-14.182465
Suspend	-13.668942
playback	-13.503267
ALIGNMENT	-13.844439
Undo	-13.585254
Scheduler	-13.490803
Email	-12.853687
consumed	-14.364383
FIAsyncOperation	-14.467749
PixelFormat	-14.025412
ORTE	-13.977431
OMAP	-14.047016
▁MICROPY	-13.633488
instantiate	-13.773144
TOUCH	-13.803193
Enumerator	-14.262930
minmax	-14.296197
▁IPPROTO	-13.699658
▁destroyed	-12.974407
▁replaced	-12.631884
COMBINE	-13.940799
passwd	-13.734835
PFNGLPROGRAM	-14.070686
either	-14.151837
expanded	-14.321179
ACCESSOR	-13.702663
Catalog	-13.231212
Digit	-13.613096
MAYBE	-14.440933
Physics	-13.788044
CONTAINER	-13.902536
Cross	-13.435650
multiple	-13.638758
unaligned	-13.866871
Critical	-13.560929
Digest	-13.609762
numberOf	-13.752082
IGNORED	-14.307491
DataSource	-13.721986
msk	-13.892647
▁succeeded	-13.116800
SECONDARY	-13.870307
visitor	-13.548402
reflect	-14.080460
relevant	-15.324285
Measurement	-13.986440
diagonal	-13.588608
plug	-13.530514
ENTRIES	-13.892741
mess	-14.361053
Here	-13.769788
EXCLUSIVE	-13.946076
gateway	-13.754508
▁asynchronous	-13.602821
Written	-13.857398
tape	-13.646664
quantize	-13.942660
SPECIES	-13.740397
lookahead	-13.874257
▁getting	-12.304032
enumerate	-13.725886
phar	-13.482433
▁effects	-12.110708
NEGSEL	-15.339671
skipped	-13.691826
▁changing	-13.068707
Slider	-13.834405
ceph	-13.940104
qpair	-14.262371
STRIDE	-14.137949
ENCODER	-13.746097
architecture	-14.924800
SHUTDOWN	-13.708915
▁making	-11.997690
TRAP	-13.855168
Guard	-13.501857
PyMethod	-14.005111
DIRECTION	-13.787116
Implicit	-13.763298
TexSubImage	-14.222235
kwds	-14.110962
Speech	-13.815433
CONNECTED	-13.806934
Tracking	-13.690599
▁debugstr	-14.306034
Busy	-13.838789
debugger	-13.678131
coefficient	-14.825904
Probe	-13.712691
replay	-13.706533
GetProcAddress	-14.027201
tech	-12.912835
xdeadbeef	-13.480257
▁assumed	-13.234543
TRUNC	-13.898984
WIRE	-13.855561
Lang	-13.630334
aead	-14.056354
Rendering	-13.822211
BRIDGE	-13.814456
PHONE	-13.896425
APPLICATION	-13.820510
writable	-13.777058
wolf	-13.466425
verification	-14.794378
SUPER	-12.990766
PyArg	-14.163313
EAGAIN	-13.440495
XFER	-14.083980
WEAK	-13.663428
▁subsequent	-13.078457
▁internally	-13.646373
SCROLL	-13.867757
▁smartlist	-13.713367
Multiply	-13.700644
BURST	-14.093656
nonzero	-13.792479
Nested	-13.763530
aspect	-14.415578
beg	-13.453729
IWL	-14.065077
Assertion	-13.738244
verifier	-13.797533
goal	-14.129896
DONT	-13.883026
reduction	-14.693517
Interlocked	-13.937289
goodG	-13.595390
tracker	-13.821489
ALERT	-13.981062
▁==========	-10.677158
DIALOG	-13.713444
xfffffffe	-14.690548
subtract	-13.683558
lam	-12.320010
CAMERA	-13.859609
lwip	-13.735432
divisor	-14.614786
▁typical	-13.664604
desktop	-13.451930
CONTINUE	-13.585871
quiet	-13.897168
Pkt	-14.075889
xaaaaaaaa	-14.770576
▁njs	-13.904260
Unregister	-13.691192
MIME	-13.832334
pretty	-14.095813
RND	-14.152499
conversion	-13.704977
REPEAT	-14.016075
EFFECT	-13.814113
NOEXCEPT	-13.932918
debugfs	-13.869477
Flex	-13.512788
xmlChar	-13.658385
UPPER	-14.053188
sdio	-14.096938
Retry	-13.814325
xfffffffd	-14.780362
shrink	-13.669125
mtoll	-14.254719
glUniformMatrix	-14.178938
NSMutable	-13.637763
nondet	-13.761828
QDEC	-13.798121
CALCTRL	-15.296113
▁hashmap	-13.873735
limb	-13.673390
ASSOC	-13.933947
Quaternion	-13.973295
hardware	-13.696192
passes	-14.673637
Mapped	-13.926611
======	-14.117538
payment	-13.997418
*/])	-15.217868
Quick	-13.779127
PRIMITIVE	-14.028876
GRAPHICS	-14.004038
▁depends	-13.188260
terminator	-13.738416
decrement	-13.790345
▁several	-11.469325
Confirm	-13.607756
emplace	-13.956931
LEGACY	-13.861690
Blk	-14.111279
▁guaranteed	-13.571240
APPEND	-13.747273
FinishContext	-13.208714
Quality	-13.750152
▁Fifth	-13.050022
conj	-14.124459
▁Franklin	-12.904549
week	-13.349805
Priv	-13.438736
association	-14.328887
reorder	-13.918473
ntohs	-14.021574
uplo	-14.252300
prediction	-14.591647
SECTOR	-14.134894
gmail	-13.722117
shmem	-14.013630
Utf	-14.110055
preview	-14.134780
STRICT	-13.508672
pressure	-14.226399
EXTENDED	-13.971629
Subscribe	-13.467144
Dirty	-13.376906
alternate	-14.756387
nearest	-14.798727
▁together	-11.934258
HUD	-13.894332
FILENAME	-13.740604
Piece	-13.436701
Calibration	-13.955071
chosen	-14.795393
PACKED	-13.723093
MASKWRITE	-14.681509
Aligned	-13.893031
stripe	-13.830654
scanline	-14.069765
ompletionHandler	-14.848670
MMIO	-14.138219
WEIGHT	-13.980024
▁intended	-12.808859
Assembly	-13.532935
wiphy	-14.341361
Deep	-13.946616
glsl	-14.090675
VARARGS	-14.149370
=========	-12.771825
entities	-14.245153
wqe	-14.268584
▁responsible	-12.760655
Redis	-13.814009
Vertical	-13.541988
XTAL	-14.302061
SNMP	-13.886596
mute	-13.691686
Communication	-14.622571
central	-13.460159
WAKE	-14.083906
deque	-13.772241
solv	-13.644481
Iteration	-13.762025
consensus	-14.308195
DELTA	-14.154337
PROJECT	-13.533886
FRM	-14.232477
CpltCallback	-14.087622
UNORM	-14.316463
NSMutableArray	-13.561013
Startup	-13.664510
Negative	-13.494570
Enumeration	-13.898539
Gesture	-13.907336
MINUS	-14.039729
PUPDR	-14.901268
guess	-14.557667
quota	-13.716940
Bulk	-13.758732
globus	-13.820484
DFSDM	-14.401119
SHAPE	-13.927662
LPWSTR	-13.806976
symtab	-14.021952
darkskin	-15.125502
Composite	-13.506495
Assume	-15.224410
functor	-13.766342
TYP	-14.205352
axes	-13.498644
monster	-14.336804
fuzz	-13.834993
▁Chromium	-13.772587
▁CURLE	-13.595382
qemu	-13.841406
Normalize	-13.809044
Horizontal	-13.623677
Neighbor	-13.238117
joystick	-13.901045
SMART	-13.904864
NVME	-14.133573
FOG	-14.030580
experiment	-14.126124
ecdsa	-14.218047
SERV	-13.441697
▁however	-12.026219
question	-14.057853
VARBPROC	-14.088600
SPELL	-13.995454
grib	-14.269556
Analyze	-13.900149
OCSP	-14.153697
Cipher	-13.823345
TEGRA	-13.998256
▁relocation	-13.677245
WORLD	-13.354688
COMMIT	-13.833125
SetupContext	-13.944833
SharedPtr	-13.991576
Stroke	-13.749443
life	-12.880525
Anchor	-13.490563
PROTOTYPES	-13.277148
RENDERBUFFER	-13.880340
▁located	-11.651587
Allowed	-13.831332
bypass	-14.495339
GetArena	-13.961100
decay	-13.967866
Compression	-13.650028
Than	-13.834722
FreeBSD	-13.671925
GEMM	-14.080670
automatic	-14.579231
Secondary	-14.032468
ROLL	-13.693062
Chan	-13.603174
▁looking	-12.302472
Creation	-13.183969
pivot	-14.537571
VISIT	-13.793285
▁faster	-13.233364
CGRect	-13.879644
CURVE	-14.038531
Calendar	-13.180657
SEQAN	-14.446681
Fatal	-13.533397
PRIMARY	-13.889695
▁GBProperty	-15.088484
unary	-13.929253
composition	-14.392287
SLICE	-14.150515
INITIALIZED	-13.874771
unwind	-13.880135
TreeNode	-14.041415
WASM	-13.809736
TESS	-14.062909
SHARE	-13.933764
KILL	-13.696712
Compact	-13.535823
Continue	-13.335733
Callable	-13.873949
BITFIELD	-14.195526
Comparison	-13.121236
▁Technology	-11.961119
placeholder	-13.588816
(^)(	-14.283147
Vdbe	-14.070266
CONFIGURATION	-13.917569
accumulate	-14.840402
▁seems	-12.461502
ably	-12.728048
UIColor	-13.726246
NAK	-14.190760
construction	-14.648457
Lambda	-13.385304
symlink	-13.875860
AXI	-14.260317
formatted	-13.744057
Square	-13.852006
#############	-14.518184
DMAMUX	-14.536672
AGENT	-14.169006
PRESCALER	-14.582750
chrome	-13.436927
legal	-13.196914
Sheet	-13.385169
WANT	-13.705516
RANK	-13.989577
PACKAGE	-13.663413
▁Currently	-13.289464
AVAIL	-13.891367
Milli	-13.614581
Dispatcher	-13.855242
▁goes	-12.667508
assembler	-13.884334
Prescaler	-14.244502
routing	-14.484309
Separate	-13.866628
UNPACK	-14.031806
Detection	-13.773555
silent	-14.069349
TINY	-13.768467
morph	-13.277585
Enumerate	-13.951607
delimiter	-13.744855
Feedback	-13.707334
JMP	-13.909457
Budget	-13.770078
▁important	-11.847703
theme	-13.586674
garbage	-14.908329
WIDE	-13.933755
NESS	-13.745039
hostapd	-14.146945
Margin	-13.632830
GOOGLE	-13.790538
ntohl	-14.112021
Most	-14.018593
▁receiving	-13.040050
▁XXH	-14.377908
SPIRV	-14.156709
MIDI	-13.692468
Terminal	-13.979359
Coding	-13.712671
PAYLOAD	-14.150996
EXECUTE	-14.022977
SAADC	-13.972245
spent	-14.571148
negate	-14.037740
▁OMITBAD	-12.614203
utter	-13.005733
DUMMY	-13.881860
SIGNED	-14.033589
STARTED	-14.136841
IVectorView	-14.648996
HFCORECLKDIV	-15.778353
inspect	-13.629758
INVERT	-14.078526
Consumer	-13.817868
CLKSOURCE	-14.368384
severity	-14.590608
provision	-14.816790
TENSOR	-14.174879
glGen	-14.079686
revoke	-14.245715
Topic	-13.524055
attnum	-14.028251
locator	-13.926395
MIXER	-14.171569
Associate	-14.174422
PFNGLTEXCOORD	-13.930310
sweep	-13.872644
Decimal	-13.856902
Duplicate	-13.734921
health	-13.874746
OPAMP	-14.669197
safety	-14.448815
bitrate	-14.008744
▁requirements	-12.706294
▁coefficients	-13.615817
WWDG	-14.395083
whitespace	-13.702076
IXMLDOM	-14.048189
correction	-14.773418
fullscreen	-13.946768
DAPM	-14.216759
sphere	-13.909886
perform	-13.596195
INSTALL	-13.961203
intermediate	-14.869913
arithmetic	-15.035634
BTRFS	-14.129573
Music	-12.563731
▁calculated	-13.216513
typmod	-14.106419
IMXRT	-14.683843
eigen	-14.660768
Cube	-13.563309
▁EZRADIO	-14.329146
Serialization	-13.899355
▁therefore	-12.474934
PyNumber	-14.281759
Invert	-14.031566
Workspace	-14.264551
DBGMCU	-14.853175
▁PGNS	-17.129271
Star	-12.741096
▁normally	-13.342105
GUC	-13.959911
ALARM	-14.192097
trial	-13.536190
▁applies	-13.417936
Explicit	-13.887915
Aggregate	-13.954815
PyDoc	-13.952015
FOCUS	-13.906136
Firmware	-13.948161
PFNGLBIND	-13.917627
CheckExact	-14.225790
vacuum	-14.163622
Expect	-13.581450
Fifo	-14.166104
HASHMAP	-14.014140
wildcard	-13.694265
radix	-14.036375
IMPLEMENTED	-13.781175
▁"../../	-13.564766
interpolation	-13.790625
Sense	-13.743763
InputStream	-13.672731
Pitch	-13.445106
symmetric	-13.417764
CYCLE	-14.136453
initiate	-14.858508
Compress	-13.812712
Adapt	-12.915371
QualType	-13.876481
▁JNICALL	-13.774422
-----------===//	-13.021957
WebAPI	-14.738714
glCopy	-14.402734
Colour	-13.491885
LIBRARY	-13.755321
CATEGORY	-14.051706
duplex	-13.983661
DevicePath	-13.988070
SQLite	-13.762737
▁USCI	-14.393193
Developer	-13.675513
relaxed	-14.134691
Coeff	-14.216937
virtio	-14.052672
spot	-13.485492
discovery	-14.169141
Convolution	-13.981934
GEOMETRY	-14.070178
Extend	-13.814015
EXTIPSEL	-16.151555
WIDGET	-13.945037
▁Cortex	-14.154701
Internet	-13.853692
glTexture	-14.098967
SIDL	-14.118516
DUAL	-14.180669
Automatic	-13.548108
fgets	-14.055400
retries	-13.880011
▁UPB	-14.675974
▁completely	-12.745446
Below	-14.812251
▁decide	-13.344819
proof	-13.857100
▁/*****	-13.303126
FPGA	-14.022808
distinct	-14.327004
mesa	-13.998822
Projection	-13.906440
IsNull	-13.737556
▁why	-11.989776
BARRIER	-13.910645
//===-----------	-13.026661
strtol	-14.057984
discover	-14.128242
Reject	-13.993819
specifier	-13.928667
IDENTIFIER	-13.888176
dwarf	-14.570291
STARTUP	-14.160809
Follow	-13.009894
robot	-14.268342
SEPARATE	-14.182675
Recognize	-14.128373
GetEmptyString	-14.332815
▁arbitrary	-13.485899
swapchain	-14.317227
synchronize	-13.503440
▁CYDEV	-14.326842
Produce	-14.014759
Spacing	-14.008220
intersection	-14.678209
Percent	-13.653460
Watchdog	-14.100704
ASSEMBLY	-13.805465
Nothing	-13.922892
MSVCRT	-14.148700
EFUSE	-14.440130
epsilon	-13.255691
Synth	-13.636941
Measure	-13.491047
HOME	-13.409980
maximum	-13.815107
evict	-14.201482
Magic	-13.856115
FREEZE	-14.833388
Overlap	-14.068806
CLAMP	-14.043526
▁OMITGOOD	-12.673080
RESTORE	-13.827821
predict	-14.155107
lreadyInited	-14.346555
TUNE	-14.258301
TRANSACTION	-13.983016
Dyn	-14.223267
Swift	-14.328687
neigh	-13.606477
suggest	-14.704368
freeze	-14.072958
DTPRS	-15.314215
POLARITY	-14.518453
weapon	-14.239560
NVIDIA	-14.122039
characteristic	-14.866603
Logic	-13.586288
Foreign	-13.652356
presentation	-13.803234
PrettyPrinter	-14.889326
MULTISAMPLE	-14.184341
Instrument	-12.610342
PhysicalDevice	-14.562212
▁mxArray	-14.043969
▁fHelp	-14.143805
RpcChannelBuffer	-14.419648
▁Steve	-12.408980
pgsql	-14.066242
ancy	-12.854138
ethtool	-14.089725
TITLE	-13.673631
Voltage	-14.065661
Pulse	-13.882952
SPDIF	-14.371139
ECHO	-13.833374
quirk	-14.045678
trivial	-13.654847
PERSISTENT	-14.385414
Reserve	-13.899510
clipboard	-13.865026
stereo	-14.362790
Grab	-13.807548
Boundary	-13.768413
frontend	-13.959558
clazz	-14.032700
RedisModule	-14.234987
ShiftMask	-14.652741
arith	-14.236864
xcccccccc	-14.871574
Vulkan	-13.951829
ECMA	-14.123975
numerator	-14.093649
potential	-14.791877
Vehicle	-14.008872
Clamp	-14.068927
NSUInteger	-13.836933
wanted	-14.132721
California	-14.376514
Terminate	-13.754211
Unused	-13.864973
tupdesc	-14.035590
marshallOut	-14.521974
egress	-14.386398
OSCENCMD	-15.074088
▁Limited	-13.022971
residual	-14.761386
currency	-13.268650
EXCHANGE	-14.055809
MEGA	-13.817842
▁Semiconductor	-13.792211
CONFLICT	-14.367675
FromLong	-14.054344
Characteristic	-13.091982
Vote	-13.320669
Indicator	-13.797362
ftnlen	-14.263889
ReceivedHandler	-15.185484
Checksum	-14.018346
density	-14.321082
PEAK	-14.373179
EXTICR	-14.866908
ATTACH	-14.070019
PHYSICAL	-14.193782
▁suitable	-13.308781
loopback	-14.058363
Plot	-13.780575
OutcomeCallable	-14.370561
Formatter	-13.967583
nvmf	-14.313962
MATERIAL	-13.777846
attention	-13.201769
Recovery	-13.581342
remarks	-13.106455
HERE	-13.581472
dapm	-14.380675
▁JNIEXPORT	-13.767902
uninitialized	-13.977644
'>'	-14.039192
Possible	-13.397295
improve	-15.248054
CLSID	-14.355894
▁storing	-13.806324
CBigNum	-14.071801
BLANK	-14.154701
Debugger	-13.833153
MenuItem	-13.893671
CREAT	-13.985049
Acceleration	-14.151032
GetProcessHeap	-14.114325
MonoMethod	-13.775989
vehicle	-14.787087
spacing	-14.189856
setsockopt	-14.254961
Mailbox	-14.325245
Vertices	-14.078187
broker	-14.304414
CMSIS	-13.965203
LPCSTR	-14.187016
Prior	-14.522279
COMPILING	-13.935806
qualified	-13.840635
road	-13.311473
NUMERIC	-14.065523
interleave	-14.143971
'?'	-13.897353
OutputStream	-13.828673
optind	-13.761575
writing	-12.971160
▁manually	-13.617334
▁internalformat	-14.581465
Absolute	-13.592200
verbatim	-12.860788
MAPPING	-14.182774
Assembler	-13.640970
validity	-15.053065
deallocate	-14.040244
Joystick	-14.034725
EXTRACT	-14.253721
Inherit	-13.756688
committed	-14.499609
▁MODKEY	-14.539171
While	-14.168617
Blueprint	-13.817395
Mega	-14.579041
latch	-13.999605
NSDate	-13.815495
Person	-13.647007
Translation	-13.905414
TCPIP	-14.215399
INVALC	-16.171582
decision	-14.708832
accessible	-14.496264
traceback	-14.025337
bracket	-13.361659
glWindowPos	-14.253037
DISCARD	-14.098437
Solution	-13.161226
regBuiltin	-14.709030
Decrypt	-14.064873
SetLastError	-13.517119
rewind	-13.759087
▁AOM	-14.397887
continuous	-14.566302
▁'*'	-13.819672
Health	-13.691800
FILT	-14.560216
IWDG	-14.411379
Marshal	-13.453253
rich	-12.380274
DEFINITION	-13.762822
CERTIFICATE	-14.010962
MUTE	-14.503174
Issue	-14.155073
UNLIKELY	-14.121857
HISTORY	-13.602075
DETAIL	-13.924954
MISSION	-13.858820
triple	-14.463219
initialise	-14.102176
plaintext	-14.193119
carrier	-14.083950
negotiate	-14.209176
milvus	-14.705528
Precision	-13.890215
FRONT	-13.859902
xbfff	-16.024262
Indent	-13.937789
▁LAPACK	-13.399391
SYNTAX	-14.009711
synth	-13.970816
Detach	-13.733641
advertise	-14.835995
LiftoffRegister	-13.986498
hose	-14.182497
PLAIN	-14.053912
invocation	-13.936548
BOTH	-14.271545
NamedFramebuffer	-14.378234
▁consist	-14.402920
SPECIFIC	-14.159151
mgos	-14.999077
MISMATCH	-14.146918
rehasher	-15.027815
CloseHandle	-13.546098
COMMENT	-13.677625
preempt	-13.795813
libraries	-15.126472
tagged	-13.918998
FALLTHROUGH	-13.404436
Mean	-14.001091
DISCONNECT	-14.120324
MEDIUM	-14.121075
affinity	-14.303425
purge	-13.855969
SYNTH	-14.776489
ReadOnly	-14.007793
HFPERCLKDIV	-15.896934
allocating	-14.065414
UNAVAILABLE	-14.010926
METADATA	-14.144309
Both	-14.591766
Evaluate	-14.633777
▁XPAR	-14.279608
PARTIAL	-14.104152
nuttx	-13.681282
Lazy	-13.926771
information	-13.720511
▁kept	-12.864786
denom	-13.972270
ALLOCATE	-14.106748
polarity	-14.161692
OCTET	-14.253064
GNSP	-14.992074
saxpy	-14.474597
Lane	-14.145107
eye	-13.427608
reclaim	-13.980543
Specification	-12.992309
POSSEL	-15.440274
Scratch	-13.789196
Universal	-14.024707
oldest	-14.627969
acadoWorkspace	-15.655534
GPIOTE	-14.046255
manifest	-14.251618
RESOLVE	-14.158586
gyro	-14.213779
DOCUMENT	-13.863853
DOXYGEN	-13.796605
Generation	-14.135816
polynomial	-14.923281
Energy	-14.084788
equation	-14.229070
DIRECTORY	-14.112150
convention	-14.836537
strtoul	-14.261700
glGetProgram	-14.305409
bearer	-14.148395
UIViewController	-13.733980
SETTING	-14.227460
▁VkResult	-14.110498
convolution	-13.940865
MAPPED	-14.391149
COAP	-14.194393
NOTIFICATION	-14.151889
authenticate	-13.899572
weston	-14.145829
PERFORMANCE	-13.984973
accumulator	-14.005381
TCPWM	-15.234587
Gateway	-13.795570
Plain	-14.025972
singleton	-13.903800
intercept	-14.506968
cutoff	-14.160777
XCVR	-15.191961
Hello	-12.806079
irectDrawSurface	-14.166124
thunk	-14.388732
PLLSAI	-15.008381
ancestor	-14.836898
promise	-14.275811
COEFF	-14.647235
Promise	-13.461334
SWIER	-15.481114
PASSWORD	-14.074072
▁Kevin	-12.770464
glSecondaryColor	-14.363021
DIMENSION	-14.080223
Roll	-13.805224
What	-11.817421
Yield	-13.821380
▁Gating	-13.894692
─	-14.484804
PQgetvalue	-14.501297
aaaaaa	-15.597248
HARDWARE	-14.226057
reachable	-14.126265
ALGO	-13.931509
affected	-14.613420
Visibility	-13.784749
Scanner	-14.099483
ARCHIVE	-13.939403
NVMCTRL	-15.221182
Trait	-14.024544
Arrow	-13.959512
WRONG	-14.051019
▁oscillator	-14.108526
Manual	-14.524082
............	-14.724913
SCENE	-14.110244
sequential	-14.504343
▁regarding	-12.684520
STRONG	-14.220982
Escape	-13.498713
affine	-14.171996
Accel	-13.733765
Temperature	-13.751703
Conflict	-12.898814
approx	-13.721006
HANDSHAKE	-14.240325
▁whenever	-13.577623
Hidden	-13.579862
▁updating	-13.835220
thermal	-14.078674
PRECISION	-14.187653
ewGetProcAddress	-15.232238
BRANCH	-14.175913
Zoom	-13.783773
hierarchy	-15.010720
MERGE	-14.146274
▁beyond	-12.771602
memviewslice	-14.346824
'<'	-14.188942
additional	-13.915952
contig	-14.404878
infinity	-13.819981
tolerance	-13.714259
########	-14.641443
SUITE	-14.132335
ALLOCATOR	-14.065120
QUOTE	-14.028398
ZONA	-14.462981
ParseTuple	-14.449675
Trailing	-14.026949
frozen	-14.262274
ен	-15.003683
UNION	-13.787625
CONCAT	-14.414841
ALLOWED	-14.382663
GetAttrStr	-14.689823
RESUME	-14.182738
TRUST	-14.222181
▁Microchip	-13.799871
minimal	-13.457055
MspInit	-14.224211
LATENCY	-14.455061
termination	-14.202899
▁remember	-12.826473
Unpack	-14.244152
brightness	-14.523164
DEMO	-14.014040
Circle	-13.955746
INTRINSIC	-14.349145
gadget	-14.145951
Subject	-14.109362
RDONLY	-14.255871
luma	-14.397213
▁moment	-12.522931
LongLong	-14.207660
USEBURSTS	-15.996066
PublicKey	-14.183467
ethernet	-14.120482
recursion	-13.971990
ALLOCATION	-14.260931
unreachable	-13.890382
contract	-14.422135
REJECT	-14.117259
sanity	-13.725123
synchronization	-13.888288
bootstrap	-13.718335
▁earlier	-12.660007
endverbatim	-12.880525
DESTROY	-14.042137
sanitize	-14.261488
Submit	-13.852975
Infer	-14.193822
coverage	-14.367963
glCompressed	-14.634738
▁matter	-12.285018
strlcpy	-14.319351
requirement	-15.013914
integration	-14.609452
assemble	-13.964850
▁twice	-13.023384
Strict	-13.945601
termios	-14.132524
transmitted	-15.335591
RENDERER	-14.336086
runner	-13.449963
▁recognize	-13.601274
PALETTE	-14.238039
gdbarch	-14.714114
mlxsw	-14.708373
clnt	-14.300765
mongo	-13.623030
elimina	-14.543733
REVERSE	-14.075649
trampoline	-14.084212
COMPRESSION	-14.212907
prune	-14.211134
Design	-13.891410
CHARACTER	-14.066250
JERRY	-14.091396
ALREADY	-14.156757
LAPACKE	-14.600828
developer	-14.206445
LFCLKSEL	-15.552068
figure	-13.464445
negotiation	-13.977531
▁superclass	-13.657251
presence	-14.881000
CyFunction	-14.674262
Interpreter	-13.986409
wheel	-13.650147
▁PROGMEM	-14.281552
adjustment	-15.174924
Privilege	-14.126914
fusion	-13.307049
pinned	-14.059357
Jet	-14.187264
BSLS	-14.301819
Latency	-14.252921
BEFORE	-14.073016
PERIPHERAL	-14.395078
swizzle	-14.522625
ACTIVATE	-14.359869
Beacon	-13.981237
outstanding	-14.725259
GASNET	-14.393006
ygard	-14.990382
Misc	-13.512754
Choose	-13.692326
Quote	-13.166296
Exclusive	-13.529974
VkCommandBuffer	-14.389976
Mobile	-14.040526
software	-13.836424
unpacklo	-14.879412
ADVANCE	-14.056559
RDWR	-14.361065
PROPERTIES	-14.219215
▁identified	-12.906171
▁Bradley	-13.613621
ARROW	-13.931764
Frag	-14.057424
just	-13.124079
BYPASS	-14.507489
tySequence	-14.996673
Motor	-14.179276
DescriptorProto	-14.298122
rocksdb	-14.186229
©	-14.565831
▁his	-9.594772
▁he	-9.746896
▁A	-8.440384
▁\	-8.351634
▁He	-9.862009
’	-9.800865
–	-9.006954
▁her	-10.324713
▁S	-9.176586
).	-9.406684
▁who	-10.150109
▁–	-9.109677
▁C	-9.162474
▁she	-10.603485
▁B	-9.503951
▁people	-8.623714
▁References	-6.918727
▁E	-9.494206
▁P	-9.551006
▁M	-9.643321
▁New	-9.622653
▁F	-9.677750
▁American	-9.036496
."	-9.865945
▁D	-9.628883
▁him	-10.712308
▁“	-10.449423
▁G	-9.690312
_{	-11.719458
 	-11.064621
▁U	-10.051753
▁H	-10.009323
▁[	-10.090972
▁R	-9.847309
▁said	-10.353331
▁L	-9.728884
▁years	-10.580092
▁$\	-11.652844
▁K	-10.057999
▁United	-9.668441
▁me	-10.657887
▁N	-9.860984
▁She	-10.832753
▁three	-10.903142
▁As	-10.614574
▁O	-10.093284
▁W	-10.171762
▁J	-10.227814
▁year	-11.143127
▁States	-9.920687
▁players	-9.006948
▁links	-7.996833
ton	-10.335165
{\	-11.305865
▁p	-9.364836
▁known	-11.148003
▁External	-7.996326
▁name	-10.044456
▁film	-10.598566
▁state	-10.324570
▁season	-11.008335
▁team	-10.991022
▁National	-10.139182
▁life	-9.531970
▁V	-9.966307
▁c	-9.675911
▁Let	-11.278373
ist	-10.695316
▁To	-10.813614
▁World	-10.196641
▁St	-10.676073
▁After	-11.064130
te	-10.954710
▁case	-9.680275
—	-11.152161
▁They	-11.320602
▁family	-11.076032
▁became	-11.641765
▁May	-10.823457
▁series	-10.638153
▁—	-10.787720
▁War	-10.347227
▁At	-11.205663
▁John	-10.610884
▁County	-10.028646
et	-10.787931
▁South	-10.275072
▁York	-10.574922
}\	-11.432520
▁four	-11.442115
▁day	-11.486768
▁School	-10.214422
”	-11.142670
▁area	-11.213820
▁State	-10.764556
▁home	-11.356536
▁game	-11.326944
▁La	-10.740596
▁school	-11.433441
▁But	-11.119424
▁[@	-12.764137
▁March	-11.039719
▁What	-10.579757
▁August	-11.099404
▁la	-11.897064
▁British	-10.308409
▁government	-11.411356
▁Al	-10.843670
".	-10.971902
born	-10.611224
▁world	-11.357401
▁f	-9.939468
▁September	-11.149066
▁women	-10.410029
▁And	-11.006618
▁October	-11.159968
▁early	-11.621543
▁good	-11.126672
▁|-	-8.033435
▁June	-11.162242
▁January	-11.161177
ta	-10.842998
▁co	-11.760100
▁water	-11.596006
▁study	-11.914921
}$	-12.418306
▁July	-11.175856
▁Co	-10.937269
ism	-10.817063
▁City	-10.601231
▁small	-11.476146
▁April	-11.146967
▁court	-11.275106
▁played	-11.663428
▁His	-11.596718
▁English	-10.083642
▁city	-11.770418
,"	-10.470800
▁November	-11.200364
▁North	-10.629547
](#	-12.962826
▁album	-11.819817
▁December	-11.223675
▁took	-11.737573
▁League	-10.239965
▁go	-11.397072
▁best	-11.341122
century	-9.750960
▁man	-12.025841
▁held	-11.480261
▁en	-12.038145
▁former	-11.426251
fig	-12.655403
ley	-11.006257
▁births	-9.398373
▁company	-11.685294
▁con	-11.708556
é	-11.309751
▁men	-11.536067
▁age	-12.592047
▁began	-11.987661
▁career	-9.681647
▁children	-11.387929
▁February	-11.284641
▁member	-11.457758
▁post	-11.457673
▁One	-11.187537
▁music	-11.203461
▁football	-10.037331
▁include	-12.752159
▁population	-11.871051
▁b	-9.922427
▁dis	-11.664058
▁play	-11.919050
▁members	-10.969963
▁us	-11.642522
▁think	-11.392563
▁\[[@	-13.136175
▁g	-10.344627
}{	-11.664965
▁al	-12.203211
▁cells	-12.560450
▁pro	-12.004312
▁Q	-9.429693
▁Le	-11.116308
▁films	-9.726879
▁head	-11.750543
▁X	-10.433472
▁West	-10.903852
▁German	-10.720987
▁general	-11.381019
▁French	-10.644442
▁named	-11.274757
▁five	-11.891083
▁patients	-12.593003
▁established	-10.792536
▁di	-12.035642
▁history	-10.524689
▁third	-11.763016
▁help	-11.474362
▁book	-11.860464
▁type	-9.986677
▁death	-11.388172
▁Me	-10.942833
▁often	-11.921215
▁Court	-11.113566
_{\	-12.290519
▁et	-12.700007
▁People	-9.816508
▁light	-11.919838
▁II	-10.907025
ner	-11.102143
▁Mar	-11.137745
▁came	-11.825725
▁District	-10.646439
(\	-12.119892
▁species	-11.541733
▁war	-11.840425
▁History	-8.809910
▁House	-10.925123
▁e	-10.365654
▁Z	-10.738196
▁development	-11.572647
▁national	-11.569330
▁College	-10.583553
▁By	-11.411463
▁style	-10.654325
▁San	-11.010830
▁days	-11.834433
▁among	-12.000147
▁games	-10.601411
▁role	-12.020304
▁station	-11.824885
▁London	-11.125355
.”	-11.305547
▁US	-11.717133
▁period	-11.727416
▁International	-10.340222
▁major	-11.894795
▁built	-11.737635
▁great	-11.752914
▁Category	-9.859157
▁d	-10.435485
▁served	-12.045455
▁l	-10.255384
▁went	-11.933909
▁List	-10.260163
men	-11.227986
▁country	-11.765549
▁band	-12.187482
▁Man	-11.104174
▁hand	-11.965239
▁less	-12.039829
▁song	-11.998802
▁million	-12.196620
▁My	-10.945860
▁free	-10.738026
▁site	-11.350490
▁El	-11.202171
▁little	-11.588887
▁Con	-11.080377
▁district	-11.364272
▁common	-11.607952
. 	-12.095521
▁near	-11.950283
▁car	-12.127860
▁Na	-11.429603
▁cell	-12.079744
▁Pro	-11.057566
^{	-12.539864
▁River	-11.002975
▁player	-11.299053
▁town	-12.155888
chi	-11.625721
▁low	-11.871965
▁human	-12.039201
▁television	-10.485677
▁put	-11.828498
▁body	-11.838768
▁During	-12.224849
▁son	-12.818635
▁house	-12.211702
▁research	-11.874271
▁century	-12.737551
▁h	-11.239345
}}	-12.319903
▁similar	-12.017447
▁With	-11.595867
▁father	-12.109226
)$	-12.827201
▁born	-12.530673
▁fact	-12.072384
▁club	-12.142318
▁production	-11.845155
ut	-11.316061
▁died	-11.908891
▁started	-11.815890
▁Park	-11.137865
▁late	-12.373291
▁business	-11.798163
\]	-12.259751
▁Cup	-10.824168
▁say	-11.731981
▁though	-11.880262
▁title	-11.816618
▁Be	-11.289936
▁times	-11.604527
ham	-11.334411
▁half	-11.550529
▁evidence	-11.927331
▁community	-11.878458
▁project	-11.682773
▁se	-12.314615
▁six	-12.133347
▁groups	-11.212546
▁village	-11.886600
▁California	-10.826178
▁working	-11.798166
▁Y	-11.215107
▁political	-11.757454
▁Dr	-11.634966
▁treatment	-12.375102
▁video	-10.992440
?"	-10.734929
▁term	-11.926368
▁First	-10.880878
▁East	-11.307816
▁region	-11.788398
▁n	-9.778165
▁social	-12.061651
▁male	-10.172377
▁England	-11.092920
▁America	-11.288373
▁\[	-12.283358
▁Her	-11.654272
mathcal	-12.810843
▁From	-12.036908
▁analysis	-11.736674
▁effect	-12.028615
▁give	-11.772972
▁anti	-12.352865
▁Association	-10.564726
▁air	-12.350163
▁led	-12.809138
▁Or	-11.444466
á	-11.678928
▁design	-11.822437
▁action	-11.514718
▁Living	-9.062187
▁William	-11.438531
▁far	-11.957022
▁am	-11.720925
▁High	-11.009106
▁align	-11.160307
▁round	-11.174199
▁President	-11.611446
▁produced	-11.629463
ya	-11.210215
▁health	-12.093190
▁James	-11.372980
▁shown	-12.309062
▁India	-11.180036
▁person	-11.752816
▁France	-11.165306
▁seen	-12.082179
"}	-12.741174
▁Australia	-10.947040
▁European	-11.424519
▁black	-11.810721
]\].	-13.319898
▁studies	-12.326151
▁Ha	-11.489812
▁significant	-12.381911
▁George	-11.406058
▁lead	-12.059431
▁Go	-11.368240
▁Mo	-11.545296
▁release	-11.646454
▁Party	-11.147435
▁Bo	-11.512137
▁problem	-11.749457
▁thought	-12.024646
ina	-11.200527
▁$$\	-11.773313
▁months	-12.266455
▁w	-10.931000
▁lower	-11.928422
▁party	-12.096424
▁story	-11.952125
▁{#	-10.485616
▁services	-11.538691
▁While	-12.374340
▁David	-11.334169
▁King	-11.670502
$.	-12.270733
▁live	-11.946939
▁love	-11.983830
▁Li	-11.439272
▁professional	-11.863224
▁Some	-11.737942
▁Sa	-11.382808
▁x	-9.413852
▁Robert	-11.454753
▁art	-11.914928
▁able	-13.042100
$,	-12.729749
▁Indian	-10.977074
▁himself	-12.171031
▁students	-12.318987
}(	-13.632630
▁announced	-12.360252
▁Ca	-11.551047
▁course	-12.087752
▁international	-11.221318
▁Council	-11.500695
▁north	-12.516272
▁Australian	-10.885448
▁worked	-12.361056
▁close	-11.719763
▁rate	-12.182876
▁Act	-11.651619
▁land	-13.042988
▁Canada	-11.108940
▁Air	-11.340432
▁Street	-11.704384
▁Army	-11.376693
▁China	-11.358782
▁mother	-12.241108
▁Art	-11.131854
▁lost	-12.071654
za	-11.590201
▁performance	-11.495571
▁wrote	-12.257982
):	-10.660450
ure	-11.532899
▁shows	-11.579774
▁media	-11.518883
▁election	-11.779154
▁Award	-11.216591
▁military	-11.816257
▁deaths	-10.103109
sen	-11.850218
▁Ra	-11.617902
▁Paul	-11.473154
▁night	-12.221569
▁Royal	-11.285546
▁young	-12.220254
▁average	-12.459609
▁week	-12.308030
▁website	-10.544564
▁Church	-11.545421
▁win	-12.116845
▁r	-10.160911
▁white	-12.330265
▁Canadian	-10.838013
,”	-11.939988
▁others	-11.921454
▁energy	-12.409523
▁Car	-11.391087
í	-11.853063
▁issue	-11.952561
▁que	-12.949425
ja	-11.374957
%)	-12.801080
▁south	-12.565441
▁trial	-12.009847
▁Pre	-10.936734
▁Ka	-11.528514
▁front	-12.318920
▁lot	-12.205240
▁told	-12.161755
▁Division	-11.287950
▁Other	-10.396021
▁question	-11.968830
▁developed	-12.195990
ster	-11.730663
▁Group	-10.982445
▁Union	-11.490378
ey	-11.273116
▁face	-12.065789
▁Ko	-11.639888
▁Ma	-11.411839
▁stage	-11.551597
▁office	-12.038332
▁fire	-12.272987
▁risk	-12.443157
▁increased	-12.738038
▁According	-12.355295
les	-11.123886
▁Lo	-11.465465
▁mean	-12.064912
▁Bar	-11.725466
▁areas	-11.954617
▁ever	-12.232474
▁hard	-12.114185
ä	-12.414125
▁Club	-10.460844
▁let	-12.043926
▁Department	-11.470705
▁Red	-11.051225
▁surface	-12.392778
▁God	-11.928701
▁Germany	-11.260115
▁money	-12.172232
▁race	-12.169223
▁interest	-12.054213
)\	-11.404575
▁Black	-11.113517
▁Since	-12.081810
▁Washington	-11.451433
▁du	-12.349924
▁married	-12.298130
▁education	-11.321121
▁almost	-12.338949
▁contract	-12.325072
▁Ar	-11.538275
▁Center	-11.581178
▁bgcolor	-10.608664
▁levels	-12.519312
▁director	-12.012204
▁continued	-12.538403
▁food	-12.344958
▁view	-11.801622
▁police	-12.246101
▁ground	-12.412362
yl	-11.934064
▁opened	-11.898222
▁involved	-12.461697
nu	-11.968450
▁Mr	-11.845800
▁Ta	-11.764511
tro	-11.714310
▁Japan	-11.184270
▁inter	-12.304240
▁Vi	-11.733443
▁features	-11.892324
ists	-10.777087
▁ex	-11.988707
▁Music	-10.608411
▁gave	-12.431449
▁joined	-12.539511
▁saw	-12.370870
▁rest	-12.301130
▁future	-11.900851
▁wife	-12.396285
pone	-13.369134
▁Europe	-11.507546
▁although	-12.630212
▁Ja	-11.723954
▁activity	-12.446294
▁Japanese	-11.173286
▁potential	-12.467754
▁church	-12.290767
▁Although	-12.670469
▁individual	-12.229982
▁systems	-11.933265
▁Russian	-11.313219
tu	-11.884427
▁room	-12.290211
▁ten	-12.768775
ology	-11.235365
▁Ne	-11.855811
▁compared	-12.785122
▁African	-11.287760
▁radio	-11.905870
Ð	-14.790601
▁author	-11.561877
▁living	-13.096326
▁Am	-11.615186
▁market	-12.459945
▁asked	-11.922890
▁Se	-11.630361
ven	-11.993578
▁Hall	-11.676265
▁y	-10.768165
▁report	-11.918955
ek	-11.639477
▁Championship	-11.196856
▁formed	-12.834265
▁Italian	-11.051348
▁How	-11.356995
▁Da	-11.801783
▁president	-12.426365
▁White	-11.248366
▁Di	-11.726470
▁Company	-11.653640
▁Lu	-11.791124
▁related	-12.062798
▁material	-12.305303
▁companies	-11.258473
▁Gu	-11.564302
▁Green	-11.149745
▁property	-12.136755
▁plan	-12.293925
mathbb	-13.082890
▁Un	-11.387199
ran	-11.602460
▁Roman	-11.469639
▁decision	-12.324726
▁o	-11.156180
▁states	-12.161559
▁says	-12.034501
▁Year	-10.822149
▁Road	-11.528530
usepackage	-10.377865
▁campaign	-12.337937
▁review	-12.134868
▁behind	-12.403369
▁popular	-12.055232
]{}	-12.580051
▁training	-12.355542
han	-11.927366
▁recorded	-12.439604
▁Thomas	-11.714444
hu	-11.914796
▁road	-12.379855
▁bar	-12.378143
▁experience	-12.373422
▁Michael	-11.607054
▁cost	-12.359099
ji	-11.839695
du	-11.417010
▁Press	-11.732951
▁track	-11.960612
▁official	-11.713370
▁Institute	-11.690625
▁appeared	-12.599726
ik	-11.743830
▁Ben	-11.762127
▁league	-11.758051
▁completed	-11.571372
▁multi	-11.912917
▁Women	-10.811306
▁{\	-12.003915
ford	-11.642941
▁positive	-12.322845
▁Day	-11.704246
▁kind	-11.998265
qui	-11.761960
▁designed	-12.549041
▁disease	-12.597963
▁modern	-12.526684
▁turn	-12.284369
▁approach	-12.495115
▁board	-12.270654
}_{	-13.002801
▁taking	-12.433162
▁debut	-12.021926
}$$	-11.994052
▁Pa	-11.643118
▁Best	-11.339961
▁Western	-11.602050
▁unit	-11.801795
▁Chinese	-11.592158
ville	-11.647487
▁blood	-12.739707
▁thing	-12.213315
▁likely	-12.525774
▁Du	-11.914066
▁pay	-12.444704
▁UK	-11.989878
▁TV	-11.520606
▁cut	-12.636741
▁minutes	-12.168382
▁Star	-11.863585
▁teams	-11.683318
▁force	-12.161738
▁directed	-11.732603
sch	-11.937684
▁signed	-12.013389
▁Per	-11.818014
▁Charles	-11.838168
▁move	-12.060254
We	-11.622858
▁playing	-12.640031
▁Society	-11.641530
▁date	-11.927899
▁Central	-11.615187
▁paper	-12.565678
▁Then	-11.958738
▁Island	-11.649492
▁seven	-12.533687
▁leading	-12.465353
▁usually	-12.494839
▁Can	-11.489832
▁account	-12.055265
fer	-12.098916
▁Pe	-11.816246
▁especially	-12.644694
▁‘	-12.422562
▁primary	-12.019731
▁Peter	-11.748336
°	-12.971972
▁Two	-11.900738
▁construction	-12.371243
▁Mi	-11.717050
▁Lake	-11.546406
▁female	-11.692510
▁culture	-11.575444
▁heart	-12.354527
▁showed	-13.065763
▁Texas	-11.349229
ny	-11.600259
▁observed	-13.007343
▁hours	-12.469722
▁songs	-11.147076
▁rock	-11.927023
▁mid	-12.636788
▁complex	-12.459047
▁Ga	-11.883811
▁central	-12.650243
xi	-12.103891
▁degree	-12.657560
▁countries	-12.450215
▁issues	-12.042442
▁Law	-11.537477
▁woman	-12.566772
 	-14.081011
▁cancer	-12.477644
Fig	-13.717347
▁Minister	-11.996906
▁Men	-11.075677
▁add	-10.898727
▁super	-12.101180
▁daughter	-12.599196
▁natural	-12.506023
▁attack	-12.622545
▁practice	-12.447651
▁loss	-12.608646
▁Bay	-11.783901
lar	-12.138946
▁Chi	-11.873968
gar	-11.967608
▁weight	-12.463664
▁simple	-11.908456
▁import	-11.150873
▁word	-11.916538
je	-11.870701
▁mass	-12.654944
▁sp	-11.845959
▁Africa	-11.486853
▁protein	-13.244637
▁Kingdom	-11.300037
▁En	-11.627026
▁Su	-11.734451
▁Games	-11.003916
▁coach	-12.388513
=#	-10.904308
▁direct	-12.454434
ius	-11.860529
▁novel	-12.518091
▁sea	-12.560866
▁Great	-11.759291
▁idea	-12.385624
▁Po	-11.795462
▁Sch	-12.030023
▁Museum	-11.494999
cha	-11.747135
▁personal	-12.442395
▁respectively	-12.914896
▁bi	-12.651893
▁soon	-12.412098
▁red	-12.538491
▁center	-12.995488
▁throughout	-12.722341
wood	-11.670400
▁condition	-12.168846
▁object	-10.525184
well	-11.690275
}^{	-13.075530
▁today	-12.323218
▁mind	-12.279006
▁independent	-12.331200
▁Super	-11.459102
▁brought	-12.627141
▁sold	-12.819201
▁eight	-12.791549
▁stated	-12.662835
▁lines	-12.088179
▁Most	-12.006980
…	-11.354051
▁voice	-12.171491
▁Saint	-11.720725
ita	-11.754295
▁goal	-12.600333
▁Football	-10.939170
,\	-12.339722
▁elected	-12.704648
▁appointed	-12.684631
▁killed	-12.516809
▁string	-10.793334
▁economic	-12.610240
▁medical	-12.460774
▁Film	-10.888348
▁Summer	-11.377485
▁Ex	-11.789934
▁Har	-11.903237
^{\	-12.941670
▁Catholic	-11.555698
▁Te	-11.986805
▁Los	-11.655357
▁big	-12.115581
ix	-11.547628
▁hit	-12.556185
▁founded	-12.685691
ou	-12.124750
tan	-11.898047
▁factors	-12.245389
nes	-11.684897
▁words	-12.199669
▁books	-11.570942
ella	-11.745853
▁star	-12.860247
▁shot	-12.124735
It	-11.486258
▁policy	-12.065958
▁Life	-10.591315
▁Suppose	-12.612805
▁birth	-11.138828
war	-11.805552
berg	-11.876820
▁Early	-10.022236
▁Records	-10.879892
▁contact	-12.417267
▁presented	-12.669367
▁wanted	-12.589923
▁decided	-12.787831
ari	-11.809605
▁Fe	-12.049620
▁des	-12.767697
▁factor	-12.156655
▁Ni	-11.925117
▁staff	-11.873119
▁generally	-12.612948
▁growth	-12.826282
å	-12.882377
▁phase	-12.453299
▁break	-9.706462
▁east	-12.989103
house	-11.888476
▁Richard	-11.874017
▁Academy	-11.661504
▁Republic	-11.601653
▁plant	-12.722160
▁Grand	-11.733015
▁Spanish	-11.426039
▁relationship	-12.774054
▁direction	-12.053982
▁Pan	-11.800791
▁CD	-11.382227
▁Mac	-11.869602
▁Ju	-11.890465
▁recent	-12.582708
▁places	-11.209395
▁reached	-12.492955
▁${\	-13.546889
▁gas	-12.955863
▁sound	-12.452297
▁schools	-11.507402
▁footballers	-9.957793
▁cross	-12.484489
▁Here	-11.813626
▁believe	-12.469781
▁...	-11.282992
▁Smith	-11.961425
▁pressure	-12.844353
▁feel	-12.501621
('	-10.983938
▁forward	-11.559323
pur	-12.175649
mathbf	-13.505779
don	-11.649871
▁Awards	-10.234076
▁introduced	-12.357499
ó	-12.237600
▁Jo	-12.095100
▁Christian	-11.816489
}_	-15.090054
})	-12.244881
▁brother	-12.736784
▁ca	-12.603977
▁le	-12.498822
▁limited	-12.529240
ö	-12.268886
hat	-12.602562
era	-11.478791
▁problems	-12.312133
_\	-13.463762
ü	-12.033180
uk	-11.937892
che	-12.157807
▁Research	-11.483717
▁industry	-12.392930
kin	-12.063974
▁albums	-10.446858
▁Zealand	-11.427642
▁collection	-12.162494
▁west	-13.008046
▁placed	-12.609460
▁finished	-12.375584
▁alumni	-10.277784
▁Government	-11.420620
▁remained	-12.986441
▁movement	-12.459624
▁forces	-12.718997
▁Paris	-12.016797
▁motion	-12.388522
▁z	-11.216536
▁Now	-11.803213
▁capital	-12.608854
▁largest	-12.600158
▁km	-12.195948
▁Mark	-11.709450
ries	-11.812647
▁Mary	-12.027179
▁quality	-12.624926
▁battle	-12.572338
▁particularly	-12.809430
▁job	-12.241429
▁Second	-11.501200
▁influence	-12.639273
▁units	-11.995086
▁Henry	-12.069308
▁trade	-12.413532
▁Cor	-11.992895
▁theory	-12.238280
▁turned	-12.514685
▁Col	-11.995615
▁Order	-11.589323
▁episode	-12.800015
bib	-13.307526
▁weeks	-12.840166
▁wide	-12.693662
▁computer	-12.335901
▁lack	-12.865837
▁Bi	-11.793426
▁([@	-14.048568
ini	-11.516078
▁impact	-12.535442
▁Ab	-11.982356
▁Olympics	-11.479863
▁month	-12.672479
▁Ba	-11.919453
▁legal	-12.470563
▁themselves	-12.606431
▁claim	-12.613237
▁speed	-12.100847
▁Sam	-11.992892
▁regular	-12.323057
▁closed	-12.513934
▁sense	-12.535319
▁flow	-12.513482
▁Brown	-11.909616
▁solution	-12.485408
He	-12.146920
▁towards	-12.739788
▁science	-12.040721
▁management	-11.955080
▁highest	-12.511616
▁Our	-12.244674
]).	-13.410378
▁percent	-13.004662
▁Not	-11.693563
ised	-12.389385
▁su	-12.978176
▁tournament	-12.131583
▁caused	-12.794330
▁ma	-13.100448
▁Of	-12.703161
▁presence	-12.899946
▁Sun	-11.899673
ase	-12.448474
▁organization	-12.624818
▁Mor	-12.053010
ors	-11.365549
▁buildings	-11.619305
▁ship	-13.250095
▁models	-12.321300
▁border	-12.265653
▁leave	-12.330914
▁parts	-12.343256
tau	-12.785696
▁Post	-11.288743
▁Ver	-11.866937
▁comes	-12.402740
▁oil	-12.806034
▁Sal	-12.050120
▁app	-11.830752
ette	-12.115878
▁nature	-12.675860
▁article	-12.305174
▁micro	-12.502931
▁Martin	-11.934060
▁ha	-13.021846
▁Sea	-11.939535
▁Tom	-11.976507
▁online	-12.412595
▁eventually	-12.916067
▁Fa	-11.773063
"}).	-13.892423
▁Committee	-12.232218
▁college	-12.576388
▁physical	-12.371019
▁Education	-10.551544
▁environment	-12.152753
▁Science	-11.708365
▁Service	-11.613960
▁([	-14.432906
▁federal	-12.604803
ren	-12.055247
▁missing	-11.035740
uch	-12.426037
▁feature	-12.079241
▁difference	-12.538478
ney	-12.093950
▁Congress	-12.225035
▁significantly	-13.376140
▁Sir	-12.248947
▁distance	-12.315551
tin	-12.390875
illa	-12.049632
▁Thus	-12.784472
▁Chicago	-11.807764
ose	-12.147193
▁tell	-12.327903
ura	-11.852717
▁agreement	-12.381298
▁Pat	-12.421172
▁Ad	-11.622703
▁Virginia	-11.566494
▁Bank	-11.996343
uff	-12.367596
▁follow	-12.471916
▁competition	-12.584074
▁Tu	-11.968544
▁sometimes	-12.687036
American	-11.182707
▁listed	-12.077625
ane	-11.685497
▁gene	-13.455618
▁score	-12.508669
▁proposed	-12.915846
gu	-11.866284
▁tax	-12.670966
▁Hill	-12.074822
▁basis	-12.617198
▁Board	-12.078559
▁activities	-12.272565
▁Dan	-12.109962
▁act	-12.933108
▁temperature	-12.882194
▁cover	-12.685059
▁More	-11.893499
\])	-13.609496
▁financial	-12.727444
▁da	-12.776308
ris	-11.808149
▁fourth	-12.838920
▁originally	-12.754039
▁Ireland	-11.731679
}^	-13.209449
▁mis	-12.587577
▁eyes	-12.455402
▁stations	-11.280886
▁appeal	-12.433940
▁Sub	-11.410010
vin	-12.008778
cho	-12.244952
ola	-11.609925
▁felt	-12.868914
▁Ke	-12.097353
▁Si	-11.958747
▁technology	-12.322218
▁someone	-12.524254
▁understand	-12.443122
▁del	-12.403776
ara	-11.755497
▁Florida	-11.665594
}{\	-12.914896
▁scale	-12.179827
▁Team	-11.144272
▁Love	-11.619258
ging	-12.174461
▁Tri	-11.805850
▁artist	-12.247576
▁Lord	-12.286622
▁Soviet	-11.865432
▁Cal	-12.213641
▁Russia	-11.811812
▁summer	-12.894400
▁Mexico	-11.711153
▁quite	-12.598308
▁leader	-12.654815
▁difficult	-12.930662
▁Health	-11.916540
▁artists	-11.257512
▁Rock	-11.847411
▁continue	-11.409004
▁edition	-12.431875
▁Mon	-12.049659
▁Force	-11.900754
▁approximately	-13.027797
▁Under	-12.193598
▁determined	-12.697986
▁opening	-12.723417
▁der	-13.335791
▁im	-12.517726
▁spent	-12.871095
▁families	-12.578835
▁writer	-12.196592
▁Italy	-11.622908
▁gold	-12.326375
▁Edward	-12.098239
istic	-12.108396
mathrm	-13.470007
▁knowledge	-12.947922
▁remains	-12.708519
▁majority	-13.004543
▁security	-12.231627
Figure	-13.545686
▁formation	-12.639687
▁politician	-12.011128
▁hold	-12.193107
king	-11.980759
▁Home	-11.600567
km	-11.541653
▁Ge	-12.054658
▁overall	-12.872764
▁hospital	-13.023622
▁park	-12.682334
tal	-11.907373
^{-	-13.062430
▁saying	-12.802725
▁para	-12.742292
▁sample	-12.199110
▁aircraft	-12.366556
▁Railway	-11.508502
▁rule	-12.248954
▁greater	-12.445601
▁Town	-11.607323
▁studied	-13.202270
▁meeting	-12.851090
nt	-11.418817
▁friends	-12.702183
▁trans	-12.703108
▁officer	-12.680241
▁patient	-13.375519
▁Many	-12.764761
▁tried	-12.507378
▁Lee	-12.072777
▁reduced	-13.008614
ight	-12.135266
▁properties	-11.927249
▁seat	-12.945080
▁awarded	-12.754438
▁individuals	-13.054828
▁noted	-12.846418
lor	-12.384212
ani	-11.924820
ā	-13.109464
ju	-12.084382
▁appears	-12.670719
▁Van	-12.206657
▁separate	-12.511508
▁blue	-12.460296
▁department	-12.257246
▁Par	-12.067886
▁background	-12.146129
▁die	-13.103652
▁coming	-12.859091
▁middle	-12.530868
▁Olympic	-11.141378
zi	-12.156126
▁effective	-12.927821
▁guitar	-11.611734
▁Bill	-12.120500
ula	-11.945841
yn	-12.234990
▁charge	-12.323435
ica	-11.954129
▁parents	-12.847865
▁metal	-12.784239
▁centre	-12.662996
▁el	-13.107688
▁union	-10.967302
▁com	-12.777836
▁ability	-13.679150
▁clinical	-13.318653
▁studio	-12.896887
▁door	-12.734032
▁fight	-12.989432
ations	-11.332520
▁par	-12.392130
▁sister	-12.788660
▁Land	-11.967690
▁scored	-12.569244
▁route	-12.709998
▁Hu	-12.158658
▁Notes	-9.457669
▁sign	-12.237516
▁acid	-13.281575
▁Ch	-11.810683
▁figure	-12.883684
▁travel	-12.695988
▁drive	-12.642560
▁highly	-13.090501
▁featured	-12.862392
▁divided	-12.250197
▁Mc	-12.019805
mann	-12.140355
▁attention	-13.077197
▁carried	-13.086167
▁u	-10.453292
▁dark	-12.838353
▁parties	-12.007826
idae	-11.321636
▁traditional	-12.978181
▁Mu	-12.254053
▁Old	-12.070199
▁choice	-12.658212
\_	-14.259304
▁FC	-11.290954
▁Greek	-11.930067
-\	-12.631475
▁map	-11.651992
▁Pi	-12.202763
▁news	-12.343910
cing	-12.039673
▁student	-12.957313
▁share	-12.636096
▁commercial	-12.575304
▁river	-12.909490
▁firm	-12.977920
▁Ru	-12.092025
▁fine	-12.565266
cer	-12.362652
▁Bre	-12.268209
▁negative	-12.266891
▁wall	-13.127544
▁Part	-11.878166
▁tour	-12.986432
▁entered	-12.726466
▁floor	-12.879404
rie	-12.039581
ski	-12.231786
dic	-12.275394
▁Angeles	-11.997192
▁Irish	-11.754046
▁focus	-12.837253
▁purpose	-12.283217
▁relative	-12.392002
▁Further	-10.391850
tt	-11.376365
▁van	-12.825384
▁semi	-12.713357
▁establishments	-10.975973
▁singer	-12.171486
lip	-12.496393
▁unique	-12.488383
▁claims	-12.644694
▁Joseph	-12.216056
▁III	-12.111487
▁Carolina	-11.721781
š	-12.427162
times	-12.341491
▁alone	-12.809137
Ñ	-14.663579
ric	-12.185479
▁division	-12.610712
▁Dis	-11.772880
▁husband	-12.987903
▁older	-12.880948
▁Wood	-12.123847
▁Vol	-11.922255
▁pair	-12.592182
▁knew	-12.799492
▁poor	-12.992091
▁Navy	-11.932802
▁Ri	-12.135472
▁cast	-12.710684
▁looked	-12.558029
ano	-12.087458
▁Frank	-12.186734
▁Festival	-12.081236
ku	-12.233165
▁Ti	-12.210322
▁drug	-13.094782
zo	-12.214880
▁Long	-12.159345
gy	-12.347446
▁basketball	-11.595042
ese	-12.049618
omega	-13.182042
▁Historic	-11.516450
▁Gar	-12.265620
▁Commission	-12.402679
ich	-12.281892
],[@	-14.514212
▁density	-13.312174
▁ran	-13.416478
▁recently	-12.957956
cle	-12.894578
zy	-12.588326
▁raised	-12.758522
▁drama	-11.441431
▁Line	-12.025457
▁reduce	-12.772538
▁nearly	-13.046199
▁str	-11.319601
▁letter	-12.706093
▁visit	-12.518615
▁manager	-12.458928
▁$(	-12.578104
▁Director	-12.101343
dia	-12.078795
▁Career	-9.592989
▁Province	-11.690587
▁var	-11.508310
▁vi	-12.740247
▁Battle	-11.997452
▁Northern	-11.921976
▁Mount	-12.445246
▁variety	-13.053406
!"	-11.864222
▁camp	-12.977741
▁Wi	-12.241413
▁finally	-12.622697
▁chief	-12.706252
yard	-12.807756
▁vote	-13.020098
▁imp	-13.162185
▁runs	-12.642068
▁railway	-12.271954
psi	-12.869129
▁Championships	-11.488492
▁situation	-12.778678
▁Major	-11.505070
]\]	-14.117570
▁Big	-12.129921
▁Arts	-11.889120
▁offer	-12.863212
law	-12.584183
cher	-12.370281
▁Trump	-12.685080
▁poly	-12.964941
▁chance	-12.739156
ions	-11.825499
▁dead	-12.536688
▁writers	-10.926304
▁master	-12.221087
▁sports	-12.000369
▁link	-11.768225
▁screen	-12.173219
▁Port	-11.801806
▁Another	-12.745210
cul	-12.368034
▁Both	-12.895231
▁nine	-13.244389
▁Democratic	-11.882185
▁meet	-12.852807
ala	-12.006920
▁Bra	-12.105021
▁heat	-13.174198
▁quickly	-12.932879
▁Cross	-11.845612
▁defendant	-12.760190
▁ended	-13.260051
▁Chief	-12.247924
ned	-12.102543
ons	-11.863686
▁Time	-11.846817
▁Because	-12.806514
▁bring	-12.854495
▁foreign	-12.733376
▁Queen	-12.298847
▁hands	-12.709653
▁revealed	-13.408290
▁plays	-12.218700
ding	-11.844712
▁appearance	-12.868324
gel	-12.923045
▁Following	-13.098965
▁couple	-12.921077
▁award	-12.795913
▁behavior	-12.317493
▁§	-12.775003
▁goals	-12.236421
▁Che	-12.078170
ological	-12.358555
▁Wales	-11.889545
=\	-12.912589
^\	-13.287983
▁Series	-11.721377
▁Films	-10.694398
▁Civil	-11.824368
▁Young	-12.077593
▁lived	-13.121521
▁require	-12.246800
ock	-12.901474
▁deep	-12.828590
▁equal	-12.173089
▁brain	-13.147130
ene	-12.195934
▁Louis	-12.307832
▁stay	-12.763568
▁Sha	-12.253602
▁App	-12.117568
▁administration	-12.636321
▁answer	-12.420604
▁note	-12.791622
▁winning	-13.270949
▁heard	-12.731805
▁sites	-12.314798
▁stand	-12.707426
▁remaining	-12.485399
tes	-11.814097
▁attempt	-12.620339
▁programs	-12.389558
▁Times	-12.526648
α	-13.430297
▁income	-13.300651
▁sex	-13.189298
▁extra	-12.047257
▁Er	-12.442529
van	-12.184550
▁senior	-13.052705
nie	-12.439689
▁Com	-12.117046
▁Radio	-11.705701
ken	-12.344950
▁island	-13.118520
▁=>	-12.763800
▁civil	-12.544517
▁Over	-12.232734
▁Final	-10.773034
▁press	-13.067730
▁heavy	-12.930997
ste	-12.085138
▁questions	-12.585099
}}$	-13.960218
cro	-13.241438
▁attended	-13.161010
▁na	-13.352534
▁morning	-12.754037
▁Ku	-12.316736
▁Even	-12.756872
▁easy	-12.738972
wing	-12.259193
gan	-12.413571
▁Asian	-11.792262
▁ratio	-13.049177
▁phone	-12.964011
▁Gold	-12.117981
▁damage	-13.076752
▁critical	-12.811848
▁conducted	-13.226980
▁engine	-12.639180
▁Empire	-11.988228
La	-11.923900
▁moving	-12.904704
▁rules	-12.279027
▁Top	-11.691610
▁pe	-13.141950
▁Jan	-12.279822
▁Spain	-11.842782
▁actor	-12.186416
▁serve	-13.161670
▁learn	-13.003865
▁army	-13.206819
▁price	-12.928529
▁Jack	-12.229947
ates	-12.140427
med	-12.186444
)(	-10.116402
▁Field	-11.834741
▁shape	-12.433893
}}\	-13.284879
▁ball	-13.652000
▁Southern	-12.154805
▁wrong	-12.198096
▁becoming	-13.220737
▁bill	-13.027214
▁judge	-12.832910
▁Jewish	-12.010570
▁stress	-13.255932
▁sort	-12.362541
▁officers	-12.038138
▁green	-12.785275
▁lives	-12.827133
▁\\	-11.555007
▁volume	-12.615915
▁DNA	-13.350878
▁photo	-12.980822
+\	-12.979454
▁Pennsylvania	-11.686076
▁southern	-13.119741
▁Office	-12.186060
▁q	-11.333804
▁sources	-12.031458
▁Cha	-12.439485
▁Therefore	-12.957396
▁$$	-12.020483
▁Je	-12.575930
▁bank	-12.742619
▁murder	-12.480944
▁referred	-13.198604
ace	-12.298873
▁northern	-13.127200
Al	-11.968811
▁offered	-13.028525
▁conflict	-12.420478
▁profile	-11.558239
▁despite	-13.289423
▁Data	-11.799046
▁Ya	-12.551375
▁latter	-13.137765
Le	-11.956361
▁gives	-12.596519
▁ago	-12.932831
▁leaving	-13.011605
▁forced	-13.051394
▁giving	-12.946005
▁upper	-12.444954
▁web	-12.015601
▁Dutch	-11.776259
▁numerous	-13.201072
leq	-13.218015
▁Israel	-12.211805
▁musical	-12.120055
▁mostly	-13.072391
▁vocals	-11.608855
▁Your	-11.955672
▁brand	-12.534469
▁bio	-12.333372
▁Assembly	-12.084538
▁fast	-12.552865
▁Parliament	-12.144358
elle	-12.562972
▁society	-12.957340
▁launched	-12.995200
▁Dar	-12.396154
▁images	-12.464599
▁religious	-12.864820
▁transport	-12.272400
▁Later	-11.786793
infty	-13.290372
▁square	-12.861536
tern	-12.668939
▁Official	-10.670313
▁toward	-13.046882
▁magazine	-12.876626
▁Johnson	-12.381515
▁Tour	-11.755143
▁Supreme	-12.346958
▁Good	-12.033818
▁Game	-11.533911
▁bridge	-12.724019
▁pop	-12.158696
▁Their	-13.078671
ore	-12.001079
▁gun	-13.308064
▁investigation	-12.954601
▁Blue	-11.491928
▁join	-12.674697
▁wind	-13.261148
▁records	-12.008314
[...]
