<unk>	-80.0
<s>	-80.0
</s>	-80.0
<mask>	-80.0
<pad>	-80.0
<CLS>	-80.0
<SEP>	-80.0
<EOD>	-80.0
▁▁▁▁▁▁▁▁▁▁▁▁▁▁▁▁▁▁▁▁▁▁▁▁	-80.0
▁▁▁▁▁▁▁▁▁▁▁▁▁▁▁▁▁▁▁▁▁▁▁	-80.0
▁▁▁▁▁▁▁▁▁▁▁▁▁▁▁▁▁▁▁▁▁▁	-80.0
▁▁▁▁▁▁▁▁▁▁▁▁▁▁▁▁▁▁▁▁▁	-80.0
▁▁▁▁▁▁▁▁▁▁▁▁▁▁▁▁▁▁▁▁	-80.0
▁▁▁▁▁▁▁▁▁▁▁▁▁▁▁▁▁▁▁	-80.0
▁▁▁▁▁▁▁▁▁▁▁▁▁▁▁▁▁▁	-80.0
▁▁▁▁▁▁▁▁▁▁▁▁▁▁▁▁▁	-80.0
▁▁▁▁▁▁▁▁▁▁▁▁▁▁▁▁	-80.0
▁▁▁▁▁▁▁▁▁▁▁▁▁▁▁	-80.0
▁▁▁▁▁▁▁▁▁▁▁▁▁▁	-80.0
▁▁▁▁▁▁▁▁▁▁▁▁▁	-80.0
▁▁▁▁▁▁▁▁▁▁▁▁	-80.0
▁▁▁▁▁▁▁▁▁▁▁	-80.0
▁▁▁▁▁▁▁▁▁▁	-80.0
▁▁▁▁▁▁▁▁▁	-80.0
▁▁▁▁▁▁▁▁	-80.0
▁▁▁▁▁▁▁	-80.0
▁▁▁▁▁▁	-80.0
▁▁▁▁▁	-80.0
▁▁▁▁	-80.0
▁▁▁	-80.0
▁▁	-80.0
▁	-80.0

	-80.0
<0x00>	-80.0
<0x01>	-80.0
<0x02>	-80.0
<0x03>	-80.0
<0x04>	-80.0
<0x05>	-80.0
<0x06>	-80.0
<0x07>	-80.0
<0x08>	-80.0
<0x09>	-80.0
<0x0A>	-80.0
<0x0B>	-80.0
<0x0C>	-80.0
<0x0D>	-80.0
<0x0E>	-80.0
<0x0F>	-80.0
<0x10>	-80.0
<0x11>	-80.0
<0x12>	-80.0
<0x13>	-80.0
<0x14>	-80.0
<0x15>	-80.0
<0x16>	-80.0
<0x17>	-80.0
<0x18>	-80.0
<0x19>	-80.0
<0x1A>	-80.0
<0x1B>	-80.0
<0x1C>	-80.0
<0x1D>	-80.0
<0x1E>	-80.0
<0x1F>	-80.0
<0x20>	-80.0
<0x21>	-80.0
<0x22>	-80.0
<0x23>	-80.0
<0x24>	-80.0
<0x25>	-80.0
<0x26>	-80.0
<0x27>	-80.0
<0x28>	-80.0
<0x29>	-80.0
<0x2A>	-80.0
<0x2B>	-80.0
<0x2C>	-80.0
<0x2D>	-80.0
<0x2E>	-80.0
<0x2F>	-80.0
<0x30>	-80.0
<0x31>	-80.0
<0x32>	-80.0
<0x33>	-80.0
<0x34>	-80.0
<0x35>	-80.0
<0x36>	-80.0
<0x37>	-80.0
<0x38>	-80.0
<0x39>	-80.0
<0x3A>	-80.0
<0x3B>	-80.0
<0x3C>	-80.0
<0x3D>	-80.0
<0x3E>	-80.0
<0x3F>	-80.0
<0x40>	-80.0
<0x41>	-80.0
<0x42>	-80.0
<0x43>	-80.0
<0x44>	-80.0
<0x45>	-80.0
<0x46>	-80.0
<0x47>	-80.0
<0x48>	-80.0
<0x49>	-80.0
<0x4A>	-80.0
<0x4B>	-80.0
<0x4C>	-80.0
<0x4D>	-80.0
<0x4E>	-80.0
<0x4F>	-80.0
<0x50>	-80.0
<0x51>	-80.0
<0x52>	-80.0
<0x53>	-80.0
<0x54>	-80.0
<0x55>	-80.0
<0x56>	-80.0
<0x57>	-80.0
<0x58>	-80.0
<0x59>	-80.0
<0x5A>	-80.0
<0x5B>	-80.0
<0x5C>	-80.0
<0x5D>	-80.0
<0x5E>	-80.0
<0x5F>	-80.0
<0x60>	-80.0
<0x61>	-80.0
<0x62>	-80.0
<0x63>	-80.0
<0x64>	-80.0
<0x65>	-80.0
<0x66>	-80.0
<0x67>	-80.0
<0x68>	-80.0
<0x69>	-80.0
<0x6A>	-80.0
<0x6B>	-80.0
<0x6C>	-80.0
<0x6D>	-80.0
<0x6E>	-80.0
<0x6F>	-80.0
<0x70>	-80.0
<0x71>	-80.0
<0x72>	-80.0
<0x73>	-80.0
<0x74>	-80.0
<0x75>	-80.0
<0x76>	-80.0
<0x77>	-80.0
<0x78>	-80.0
<0x79>	-80.0
<0x7A>	-80.0
<0x7B>	-80.0
<0x7C>	-80.0
<0x7D>	-80.0
<0x7E>	-80.0
<0x7F>	-80.0
<0x80>	-80.0
<0x81>	-80.0
<0x82>	-80.0
<0x83>	-80.0
<0x84>	-80.0
<0x85>	-80.0
<0x86>	-80.0
<0x87>	-80.0
<0x88>	-80.0
<0x89>	-80.0
<0x8A>	-80.0
<0x8B>	-80.0
<0x8C>	-80.0
<0x8D>	-80.0
<0x8E>	-80.0
<0x8F>	-80.0
<0x90>	-80.0
<0x91>	-80.0
<0x92>	-80.0
<0x93>	-80.0
<0x94>	-80.0
<0x95>	-80.0
<0x96>	-80.0
<0x97>	-80.0
<0x98>	-80.0
<0x99>	-80.0
<0x9A>	-80.0
<0x9B>	-80.0
<0x9C>	-80.0
<0x9D>	-80.0
<0x9E>	-80.0
<0x9F>	-80.0
<0xA0>	-80.0
<0xA1>	-80.0
<0xA2>	-80.0
<0xA3>	-80.0
<0xA4>	-80.0
<0xA5>	-80.0
<0xA6>	-80.0
<0xA7>	-80.0
<0xA8>	-80.0
<0xA9>	-80.0
<0xAA>	-80.0
<0xAB>	-80.0
<0xAC>	-80.0
<0xAD>	-80.0
<0xAE>	-80.0
<0xAF>	-80.0
<0xB0>	-80.0
<0xB1>	-80.0
<0xB2>	-80.0
<0xB3>	-80.0
<0xB4>	-80.0
<0xB5>	-80.0
<0xB6>	-80.0
<0xB7>	-80.0
<0xB8>	-80.0
<0xB9>	-80.0
<0xBA>	-80.0
<0xBB>	-80.0
<0xBC>	-80.0
<0xBD>	-80.0
<0xBE>	-80.0
<0xBF>	-80.0
<0xC0>	-80.0
<0xC1>	-80.0
<0xC2>	-80.0
<0xC3>	-80.0
<0xC4>	-80.0
<0xC5>	-80.0
<0xC6>	-80.0
<0xC7>	-80.0
<0xC8>	-80.0
<0xC9>	-80.0
<0xCA>	-80.0
<0xCB>	-80.0
<0xCC>	-80.0
<0xCD>	-80.0
<0xCE>	-80.0
<0xCF>	-80.0
<0xD0>	-80.0
<0xD1>	-80.0
<0xD2>	-80.0
<0xD3>	-80.0
<0xD4>	-80.0
<0xD5>	-80.0
<0xD6>	-80.0
<0xD7>	-80.0
<0xD8>	-80.0
<0xD9>	-80.0
<0xDA>	-80.0
<0xDB>	-80.0
<0xDC>	-80.0
<0xDD>	-80.0
<0xDE>	-80.0
<0xDF>	-80.0
<0xE0>	-80.0
<0xE1>	-80.0
<0xE2>	-80.0
<0xE3>	-80.0
<0xE4>	-80.0
<0xE5>	-80.0
<0xE6>	-80.0
<0xE7>	-80.0
<0xE8>	-80.0
<0xE9>	-80.0
<0xEA>	-80.0
<0xEB>	-80.0
<0xEC>	-80.0
<0xED>	-80.0
<0xEE>	-80.0
<0xEF>	-80.0
<0xF0>	-80.0
<0xF1>	-80.0
<0xF2>	-80.0
<0xF3>	-80.0
<0xF4>	-80.0
<0xF5>	-80.0
<0xF6>	-80.0
<0xF7>	-80.0
<0xF8>	-80.0
<0xF9>	-80.0
<0xFA>	-80.0
<0xFB>	-80.0
<0xFC>	-80.0
<0xFD>	-80.0
<0xFE>	-80.0
<0xFF>	-80.0
_	-5.139759
0	-5.739336
,	-5.593643
(	-5.811352
1	-5.594802
2	-5.873757
;	-5.507004
x	-7.283582
)	-6.030661
.	-5.690242
▁*	-5.998918
3	-6.407153
▁=	-6.236761
);	-6.332600
4	-6.593074
6	-6.683225
8	-6.658773
->	-6.943316
5	-6.763838
▁#	-6.087677
▁{	-5.631485
t	-7.744064
s	-6.986013
7	-6.950588
▁*/	-6.358214
9	-6.545937
▁the	-6.438683
▁(	-6.538200
:	-6.266850
if	-7.247774
[	-7.679138
▁//	-6.705065
define	-7.476035
▁}	-5.651401
}	-6.203113
*	-7.063011
-	-6.809463
p	-8.302914
"	-7.656697
\	-8.447253
::	-8.163845
n	-8.232117
i	-8.489870
>	-7.313355
▁"	-7.354928
▁/*	-7.000522
c	-8.579734
/	-7.778187
d	-8.578260
▁to	-7.118729
f	-8.782873
return	-7.281004
h	-7.702105
C	-8.590476
▁of	-6.643773
a	-8.952468
▁int	-7.816123
▁&	-8.250901
▁<	-7.537589
▁-	-7.239425
",	-8.162580
]	-8.344890
int	-7.959719
/*	-7.712942
▁const	-8.289573
▁is	-7.555155
▁==	-8.217374
▁void	-7.770499
▁for	-7.597453
b	-8.910599
<	-8.285106
e	-9.347501
S	-8.649618
▁a	-7.708919
u	-8.953284
r	-9.140792
A	-8.852759
D	-8.896986
const	-8.643488
{	-7.152764
▁static	-7.960932
▁@	-7.982278
struct	-8.439773
F	-9.097647
▁in	-7.001257
m	-8.921583
▁NULL	-8.302401
▁and	-7.036029
include	-7.879578
void	-8.334685
T	-8.971379
v	-9.089998
data	-8.691583
&	-8.700755
'	-7.826496
****************	-9.631314
size	-8.798758
▁if	-8.048049
))	-8.734349
B	-9.106194
▁+	-8.803105
id	-8.715991
E	-9.366205
type	-8.752885
P	-9.244541
get	-8.789883
name	-8.878397
()	-8.269642
case	-8.530409
set	-8.830990
U	-9.293301
X	-9.319088
=	-8.439260
uint	-9.049927
endif	-7.190306
L	-9.311144
H	-8.891955
(&	-8.860289
("	-8.760946
R	-9.400171
▁char	-8.825960
▁be	-8.434731
();	-8.102081
I	-9.252840
▁!=	-8.898838
len	-9.170516
y	-9.295542
in	-9.049251
l	-9.720424
▁this	-8.421469
");	-8.874129
g	-9.676368
▁return	-8.186200
object	-9.888294
▁i	-9.001824
info	-9.265929
▁&&	-9.338367
▁%	-9.400827
▁lean	-9.261193
));	-9.123093
string	-9.087598
M	-9.535250
),	-8.527008
buf	-9.269068
break	-8.301612
k	-9.371788
param	-9.072024
value	-9.215606
▁/**	-7.443271
];	-9.025715
w	-9.704482
//	-8.430321
ptr	-9.370486
Type	-9.268776
▁<<	-9.776780
▁that	-8.186493
----------------	-9.630232
else	-7.968053
dev	-9.582117
V	-9.707373
arg	-9.615635
▁struct	-8.671114
▁The	-7.923062
pyx	-9.959116
▁not	-8.655951
▁|	-7.880633
▁uint	-9.406877
▁or	-8.678614
ed	-9.185364
char	-9.249231
unsigned	-9.207021
ing	-9.015514
ID	-9.625130
+	-9.531197
▁with	-8.266986
list	-9.416325
state	-9.423725
is	-9.215014
▁};	-7.357186
▁value	-9.325166
to	-9.327403
▁\	-8.330301
▁||	-9.530107
▁bool	-9.194224
▁else	-8.496063
o	-10.062085
xff	-11.164714
▁by	-8.177497
j	-9.731697
▁///	-8.752854
q	-9.859132
N	-9.835880
G	-9.823608
▁it	-8.633921
z	-9.766344
out	-9.495059
▁on	-8.272546
▁(!	-9.170113
},	-9.208232
str	-9.747883
ctx	-9.728909
].	-9.728269
error	-9.502194
free	-9.395373
▁are	-8.674615
TYPE	-9.662756
▁((	-9.905370
key	-9.666667
|	-9.686621
Data	-9.618626
val	-9.832660
index	-9.718640
▁std	-9.692870
addr	-9.909466
▁This	-9.177298
▁typedef	-9.069353
num	-9.741869
▁from	-8.070289
▁/**<	-10.561974
file	-9.567539
W	-9.900570
▁T	-9.405560
init	-9.597598
▁we	-9.297952
Get	-9.751634
▁an	-9.074269
ret	-9.455613
▁sizeof	-9.918631
▁m	-9.394226
code	-9.861105
▁size	-9.644672
count	-9.721406
buffer	-9.850878
node	-9.898847
for	-9.648044
op	-10.137419
Q	-10.216892
MAX	-9.826143
▁*)	-9.672159
err	-9.649934
end	-8.962690
xFF	-10.550878
▁**	-8.884518
Set	-9.789348
▁class	-8.840247
goto	-9.084360
▁as	-8.328226
flags	-9.891396
std	-10.002547
▁file	-9.619945
reg	-10.274376
map	-10.058282
SIZE	-9.994339
INT	-10.106519
ERROR	-9.742650
▁long	-9.665786
obj	-10.146698
add	-9.988421
base	-9.942654
UL	-10.548996
▁OR	-10.093467
Info	-9.851723
new	-9.803409
ifndef	-9.236021
status	-9.852433
],	-10.032289
bool	-9.598884
ifdef	-9.007222
result	-9.783266
%	-9.933441
max	-10.071546
start	-9.670334
msg	-10.083720
▁extern	-9.663612
▁unsigned	-9.763943
read	-10.034127
Value	-9.983415
▁data	-9.512597
▁inline	-9.777322
▁can	-9.252481
O	-10.281793
▁'	-9.823327
▁+=	-9.687098
*/	-8.182245
▁use	-9.583431
▁will	-9.394268
MASK	-10.419806
vector	-10.119574
▁OF	-9.926412
Name	-9.898163
device	-10.097701
write	-10.122878
offset	-10.130743
▁public	-8.675702
or	-10.010729
lock	-10.079004
NO	-10.134453
++)	-10.107626
Size	-10.024490
class	-9.680465
▁function	-9.613814
String	-9.973615
port	-10.224898
▁true	-9.542802
NULL	-9.811244
float	-10.151432
func	-10.260086
ERR	-10.186530
brief	-9.845700
▁},	-9.782402
context	-10.155739
time	-9.962973
next	-9.981588
mode	-10.148473
================	-10.371035
table	-10.031222
▁false	-9.540923
config	-10.226709
REG	-10.434380
K	-10.094919
API	-10.163735
Z	-10.375185
Y	-10.423325
List	-9.841771
ref	-10.129803
▁used	-9.701239
▁set	-9.603732
printf	-10.068297
er	-9.810620
DATA	-10.310214
cmd	-10.230940
pos	-10.339918
▁If	-9.937684
*)	-10.346327
▁defined	-10.036638
Id	-10.128220
array	-10.119430
][	-10.576830
mm	-10.470959
tmp	-10.246008
▁!	-9.771399
To	-10.014661
log	-10.288925
State	-9.982401
path	-10.166711
res	-10.056203
CONFIG	-10.058803
line	-9.876530
this	-9.803117
double	-10.249516
property	-10.111666
▁v	-9.909733
entry	-10.256046
▁License	-9.758571
SET	-10.315971
▁?	-11.074569
test	-10.178221
src	-10.385632
▁get	-9.646526
Object	-10.161019
assert	-10.237985
CTRL	-11.007900
mask	-10.397849
fd	-10.318197
DEFAULT	-11.021372
args	-10.482798
▁>=	-10.276464
In	-10.065374
no	-9.958901
▁new	-9.583452
▁at	-8.567246
bit	-10.392842
This	-10.315869
▁GL	-10.146262
io	-10.300522
idx	-10.369515
IS	-10.393347
Index	-10.302636
▁error	-9.797358
▁/*!<	-11.134468
▁all	-9.388711
event	-10.394310
CH	-11.070771
IN	-10.512426
Pos	-10.773581
▁number	-9.894506
Error	-10.255213
(__	-9.994401
:(	-10.461182
handle	-10.410221
hash	-10.529882
▁THE	-9.999603
Buffer	-10.331244
length	-10.254742
▁have	-9.124770
IO	-10.542553
ip	-10.514706
mem	-10.464691
▁must	-10.043997
Ptr	-10.390049
var	-10.193513
J	-10.561552
LOG	-10.369227
▁template	-9.763867
Status	-10.396965
▁mode	-10.520320
block	-10.441051
▁Copyright	-10.382802
Node	-10.361252
▁namespace	-9.174571
MODE	-10.616127
virtual	-10.340482
st	-9.777628
▁when	-9.652772
@	-9.941815
▁Get	-10.118754
Context	-10.327705
▁using	-9.855293
cb	-10.692829
File	-10.375258
]);	-10.439228
▁type	-9.949037
INFO	-10.410895
BIT	-10.633505
▁may	-9.644281
at	-10.662030
=>	-9.421926
▁has	-9.370707
STATUS	-10.437627
db	-10.654971
rc	-10.324662
Key	-10.474365
CC	-11.126553
on	-10.175629
GET	-10.524333
OK	-10.246402
xf	-11.546852
DEBUG	-10.228036
++	-10.180263
req	-10.605742
re	-10.260959
default	-9.845487
stream	-10.545242
▁any	-9.827303
▁k	-10.257814
▁I	-8.740010
ch	-10.511095
[]	-10.328652
▁only	-9.806187
▁double	-10.363313
▁which	-9.329940
Pyx	-10.546901
TX	-10.914512
▁buffer	-10.381994
typename	-10.213795
priv	-10.619913
++;	-9.650134
GL	-10.556957
from	-10.431074
▁should	-10.012075
▁ANY	-10.381841
OP	-10.744994
sub	-10.659674
xe	-11.620753
ctor	-10.581014
self	-10.334828
▁you	-9.277104
▁code	-10.094521
long	-10.585070
Array	-10.579324
check	-10.508225
Count	-10.439279
sc	-10.890067
▁<=	-10.620237
DMA	-11.172807
alloc	-10.613987
min	-10.533663
IF	-10.952584
ly	-9.920746
Lean	-11.482689
conn	-10.693248
▁float	-10.614544
desc	-10.733177
▁ret	-9.770408
of	-10.382068
static	-10.285897
(*	-10.382914
params	-10.655217
EXT	-10.746720
▁do	-9.733981
input	-10.545945
frame	-10.721873
link	-10.719678
sizeof	-10.751575
xa	-11.534154
EN	-11.042639
▁so	-9.861077
hw	-10.851262
Base	-10.544463
Windows	-11.266033
Mode	-10.636022
dec	-10.107772
Image	-10.675403
▁|=	-10.559022
ps	-10.685124
Event	-10.663310
▁Set	-10.447117
▁out	-9.493323
Handle	-10.593197
ED	-10.627215
RX	-10.945495
▁one	-9.506845
attr	-10.776691
field	-10.403069
▁no	-9.890013
▁l	-10.412789
▁(*	-10.574192
▁under	-9.811466
load	-10.759651
iVar	-10.306161
cache	-10.737690
SHIFT	-11.000727
client	-10.702722
▁bit	-10.689603
xF	-11.500208
▁..	-11.257288
▁following	-9.878749
xc	-11.575044
gl	-10.775787
bits	-10.793576
</	-9.794520
Time	-10.665669
Vector	-10.914863
▁override	-10.459027
▁source	-10.421588
▁IN	-10.386819
▁list	-10.137440
dst	-10.881824
output	-10.691265
KEY	-10.785810
FILE	-10.724539
dir	-10.751358
ON	-11.051951
BASE	-10.934382
▁index	-10.528169
STATE	-10.704038
queue	-10.812935
Request	-10.679197
▁result	-10.031346
ASSERT	-10.582053
net	-10.512124
create	-10.684711
null	-11.420743
▁but	-9.492325
▁input	-10.584116
PIN	-11.080826
al	-10.283795
CR	-11.019935
switch	-10.345021
ok	-10.950745
▁copy	-10.467946
user	-10.668553
])	-10.872059
le	-10.493438
cast	-10.917668
UI	-11.057436
▁"\	-11.158460
TO	-10.947679
NAME	-10.736882
image	-10.709204
PORT	-10.983317
last	-10.643417
▁>>	-10.927107
TEST	-10.663937
current	-10.651184
format	-10.744024
rx	-10.794144
GPIO	-11.386321
▁software	-10.343511
copy	-10.698577
";	-10.193739
OUT	-10.987493
while	-10.477235
▁key	-10.489611
tx	-10.504408
)->	-10.598551
page	-10.701138
item	-10.676612
AS	-11.111736
▁pointer	-10.685208
CMD	-10.934010
▁current	-10.407059
thread	-10.829577
Int	-10.771152
sys	-10.565948
fp	-10.760352
▁other	-9.747752
END	-10.252165
")	-10.441458
width	-10.648491
core	-10.799621
},{	-13.975115
▁block	-10.679292
able	-10.295255
▁IS	-10.893257
def	-10.773890
col	-11.062121
fs	-10.809540
▁register	-10.641891
Py	-10.940180
xd	-11.828810
cpu	-11.051697
tag	-10.881025
bytes	-10.847775
request	-10.807297
com	-10.008728
▁without	-10.227069
xb	-11.951802
header	-10.809346
▁j	-10.665229
Init	-10.658133
▁address	-10.665733
cur	-10.852248
mutex	-10.854145
Map	-10.760283
?	-9.090532
)))	-10.978496
▁GPIO	-11.328476
pool	-11.131622
////////////////	-11.567356
lib	-10.790932
Table	-10.706782
▁output	-10.660176
Result	-10.640330
put	-10.837736
hdr	-11.015326
#	-9.891210
▁end	-10.096358
ext	-11.010690
▁default	-10.370316
▁~	-10.573161
head	-10.597655
target	-10.806302
cfg	-11.039142
Device	-10.849472
▁virtual	-10.515269
▁first	-9.732184
text	-10.159302
▁operator	-10.740777
BOOL	-10.658248
tree	-10.964311
FLAG	-11.124064
▁memory	-10.688478
DB	-11.020283
Block	-10.943312
opt	-11.074340
retval	-10.474169
View	-10.792965
▁glad	-10.458498
update	-10.827099
en	-10.415043
sp	-10.964341
un	-10.811167
VERSION	-10.847181
Is	-10.621914
as	-10.451517
flag	-10.845667
xE	-11.940432
};	-9.612006
`	-11.141376
env	-11.009358
function	-10.654991
do	-10.243535
ADDR	-11.118999
debug	-10.794183
▁was	-8.596264
://	-10.396562
ap	-10.885424
UINT	-10.961482
es	-9.992867
level	-10.785696
group	-10.842224
For	-10.688297
▁enum	-10.022349
row	-10.819888
ui	-10.878725
ARG	-11.015574
and	-10.445167
',	-10.646875
Config	-10.926557
send	-10.986090
point	-10.903343
host	-10.991094
byte	-10.910819
os	-10.521046
server	-10.951483
Msk	-11.685291
▁device	-10.698731
mp	-11.063284
has	-10.603537
Stream	-10.984695
tp	-10.835386
▁time	-9.887557
Offset	-11.025431
EXPORT	-10.767563
it	-10.592564
With	-10.889279
▁values	-10.653370
attribute	-10.960041
Class	-10.864350
local	-10.903704
stack	-10.993028
vec	-11.201062
Create	-10.903639
▁into	-9.851767
STRING	-10.978466
address	-10.960388
){	-10.476490
NUM	-11.107535
Message	-10.897701
first	-10.757292
up	-10.428881
▁while	-10.097872
▁offset	-10.891495
nonatomic	-10.911861
▁AND	-10.680072
IP	-11.102123
private	-10.542055
win	-11.079515
open	-10.902305
temp	-11.014448
internal	-10.868964
▁call	-10.718193
SUCCESS	-10.690564
cp	-11.010515
VALUE	-10.967435
▁PyObject	-10.564811
XFF	-14.303820
close	-10.810661
Item	-10.867671
CFG	-11.337731
clear	-10.698973
▁version	-10.502568
off	-10.771515
From	-10.826961
▁typename	-11.309121
CHECK	-11.003386
PyObject	-11.282724
http	-10.888087
be	-10.840539
volatile	-11.263365
shared	-11.244925
inc	-10.477482
dma	-11.206365
▁bytes	-10.989450
defined	-11.043836
///	-9.980312
call	-11.012675
message	-10.888443
▁length	-10.788460
ENABLED	-10.735125
old	-10.805293
fprintf	-11.049422
CLK	-11.510323
MEM	-11.153354
Var	-11.090059
▁FOR	-10.717410
▁check	-10.689426
LEN	-11.163940
move	-11.315760
MSG	-11.116944
module	-11.005182
STR	-11.094488
>&	-11.322001
interface	-10.794615
▁//!	-10.163948
print	-10.883255
>(	-11.033629
irq	-11.100824
all	-10.804833
());	-10.651885
ep	-11.131499
cs	-10.969456
Callback	-11.103112
cc	-10.984824
ADC	-11.730874
▁Software	-10.740151
SR	-11.906123
MIN	-11.107495
version	-10.848954
▁need	-10.494317
Path	-10.930159
▁ADC	-11.536110
==	-11.120055
NV	-11.132396
▁Returns	-10.746348
▁"%	-11.312146
options	-11.043018
the	-10.491093
import	-10.501736
Input	-11.051897
push	-11.020820
New	-10.755309
Code	-10.965573
SPI	-11.405043
Client	-10.895932
▁more	-9.802663
▁SOFTWARE	-10.821899
AF	-11.691779
Length	-10.966651
INIT	-11.016641
PTR	-11.161506
(),	-10.739116
▁read	-10.715057
left	-10.098769
Address	-11.098211
channel	-11.194454
gen	-10.970277
▁All	-10.127771
seq	-11.216781
SSL	-11.235240
stat	-11.212363
Function	-10.958402
parent	-10.945860
▁status	-10.413629
NOT	-10.975646
pc	-11.088553
WRITE	-11.126603
READ	-11.116124
rel	-11.221084
Color	-11.106191
▁given	-10.522265
>::	-11.213281
number	-10.990644
(!	-10.738079
System	-11.137157
LL	-11.410119
DEVICE	-11.212894
The	-9.856934
▁DMA	-11.397222
ms	-10.824439
▁message	-10.840433
org	-10.613969
rd	-10.768474
begin	-10.605983
▁-(	-10.332458
USE	-10.896969
▁`	-11.058239
ops	-11.111318
▁state	-10.266033
Flags	-11.094357
stats	-11.258770
▁N	-10.203182
▁start	-10.730178
$	-10.582555
conf	-11.219950
color	-10.870240
Ref	-11.058327
OF	-11.256184
Text	-10.925128
handler	-11.195465
!	-9.455917
Read	-11.034230
li	-10.630684
mod	-11.330050
VAL	-11.522725
▁its	-9.926008
rate	-11.387543
▁src	-11.183449
vm	-11.311067
▁FALSE	-10.737800
INVALID	-11.077876
Write	-11.124023
Format	-11.103659
timer	-11.242546
root	-11.079874
▁We	-10.257153
ENABLE	-11.078845
▁WARRANTIES	-10.952863
COLOR	-11.085787
ING	-10.920040
spec	-11.565204
▁test	-10.567243
proc	-11.297838
▁above	-10.619587
xC	-12.042023
cnt	-11.132635
Instance	-11.150022
range	-11.218933
SEL	-11.586892
▁reserved	-10.774787
▁request	-10.982101
cl	-11.277188
iterator	-11.153369
▁failed	-10.951182
mac	-11.397634
▁USB	-11.326827
Frame	-11.101880
de	-10.645088
▁up	-10.035193
','	-12.707603
HAL	-11.279972
▁conditions	-10.662233
SYS	-11.120411
ns	-10.923619
ARRAY	-11.253592
▁then	-10.128527
enable	-11.075255
per	-11.014881
session	-11.270913
Command	-11.130872
▁private	-9.496947
▁See	-8.525795
box	-11.035405
USB	-11.492370
▁node	-10.876667
filter	-11.240803
OS	-11.148636
▁called	-10.583678
▁user	-10.885698
Global	-11.498437
si	-11.243172
argv	-11.109819
register	-11.074437
Add	-11.089350
/**	-9.577736
memory	-10.947141
ul	-10.679865
LINE	-11.288939
Point	-11.181892
CTL	-11.569841
Start	-11.093417
FUNC	-11.177917
height	-11.079227
▁HAL	-11.064668
RPC	-11.261373
▁target	-11.081579
DEF	-11.294476
▁max	-11.016154
NONE	-11.237608
view	-11.060877
':	-10.570032
▁rights	-10.545462
pp	-11.173406
▁information	-10.366139
linux	-10.709359
▁Bit	-11.389935
ST	-11.511267
▁last	-10.551293
pragma	-10.094237
packet	-11.426421
prev	-11.105412
▁there	-9.999572
Max	-11.285282
OFFSET	-11.493188
ff	-11.490445
exit	-10.803418
source	-10.972283
fn	-11.097130
TIM	-11.800561
expr	-11.356795
iter	-11.247332
CS	-11.442152
^	-11.119661
clk	-11.460292
▁specified	-11.084412
▁TRUE	-10.817165
ssl	-11.383345
Matrix	-11.239224
rt	-11.348295
method	-11.198478
Window	-11.137326
use	-10.893974
TRACE	-11.266869
())	-10.666569
Memory	-11.323494
ctrl	-11.383690
PROC	-11.081339
Check	-11.100243
Test	-10.904128
skb	-11.404622
▁notice	-11.149067
closed	-11.668113
Num	-11.331943
parse	-11.286708
unlock	-10.906449
Entry	-11.159751
ac	-11.258496
ER	-11.351655
memcpy	-11.338157
Handler	-11.108116
us	-10.528445
...	-10.362328
▁line	-10.732232
common	-11.147498
pg	-11.402868
LOC	-12.412591
word	-11.211760
EVENT	-11.282869
inline	-11.086381
zend	-11.392473
pr	-11.299269
▁mask	-11.477870
FF	-11.140494
▁provided	-10.768470
▁than	-10.172394
RE	-11.482856
FUNCTION	-11.107970
Mask	-11.384071
BUFFER	-11.268771
▁after	-10.073634
▁Register	-10.824975
sym	-11.223295
CALL	-11.306132
MAP	-11.346395
Filter	-11.263059
▁'\	-11.217922
Source	-11.162392
PA	-11.841178
ring	-11.319742
auto	-11.210432
callback	-11.326129
sync	-11.399331
release	-11.239942
sock	-11.331967
▁count	-10.914028
▁same	-10.468427
().	-10.920030
Out	-11.155596
dc	-11.521460
LIST	-11.234741
▁parameter	-11.153876
▁array	-10.984033
token	-11.345363
task	-11.332529
space	-11.137880
prop	-11.512426
▁handle	-11.033601
▁functions	-10.771366
md	-11.328678
Op	-11.403751
enum	-11.039952
HANDLE	-11.235501
Sub	-11.205218
LIB	-11.174760
wait	-11.268478
▁before	-10.365648
mb	-11.371419
▁each	-10.537417
▁Interrupt	-11.590306
CLASS	-11.306299
Call	-11.434799
"),	-11.267930
▁non	-10.650288
Group	-11.151902
▁copyright	-11.029250
▁field	-10.809943
▁distributed	-11.306662
▁USE	-11.133715
▁command	-11.033155
trace	-11.537738
comp	-11.619502
INLINE	-11.324120
sz	-11.300172
continue	-10.374552
xA	-12.205836
<<	-11.545270
match	-11.254703
Log	-11.336713
No	-10.725654
Element	-11.190370
CODE	-11.377013
window	-11.261130
▁structure	-10.849527
sa	-10.934813
find	-11.328357
Field	-11.202907
Local	-11.419159
▁flags	-10.915102
End	-11.049578
\"	-12.533539
ld	-11.488718
FS	-11.258360
▁num	-11.095428
LONG	-11.350595
▁been	-9.875509
by	-10.737295
▁Mode	-11.944535
ev	-11.241028
ar	-10.964041
query	-11.234343
▁err	-10.174917
▁PFNGL	-11.105156
DC	-11.462312
Number	-11.213248
filename	-11.362061
BLOCK	-11.411208
▁Enable	-11.416465
ce	-11.179437
undef	-10.524244
sk	-11.363040
▁event	-10.868334
Expr	-11.421535
▁specific	-10.802676
hi	-11.496511
ic	-10.988065
reset	-11.154606
UART	-11.614537
Free	-10.968963
hr	-11.541745
CMU	-14.320596
back	-10.965046
▁Py	-10.817499
ADD	-11.424394
▁UINT	-11.261350
▁format	-11.138193
▁here	-10.385677
types	-10.988965
▁context	-10.997106
errno	-11.037006
=%	-12.154052
Pointer	-11.303288
api	-11.166205
▁Return	-10.917016
sec	-10.776637
LEVEL	-11.366314
IRQ	-11.482216
raw	-11.436397
dump	-11.587878
BE	-11.662763
fc	-11.661355
▁CMU	-12.051807
User	-11.383362
impl	-11.397452
scan	-11.474594
phy	-11.507348
▁method	-10.941100
▁CONFIG	-10.761494
loop	-11.447940
ll	-10.887003
work	-11.353013
▁Shifted	-12.234764
ex	-11.250369
▁found	-10.460006
lp	-11.492595
Manager	-11.093785
▁base	-10.896183
▁++	-11.351059
▁--	-10.872468
malloc	-11.427916
')	-10.951798
tab	-11.511785
bus	-11.366683
OR	-11.506575
▁either	-10.904239
▁NOT	-11.143679
("%	-11.418592
sig	-11.539229
pkt	-11.601984
right	-10.304115
WIN	-11.107049
tm	-11.674686
dp	-11.395894
Options	-11.221546
dest	-11.434611
▁It	-9.777180
RETURN	-11.062178
AL	-11.752898
Model	-11.223787
Val	-11.429736
instance	-11.357966
TIME	-11.382739
el	-11.063478
TIMER	-11.784953
Update	-11.335239
strcmp	-11.575844
Reg	-11.563869
▁GLAPI	-11.189334
Control	-11.370174
▁yy	-11.097752
▁nullptr	-11.203745
▁module	-11.155640
▁interrupt	-11.370128
BUF	-11.670372
dim	-11.866264
control	-11.379107
Property	-11.324225
nr	-11.445492
ec	-11.608636
On	-11.095227
Core	-11.552255
Release	-11.171735
dict	-11.371816
template	-11.002560
▁next	-10.720904
insert	-11.607363
▁byte	-11.423473
sh	-11.347749
BYTE	-11.431104
ad	-11.258959
ent	-11.535972
destroy	-11.272671
tuple	-11.514149
im	-11.391893
lean	-11.789433
▁header	-11.214346
DEV	-11.579946
▁-=	-11.130648
zero	-11.409739
Line	-11.260955
ARB	-11.474787
socket	-11.458793
driver	-11.432282
memset	-11.416932
Interface	-11.280913
START	-11.411587
▁does	-10.733467
▁returns	-11.223869
me	-11.147464
▁returned	-11.081590
command	-11.344257
www	-10.944830
▁/*!	-9.819559
FIELD	-11.371692
Range	-11.440111
xB	-12.396225
TAG	-11.521272
▁You	-10.353047
pd	-11.554029
Response	-11.423381
▁tmp	-11.151781
MODULE	-11.196613
Lock	-11.351328
▁table	-10.774046
MAC	-11.654845
ts	-10.775357
top	-11.040328
RTC	-11.830830
▁make	-10.548549
regs	-11.611373
ALL	-11.588573
empty	-11.327662
xffff	-12.455978
ds	-11.098161
cap	-11.618796
**	-9.878093
AT	-11.777480
Thread	-11.293937
sw	-11.500942
▁HRESULT	-11.354230
DIV	-12.065730
FB	-11.901821
am	-11.197774
VAR	-11.568871
UN	-11.550411
ATTR	-11.590929
true	-11.021283
not	-11.070284
lo	-11.445339
OBJECT	-11.324362
▁create	-10.974744
AC	-11.731721
▁write	-11.089707
Header	-11.318029
spi	-11.645886
▁program	-10.998014
Obj	-11.550502
Str	-11.414738
ation	-11.041829
false	-11.087977
▁short	-10.778472
APIENTRYP	-11.633821
▁required	-10.986638
Param	-11.591258
stderr	-11.471028
Service	-11.270882
▁IMPLIED	-11.371709
Module	-11.460807
Query	-11.350139
AP	-11.653392
av	-11.766634
PS	-11.625167
Hash	-11.427359
Char	-11.398575
bp	-11.492967
active	-11.287401
▁instance	-11.258829
app	-11.314153
▁callback	-11.346816
IR	-11.886185
store	-11.490426
real	-11.490671
iface	-11.666448
fb	-11.843600
PR	-11.763197
chan	-11.575364
timeout	-11.484424
.\	-11.126842
▁&=	-11.314758
LOCK	-11.501591
gpio	-11.667418
USART	-12.297076
EX	-11.749434
.</	-11.410403
PER	-11.559726
COUNT	-11.521897
▁available	-10.922667
▁NRF	-11.429779
▁don	-10.864583
▁interface	-11.121445
▁{}	-11.334538
tr	-10.836669
rec	-11.676324
PC	-11.641158
Server	-11.479132
co	-11.115990
rs	-10.752399
Channel	-11.584380
--------------	-11.177901
my	-10.989946
DE	-11.708648
stride	-11.809641
fmt	-11.575979
NET	-11.308923
▁GNU	-11.176861
IT	-11.598210
Len	-11.464753
▁already	-11.001191
sb	-11.526764
unit	-11.526429
Output	-11.427555
Un	-11.407564
▁level	-11.071022
Bit	-11.604395
LE	-11.617103
GLenum	-12.098388
▁channel	-11.333992
cursor	-11.517308
▁operation	-11.205670
one	-11.028724
dw	-11.701983
▁thread	-11.317178
▁binary	-11.315712
Cache	-11.386759
IC	-11.430801
exception	-11.437400
HW	-11.720608
▁Public	-10.576521
DBG	-11.689099
FORMAT	-11.623946
remove	-11.370778
td	-11.127165
Queue	-11.515369
fe	-11.720541
XF	-12.284739
py	-11.320521
pt	-10.991845
ob	-11.731934
epi	-12.040589
con	-11.618881
RT	-11.512768
label	-10.803321
CPU	-11.641451
Version	-11.315883
NS	-11.494629
MD	-11.690822
tv	-11.616566
FALSE	-11.168241
CF	-11.697880
Port	-11.445033
▁bits	-11.518814
with	-11.120185
AD	-11.843252
buff	-11.647871
mul	-11.861929
&&	-11.515709
va	-11.208999
Arg	-11.742261
SW	-11.871171
▁For	-10.412507
RCC	-12.152046
OPT	-11.613653
xD	-12.516280
TS	-11.612838
rb	-11.640491
SC	-11.602763
▁dst	-11.636517
▁Check	-11.119243
▁sub	-11.145290
action	-11.369076
TABLE	-11.538588
chip	-11.669714
EP	-11.777474
iv	-11.472173
And	-11.091189
▁General	-10.444548
▁page	-10.952760
▁entry	-11.147497
global	-11.509230
slot	-11.669918
mc	-11.789984
▁LIMITED	-11.401925
Target	-11.570112
▁some	-10.250365
SP	-11.630989
▁constexpr	-11.616863
Of	-11.273825
th	-9.421869
enc	-11.706282
gc	-11.696138
Level	-11.615623
{"	-11.679595
atomic	-11.637212
▁WITHOUT	-11.329321
▁THIS	-11.333132
parser	-11.664596
inode	-11.723634
child	-11.464967
ss	-11.073838
GLuint	-11.941419
Page	-11.407327
Current	-11.525903
append	-11.503274
sum	-11.364357
MS	-11.674041
Exception	-11.169974
▁auto	-11.248356
NI	-11.502242
Func	-11.554734
bb	-11.760226
main	-11.279099
▁point	-10.986466
▁TO	-11.115835
sm	-11.527531
▁order	-10.809041
▁BUT	-11.406733
Method	-11.556454
▁GLint	-12.291230
pm	-11.510547
RC	-11.702471
INPUT	-11.776217
▁port	-11.295781
Attribute	-11.512155
▁window	-11.365550
REF	-11.698887
▁re	-10.941071
Resource	-11.637583
an	-10.751040
Texture	-11.620113
pre	-11.213616
▁implementation	-11.382384
▁configuration	-11.328964
NODE	-11.532882
font	-11.562593
MOD	-11.743634
▁LIABILITY	-11.671164
▁support	-10.860467
Register	-11.572547
INDEX	-11.651693
STAT	-11.790542
Re	-11.300620
cm	-11.326420
ca	-11.363774
Elab	-12.799174
Bits	-11.570270
loc	-11.675114
PARAM	-11.677269
Float	-11.623217
▁image	-11.188398
▁[[	-12.507671
RD	-11.744466
▁part	-10.543534
dd	-11.650799
▁element	-11.324861
▁flag	-11.465981
UP	-11.582397
▁FITNESS	-11.309358
▁valid	-11.457906
▁In	-9.265649
NSString	-11.358524
cr	-11.579170
▁MERCHANTABILITY	-11.295353
▁just	-10.454262
CTX	-11.773937
values	-11.514775
cmp	-11.795073
Token	-11.523287
resource	-11.704020
proto	-11.633652
pointer	-11.593055
▁where	-10.320282
Task	-11.643255
VM	-11.639842
"))	-11.618718
unlikely	-11.972121
▁==>	-12.330627
iParam	-11.875311
▁once	-10.244904
mat	-11.849093
RESET	-11.793212
CB	-11.846143
▁clock	-11.630775
PAGE	-11.700943
▁done	-10.649402
Default	-11.408897
auth	-11.667412
▁frame	-11.430099
▁PURPOSE	-11.320625
php	-11.221085
note	-11.104310
uParam	-11.814787
bf	-12.034727
adapter	-11.919085
term	-11.504194
▁PARTICULAR	-11.324754
limit	-11.700559
FD	-11.725277
used	-11.493005
depth	-11.630181
stop	-11.396834
json	-11.566639
run	-11.317932
mark	-11.461513
▁also	-8.384696
▁RTC	-11.998944
▁position	-11.108748
yy	-11.958666
▁process	-10.975821
SUB	-11.658326
delete	-11.462146
cd	-11.780334
DIR	-11.625590
save	-11.510721
=(	-11.328347
UNUSED	-11.561748
flow	-11.766122
EC	-11.723945
process	-11.539198
Meta	-12.173780
total	-11.575934
COMP	-11.927315
SHA	-11.906564
None	-11.418157
BT	-11.709331
uc	-11.772848
▁CHECK	-11.668864
TDMETHODCALLTYPE	-11.512238
Mem	-11.658305
▁system	-10.658253
▁old	-11.015276
trans	-11.841998
elem	-11.771071
Msg	-11.683949
▁parameters	-11.210441
exec	-11.755293
CA	-11.880709
▁because	-10.644832
position	-11.388839
blk	-11.860531
)));	-11.719009
▁two	-10.048724
vp	-11.842287
connection	-11.631058
BEGIN	-11.136502
shift	-11.752331
USER	-11.655689
model	-11.524650
▁your	-10.061823
mi	-11.540046
scale	-11.603988
lua	-11.784914
"},	-11.632048
▁zero	-11.498986
FC	-10.858444
▁add	-10.939404
unique	-11.695679
pi	-11.274518
▁HAVE	-10.980323
LENGTH	-11.798182
style	-10.836071
tcp	-11.818244
SRC	-11.895293
▁access	-11.241531
INCLUDING	-11.518749
PHY	-11.981365
>>	-11.792577
="	-9.180252
▁see	-10.714795
▁path	-11.322977
▁packet	-11.671071
usb	-11.809040
PP	-11.753985
valid	-11.597865
sd	-11.685441
License	-11.464872
ABI	-11.860500
PG	-11.594608
xFFFF	-12.927294
Rect	-11.823577
inst	-11.886403
FE	-11.936824
▁un	-10.940896
▁whether	-11.122327
glad	-11.730532
recv	-11.853701
ROM	-11.996124
DWORD	-11.724457
cf	-11.870977
make	-11.614926
▁ZEND	-11.739352
ab	-11.704972
element	-11.590741
texture	-11.768667
exp	-11.801245
PB	-12.009766
▁//*************	-10.534226
CHAR	-11.617670
BITS	-11.866110
spin	-11.463575
▁range	-11.236840
▁otherwise	-11.363300
kernel	-11.663483
asm	-11.481922
sel	-11.619296
ARGS	-11.706384
pid	-11.686718
system	-11.562728
runtime	-11.892540
▁argument	-11.409729
▁Note	-11.266542
Width	-11.655022
MP	-11.831009
nd	-11.009177
Foundation	-11.849220
▁Create	-11.432892
OFF	-11.752228
section	-11.437911
METHOD	-11.664841
ctl	-11.841033
Descriptor	-11.652677
▁hash	-11.448993
Position	-11.659905
▁noexcept	-11.802593
pl	-11.745379
--	-10.683218
▁TIM	-12.072893
▁res	-11.129043
di	-11.359232
OC	-11.968364
pin	-11.657794
heap	-11.861650
Bool	-11.636090
Parameter	-11.641913
GEN	-11.847764
shape	-11.837999
low	-11.602232
dm	-11.881612
▁EFI	-11.359826
Flag	-11.799540
▁SPI	-11.792882
Timer	-11.755995
Packet	-11.796193
Next	-11.619776
NEXT	-11.723552
▁license	-11.454953
HASH	-11.803344
Failed	-11.752443
App	-11.658247
setup	-11.688687
CD	-10.948263
TEXTURE	-11.761570
EINVAL	-11.028995
mk	-11.986427
Params	-11.703294
INTERFACE	-11.512797
short	-11.641197
bc	-12.005953
nl	-11.871004
AA	-12.276054
STM	-12.281651
▁Inc	-11.318092
Impl	-11.618065
PM	-11.729006
▁(((	-12.267691
LP	-11.840489
order	-11.605741
▁written	-10.782651
▁rc	-11.108954
LOAD	-12.037528
ee	-11.738726
signal	-11.732271
sample	-11.854748
br	-11.310746
display	-11.618530
Action	-11.539389
Store	-11.812873
pci	-11.914723
PATH	-11.648112
response	-11.644835
Addr	-11.896804
Tag	-11.703234
Stack	-11.776140
REQ	-11.979591
▁option	-11.505223
chunk	-11.963232
CONTROL	-11.910565
Debug	-11.654086
da	-11.054078
pair	-11.929310
oid	-11.846743
stmt	-11.834513
rv	-11.593164
▁now	-10.536469
▁matrix	-11.622119
▁update	-11.337423
bd	-12.051063
Byte	-11.694837
wpa	-12.123801
FP	-11.832897
ir	-11.403504
Parser	-11.820010
▁find	-11.030751
OBJ	-11.978429
bin	-11.666529
▁variable	-11.507676
CAN	-12.165249
sl	-11.704587
IM	-11.918329
disable	-11.633895
kind	-11.799273
By	-11.628504
FLOAT	-11.859979
Connection	-11.697719
ast	-11.778602
elif	-11.419929
Desc	-11.786142
eq	-11.612060
STACK	-11.743315
Buf	-11.897350
▁Z	-10.940403
CI	-11.980554
▁enable	-11.721419
":	-10.191437
pb	-11.802850
CM	-11.456526
rect	-12.083158
▁UART	-11.918056
PLL	-12.418785
lpVtbl	-11.970946
DT	-12.124438
part	-11.709982
Display	-11.651213
only	-11.443530
Copy	-11.728358
Process	-11.690269
▁modify	-11.690873
bind	-11.926244
SD	-11.904035
▁implied	-11.457320
MM	-11.847023
▁success	-11.321160
Session	-11.802385
tail	-11.799309
option	-11.540159
All	-11.153550
▁hr	-11.911372
TRUE	-11.505284
xFFFFFFFF	-10.908576
ES	-11.685285
CONST	-12.047407
CON	-11.856066
▁K	-10.357557
▁between	-10.464028
Open	-11.610339
▁stack	-11.618845
▁Use	-11.459109
Load	-11.712466
Iterator	-11.685255
▁gl	-11.486093
~	-11.074480
Kind	-11.813131
▁documentation	-11.484082
:%	-12.486715
FLAGS	-11.913487
"));	-11.804015
▁left	-11.263810
util	-11.397136
---------------	-10.664167
▁width	-11.490965
Controller	-11.615205
ia	-10.845259
Args	-11.747662
pipe	-11.921238
access	-11.686441
▁SSL	-11.786267
CORE	-11.836294
region	-11.704590
▁fields	-11.431675
pf	-11.838555
Delete	-11.730247
assign	-11.897091
BLE	-12.070512
ack	-12.103646
▁reset	-11.685509
Tree	-11.691339
ENTRY	-11.847579
matrix	-11.812297
Label	-11.716244
arm	-11.955582
ib	-11.767984
Host	-11.807335
]=	-11.922837
url	-11.645828
PD	-12.146617
IE	-11.966791
Button	-11.563999
Identifier	-11.640646
▁main	-10.747902
AR	-12.215597
▁On	-10.474366
ion	-11.417829
▁group	-10.951833
arr	-12.005908
AUTO	-11.998426
▁http	-11.243604
GC	-11.773782
▁being	-10.599831
lv	-12.130561
FT	-11.937340
▁COPYRIGHT	-11.665493
▁disclaimer	-11.620990
▁fail	-11.083961
▁space	-11.322054
Enable	-11.769604
vscale	-13.817358
DISABLE	-11.833088
Font	-11.780706
Cmd	-11.910766
Layout	-11.590845
prefix	-11.860505
public	-10.394968
CP	-11.920556
▁row	-11.590315
can	-11.412818
surface	-12.027801
tc	-11.690120
df	-11.898074
curr	-11.801470
sg	-11.992006
BB	-12.138905
▁USART	-12.249385
▁associated	-11.342623
fl	-11.986643
seg	-12.000119
eb	-11.951201
Link	-11.673581
▁match	-11.295200
peer	-12.003620
CE	-12.053645
protocol	-11.686541
Internal	-11.756820
cond	-11.836676
select	-11.633410
ri	-11.553564
div	-10.533819
▁received	-11.068952
pa	-11.670440
▁change	-11.116758
▁internal	-11.507565
uart	-12.032580
doc	-11.567833
mv	-12.197831
ci	-11.611594
RAM	-12.416969
ssize	-11.758084
done	-11.461869
▁exit	-10.971894
--------------*/	-10.886597
Struct	-11.839956
Draw	-11.885845
As	-11.468610
MB	-12.133084
RGB	-12.001557
▁DEFAULT	-12.135503
Min	-11.971729
AND	-11.774799
▁right	-10.998988
▁LL	-12.077144
bar	-11.245277
red	-11.644979
Send	-11.826416
MT	-12.036942
TC	-12.057337
SS	-11.937366
np	-11.948188
other	-11.644775
▁rhs	-11.959138
AB	-12.167321
▁library	-11.448523
par	-11.552845
▁stream	-11.519614
▁CAN	-12.280691
clock	-11.826039
power	-11.753082
domain	-11.930055
▁NS	-11.689363
If	-11.361652
▁contains	-11.454846
▁integer	-11.723630
ra	-11.375593
draw	-11.751097
DS	-11.713616
Bytes	-11.830791
ea	-11.863119
search	-11.756166
▁control	-11.140935
▁GLsizei	-12.742982
EQ	-11.968280
CAP	-12.035851
pixel	-12.023504
HAS	-11.765828
▁reference	-11.487791
pad	-11.880353
▁send	-11.573110
del	-11.544876
cplusplus	-10.779079
▁about	-9.859479
▁{"	-11.850234
licenses	-11.875711
AM	-11.969230
▁GLenum	-12.451553
so	-11.257314
▁terms	-11.214915
multi	-11.942426
names	-11.592610
▁server	-11.476591
ro	-11.499383
SYNC	-12.025573
STREAM	-11.933036
▁Redistributions	-11.701522
se	-11.305055
body	-11.347697
▁connection	-11.523895
▁driver	-11.552895
▁these	-10.526895
rm	-11.619530
BC	-11.997886
▁NSString	-11.658296
TARGET	-11.804804
TR	-11.983182
service	-11.758639
▁DAMAGES	-11.780390
DP	-11.967702
Invalid	-11.795521
ZEND	-11.901968
Storage	-11.822084
WITH	-11.994061
step	-11.826265
bi	-11.642544
HI	-12.284558
see	-11.182701
CHANNEL	-12.049988
nb	-11.936239
delay	-11.863191
pack	-12.034273
dl	-11.777660
';	-11.144395
▁work	-10.466258
▁color	-11.559395
Operation	-11.981252
Change	-11.861449
HOST	-11.981840
extra	-11.974716
codec	-12.127984
**************	-12.316169
DECL	-11.755008
Record	-11.757276
▁location	-11.599193
▁supported	-11.552395
▁except	-11.473106
Layer	-11.862754
google	-11.835875
▁files	-11.483416
▁even	-10.811267
slice	-12.273875
tb	-11.874789
URL	-11.960323
ml	-12.003481
▁Is	-10.764724
RES	-12.052451
PL	-12.208711
▁loop	-11.607302
ie	-11.105020
abs	-12.106525
WORD	-11.948281
readonly	-11.713359
▁single	-11.010685
▁strlen	-11.939196
ITEM	-12.029452
▁Free	-11.208922
poll	-12.157204
CONTEXT	-12.014510
pass	-11.801501
MR	-12.370008
card	-11.768705
▁KIND	-11.776749
Vec	-12.187629
GROUP	-11.978524
▁text	-11.462692
ME	-12.200510
FAIL	-11.829408
COPY	-11.839868
png	-12.194222
asn	-12.118233
▁task	-11.701535
Last	-11.764399
Access	-11.877762
GP	-12.142830
rows	-11.960808
layout	-11.639800
CLIENT	-12.012425
il	-11.740601
ALT	-12.386748
em	-11.335118
dbg	-12.063209
INTERNAL	-11.873615
CL	-11.979598
tls	-12.133656
(((	-12.479073
layer	-12.002580
Transform	-11.915919
drv	-12.088864
ARM	-12.051937
▁Add	-11.601851
hal	-11.820336
opts	-11.912580
pending	-11.918050
▁(!(	-11.865393
▁through	-10.596903
Media	-12.043376
IMAGE	-11.965511
▁Default	-11.507824
gp	-12.145035
▁$	-10.023746
Space	-11.758516
▁needed	-11.474972
record	-11.843856
flush	-11.813708
bt	-11.903939
YTHON	-11.991041
wr	-12.161448
▁EXPRESS	-11.903493
HAVE	-11.751716
FILTER	-12.025399
▁always	-11.270297
▁local	-11.090753
oc	-11.773954
Or	-11.699247
CLOCK	-12.088444
lu	-12.025177
Match	-12.224947
FRAME	-12.141287
▁STM	-12.357795
show	-11.556355
Multi	-11.960418
▁permission	-11.521039
▁enabled	-11.859126
symbol	-12.037798
MEMORY	-11.900894
--;	-11.155677
act	-11.993819
LICENSE	-11.725945
cert	-12.218536
encode	-12.220227
▁want	-10.991108
CK	-12.260257
af	-11.891168
chain	-12.002224
FMT	-12.201960
operator	-11.801283
img	-11.974682
RF	-12.412252
▁form	-11.081244
reply	-12.013949
Audio	-12.060591
counter	-11.927792
Enum	-11.921151
DR	-12.153935
xml	-11.743095
▁over	-10.367575
ULONG	-11.974120
Row	-11.870663
connect	-11.976695
OUTPUT	-12.012062
▁since	-10.962472
nc	-11.942486
▁Version	-11.633689
Decl	-11.958163
▁LIABLE	-11.876362
▁they	-9.990610
▁PROVIDED	-11.903701
LINK	-11.971014
HEADER	-11.873827
OPEN	-11.929959
▁final	-11.056863
▁RCC	-12.554009
▁No	-10.396856
FOR	-11.955443
bo	-11.714053
]->	-12.067755
▁character	-11.332164
▁SHALL	-11.887232
decode	-12.140463
BR	-12.102826
------------	-11.987115
fail	-11.791844
entries	-12.008462
FAILURE	-11.707774
rp	-11.922124
acc	-12.351216
Async	-12.094117
Tensor	-12.362170
rpc	-12.119212
descriptor	-12.020125
keys	-11.884016
▁WHETHER	-11.906328
SH	-12.165155
De	-11.610537
▁empty	-11.700744
FIFO	-12.355422
DECREF	-11.707696
CMP	-12.331076
RESULT	-11.950818
Template	-11.849292
STATIC	-12.032379
FREE	-11.702525
content	-11.551112
▁min	-11.818601
▁self	-11.151718
▁SDL	-11.873691
glGet	-12.139802
DA	-12.140118
sta	-11.919054
▁client	-11.591525
Container	-11.840063
pdev	-11.970866
PWM	-12.508382
master	-11.712748
shader	-12.197458
▁run	-11.209464
Print	-11.886068
full	-11.901935
TEXT	-11.955977
HTTP	-12.057137
Style	-11.741086
Protocol	-11.974151
enabled	-11.822458
PAD	-12.349396
async	-12.219928
SM	-12.229305
TM	-12.505228
EM	-12.335476
LD	-11.963782
TLS	-12.139713
PYX	-12.856942
Counter	-12.157524
mt	-11.947966
bitmap	-12.211055
CONF	-12.127849
Component	-11.733055
freq	-12.187672
sin	-11.889505
high	-12.011577
ADDRESS	-12.136936
Box	-11.761297
DF	-11.972870
ht	-12.061541
▁ARISING	-11.989430
▁open	-11.242958
CT	-12.306515
reference	-11.946214
▁When	-11.135417
▁writing	-11.441456
▁protected	-10.416815
▁expected	-11.664343
TIMEOUT	-12.113404
▁different	-10.985084
▁instead	-11.492724
ge	-11.438355
ti	-11.602995
▁arguments	-11.614411
▁failure	-11.638590
CNT	-12.522666
Active	-11.933177
EXIT	-11.668730
macro	-12.070726
▁try	-11.186425
Term	-12.312111
TCP	-12.073701
FA	-11.972709
aa	-12.213075
BAD	-12.019584
▁generated	-11.706082
GE	-11.849475
wm	-12.161524
Settings	-11.891150
qp	-12.383729
builtin	-12.174547
▁response	-11.314705
TMP	-12.719105
change	-11.897999
NL	-12.231833
▁passed	-11.663645
Height	-11.909301
▁item	-11.701232
▁height	-11.705188
ct	-11.739863
fw	-12.112370
skip	-11.875329
manager	-12.139262
VA	-12.153671
▁parent	-11.770122
▁Apache	-11.819750
("\	-11.691327
MC	-11.780154
的	-10.189054
US	-11.729927
▁created	-11.139324
PRE	-12.055595
mesh	-12.191615
WTIMER	-13.843911
bio	-12.012100
swap	-12.019187
Socket	-11.961089
XX	-12.103164
NEW	-12.086144
SEC	-12.394737
Network	-12.041915
SOC	-12.169142
lc	-11.985629
▁could	-10.609508
▁them	-10.376248
RS	-12.167219
CSR	-12.471169
▁CONTRIBUTORS	-11.909629
LOW	-12.219658
down	-11.549554
ipv	-12.288079
▁distribution	-11.340450
"\	-11.862386
aux	-12.098854
fr	-11.911688
ue	-11.996383
▁Read	-11.573991
mon	-11.782268
VER	-11.883645
apache	-11.930277
NR	-12.035541
sem	-12.102918
▁later	-10.872263
Parameters	-11.916153
Idx	-12.148766
GR	-12.550759
Option	-11.976630
▁temp	-11.735683
fetch	-12.381048
fa	-11.831426
Video	-11.915861
fff	-13.068172
▁column	-11.832752
Web	-11.856256
mono	-12.111240
Cell	-11.957709
xFE	-13.163030
board	-11.613964
lookup	-12.174715
▁would	-10.163073
AV	-11.836113
APB	-12.807627
COM	-12.015811
zval	-11.940160
llvm	-12.180600
sign	-11.997308
graph	-11.933479
family	-11.944149
WIDTH	-12.135692
platform	-11.882321
ai	-11.745226
SDL	-12.173912
diff	-12.168338
area	-12.118106
++]	-12.033453
PyErr	-11.791053
Double	-12.041082
Not	-11.698605
▁OTHERWISE	-12.022937
Pool	-11.953769
arch	-11.974179
cell	-11.861656
Sync	-12.002214
▁BE	-11.672686
Render	-11.956944
fill	-11.947272
▁GLuint	-12.519941
sprintf	-12.196363
Def	-11.963081
▁CONTRACT	-12.019759
SIG	-11.934146
REGISTER	-12.141665
Build	-12.165257
▁such	-10.550116
RANGE	-12.190840
▁queue	-11.842579
AES	-12.382243
Location	-11.779890
sort	-11.747750
basic	-12.136102
MI	-12.365893
▁signal	-11.963837
▁AV	-12.125343
▁delete	-11.755085
▁per	-11.289596
ROUTELOC	-13.848306
Real	-12.233585
▁OP	-11.763132
▁TORT	-12.011775
▁</	-9.797810
sr	-12.032516
SA	-12.157709
Err	-11.973304
▁filter	-11.901675
▁language	-11.388771
eth	-11.980040
post	-11.755225
▁"/	-12.257906
POWER	-12.132351
sf	-11.965418
CACHE	-12.152417
safe	-12.190836
orig	-12.148086
sv	-12.048915
pop	-11.610351
▁Shift	-12.538227
]]	-12.057311
storage	-12.036450
▁both	-10.815604
▁Mask	-12.595047
▁EVENT	-11.976672
▁net	-11.865493
▁WARRANTY	-11.884833
NRFX	-11.910830
la	-11.206140
Loc	-11.998366
THREAD	-11.997804
sha	-11.773160
ls	-11.562327
vs	-11.910169
CU	-12.076911
SYMBOL	-12.008093
invalid	-12.111263
▁copies	-11.739668
EE	-12.378407
▁Reserved	-12.025362
Clear	-11.758575
edge	-12.141877
abi	-12.071052
DD	-12.150052
dt	-11.826666
Graph	-12.160831
alpha	-11.671068
FN	-12.284806
▁options	-11.541488
LOCAL	-12.057120
man	-10.322458
Net	-12.036212
STOP	-12.264281
emit	-12.243898
PE	-12.242808
***************/	-10.371627
ANY	-12.288164
union	-11.521891
protobuf	-12.203818
Assert	-11.821282
snprintf	-12.306710
STRUCT	-12.167954
Return	-11.761933
▁socket	-11.941089
probe	-12.361622
▁possible	-11.313554
date	-11.657878
Reference	-11.885041
notify	-12.028914
Content	-11.868972
DESC	-12.232972
Variable	-11.995369
non	-11.675655
▁details	-11.317899
Stmt	-11.991514
▁during	-10.663088
dot	-12.170806
▁types	-11.490593
WR	-12.451429
bl	-12.099002
▁directory	-11.841096
▁Define	-11.933431
gt	-12.087511
▁maximum	-11.876374
ba	-11.670771
column	-12.053793
▁tree	-11.592972
Region	-12.162801
▁TIMER	-12.609629
WARNING	-12.147986
First	-11.735386
*)(	-12.666877
wp	-12.146094
bad	-11.901492
▁<<<<<<<<<<<<<<	-12.276056
ISR	-12.491679
engine	-12.196035
▁System	-11.293348
meta	-12.018731
▁pin	-12.169687
▁transaction	-11.953569
BA	-12.438226
payload	-12.235577
CRYPTO	-12.427758
▁elements	-11.603779
PI	-12.197870
screen	-11.994182
Configuration	-12.020295
ii	-11.607120
insn	-12.369199
▁real	-11.459188
argc	-11.890771
Builder	-11.872359
▁application	-11.498672
▁names	-11.421140
▁total	-11.345200
PRINT	-12.108342
found	-11.711238
settings	-12.054000
Move	-12.317824
vertex	-12.233865
▁obtain	-11.573153
rr	-12.113553
EA	-12.570724
▁FT	-11.928977
▁doesn	-11.599898
]*	-13.471064
Up	-11.796948
▁timeout	-12.021024
equal	-12.037718
Allocator	-12.132112
Close	-11.962503
bm	-12.245104
math	-11.785056
CLR	-12.516042
Enabled	-12.049608
SI	-12.394798
EB	-12.270598
ASN	-12.445821
ULL	-12.785360
FEATURE	-12.190695
stdio	-11.385442
LO	-12.258284
ram	-11.864345
wl	-12.256978
pix	-12.529282
rand	-12.191790
Common	-12.126896
delta	-11.943084
lt	-12.086337
COMMAND	-12.299442
synthesize	-12.583810
dist	-12.185464
KHR	-12.368169
WAIT	-12.195514
fields	-11.946691
▁cannot	-11.587832
▁GLfloat	-12.800766
RV	-12.351045
align	-10.192451
PRS	-13.689664
▁objects	-11.732872
xfe	-13.176304
MESSAGE	-12.190959
Library	-12.029722
NAMESPACE	-11.957294
blocks	-12.206692
elements	-12.308151
▁back	-10.813246
ver	-11.785496
bs	-11.812280
▁PWM	-12.439646
DAC	-12.641124
soc	-12.330429
DEFINED	-12.035656
PWR	-12.530212
cipher	-12.264380
PCI	-12.428385
plan	-12.219210
cu	-12.205755
Word	-12.256914
transport	-12.448859
##	-12.710257
▁VK	-12.288178
▁sure	-11.484601
NT	-12.127035
Use	-11.979650
▁sqlite	-12.165615
▁within	-11.080570
▁INCLUDING	-12.101142
At	-11.777512
▁allocated	-12.042449
ve	-11.108600
Ex	-11.807319
FAR	-12.296863
CLEAR	-12.269291
Parse	-12.156487
Sample	-12.289352
▁An	-10.846967
integer	-12.147018
▁root	-11.796988
RST	-12.646755
▁handler	-12.004859
winrt	-12.963042
rule	-12.151371
，	-12.248384
BD	-12.199753
UInt	-12.276443
CREATE	-12.171588
Spec	-12.181455
Shader	-12.131664
rq	-12.370212
items	-12.038713
Script	-11.931051
script	-11.562695
LABEL	-12.210960
KERNEL	-12.098462
scope	-11.957697
aws	-12.258876
html	-11.317459
Vertex	-12.264882
▁DWORD	-11.529202
▁our	-10.685672
Surface	-12.242867
pages	-12.131254
SYSTEM	-12.175994
vc	-12.319982
▁invalid	-11.974353
StringCopy	-12.403236
▁GB	-11.953873
!=	-12.133510
IMPL	-12.477968
▁below	-11.341279
▁WTIMER	-13.170221
cv	-12.177150
Description	-11.801405
HIGH	-12.277340
speed	-12.114178
PT	-12.203113
EV	-12.469120
PFNGL	-12.323009
ENUM	-12.196065
▁CPU	-12.082018
▁PCI	-12.350278
events	-11.994780
RET	-12.112817
ble	-11.860802
DM	-12.393542
ins	-11.565367
▁until	-11.049576
complex	-12.304488
Mesh	-12.185973
Alloc	-12.209642
▁caller	-12.122737
MOVE	-12.391132
▁TODO	-11.938231
▁remove	-11.789199
fixed	-12.267840
pw	-12.417092
SB	-12.394016
verify	-12.405733
Scan	-12.139751
Search	-12.139455
/**<	-11.429681
▁MBEDTLS	-12.225632
sequence	-12.088079
APP	-12.210818
tbl	-12.301622
▁OUT	-11.866779
CO	-12.268348
VT	-12.433614
fast	-12.160847
tty	-12.100906
▁Foundation	-11.400462
▁too	-11.184739
remote	-12.278798
build	-11.973765
FLASH	-12.393467
TI	-12.268285
disp	-12.351099
▁store	-11.791353
uv	-12.219165
BF	-12.433003
Setup	-12.103575
▁clear	-11.448289
▁multiple	-11.416986
failed	-12.034280
Generic	-11.997710
IV	-12.045390
blob	-12.337938
ig	-12.138460
IL	-12.402468
SUPPORT	-11.862207
ACTIVE	-12.369368
policy	-12.269100
Widget	-12.042222
Step	-12.218164
ma	-11.174526
Cluster	-12.471609
MSC	-12.184372
audio	-12.250793
snd	-12.321395
Loop	-12.219187
BUS	-12.351424
lambda	-12.179921
SOURCE	-12.187472
mov	-12.133950
Driver	-12.245148
Reset	-12.025823
REQUEST	-12.236429
bg	-12.336017
▁express	-11.857147
tile	-12.287476
RB	-12.219911
▁//#	-11.824800
▁modification	-11.910482
Delegate	-12.125499
gr	-12.263561
txt	-12.007978
cpp	-12.081313
▁Clear	-11.930956
▁example	-11.195138
resp	-12.211608
Column	-12.042214
location	-11.948022
▁permissions	-11.757636
RATE	-12.361866
second	-11.858464
uuid	-12.432522
SE	-11.962436
ant	-11.610331
Shape	-12.172170
Reader	-12.041228
TH	-12.328757
dr	-12.037264
PARAMETER	-12.072328
dup	-12.313037
report	-12.242677
menu	-12.070751
netdev	-12.332031
ind	-12.222138
xffffff	-13.281597
nodes	-12.137876
Policy	-12.137555
▁RNA	-12.403256
mf	-12.444518
▁None	-11.098848
Attributes	-12.042224
dy	-11.657175
rl	-12.099424
Properties	-12.114511
utf	-12.262558
IA	-12.276721
ids	-11.893193
▁skip	-12.062686
▁///<	-12.602245
Destroy	-11.905964
digits	-13.117766
description	-11.627024
opcode	-12.351305
Factory	-11.979026
ABLE	-12.213737
Proc	-12.247264
Lib	-12.066421
▁^	-12.495153
▁allocate	-12.157935
▁print	-11.522906
rank	-12.598611
▁full	-11.346141
mr	-12.286687
PIO	-13.009355
▁Function	-11.514974
less	-11.286958
▁argc	-12.098046
fifo	-12.398037
▁Control	-11.808478
mapping	-12.251318
▁avoid	-11.893366
pattern	-12.189339
Application	-12.231936
Oid	-12.176071
▁global	-11.795545
pthread	-12.140110
ga	-11.716559
Insert	-12.131587
ping	-11.917166
PROP	-12.382932
SCAN	-12.483593
cost	-12.549796
metadata	-12.195874
Unit	-12.164142
dv	-12.251086
Sequence	-12.138559
▁setting	-11.903179
container	-12.042238
reader	-12.427228
ment	-11.560681
▁sent	-11.730507
try	-11.490956
ng	-11.730026
Left	-12.116801
UPDATE	-12.101448
Begin	-12.064629
AE	-12.361988
FROM	-12.290474
LA	-11.870388
ACK	-12.393239
▁points	-11.518479
▁@{	-10.867529
ity	-11.070848
▁Do	-11.165626
ATTRIBUTE	-12.354013
WARN	-12.229040
RSA	-12.337153
▁(%	-12.672019
QUEUE	-12.261320
Dir	-12.041950
pe	-11.806616
DL	-12.156739
▁de	-10.180359
proxy	-12.299326
Trigger	-12.255705
led	-11.560116
▁/**************	-10.483075
BY	-12.263861
media	-12.086128
ae	-11.681944
Pixel	-12.255267
▁added	-11.519450
wc	-12.314129
Date	-11.988094
NUMBER	-12.264768
SL	-12.163332
imm	-12.455546
▁Aws	-12.061425
points	-12.128383
▁applicable	-11.783413
▁including	-10.933644
serial	-12.314658
FAILED	-12.091760
▁BOOL	-11.715087
+=	-12.021497
scalar	-12.402699
ne	-11.290223
grpc	-12.649959
RO	-12.437432
▁volatile	-12.086078
DEC	-12.405593
FR	-12.598137
Clock	-12.295463
▁record	-10.987836
▁NG	-12.767733
▁/*-------------	-11.063394
FL	-12.438877
▁cache	-11.940203
got	-12.153724
rhs	-12.417107
▁means	-11.520547
acl	-12.445304
▁convert	-12.072338
go	-11.312204
SOCKET	-12.175599
▁compliance	-11.973118
DI	-12.295406
▁allow	-11.819146
compare	-12.299783
Types	-11.718929
▁stored	-12.103703
GB	-12.024333
PRI	-12.627710
DIS	-12.446193
ive	-11.973013
sqlite	-12.385717
UNICODE	-12.270477
cookie	-12.578091
ws	-12.176798
Transaction	-12.092048
▁might	-11.284328
ACC	-12.627226
▁mp	-12.491768
pv	-12.348665
▁included	-11.326104
Win	-11.541067
Helper	-11.995991
RING	-12.381183
Scalar	-12.295646
HP	-12.196870
decl	-12.359433
RA	-12.439324
uintptr	-12.748805
▁transfer	-11.931534
tags	-12.470622
SERVER	-12.256466
vf	-12.592481
▁Description	-10.127059
Metadata	-12.183870
▁my	-10.274684
typ	-12.494714
UNKNOWN	-12.228316
ha	-11.749248
PF	-12.387648
ating	-11.800613
SG	-12.536384
ty	-11.383767
POS	-12.435662
CG	-12.077972
Pass	-12.350212
Pin	-12.358579
generic	-12.311154
▁vec	-12.341469
conv	-12.387981
elf	-12.412414
Root	-12.127763
optional	-11.843135
▁query	-11.947546
▁WINAPI	-11.922555
closure	-12.364145
uri	-11.871720
Auto	-12.092173
utils	-11.962870
▁OTHER	-12.173075
yych	-12.016658
component	-12.268328
▁second	-10.902396
force	-12.150130
video	-12.070758
expected	-12.248839
rep	-12.400686
MUX	-12.851613
▁(*((	-12.956156
tl	-12.129980
nv	-12.255282
Changed	-12.114242
encoding	-12.249305
DECLARE	-12.150459
▁*)&	-12.633693
▁what	-10.390203
BL	-12.319154
One	-11.951716
Const	-12.303579
DONE	-12.479833
▁selected	-11.830240
▁like	-10.385110
▁display	-11.773688
Screen	-12.236395
▁Licensed	-12.134864
▁IP	-12.259236
edit	-12.486905
crc	-12.537362
each	-12.076232
Raw	-12.366070
CRC	-12.686133
DLL	-12.276265
complete	-12.069247
ZERO	-12.196896
bcm	-12.843214
ctxt	-12.249770
▁Disable	-12.183597
▁pre	-11.721275
Trace	-12.179608
Section	-12.302597
Src	-12.495166
▁ngx	-12.375429
Extension	-12.115900
writer	-12.116349
WM	-12.383411
▁Channel	-12.144693
SV	-12.681487
vars	-12.323994
Pre	-11.996635
iov	-12.638388
ALIGN	-12.330127
alt	-12.337388
Profile	-12.176213
Scale	-12.306297
dispatch	-12.545832
SELECT	-12.314148
cleanup	-11.961137
Instruction	-12.406246
Integer	-12.126730
************/	-12.919317
DOUBLE	-12.303031
ACCESS	-12.351996
▁based	-10.634187
Values	-12.235051
><	-12.750605
factor	-12.340056
▁sequence	-11.830558
Off	-12.483706
Native	-12.363547
member	-12.113453
xffffffff	-12.563113
▁uses	-11.361657
Proxy	-12.220367
LED	-12.329004
▁useful	-11.875348
Information	-12.224368
▁prior	-11.601839
▁save	-11.921929
▁load	-11.973947
inv	-12.495109
any	-11.903395
Report	-12.353768
GLOBAL	-12.322870
TREE	-12.364542
route	-12.596832
digest	-12.406308
secp	-12.706879
▁/************	-12.245553
crypto	-12.343469
▁currently	-11.622691
strlen	-12.362910
Long	-12.000585
Ext	-12.348910
bucket	-12.630259
▁snd	-12.545994
VP	-12.376259
▁child	-11.568895
ting	-11.611087
clip	-12.752205
▁definition	-11.852605
▁Write	-12.072104
XML	-12.258125
tok	-12.248506
namespace	-11.822665
ALLOC	-12.353743
▁Initialize	-11.881144
button	-12.050053
ND	-12.467575
HT	-12.508003
Kernel	-12.260641
fname	-12.295284
Tuple	-12.355702
IDX	-12.538268
ck	-11.911389
BIO	-12.378910
Inst	-12.416607
network	-12.333990
owner	-12.179609
▁original	-11.232932
restrict	-12.591894
▁active	-11.824058
▁XK	-13.255306
strdup	-12.301140
xmm	-12.795458
printk	-12.378277
hook	-12.612303
INTEGER	-12.198262
ni	-11.655598
uid	-12.416220
▁expression	-11.725881
home	-12.333764
ot	-11.818794
▁token	-12.065374
channels	-12.308398
▁tag	-11.951887
Expression	-12.279434
dns	-12.471171
IEN	-13.162448
▁previous	-11.703664
Parent	-12.238496
▁HOLDERS	-12.176097
WS	-12.491851
ENC	-12.542891
▁registers	-12.093073
sql	-12.182289
NON	-12.345550
POINTER	-12.422324
**************/	-11.461352
FW	-12.224097
FFF	-12.441974
warn	-12.421517
commit	-12.577663
▁limitations	-11.391486
encoder	-12.447868
evt	-12.566633
unk	-12.659646
▁descriptor	-12.185277
▁explicit	-12.282525
compiler	-12.208986
▁entries	-12.133118
Child	-12.109672
Edge	-12.441505
▁parse	-12.102172
IB	-12.180166
transform	-12.279852
ECC	-12.639106
Transfer	-12.596399
profile	-12.311924
leaf	-12.586301
▁needs	-11.808954
▁governing	-11.823925
▁still	-11.035937
LT	-12.434104
convert	-12.358187
▁switch	-11.361020
usage	-12.119729
IRQn	-12.689498
random	-12.204101
▁timer	-12.099766
interrupt	-12.215002
CAL	-12.768584
▁PRS	-13.341044
▁pass	-11.828919
▁kernel	-12.142492
▁characters	-11.237668
HDR	-12.502971
DO	-12.228557
ice	-12.181211
BS	-12.012360
Program	-12.252700
ACTION	-12.334819
Scope	-12.150538
Provider	-12.299166
Order	-12.025577
hp	-12.236197
▁BASIS	-12.224647
interval	-12.445279
form	-11.718064
Rate	-12.437117
ft	-11.638305
▁derived	-12.016634
▁variables	-11.761561
TypeDef	-12.550689
▁friend	-11.693173
split	-11.944015
ef	-12.260103
EL	-12.319511
▁retain	-12.176252
zip	-12.466886
plane	-12.449474
HD	-12.622922
Right	-12.222616
weak	-12.406224
sched	-12.354832
▁BY	-11.960463
Find	-12.323361
EMPTY	-12.323441
throw	-12.251130
▁Number	-11.816151
POINT	-12.317973
▁initial	-11.852461
▁events	-11.015041
cy	-11.910611
hwnd	-12.462224
face	-12.188608
eval	-12.493271
▁CONSEQUENTIAL	-12.228692
▁defines	-12.095567
RW	-12.425070
NB	-12.484876
zone	-12.367328
mux	-12.594475
▁how	-10.834722
bfd	-12.795985
VK	-12.694926
Menu	-12.058615
MF	-12.159944
PRIVATE	-12.408736
\":	-12.771100
TP	-12.118363
▁met	-11.353945
*>(	-12.478123
pcm	-12.580330
MPI	-12.601323
ur	-11.846307
▁host	-11.856034
▁prefix	-12.340181
▁limit	-12.178978
RUN	-12.451398
ioctl	-12.449747
light	-11.992787
Json	-12.158841
ies	-11.306820
]),	-12.563470
▁materials	-11.797471
comm	-12.568975
TEMPLATE	-12.708395
tid	-12.297445
Attr	-12.336490
▁CONDITIONS	-12.159571
▁SPECIAL	-12.194831
▁network	-11.654866
wrap	-12.441364
stdlib	-11.613518
parameters	-12.334257
SF	-11.962215
(%	-12.553588
SEQ	-12.685683
Slot	-12.404336
▁select	-12.092014
EXP	-12.394298
▁MPI	-12.725768
wchar	-12.620111
vacc	-13.630687
Temp	-12.438261
now	-12.002514
ecs	-12.452884
schedule	-12.647710
▁calling	-12.059647
Scene	-12.487868
scsi	-12.530101
interp	-12.479761
▁initialize	-12.109791
▁APIENTRY	-12.438085
Zero	-12.314676
▁INCIDENTAL	-12.301088
resize	-12.313812
kInstruction	-12.654632
]))	-12.576465
disk	-12.454205
▁keep	-11.699846
SECTION	-12.206710
VERTEX	-12.419440
AST	-12.294730
▁calls	-12.033475
▁changed	-11.800108
Structure	-12.861394
lhs	-12.635033
summary	-11.301896
js	-11.632740
rk	-12.464757
fv	-12.459569
▁permitted	-11.946785
major	-12.628086
Limit	-12.490049
INTR	-12.627215
bound	-12.281434
pow	-12.990271
PY	-12.289536
▁law	-11.029637
VL	-12.761014
Timeout	-12.317162
▁LOSS	-12.441506
▁another	-11.103562
threads	-12.274097
Main	-12.134491
sensor	-12.626450
▁PHP	-11.996885
rw	-12.458528
join	-12.281101
EF	-12.475654
TASK	-12.496612
Ch	-12.672607
LIMIT	-12.440609
FULL	-12.437851
▁Reset	-12.178982
bv	-12.632493
xdc	-13.184307
pdu	-12.787348
Cursor	-12.314755
INSTANCE	-12.566245
TF	-12.563702
CV	-12.575677
▁their	-9.971059
Heap	-12.451329
▁STRICT	-12.365616
▁INDIRECT	-12.321566
Non	-12.158045
DRIVER	-12.395082
transfer	-12.417378
▁%#	-12.842911
GT	-12.556616
AUDIO	-12.502737
lower	-12.489997
▁way	-10.949280
HS	-12.602643
▁wait	-12.004245
PROTOCOL	-12.417686
▁DIRECT	-12.313400
▁WM	-12.410029
CWindows	-12.908915
Engine	-12.308761
FUN	-12.363740
SZ	-12.550016
DRV	-12.620497
Run	-12.131673
▁@}	-11.025340
SPACE	-12.406691
sq	-12.506527
▁least	-11.489408
Stop	-12.206427
boolean	-12.113697
ETH	-12.570129
Collection	-12.198874
▁wx	-12.510559
▁These	-11.414088
▁MP	-12.404805
over	-11.681255
▁PIO	-13.208339
Dev	-12.539290
▁PROFITS	-12.451967
vi	-12.106214
IPV	-12.393536
att	-12.525924
Ret	-12.341152
ngx	-12.767506
▁Pointer	-12.374417
||	-10.908941
▁service	-11.081723
(!__	-13.349146
ONE	-12.359841
adc	-12.660061
__((	-12.339159
Document	-12.276715
EQUAL	-12.575277
Symbol	-12.325558
ance	-11.953332
Io	-12.367576
▁allocation	-12.181401
Full	-12.434278
PID	-12.556281
gpu	-12.514960
variable	-12.299734
▁Update	-11.903168
▁section	-11.635731
PROTOBUF	-12.587713
▁database	-11.965251
PUBLIC	-12.353962
export	-12.450038
//!	-11.845492
Static	-12.261158
DEFINE	-12.423088
lb	-12.267298
bh	-12.166667
MON	-12.771331
LCD	-12.726500
icon	-12.239459
ONLY	-12.377054
exc	-12.656816
atom	-12.733376
▁take	-11.191712
TOP	-12.570999
▁got	-11.505395
tick	-12.941568
nat	-12.376872
▁routine	-12.248630
CONN	-12.411270
PREFIX	-12.743490
rev	-12.407921
Selection	-12.477377
TT	-12.300570
cancel	-12.527532
BUTTON	-12.541224
ostream	-12.649092
VECTOR	-12.552977
program	-12.293720
▁counter	-12.069647
FORCE	-12.592585
xfc	-13.382539
unused	-12.413509
JS	-12.428341
▁shall	-11.757467
ag	-12.226490
▁iParam	-13.104504
Constant	-12.348119
▁ARE	-12.215920
ize	-11.907090
alg	-12.472113
Usage	-12.029610
STA	-12.622443
Dynamic	-12.573293
Select	-12.224332
grp	-12.614075
UTF	-12.429788
gb	-12.530768
GUI	-12.236309
ML	-12.316625
SYM	-12.498969
Part	-12.438928
grid	-12.445591
Append	-12.310069
stm	-12.571079
▁dest	-12.405359
▁power	-11.329983
timestamp	-12.457153
monitor	-12.815599
Simple	-12.552824
MBEDTLS	-12.439193
idle	-12.774479
mpi	-12.604896
mutable	-12.312761
attrs	-12.456783
Devices	-12.770563
▁RT	-12.390504
rtc	-12.570964
}},	-12.843322
arena	-12.765829
job	-12.518145
▁subject	-11.655905
▁Unless	-12.111757
PRIORITY	-12.494618
details	-12.053582
score	-12.494707
Account	-12.482980
Ctx	-12.506636
flash	-12.549101
▁Position	-12.693046
▁vtk	-12.253267
prepare	-12.693971
Col	-12.354110
▁forms	-11.830145
▁ADVISED	-12.402637
Iter	-12.459940
▁NEGLIGENCE	-12.397150
▁POSSIBILITY	-12.112028
title	-11.768736
Capture	-12.652758
world	-12.141106
SEND	-12.513969
EXTERN	-12.367705
om	-12.205709
HEAD	-12.248767
PROTO	-12.314087
▁Make	-11.903251
Fill	-12.333168
VIDEO	-12.423831
parameter	-12.377404
Player	-12.327357
Wait	-12.327837
▁YY	-12.094952
▁SUCH	-11.915484
render	-12.353601
fix	-12.396825
▁mbedtls	-12.808856
▁search	-11.859618
Form	-12.173232
xef	-13.840198
▁instruction	-12.185931
▁XML	-12.098621
argument	-12.425360
▁union	-10.996713
ACT	-12.354751
Private	-12.203300
band	-12.005652
.");	-12.146725
allocated	-12.426932
LY	-12.442033
\\	-11.747727
single	-12.408192
ary	-11.520909
▁component	-12.127526
▁Input	-12.052430
*)&	-12.738988
▁agreed	-11.873539
Custom	-12.478363
DOWN	-12.412554
frag	-12.559553
▁methods	-11.542888
▁'%	-12.743438
▁off	-11.140327
▁exception	-12.188099
CASE	-12.309490
mo	-11.728784
▁resource	-12.108066
Shared	-12.245800
specific	-12.067920
▁disabled	-12.339856
▁via	-11.753910
▁never	-11.296073
▁actual	-11.991366
▁**/	-10.551033
▁Select	-12.282094
▁mono	-12.403211
rsp	-12.677371
▁Timer	-12.561615
GUID	-12.666646
simple	-12.396729
mg	-12.691485
▁EVEN	-12.452882
MATCH	-12.545249
packed	-12.242784
udp	-12.632560
ALPHA	-12.571667
Entity	-12.243758
▁cpu	-12.331440
▁receive	-12.019337
▁reproduce	-12.277568
▁compute	-12.392979
Game	-12.467018
LS	-12.402547
Xaml	-13.433501
framework	-12.640656
▁Redistribution	-12.303824
STORE	-12.589120
phys	-12.556508
Null	-12.367359
magic	-12.769600
fi	-11.949676
allocator	-12.643525
ub	-12.264305
vb	-12.713052
OID	-12.528783
▁NVIC	-12.799627
native	-12.522119
rgb	-12.735621
▁sockaddr	-12.451468
▁complete	-11.816758
▁priority	-12.366896
▁content	-11.566988
vl	-12.712417
ident	-12.694142
▁DAMAGE	-11.892615
Mod	-12.707579
xaa	-13.747538
ATION	-12.007654
feature	-12.481384
lines	-11.998612
Graphics	-12.418606
▁//@	-12.815150
he	-12.021287
side	-11.727780
▁stbi	-12.678287
!\	-12.691397
TOKEN	-12.481485
▁HOWEVER	-12.434984
Push	-12.631901
▁bad	-11.584376
▁low	-11.750516
▁Clock	-12.595946
Power	-12.414745
GOTREF	-12.341251
▁corresponding	-12.111267
boot	-12.378952
bn	-12.468254
Mono	-12.566462
DRM	-12.689549
Compare	-12.571105
FM	-11.866352
est	-11.698284
ENOMEM	-11.785789
span	-12.162012
strcpy	-12.341633
forward	-12.468521
▁DECL	-12.752922
Show	-12.343008
Edit	-12.333923
NC	-12.392340
Save	-12.334475
cli	-12.474520
▁high	-11.107299
(&(	-12.394707
▁\"%	-12.853938
Body	-12.318253
▁destination	-12.319982
CFGR	-13.327711
Mat	-12.821994
dirty	-12.640655
INET	-12.304288
▁SERVICES	-12.488313
po	-12.066937
gap	-12.861874
▁containing	-11.981307
Uint	-12.471638
warning	-12.381194
Stats	-12.217235
PACKET	-12.596001
ness	-11.377219
▁cur	-12.015808
▁unit	-11.834462
▁CAUSED	-12.450436
">	-10.585137
lineno	-12.925998
MODEL	-12.708920
segment	-12.569780
▁stop	-11.917357
▁LICENSE	-12.042165
▁SYSCTL	-12.971831
serialize	-12.749602
▁build	-11.841287
Boolean	-12.289316
-------------	-11.648951
role	-12.672083
IFS	-13.271384
Res	-12.594553
VS	-12.197735
XDECREF	-12.229902
extension	-12.459610
BN	-12.137952
HasBeenSet	-12.663429
Import	-12.313932
SHADER	-12.652449
WINDOW	-12.547585
▁usb	-12.513460
reserve	-12.825540
Depth	-12.437858
tex	-12.601394
EXTI	-13.233556
round	-12.496309
mgr	-12.645199
REGION	-12.931401
(*(	-12.888222
vlan	-12.752498
typedef	-11.776676
mount	-12.518031
day	-11.773572
binary	-12.454070
▁enough	-11.653475
Valid	-12.349199
ARCH	-12.400795
VALID	-12.677394
EVP	-12.832872
sim	-12.256017
ZVAL	-12.286306
numeric	-12.614668
track	-11.949345
AUTH	-12.486205
PKT	-12.788449
▁!(	-12.620410
TA	-12.431810
Segment	-12.495539
Has	-12.344326
Binary	-12.407143
Do	-11.940356
LEFT	-12.473999
Empty	-12.340863
raise	-12.758469
present	-11.780932
scroll	-12.691219
Remove	-12.382449
norm	-12.831280
▁argv	-12.432086
▁macro	-12.292811
▁BUSINESS	-12.513006
xcb	-13.056687
▁GOODS	-12.487491
AHB	-13.171422
▁CRC	-13.039318
Light	-12.514927
▁PROCUREMENT	-12.440866
▁DISCLAIMED	-12.424821
▁additional	-11.465578
▁SUBSTITUTE	-12.482052
▁operations	-11.730575
▁slot	-12.369449
VIEW	-12.461786
Operand	-12.654392
FX	-12.613617
NORMAL	-12.530139
caps	-12.645219
Req	-12.665900
Material	-12.582151
▁%%	-12.813084
Security	-12.602265
▁chunk	-12.403984
Aws	-13.136258
▁allowed	-11.964750
inner	-12.481555
▁special	-11.644680
RM	-12.595708
▁draw	-12.070369
wrapper	-12.520156
od	-12.059404
CAST	-12.687083
um	-11.365144
▁know	-10.966416
MISC	-12.769105
Dialog	-12.287554
perf	-12.570972
weight	-11.989958
Unknown	-12.298638
SIMD	-12.726170
FAST	-12.467073
Sys	-12.372202
▁THEORY	-12.435045
age	-11.374800
▁results	-10.760547
Disable	-12.467109
lf	-12.588703
priority	-12.560683
▁INTERRUPTION	-12.519905
adv	-12.766232
▁large	-11.474272
Rx	-12.298783
▁symbol	-12.279916
▁peripheral	-12.370471
ORDER	-12.532371
listener	-12.901831
▁hardware	-12.162591
lnum	-12.674362
▁EXEMPLARY	-12.416470
Success	-12.383156
xbf	-13.797806
builder	-12.684554
unknown	-12.341936
▁redistribute	-12.379951
My	-11.866286
minor	-12.711455
▁WAY	-12.495945
MULTI	-12.534458
Platform	-12.482397
stdout	-12.265484
▁requested	-12.255009
MAKE	-12.533719
controller	-12.405503
▁BSD	-12.417037
hand	-12.296693
▁action	-11.436044
windows	-12.593509
cq	-12.881534
▁side	-11.480466
axis	-12.545400
▁were	-9.772166
MV	-12.742458
BYTES	-12.774435
Priority	-12.604526
▁layer	-12.196219
▁step	-12.007213
DSP	-12.683908
BPF	-12.978993
na	-11.111658
▁PyLong	-13.120539
Notify	-12.434528
▁necessary	-11.839625
LAST	-12.533150
JSON	-12.443767
PASS	-12.306131
Face	-12.528063
PAL	-12.881650
▁present	-11.505648
]));	-12.732584
▁va	-12.409611
vim	-12.453637
▁Output	-12.198426
WT	-12.769412
▁session	-12.039744
rdev	-12.663749
cg	-12.820804
Fixed	-12.466733
cluster	-12.633981
▁scale	-12.238084
*>	-12.352534
GO	-12.502114
Work	-12.558758
▁continue	-11.394277
Total	-12.429152
CIPHER	-12.650362
▁yet	-11.697500
ry	-11.378597
HCI	-12.665245
▁"",	-12.197999
gnu	-12.677385
▁sum	-12.184026
Http	-12.349380
▁alpha	-12.671577
Tab	-12.398430
▁scan	-12.461502
prog	-12.658808
Remote	-12.458766
after	-12.214912
Bitmap	-12.533335
Mutex	-12.425783
▁OS	-12.068921
plus	-12.728950
limits	-12.321289
Track	-12.531070
Feature	-12.567392
files	-12.215024
STATS	-12.535737
Endpoint	-12.613078
SERCOM	-13.491387
drop	-12.385469
Pair	-12.451657
soft	-12.665604
git	-12.232823
clone	-12.861149
Operator	-12.234780
decoder	-13.000936
inter	-12.693650
slave	-12.666820
NE	-12.567485
calloc	-12.793350
fg	-12.574201
▁blocks	-12.307313
▁lhs	-12.770892
normal	-12.357818
▁shift	-12.465606
▁along	-11.477906
Mac	-12.647939
VERIFY	-12.723371
Rec	-12.405736
▁model	-11.468468
▁{{{	-12.545498
gid	-12.739339
▁...	-11.275323
VR	-12.356907
none	-12.205018
esp	-12.569903
eap	-12.707855
OTG	-13.102857
Support	-12.658589
Initialize	-12.354607
dpy	-12.646958
UDP	-12.618513
Exit	-12.042734
Runtime	-12.278315
vma	-12.764945
hex	-12.578399
xFC	-13.659283
Dictionary	-12.518461
dyn	-12.648722
shutdown	-12.693987
ator	-11.937935
▁published	-11.152774
Macro	-12.487393
xFFFE	-14.191106
▁granted	-12.095312
QUERY	-12.495461
tri	-12.735931
▁products	-11.779468
▁region	-11.725436
groups	-12.604475
cols	-12.644511
▁NOTE	-12.529942
▁json	-12.489525
▁asn	-13.422366
▁disable	-12.427573
widget	-12.365919
pred	-12.732111
▁many	-10.820788
▁//!<	-13.094831
▁edge	-12.290808
▁again	-11.193959
▁Open	-11.374049
batch	-12.696064
▁down	-11.081005
数	-10.526090
insertion	-12.987271
APORT	-14.480275
mu	-11.763492
ized	-11.667144
▁merge	-12.531668
replace	-12.429440
attach	-12.778137
aes	-12.761578
▁show	-11.292652
▁contain	-12.240658
%^	-14.496924
trigger	-12.550199
Generator	-12.459126
▁https	-12.064427
stbi	-13.070711
▁every	-11.386925
Pattern	-12.454239
PRESC	-14.004007
OPTION	-12.606285
▁attribute	-12.221881
persistent	-12.908232
machine	-12.472837
fold	-12.763978
signature	-12.627084
gui	-12.345354
Camera	-12.609162
▁drm	-12.664948
INC	-12.451253
ET	-12.420746
CURRENT	-12.644324
MARK	-12.584736
▁top	-11.412465
FIRST	-12.554046
▁PNG	-12.501082
▁messages	-12.225563
Per	-12.259477
▁extra	-12.054636
constant	-12.585917
▁~(	-12.797143
BOOLEAN	-12.136083
▁constructor	-12.084783
▁GTEST	-13.053160
RI	-12.770456
▁protocol	-12.314985
▁running	-11.805151
digit	-12.944481
▁((__	-12.979699
Signature	-12.409027
▁most	-10.743708
lm	-12.458589
patch	-12.941216
verbose	-12.340070
▁label	-12.378845
traits	-12.585296
▁successful	-12.006298
▁lower	-11.942797
LC	-12.514103
vcpu	-12.956749
dims	-12.789276
apply	-12.551807
rf	-12.560402
▁initialized	-12.496745
▁directly	-11.951514
*************	-13.076058
▁WITH	-12.194874
UE	-12.623709
▁bt	-12.735427
SO	-12.414092
INCREF	-12.323704
direction	-12.557579
Down	-12.305048
ov	-11.924030
boost	-12.359109
Single	-12.584226
cont	-12.557182
▁warranty	-12.242186
▁changes	-11.599084
PHP	-12.513619
Exp	-12.725985
ApplicationModel	-13.221779
poly	-12.916559
inet	-12.614413
{{	-13.240826
frames	-12.572137
ber	-12.099061
Gen	-12.512634
▁//-------------	-11.444026
▁removed	-12.078045
▁amount	-11.986069
▁malloc	-12.524570
DW	-12.866420
▁Vk	-12.342257
▁Created	-12.811318
urb	-12.709916
glVertexAttrib	-12.808570
VI	-12.746611
super	-12.367212
Master	-12.607688
▁wined	-12.988654
▁endpoint	-12.529286
Normal	-12.686760
sink	-12.936294
▁controller	-12.288102
GPU	-12.650162
","	-13.041874
Domain	-12.566912
backend	-12.700401
guard	-12.914533
wd	-12.624881
pcb	-12.818759
rn	-12.401873
likely	-12.833627
rte	-12.478145
HandleTypeDef	-12.754059
Tile	-12.807176
▁nothing	-11.693405
eg	-12.202697
PLAYER	-13.340462
PLATFORM	-12.486433
▁execute	-12.375507
▁platform	-12.115428
pic	-12.723841
shell	-12.668414
license	-12.403463
web	-12.253388
Basic	-12.784673
▁constant	-12.198288
Back	-12.318778
▁Find	-12.087783
initialize	-12.337160
▁os	-12.341429
Job	-12.678512
bridge	-12.278513
MPU	-13.222167
headers	-12.516399
ASM	-12.503935
tyObject	-13.662526
▁Source	-11.566517
bank	-12.544802
▁zend	-13.134730
Tcl	-12.863129
▁*((	-12.499747
GS	-12.439829
center	-10.547703
ud	-12.221645
Writer	-12.295378
PX	-12.706475
SUPPORTED	-12.478919
help	-12.338361
▁pg	-12.658745
TB	-12.955567
MHz	-12.689834
EVT	-12.886906
Software	-12.626463
Post	-12.336597
endian	-12.670004
STD	-12.629321
hci	-12.822766
drm	-12.724172
bss	-12.929475
▁LCD	-12.832250
transaction	-12.534238
Relation	-12.387645
best	-12.537206
▁sample	-12.213569
DX	-12.479527
▁fill	-12.392966
Bar	-12.149270
jl	-13.190621
neg	-12.522043
helper	-12.674322
Constraint	-12.549531
SOCK	-12.644355
fault	-13.047083
SAMPLE	-12.800702
PROPERTY	-12.763569
pk	-12.753662
▁Test	-11.736368
▁view	-11.802422
UNIT	-12.622750
▁nk	-13.223453
TV	-11.371318
bw	-12.841908
RIGHT	-12.602510
▁word	-11.874722
ACPI	-12.788995
ization	-11.689672
errors	-12.258047
▁heap	-12.468423
▁promote	-12.324935
DELAY	-12.746215
OB	-12.617072
▁/**/	-10.455462
FLT	-13.045961
Interval	-12.618758
diag	-12.817952
Any	-12.449765
KERN	-12.728676
kfree	-11.977168
ESP	-13.017882
MA	-12.302371
▁standard	-11.821813
Std	-12.914965
▁strong	-12.010510
dynamic	-12.446001
▁identifier	-12.602638
tk	-12.695253
PIPE	-12.713406
▁external	-12.197981
FI	-12.512594
Only	-12.357071
Top	-12.280401
After	-12.578148
guid	-12.938718
AMD	-12.797625
endpoint	-12.757837
▁nodes	-12.428233
pll	-13.056077
foo	-12.199824
▁eval	-13.502382
Virtual	-12.820000
NU	-12.915422
features	-12.612485
(...)	-12.294437
PPC	-12.822949
schema	-12.680570
bias	-13.079152
Bus	-12.756396
au	-12.018237
Void	-12.836819
plugin	-12.748203
ate	-11.740389
REAL	-12.603432
DEPTH	-12.597458
<=	-12.747891
Put	-12.917010
▁pointers	-12.465836
▁distribute	-12.584491
TK	-12.581370
▁errors	-12.206584
Member	-12.488040
PU	-12.804372
Low	-12.645487
ak	-11.729973
▁Re	-10.799224
▁product	-11.956842
partition	-12.768569
abort	-12.361248
OT	-12.770977
Notification	-12.542660
indices	-12.912159
PKEY	-12.906967
▁rt	-12.731059
IMGUI	-13.072875
VC	-12.460353
PyExc	-12.421456
▁conversion	-12.354405
SDK	-12.642984
MAIN	-12.520137
DDR	-12.995848
▁//==========	-13.926387
Seq	-12.621475
Decode	-12.695385
▁etc	-12.026429
▁equal	-12.238272
reserved	-12.470113
Plugin	-12.482833
$$	-12.505403
▁EVP	-12.786139
▁©	-12.679276
▁generate	-12.350743
psz	-12.735844
▁settings	-12.203592
entity	-12.625120
ph	-12.210627
▁description	-11.703740
cam	-12.797898
mouse	-12.567032
Clause	-12.549810
▁QString	-12.673249
ssid	-12.966873
MATRIX	-12.884207
sleep	-12.462488
▁attributes	-12.287264
CN	-12.660940
player	-12.299996
▁pixels	-12.892223
▁mapping	-12.436387
Elements	-12.557205
dummy	-12.670157
USBD	-12.739040
using	-11.993299
SSE	-12.756339
defgroup	-12.485172
cos	-12.482276
▁segment	-12.465945
gfx	-12.691180
POST	-12.410989
soap	-13.022138
retain	-12.823099
half	-12.671470
Grid	-12.500225
Chunk	-12.720163
PH	-12.642190
▁lapack	-13.271674
shadow	-12.809285
Complete	-12.683856
pro	-12.485728
refcount	-12.681201
sqrt	-12.202194
)((	-13.228386
vt	-12.513423
VENDOR	-12.970224
SPEED	-12.753136
HID	-12.810553
▁So	-10.962504
ctr	-12.890212
▁classdump	-12.828624
changed	-12.447219
BUSY	-12.830347
rg	-12.694136
▁transform	-12.623934
▁Address	-12.500799
▁texture	-12.662847
▁signed	-11.953497
▁ULONG	-11.988867
PARAMS	-12.648714
Expected	-12.774945
front	-12.565525
stdcall	-12.942830
ISO	-12.758113
identity	-12.995266
▁DEFINE	-12.683413
crtc	-13.049632
Adapter	-12.575210
Signal	-12.795420
des	-12.081029
▁AN	-12.644524
xbe	-14.090673
ACL	-12.734319
ol	-11.954657
▁random	-12.225255
rarg	-13.410886
author	-12.028742
▁GLEW	-12.854449
Delay	-12.611204
TEMP	-12.678553
▁correct	-12.103034
▁actually	-11.810472
dyld	-12.810474
curwin	-12.786132
hid	-12.698976
▁pname	-12.869387
pub	-12.803765
▁FLASH	-12.966737
▁sz	-12.610473
alias	-12.696775
Bind	-12.667411
Binding	-12.504538
Rel	-12.557917
Comp	-12.885845
▁exist	-12.249757
gain	-13.205381
ally	-11.969176
EFI	-12.456307
Animation	-12.589150
DataType	-12.656299
pu	-12.672670
exclusive	-12.720702
mid	-12.560389
Argument	-12.509206
TE	-12.629960
Auth	-12.533451
xAA	-14.239097
MAJOR	-12.629518
ser	-12.222794
SPEC	-12.853239
▁initialization	-12.423919
gs	-12.090948
Connect	-12.810692
xdf	-14.260537
▁Otherwise	-12.574608
INTEL	-12.861730
ers	-10.313571
▁screen	-12.298815
pfn	-12.960438
threshold	-12.766689
▁storage	-12.219743
SCALE	-12.822459
▁nor	-12.279819
wide	-12.845531
agg	-12.769470
sound	-12.714652
▁normal	-12.080494
▁}}}	-11.309911
UIKit	-12.655320
UC	-12.872183
HANDLER	-12.688399
CCR	-13.355525
resume	-12.910396
RAW	-12.741311
Variant	-12.629971
BOX	-12.401786
SHORT	-12.709560
PROT	-13.366783
tz	-12.041422
nm	-12.768504
txn	-12.885177
Exec	-12.588855
Wrapper	-12.575207
install	-12.797632
GPL	-12.399375
ell	-12.072697
custom	-12.627519
angle	-12.800865
dep	-12.741096
INCLUDE	-12.375121
realloc	-12.879822
dtype	-12.726614
pn	-12.499897
Icon	-12.438511
▁Load	-12.448223
beta	-12.412871
cn	-12.510202
vd	-12.854555
vol	-12.223407
Abstract	-12.885385
▁container	-12.533341
ke	-11.906064
ingroup	-11.956735
origin	-12.736770
TSRMLS	-13.139368
▁SQLITE	-12.528980
▁deal	-12.001535
hs	-12.298164
Can	-12.343011
tool	-12.871176
▁contributors	-12.545135
▁Compute	-12.527446
MSK	-13.212929
instr	-12.873924
srv	-12.928047
xbd	-14.051995
factory	-12.887272
Fast	-12.894936
KP	-12.987613
++){	-12.706521
IDLE	-12.827557
worker	-12.738879
nn	-12.316479
Traits	-12.700188
FIX	-12.767095
ports	-12.639469
о	-14.660040
▁sets	-12.175636
Direction	-12.745316
literal	-13.120879
upper	-12.626484
ln	-12.515228
geometry	-13.009325
External	-12.546412
hint	-12.996081
SQ	-13.067830
IMM	-12.932026
Slice	-12.733956
▁implemented	-12.387530
IPC	-12.818559
▁FROM	-12.177783
AWS	-13.212696
ei	-12.146796
▁existing	-12.183486
touch	-13.089946
▁cases	-11.651195
operation	-12.560763
Monitor	-12.400079
seed	-12.758380
INV	-12.993375
[],	-12.510097
reason	-12.617546
▁Only	-12.242870
▁exists	-12.265460
avail	-12.842718
Short	-12.523918
micro	-13.122208
RESOURCE	-12.781973
Lookup	-12.680234
。	-7.578434
Con	-12.469519
Old	-12.607508
BM	-12.839036
▁those	-11.040622
Directory	-12.368703
▁processing	-12.193384
binding	-12.964838
der	-11.662867
memcmp	-13.100159
▁MONO	-12.765725
▁own	-11.048400
lane	-13.041892
period	-12.722703
HC	-12.915677
marker	-13.143587
▁Model	-11.956555
BIG	-12.368430
ratio	-13.119538
properties	-12.464851
netif	-12.809513
rem	-12.448963
signed	-12.635909
dat	-12.812802
Condition	-12.732050
kw	-12.683096
SIM	-13.233245
Enter	-12.616881
▁*)(	-12.808026
PARSE	-12.671784
▁starting	-12.144442
RR	-12.684607
which	-12.198004
usr	-12.717783
VOID	-12.475385
▁trigger	-12.736559
locale	-12.625981
▁member	-11.401371
stage	-12.675633
pte	-13.145349
▁endorse	-12.612080
▁BLE	-12.680093
▁pixel	-12.670517
")));	-12.915136
catalog	-12.882577
▁mark	-12.182582
▁negative	-12.270994
merge	-12.636908
WINDOWS	-12.433634
Volume	-12.711370
Plan	-12.605808
Vk	-12.903742
▁bfd	-12.575298
MAGIC	-12.727014
stub	-13.203724
dis	-12.132118
XE	-13.675070
REV	-13.005028
▁SD	-12.558085
fds	-12.810695
nic	-12.577201
Speed	-12.819333
ready	-12.473754
AN	-12.481067
ndim	-12.976442
Prop	-12.696253
▁GLdouble	-13.372282
▁Corporation	-11.929043
IOC	-12.809166
renderer	-12.731173
ah	-12.004231
Env	-12.737843
vr	-12.715298
operand	-12.880846
▁...)	-13.066586
cls	-12.742081
▁contents	-12.474549
sse	-12.678009
glProgramUniform	-13.045258
ull	-12.881042
lang	-12.112625
<>	-12.003356
▁Remove	-12.437343
external	-12.672369
Ctrl	-12.752104
Sort	-12.771822
▁definitions	-12.175340
▁<>	-12.019358
CERT	-12.867384
SERVICE	-12.763660
backup	-13.188703
Interrupt	-12.676723
POOL	-12.811010
Pro	-12.461934
final	-12.117669
blue	-12.826736
xfb	-13.845494
MX	-12.713362
deprecated	-12.703286
UUID	-12.886575
execute	-12.636913
▁bcm	-12.878283
year	-11.812406
our	-12.452203
crypt	-12.727028
calc	-12.932465
ence	-12.237779
Force	-12.985260
▁CWE	-13.125466
prot	-12.892831
ENV	-12.713838
Geometry	-12.662784
PRIO	-12.681972
tup	-12.708235
TIFF	-12.839221
glew	-12.774415
Head	-12.529180
nullptr	-12.708702
pData	-12.823011
cat	-12.309960
IER	-13.199960
▁frequency	-12.412477
expand	-12.906973
IFC	-13.603651
scene	-12.691028
COMMON	-12.723422
sid	-12.555669
CALLBACK	-12.768353
▁usage	-12.142812
FREQ	-13.074328
cons	-12.840168
validate	-12.710340
MO	-12.724237
sent	-12.551102
supported	-12.685549
EDGE	-12.952751
YY	-12.533698
READWRITE	-12.131706
vk	-13.176623
dom	-12.398846
CHIP	-13.079441
accept	-12.728665
wake	-13.027257
▁lp	-12.745918
ios	-12.459808
▁allows	-12.250642
Api	-12.639395
>=	-12.740353
detail	-12.660060
coord	-12.994689
CODEC	-12.946669
▁force	-12.076842
▁Permission	-12.716201
VF	-12.918891
vert	-12.593246
▁cursor	-12.502749
▁SHA	-13.270725
▁ignore	-12.538282
▁reading	-10.293500
initial	-12.701550
▁FIXME	-12.710498
▁keys	-12.497017
RG	-12.723135
errcode	-12.678105
FileName	-12.680019
▁ensure	-12.366328
TD	-12.697396
Allocation	-12.697726
Flow	-12.855861
unicode	-12.687652
Serial	-12.636762
shim	-12.750526
opaque	-13.132043
RefNanny	-12.274825
CX	-12.434473
Swap	-12.653713
blend	-13.138187
reduce	-12.878685
pwm	-13.084257
hl	-12.472907
SESSION	-12.776505
▁There	-10.995915
BACK	-12.538528
ru	-11.980005
▁dw	-12.481058
share	-12.973589
curl	-13.075477
▁licensed	-12.695266
ang	-12.334027
Title	-12.365867
▁overflow	-12.585492
Case	-12.604383
RED	-12.545919
aligned	-11.545113
ever	-12.844033
ATOMIC	-12.809226
wise	-12.601420
VEC	-12.934478
▁selection	-12.131324
INS	-12.843469
]+	-13.517705
live	-12.921452
intr	-12.672115
bdev	-13.080930
BP	-12.855312
▁sk	-12.630222
▁chain	-12.400662
CY	-12.924611
NF	-13.021330
▁ignored	-12.498434
opline	-13.046226
Shift	-12.831352
direct	-12.784975
Names	-12.532992
thr	-12.839550
fm	-12.645438
cal	-12.125714
SAM	-13.377928
▁WINED	-13.052262
columns	-12.822534
▁modified	-12.451862
>*	-12.989440
APPLE	-12.606791
ho	-12.302003
OVERRIDE	-12.774663
▁Lesser	-12.367574
▁png	-12.938430
▁CY	-13.061635
history	-12.786517
SINGLE	-12.835513
GA	-12.859176
▁Sets	-12.507248
PCM	-12.883052
attributes	-12.624557
▁extension	-12.288758
OVER	-12.625440
arginfo	-13.209251
ENTER	-12.435658
ical	-12.489878
BOOT	-12.767027
radio	-12.768368
SCRIPT	-12.627384
()->	-12.407832
▁us	-11.425288
Dest	-12.919669
DNS	-12.838946
GRP	-13.079405
annotation	-12.283279
offsets	-12.701347
▁depth	-12.549748
BUG	-12.531087
vo	-12.345683
isl	-13.065620
pat	-12.690084
PIXEL	-12.825653
comment	-12.631985
▁Allocate	-12.562256
▁machine	-12.294608
but	-12.210746
BAR	-12.692846
green	-12.880852
READY	-12.867700
svc	-12.923670
ATI	-12.880910
▁PM	-12.164389
Ty	-12.887870
samples	-12.889730
▁EXTI	-13.442664
FLOW	-12.808390
oper	-13.191669
▁setup	-12.236391
overflow	-12.546424
RL	-12.733901
gm	-12.905544
Alpha	-12.751395
LF	-12.758076
phase	-12.751764
THIS	-12.670268
bottom	-12.248877
capacity	-12.807489
PED	-13.458658
suspend	-12.730375
▁buffers	-12.687985
cached	-12.773853
CBC	-12.796917
High	-12.539658
BUILD	-12.580790
Batch	-12.756144
finish	-12.632993
motion	-13.030373
RDY	-13.458846
ffe	-13.443255
▁font	-12.451449
///////////////	-12.664502
Failure	-12.583146
dentry	-12.919980
Rule	-12.598849
▁hope	-12.066826
CPP	-12.772479
Events	-12.503401
PRSCH	-14.621514
STEP	-12.835912
sep	-12.693062
INST	-12.852437
scheme	-13.341524
SMP	-12.943216
SWAP	-12.940394
PUSH	-12.721900
secret	-13.111339
compute	-12.839662
Definition	-12.927164
BACKEND	-12.928520
▁half	-11.519984
uni	-12.754248
MK	-13.028918
busy	-13.019003
uiv	-13.009905
▁well	-10.807668
▁rb	-12.963502
AI	-12.782028
Dump	-12.568053
children	-12.494360
▁small	-11.419054
URI	-12.680602
▁cleanup	-11.889932
▁MIT	-12.219233
Initial	-13.171935
variant	-13.026946
▁style	-10.658951
▁direction	-12.140335
Convert	-12.806759
##_	-13.195836
ear	-13.150553
MG	-12.709874
▁itself	-11.889899
failure	-12.621149
EMIT	-13.322515
BLK	-13.056466
DST	-13.103823
intel	-12.887227
guint	-12.672282
need	-12.515432
/***************	-11.815297
REL	-12.861235
Asset	-12.785675
xfd	-13.744797
▁account	-12.153758
▁Standard	-12.172463
▁GLboolean	-12.887264
Receive	-12.889305
▁"-	-12.583673
'\	-12.713255
▁OPENSSL	-12.392413
avg	-13.085195
SAVE	-12.721423
▁indicates	-12.448183
Mouse	-12.884059
nvme	-13.101320
grad	-12.816791
walk	-12.920430
COL	-12.877564
▁did	-10.893837
ian	-11.270645
bounds	-12.943366
trap	-13.067769
▁pattern	-12.316495
▁ARM	-12.860352
▁upper	-12.381558
PERI	-13.906097
listen	-13.020573
klass	-13.011492
SMALL	-12.778882
broadcast	-13.259530
Direct	-13.114324
LIGHT	-12.698576
ray	-11.908827
Character	-13.065807
idl	-13.065012
ASCII	-12.845644
EDIT	-13.129715
FONT	-12.857287
:%.*]],	-15.034515
expression	-12.654422
▁hereby	-12.684451
▁IDirect	-12.942241
material	-13.074090
fid	-12.970088
ill	-12.910472
GLint	-13.194053
allocate	-12.839885
▁Start	-12.204483
Cfg	-13.034478
buffers	-12.707155
▁OID	-13.660261
condition	-12.576752
DRAW	-12.761017
den	-11.664374
ViewController	-12.708103
Area	-12.696454
PIC	-13.101212
▁Port	-11.967525
eof	-12.844366
wire	-12.899088
▁go	-11.313574
▁ieee	-13.167252
SLEEP	-13.020462
Utils	-12.364123
▁optional	-12.716273
HTML	-12.948915
pixels	-12.922728
XC	-13.180611
numpy	-13.351199
arc	-13.022500
MEDIA	-12.838327
extent	-12.973830
Equal	-12.663546
progress	-12.667172
Chain	-12.600775
Forward	-12.979615
palette	-13.301237
constraint	-12.839920
site	-12.563434
AddRef	-12.698290
▁track	-11.955507
Pack	-13.046125
pipeline	-13.404614
▁updated	-12.436661
rcu	-12.644057
▁specify	-12.777447
Sig	-13.070647
curve	-12.934142
Make	-12.594262
cpi	-13.108387
ZEPHIR	-12.773772
actions	-12.679307
Switch	-12.763223
support	-12.567187
▁encoding	-12.493719
▁Tcl	-12.567370
▁Used	-12.669417
HRESULT	-12.555543
▁area	-11.150119
security	-12.630600
▁alignment	-12.663631
docs	-12.957421
▁"../	-12.369300
Card	-12.767491
▁strings	-12.495068
Flush	-12.589417
▁PFNGLGET	-12.598358
▁multi	-12.119034
--)	-12.630238
▁provide	-11.754675
jit	-12.839740
Cast	-12.722173
▁project	-11.740918
PACK	-12.895007
Kit	-12.602455
▁simple	-11.978844
gtk	-12.940803
ION	-12.472629
lex	-12.648715
tensor	-13.082600
rot	-12.834258
BO	-12.869877
Mark	-12.452373
Nullable	-13.119763
strncmp	-13.170189
RELEASE	-12.760986
password	-12.636005
▁Also	-12.081255
▁compiler	-12.611797
▁requires	-12.318552
allow	-12.596108
cred	-13.018838
Encoding	-12.764809
zz	-12.842381
quad	-12.462287
PRESENT	-12.869447
OM	-12.699690
edges	-13.289612
STORAGE	-12.914107
▁APP	-12.517009
▁Rights	-12.249337
Ready	-12.691906
▁zx	-13.560670
EXPECT	-13.245296
EXCEPTION	-12.739924
ASSIGN	-12.838353
dn	-12.575048
▁Neither	-12.759145
▁cell	-12.071085
seek	-13.158343
SCR	-13.263622
du	-12.093536
Self	-12.797355
▁hold	-12.151824
glUniform	-13.032428
▁PyTuple	-13.277334
late	-12.681123
way	-11.873215
loader	-12.765608
▁condition	-12.143266
▁custom	-12.431289
gd	-12.893979
▁DO	-12.225119
xce	-14.327914
colors	-13.136576
provider	-13.124982
actual	-12.772742
vendor	-12.848781
tor	-11.945810
GENERIC	-12.938098
WLAN	-12.955628
seconds	-12.787096
enter	-12.450861
▁cl	-12.506599
▁inside	-11.988428
wt	-12.793274
xcc	-13.958021
▁inode	-12.707755
ENDIAN	-12.571988
POSITION	-13.008817
handlers	-12.761522
NP	-12.842923
Effect	-12.812971
returns	-12.071351
▁CONNECTION	-12.865010
▁interrupts	-12.613799
Fetch	-12.703865
▁ImGui	-12.815532
ter	-11.818168
▁End	-11.478985
unregister	-12.694745
UNLOCK	-12.613177
▁requests	-12.514567
▁assignment	-12.588741
▁^=	-12.787736
router	-13.237010
CHANGE	-12.868502
NIM	-12.766794
ROUND	-13.080686
/*!<	-12.102940
MIPS	-12.970457
UT	-12.590465
Complex	-13.107316
fatal	-13.026435
mz	-13.261115
TRI	-12.957115
ToString	-12.660549
SQL	-12.689152
Factor	-12.816040
▁consume	-13.288541
xaf	-13.878060
▁completion	-12.634074
TAB	-12.889773
phi	-12.286465
TL	-12.599174
kv	-12.983258
GNUC	-12.747798
kill	-12.880305
TRIGGER	-13.034881
extract	-13.081154
PK	-13.033043
methods	-12.728636
SK	-12.591663
▁made	-10.766631
focus	-12.780313
{};	-12.339043
repeat	-13.168650
Setting	-12.639571
tables	-12.710304
chars	-12.648134
written	-12.564097
hostname	-12.861314
protoc	-13.241344
▁ACTION	-12.890466
iso	-12.611007
AVX	-13.115026
PMC	-13.516813
rsa	-12.916688
▁items	-12.292087
LR	-12.785672
ulong	-12.905971
▁pending	-12.630623
CNTL	-13.184802
▁commands	-12.514898
SND	-13.062464
relation	-12.742380
syscall	-13.034241
xfa	-14.013270
xbb	-14.103996
Progress	-12.736517
▁lines	-12.017763
shm	-12.996913
ticks	-12.895677
lr	-12.814377
▁fixed	-12.311511
Database	-12.668164
▁columns	-12.591134
▁good	-11.105171
QueryInterface	-12.963065
DES	-12.936144
)(((	-13.768633
Processor	-12.716310
▁charge	-12.266094
▁prevent	-12.418814
Sec	-11.435282
same	-12.723178
ASYNC	-13.025609
▁due	-11.495948
initWith	-12.875836
▁AT	-12.435844
uchar	-13.000881
▁factor	-12.124365
▁execution	-12.477271
NA	-12.532707
pitch	-13.343029
functions	-12.717922
LOOP	-12.880384
hd	-12.765824
▁LAB	-12.480277
PyUnicode	-13.096904
Listener	-12.521073
▁warning	-12.458776
coeff	-13.254013
Co	-12.220952
Extra	-12.850159
refresh	-13.065100
Cost	-13.126855
▁NUL	-12.799572
[%	-13.435308
▁BCM	-12.831578
Db	-12.626827
CLOSE	-12.710234
▁minimum	-12.501911
compatible	-13.299184
▁scalar	-12.765515
SAFE	-12.757623
MESH	-13.032178
success	-12.457553
▁LA	-12.507270
mmc	-13.102294
▁comment	-12.562450
joaat	-12.962582
completion	-12.820162
Export	-12.595576
PROGRAM	-12.850206
ereport	-12.221644
syntax	-13.269406
Blob	-12.885878
▁TCP	-12.745321
INSERT	-13.018914
▁algorithm	-12.474775
INTERRUPT	-12.981426
▁uLocal	-12.583041
LLU	-13.266273
COUNTER	-13.043499
rtw	-13.220665
Mapping	-12.722218
Sensor	-12.910349
mbuf	-12.941970
RESERVED	-13.077553
pubkey	-13.280383
▁href	-12.438226
Background	-12.661389
BANK	-13.216357
MY	-13.088048
ability	-11.929398
globals	-12.949185
Payload	-12.920306
▁permit	-12.643461
MASTER	-12.957390
descr	-12.966461
volume	-12.856629
RNG	-12.976045
▁{};	-12.454152
TERM	-12.885361
FWD	-12.905231
picture	-13.105500
▁signature	-12.717662
MOV	-13.061367
▁feature	-12.045194
▁tuple	-12.737111
▁Sk	-12.440786
▁includes	-11.724590
pull	-13.334732
DH	-13.092581
▁delta	-12.857892
ovs	-13.002174
wi	-12.569121
▁successfully	-12.464977
VARIANT	-12.937887
https	-12.263786
▁cluster	-12.710821
и	-14.668995
▁statement	-12.011190
▁speed	-12.125364
die	-12.424216
▁automatically	-12.511236
HEX	-13.276374
MemoryView	-12.727370
Arguments	-12.195266
AG	-12.888177
AZ	-12.807906
friend	-12.405084
▁@@	-12.970941
perm	-13.008082
connector	-13.189718
Named	-12.938889
gf	-13.157307
▁University	-9.657471
resolve	-13.290790
▁remote	-12.578625
ANT	-12.674967
Product	-12.820135
▁future	-11.860517
iLocal	-13.063666
IID	-13.252336
SLOT	-13.111190
▁publish	-12.875019
▁properties	-11.893518
▁AUTHORS	-12.801725
PIX	-13.073120
HEAP	-12.943602
▁wpa	-13.132209
▁compare	-12.621245
ELEMENT	-12.985661
linear	-12.753247
Partition	-12.777776
assoc	-13.138975
ofs	-13.160527
fun	-12.880498
Com	-12.792944
TYPES	-12.792740
▁--------	-12.268272
zephir	-13.063472
we	-11.987113
True	-12.424217
OD	-13.100739
▁checks	-12.580095
ipc	-13.081451
ning	-12.392362
collection	-12.803721
rna	-12.923976
ao	-12.265822
Category	-12.418192
MSI	-13.160592
blocking	-13.309768
ros	-12.068022
▁handling	-12.453235
▁\"	-12.928367
▁Amazon	-12.511239
SQLITE	-13.000581
▁ETH	-13.123461
Ver	-12.734588
compress	-12.923819
openssl	-12.689353
▁XXX	-12.676223
WA	-13.121659
erase	-12.812167
funcs	-13.030470
MMC	-13.084359
ay	-12.346410
ks	-11.935195
parts	-13.237048
ier	-12.168999
▁Convert	-12.508612
OSC	-13.268286
▁Send	-12.470489
distance	-12.484239
WO	-13.644303
-----------	-12.323200
rom	-12.859947
ele	-12.481819
FAULT	-13.320515
▁disk	-12.608724
identifier	-12.782784
MENU	-12.837492
▁DAC	-13.226091
TRANS	-12.956135
Pending	-12.872807
big	-12.363683
▁sign	-12.300108
Language	-12.913977
scr	-12.869194
UB	-13.007333
▁apply	-12.280892
hresult	-13.007236
xab	-14.047937
GF	-12.956286
Random	-12.836359
RGBA	-13.056328
xfer	-13.083887
vals	-12.959252
▁ESP	-12.747839
ino	-11.986235
vid	-12.641761
▁look	-11.601346
anon	-12.762731
Abort	-12.681503
▁button	-12.417511
▁portions	-12.401952
dialog	-13.253920
NimStringDesc	-13.021902
Clip	-12.744314
BG	-12.908593
HL	-12.755206
terminated	-13.431966
[];	-12.210714
SEG	-13.136612
Dec	-12.958609
intptr	-13.274616
ROW	-12.872913
Prefix	-12.820664
▁matches	-12.023831
slots	-12.947468
▁timestamp	-12.826717
LM	-12.713071
Uni	-13.606977
)?	-12.929826
WL	-13.187166
Assign	-12.857884
UNDEF	-12.725454
cid	-12.811605
▁uv	-13.120077
▁app	-12.089106
TMR	-13.195537
▁appropriate	-12.268559
cycle	-12.845628
PERF	-13.089139
wifi	-13.051721
secure	-13.167154
xFD	-13.832764
Semaphore	-13.026233
two	-12.541273
▁escape	-12.588941
Invoke	-12.987329
SENSOR	-13.025476
Bad	-12.787082
extend	-13.283843
▁LV	-13.078472
Cur	-12.826090
Aux	-13.355817
watch	-12.862147
▁Parse	-12.639007
DISABLED	-13.142407
▁domain	-12.459907
SKIP	-12.952990
:\	-12.222967
IG	-12.817560
have	-12.642480
PART	-12.727594
erts	-13.039842
▁perform	-12.428950
restore	-12.762228
CONNECT	-12.997342
PKCS	-13.213826
▁True	-10.356745
play	-12.558044
simd	-13.343047
:%.*]]	-14.362619
▁relative	-12.455014
▁Called	-12.704806
▁DECLARE	-12.837736
▁Don	-11.646965
paths	-13.073221
`.	-12.782933
▁filename	-12.627655
▁reason	-12.060922
DISPLAY	-12.956933
bundle	-13.327479
▁less	-11.915779
▁De	-11.031681
mach	-12.814004
extern	-12.611156
Validate	-12.611491
Outcome	-13.549162
rules	-13.222547
DSI	-13.486162
▁CLAIM	-12.868900
//--------------	-11.961112
mult	-13.053183
▁best	-11.311207
timing	-13.508155
wine	-13.005971
Renderer	-12.791968
Statement	-12.878574
CLI	-12.909733
▁restriction	-12.608379
></	-11.882271
SCSI	-12.986838
CRITICAL	-12.643664
▁peer	-12.695698
UV	-13.027368
FATAL	-12.895876
CHAN	-13.030611
▁sell	-12.610321
▁Configure	-12.708781
ling	-11.521393
csr	-13.236186
ial	-12.258229
intern	-12.947557
kp	-13.117878
▁configured	-12.803708
Done	-12.569821
EXPR	-12.989917
mq	-13.201106
MALLOC	-12.960868
Elem	-13.041997
BLI	-13.038989
lan	-12.022802
OV	-13.017802
running	-12.614179
▁sig	-12.629804
RTL	-13.000061
POSIX	-12.810350
▁Copy	-12.545745
BI	-12.740548
nk	-12.679125
agent	-13.145321
)+	-12.914405
stdint	-12.181912
▁lua	-12.772416
Dst	-13.248783
%%%%%%%%%%%%%%%%	-13.603158
Doc	-12.697532
Supported	-12.841395
nu	-12.194511
handshake	-12.998186
LB	-12.785321
Observer	-12.759785
mrb	-13.536794
▁person	-11.724725
ABS	-13.009706
▁relation	-12.668649
clang	-12.819333
DELETE	-12.891783
effect	-12.825567
Math	-12.900431
CONSTANT	-13.096691
INCLUDED	-12.671505
RECORD	-12.982869
Restore	-12.809329
dll	-13.025287
smp	-12.977486
ICON	-12.997335
tg	-12.836869
COMPARE	-12.948161
fh	-12.955946
▁FEAT	-12.054341
▁LLVM	-12.892244
special	-12.849091
▁provides	-12.048771
)},	-13.300995
console	-12.607389
▁macros	-12.667680
acquire	-13.305711
ErrorCode	-12.814745
▁PY	-12.980083
ROUTE	-13.442850
BINARY	-12.956289
bu	-12.596898
izing	-12.309271
saved	-12.929472
Tactic	-13.804457
topic	-13.181407
▁TLS	-13.003211
critical	-13.222686
▁representation	-12.415919
MU	-12.800167
modules	-13.007497
compile	-12.910055
prim	-12.972090
available	-12.733429
▁distance	-12.391887
▁FAIL	-12.535146
LI	-12.888159
amazon	-13.325392
reinterpret	-13.395229
tlv	-13.236118
а	-14.222934
SERIAL	-12.801672
▁NSObject	-12.673104
assembly	-13.590570
application	-12.632560
nested	-13.501869
words	-12.717181
▁HTTP	-12.717260
▁times	-11.556470
HWND	-12.890665
strip	-13.202557
▁known	-11.076462
▁connected	-12.448748
Fields	-12.867625
semaphore	-12.917165
LPC	-13.210762
rcv	-13.180053
Primitive	-12.964578
▁CODE	-12.514482
lcd	-13.099178
▁GFP	-13.059703
Drop	-13.017415
▁SPDX	-12.720559
PDU	-13.262802
gate	-12.343787
jpeg	-13.044292
ATT	-13.172612
Sign	-12.985422
SWITCH	-13.065442
ADV	-13.043925
WD	-13.020012
CAM	-12.962247
]\	-12.826263
pmd	-13.482813
mgmt	-13.245187
▁numbers	-11.981991
Compiler	-12.924597
BOARD	-12.870401
Opt	-12.920741
keep	-12.879609
▁happen	-12.448259
mock	-13.137900
locked	-12.789751
padding	-12.673787
puts	-12.854600
Points	-12.836919
Encode	-12.898762
lin	-11.638106
slow	-13.369982
Pipeline	-12.883807
REC	-12.904918
PUT	-12.975381
writel	-13.121280
Cancel	-12.647033
/%	-13.540109
▁Not	-11.651192
logger	-12.750401
wb	-12.978707
cloud	-12.932760
hidden	-12.949038
▁safe	-12.433499
sense	-13.361658
▁attempt	-12.576119
▁vertex	-12.860631
INSN	-13.434407
MONO	-13.042583
PRINTF	-13.015153
amp	-12.875457
primitive	-13.449199
▁NONINFRINGEMENT	-12.840739
SETUP	-12.771049
GMAC	-13.906406
catch	-12.672511
PAIR	-13.119905
encrypt	-13.096290
▁Process	-12.193871
mmap	-13.074079
ated	-11.981532
TWI	-13.217974
▁behavior	-12.349406
NETWORK	-13.102518
▁seconds	-12.609412
▁AM	-12.343612
EXEC	-12.830330
SHARED	-13.055953
▁bus	-12.522965
▁Intel	-12.751884
NG	-12.752497
FOREACH	-13.049723
▁raw	-12.607672
elt	-12.884835
ENTITY	-13.593350
▁GC	-12.844848
category	-12.763472
Schema	-12.815063
border	-12.526046
PCNT	-14.381854
expect	-12.902683
COMPLETE	-12.968968
chartInstance	-13.072211
▁JS	-12.672047
▁body	-11.779100
Fn	-12.836609
inf	-12.729088
Unlock	-12.649524
duration	-12.971986
qual	-12.990847
Bucket	-13.085471
Cnt	-13.041366
Items	-12.669868
Apply	-12.863450
virt	-13.046851
Desktop	-13.227893
archive	-12.842796
sender	-13.252055
▁operand	-12.956980
txid	-13.763589
▁particular	-11.956115
HF	-13.090649
SEQUENCE	-12.866511
small	-12.621654
unix	-12.924349
imag	-13.440660
SCTP	-13.212036
Execute	-12.606538
▁NPY	-13.042586
SAI	-13.305501
strcasecmp	-13.161895
Cloud	-12.741045
bk	-13.249786
Dict	-12.949267
▁obtaining	-12.792394
▁substantial	-12.327086
▁devices	-12.310479
DMAC	-13.706262
CARD	-12.965745
MSR	-13.244549
Keys	-12.740318
▁checking	-12.677451
Scroll	-12.874347
hpp	-12.437270
maps	-13.093345
IDR	-13.669315
DEPRECATED	-12.929014
BCM	-13.208593
RP	-12.890234
Sym	-13.182036
Lo	-12.797993
IX	-12.617846
Atomic	-13.215943
▁determine	-12.342443
▁NGX	-12.687978
Used	-12.895218
NATIVE	-13.072453
let	-11.817235
Stat	-12.985188
tools	-12.901016
===============	-11.240018
▁Vec	-13.385989
Worker	-12.819996
Atom	-13.173250
Package	-12.725151
oo	-12.435664
sess	-12.996933
lx	-12.841268
unordered	-12.923521
choice	-13.291871
Stub	-13.015889
Sum	-13.034180
PROCESS	-12.920411
Fault	-13.456983
IND	-12.965698
vfs	-13.131081
En	-12.833697
((*	-13.235827
DOT	-13.199493
▁dimension	-12.843365
Reply	-12.832809
generate	-13.069989
SEM	-13.634823
▁whom	-12.179200
Route	-12.880633
GD	-13.136617
usec	-13.286604
▁limitation	-12.667084
props	-12.694027
SN	-12.825864
STS	-13.317116
DOM	-12.840070
ascii	-12.970029
▁matching	-12.744498
ROOT	-13.060838
levels	-13.459632
Got	-13.148934
TSC	-13.494764
Proto	-12.947832
python	-12.930799
lim	-12.598198
▁BT	-12.921055
rng	-13.213211
▁ANSI	-13.026211
▁CONST	-13.151984
ine	-11.536645
attrib	-13.198753
PV	-12.921794
SERIALIZE	-12.602529
ql	-13.219514
defaults	-12.802853
sctp	-13.233213
▁MAC	-12.721257
Reserved	-12.875275
gcc	-13.033842
fffffff	-13.763488
devices	-12.926409
Alignment	-12.934381
REGS	-13.214720
▁payload	-12.868376
Split	-13.134380
tokens	-13.338574
▁---	-10.825851
pend	-13.219873
suffix	-13.432762
SU	-13.170108
▁video	-10.941242
▁DEALINGS	-12.840939
PERIPH	-13.460458
game	-12.553341
▁pipe	-12.805410
xBF	-13.766924
ppc	-13.078664
▁fails	-12.711690
xba	-14.429818
IEEE	-13.131177
Play	-12.683357
weights	-13.535644
▁around	-11.279490
Dim	-13.081669
mca	-13.309468
Over	-12.966435
SetString	-12.789623
large	-12.923152
operands	-13.090683
msgs	-13.069243
WORK	-12.963682
KS	-12.972169
SUN	-12.912286
Decoder	-12.999832
==============	-11.564515
SSI	-13.440532
dq	-13.259922
AK	-12.852250
sds	-12.998669
▁indicate	-12.581999
CUR	-12.996936
white	-11.934571
▁related	-12.012780
TCC	-13.540138
▁cause	-12.045646
RADIO	-13.011115
Fail	-12.770260
locks	-13.228318
▁render	-12.636885
DUMP	-13.019572
chk	-13.004623
▁inputs	-12.806541
EXTPROC	-13.143898
should	-12.553736
▁rv	-12.450262
-----	-13.017071
CFE	-13.440782
Services	-12.908804
cvt	-13.531442
receive	-13.058089
toggle	-12.845566
before	-12.397671
Super	-12.853576
▁supports	-12.612656
take	-12.837429
Glyph	-13.125152
Distance	-12.717074
memoryview	-13.667620
capture	-12.961417
ALG	-13.179322
▁stride	-12.987446
sat	-13.012207
BW	-13.261878
See	-12.166075
Transport	-12.871613
ieee	-13.256936
CRYPT	-13.010969
aom	-13.683851
▁something	-11.434183
pq	-12.969113
▁ACPI	-12.734842
hc	-12.984789
datatype	-13.133666
▁offsetof	-13.425546
DPROC	-13.026883
Cert	-13.118654
▁Authors	-12.438296
▁insert	-12.560835
are	-11.963138
NAND	-13.177366
Safe	-13.079786
▁longer	-12.102410
▁according	-11.983087
SRAM	-13.370515
Stride	-13.232654
boxed	-13.750498
directory	-12.849513
POLL	-12.984418
utility	-12.534172
panel	-13.072767
objects	-12.678102
▁addresses	-12.728078
place	-12.471207
▁immediately	-12.289733
ftp	-13.182984
Pad	-13.176980
para	-12.806076
▁align	-11.159267
MOCK	-13.209377
MUL	-13.151910
Wallet	-13.019718
wk	-13.271120
▁FIFO	-13.066734
▁hypre	-13.269204
keyword	-12.810342
reloc	-13.110499
legacy	-13.534596
Disk	-12.842464
▁ready	-12.371998
visible	-12.969209
PO	-13.100471
PROFILE	-13.050888
▁deleted	-12.863044
exact	-13.508377
OTHER	-13.193967
▁PG	-12.944477
Lower	-13.034668
▁furnished	-12.782302
explicit	-12.860661
)==	-13.325593
Zone	-13.085119
MQTT	-13.160293
▁generic	-12.715705
QString	-12.804544
META	-13.076991
▁LWIP	-12.925743
TRIG	-13.643672
POL	-13.413676
Identity	-13.063741
▁flush	-12.796821
▁packets	-12.957686
DISP	-13.264481
configure	-12.897239
▁persons	-12.495390
Modifier	-13.018842
Required	-12.763838
Statics	-13.613748
decimal	-13.384988
ioc	-13.147051
▁PHY	-12.997339
CAPS	-13.257030
▁Peripheral	-12.914693
Sink	-12.852942
LU	-13.136084
ERTS	-13.127352
xfs	-12.807756
LSB	-13.316171
Bound	-12.940208
POP	-12.607668
SIGSEL	-14.435823
optimize	-13.924409
**)	-13.301162
qos	-13.386676
▁BN	-13.147376
▁Pin	-12.617791
OPCODE	-13.051154
XA	-13.433624
barrier	-13.182787
rnd	-13.376943
fence	-13.248180
emu	-13.321552
COMPONENT	-13.004471
_##	-13.291485
▁accept	-12.700767
Compute	-13.058976
declare	-13.483738
PFN	-13.242985
unmap	-12.982915
Uniform	-12.841078
counters	-12.975551
Pipe	-13.141206
sprite	-13.077646
noise	-13.456064
▁wasm	-13.860796
Machine	-13.085343
▁report	-11.879554
MAN	-12.516763
Side	-13.019594
CDC	-13.408929
fclose	-12.340053
initialized	-12.718153
Overflow	-13.172250
SHR	-13.113404
camera	-13.025959
ENT	-12.366726
Focus	-12.942194
selmon	-13.178446
CHK	-13.224195
CTR	-13.331240
LPTIM	-13.563389
Blend	-13.213444
cuda	-13.015032
ELEM	-13.247760
UA	-12.956164
IOM	-13.532345
sect	-13.145358
misc	-12.779525
hres	-13.161178
override	-12.830507
***************	-11.607978
▁very	-11.027093
based	-11.783846
AUX	-13.276318
Blocks	-12.943032
▁axis	-12.908325
▁purpose	-12.249320
Disabled	-13.003787
nid	-13.032715
thing	-13.110946
Stage	-12.976683
Pop	-12.922921
WIFI	-13.206135
▁channels	-12.438122
ify	-12.627440
▁place	-11.081612
ENA	-13.407997
USAGE	-13.094668
▁frames	-12.934978
Peer	-13.220121
LV	-12.906705
mtu	-13.308578
Destination	-12.853938
states	-12.833295
World	-12.442792
WDT	-13.618743
required	-12.208858
NumberOf	-13.060843
▁spdk	-13.333723
roll	-12.911388
▁scope	-12.129751
vch	-13.173749
ENGINE	-13.009230
prov	-13.399985
▁declaration	-12.607244
rad	-13.018119
Url	-12.712938
smart	-13.155298
bulk	-13.359447
ValueType	-13.029078
DROP	-12.954609
activate	-13.606186
▁Compare	-13.046339
document	-12.277795
▁pci	-13.069208
▁##	-11.369692
selected	-12.718448
unpack	-13.202693
Available	-12.980023
Other	-12.695577
Note	-12.731894
que	-11.839098
Weight	-13.106355
################	-13.558827
MODEM	-13.816091
Contact	-13.144648
IUnknown	-12.916601
Snapshot	-12.981513
▁JSON	-12.707749
TILE	-13.294631
thrift	-13.393638
Sound	-13.023883
▁assign	-12.770466
▁delay	-12.694190
Derived	-12.835887
errmsg	-12.989279
glyph	-13.259849
pkey	-13.126655
▁CURL	-12.953812
dsp	-13.309664
MANAGER	-13.054551
slab	-13.070134
ignore	-12.841275
voltage	-13.752521
apr	-13.228912
BREAK	-12.553824
Center	-12.944049
▁lookup	-12.941611
Pr	-13.306562
mic	-12.765364
early	-13.416755
Threshold	-13.071496
mix	-13.178575
MOUSE	-13.080075
pref	-13.505414
Hz	-13.577032
IMR	-13.854256
▁Red	-11.055876
MACRO	-13.170272
az	-12.410395
clamp	-13.494555
Cannot	-13.102690
CONNECTION	-13.074488
▁audio	-12.539056
▁AES	-13.329571
translate	-13.412232
EG	-12.967172
▁SWIFT	-13.319388
ny	-12.063892
▁*=	-12.395545
getter	-13.310824
▁RESERVED	-13.343973
QSTR	-14.133608
▁VOID	-11.542493
▁emit	-12.983902
Optional	-12.968878
WCHAR	-13.138823
▁errmsg	-13.151750
always	-12.916315
COMM	-13.210175
Align	-13.150848
solver	-13.156860
dg	-12.953054
jump	-13.076094
strings	-12.651632
DV	-13.230237
▁structures	-11.449316
▁serial	-12.556566
hit	-12.838176
hdl	-13.345265
▁resources	-12.239862
XD	-13.571966
▁WINRT	-13.269682
▁certificate	-12.976731
discard	-13.609318
wallet	-13.085395
wakeup	-13.044802
Extract	-12.929090
fu	-12.723716
queues	-13.049312
hf	-13.006198
▁sublicense	-13.213983
Details	-12.942898
▁appear	-12.382823
QP	-13.339862
KB	-13.014669
PyDict	-13.344581
▁master	-12.500312
▁proto	-12.949448
LOCATION	-13.176259
▁job	-12.207937
DateTime	-12.995638
▁VT	-12.972218
capnp	-13.583972
▁completed	-11.569724
latest	-13.624843
advance	-13.500676
FLUSH	-13.112983
ACE	-12.919221
DEL	-13.226444
xcd	-14.366596
VLAN	-13.261628
tap	-13.148421
lit	-12.975360
SGIX	-13.107143
sy	-11.515366
lat	-12.819776
accel	-13.281618
primary	-12.850758
NX	-13.159539
redis	-12.948273
Trans	-13.047409
▁USER	-12.603110
▁anything	-11.986383
GAIN	-13.741150
Throw	-12.822112
riid	-13.345804
MEMBER	-13.147719
flip	-13.334784
generated	-12.748558
*/].	-14.047638
Completion	-13.086587
▁dynamic	-12.802951
sqInt	-12.817641
RAC	-14.033101
Replace	-12.971494
▁Any	-12.342776
nil	-12.618245
▁***	-12.079066
Alias	-13.104184
EST	-12.804439
pdata	-12.975172
mag	-13.262372
MCU	-13.387118
HRTIM	-13.639077
Merge	-12.865726
UCHAR	-12.934277
ELF	-13.131480
streams	-13.320432
endl	-13.010962
LFA	-14.489044
MOS	-13.161624
▁carry	-12.723764
xac	-14.168156
opal	-13.187139
clean	-12.773722
XL	-13.033133
▁environment	-12.243818
cinfo	-12.872819
fragment	-13.038344
chr	-13.060424
abstract	-12.953771
OPENSSL	-13.113275
TER	-12.762790
xbc	-14.194436
▁pthread	-12.846433
▁IEEE	-13.066515
fork	-12.813225
▁works	-11.115500
issue	-13.147319
sector	-13.256953
processor	-12.936456
rtl	-13.335725
sampler	-13.223400
▁tests	-12.387701
declspec	-13.274238
Gr	-13.125502
▁Calculate	-11.870520
▁sfr	-13.446453
ENR	-13.950642
suite	-13.250032
Conversion	-12.975805
logical	-12.673082
DUK	-13.387359
LTE	-13.323247
▁pt	-12.995968
Join	-13.023402
keyboard	-13.493444
▁partition	-12.875678
Timestamp	-12.891739
▁split	-12.661303
Received	-13.033921
RENDER	-13.285734
▁AWS	-12.866147
chunks	-13.042128
▁kind	-11.988859
RID	-13.327935
fib	-13.301848
Plane	-13.132207
▁Author	-12.026741
▁boost	-12.796276
DESCRIPTOR	-13.206686
CONTRACT	-13.005289
construct	-13.002595
▁round	-11.190717
omap	-13.292780
month	-12.991410
Angle	-13.023082
Ignore	-12.945529
ERRCODE	-13.088954
SIGNAL	-12.972618
JPEG	-13.125872
recovery	-13.593710
metric	-13.205948
Environment	-13.018219
Vtbl	-13.287204
strides	-13.396123
▁throw	-12.335893
▁NC	-12.863422
Sampler	-13.089419
▁Can	-11.749103
▁clean	-12.581427
blink	-13.575815
pri	-13.423660
▁flow	-12.507018
DHCP	-13.151108
,%	-13.289561
contents	-12.877725
aff	-12.843704
bpp	-13.269156
prob	-13.467339
coll	-13.351270
▁nb	-13.103962
maybe	-13.500896
Results	-12.654028
seen	-13.412785
og	-12.516013
lw	-13.109878
▁Generate	-12.906957
▁origin	-12.480948
tw	-12.982013
Eq	-13.427987
Objects	-12.813060
svn	-13.514886
▁padding	-12.762186
OVS	-13.297962
xee	-14.306275
scratch	-13.200346
nla	-13.279026
▁big	-12.115424
DN	-13.064137
Describe	-13.534165
▁Flag	-12.879046
"%	-12.949869
compat	-13.061439
Magick	-12.862127
Owner	-12.933672
Rep	-13.145521
REPORT	-13.101564
latency	-13.628608
(*((	-13.359274
MII	-13.462211
DISPATCH	-12.905307
▁much	-11.146161
▁IPv	-13.235382
ether	-12.911259
▁waiting	-12.638531
▁executed	-12.572552
mtx	-13.176043
Archive	-12.779791
outer	-13.081614
sam	-13.025534
▁av	-12.655402
▁mouse	-12.764464
]],	-13.929969
xdd	-14.452584
precision	-13.058184
FNGLVERTEXATTRIB	-13.240652
PRO	-12.916257
indirect	-13.657621
Ind	-13.007773
▁IDS	-13.265223
KV	-12.797326
terminate	-13.571549
Bounds	-13.095787
ssh	-13.127868
NOTIFY	-13.132333
previous	-12.976593
DYNAMIC	-13.070276
▁Module	-12.512688
Files	-12.489992
JIT	-13.159907
Ip	-13.031990
tim	-13.018204
vertical	-13.390726
BITMAP	-13.007180
DDS	-13.284122
correct	-13.591667
WINRT	-13.816169
▁term	-11.967864
ranges	-13.485909
Linear	-12.944739
▁isn	-12.272031
EMAC	-13.618270
▁routines	-12.796564
Util	-12.853223
xor	-13.087226
IOCTL	-13.229980
▁entity	-12.849969
▁"");	-12.998425
Dispatch	-12.967832
INF	-13.365606
It	-11.486393
tunnel	-13.441279
Present	-13.179178
▁Generated	-12.891886
Opcode	-13.123484
▁loaded	-12.940925
ez	-12.181609
MAT	-13.068749
mini	-12.919337
AX	-12.762872
mysql	-13.020440
▁none	-12.102000
AU	-13.049199
NVPROC	-13.247151
salt	-13.515069
her	-12.305994
▁Green	-11.256639
retry	-13.008470
▁rule	-12.245112
GFX	-13.315838
KIND	-13.094595
▁WCHAR	-13.169440
datum	-13.151250
▁date	-11.926432
Delta	-12.589960
EIC	-14.031841
dhcp	-13.383785
Crypto	-13.405270
▁saved	-12.774757
▁MC	-12.414670
▁ImVec	-14.153800
▁registered	-12.663131
IGNORE	-12.962156
specs	-13.366964
unlink	-12.957536
tic	-12.298141
like	-12.205380
Matcher	-13.182948
aw	-12.828585
PINMUX	-13.785684
▁effect	-11.994103
Boot	-13.199132
MATH	-13.083010
UTIL	-13.022318
disconnect	-12.992843
▁HYPRE	-13.333712
BIND	-13.242945
sch	-12.264348
xad	-14.325631
▁bitmap	-13.002970
scheduler	-13.068843
DATE	-13.001361
▁EC	-12.586027
curbuf	-13.260579
▁samples	-12.695817
▁fmt	-12.915800
▁copied	-12.985725
ow	-12.700503
HR	-12.956328
MSB	-13.432179
where	-12.481157
▁really	-11.605793
undo	-12.834158
duk	-13.261297
▁apr	-13.113993
xea	-14.335951
EVENTS	-13.469198
branch	-12.989234
SCI	-13.221937
Execution	-12.952540
Management	-13.380707
▁MA	-12.414047
Constructor	-13.106292
Algorithm	-12.880017
▁SCB	-14.003463
▁period	-11.714525
NSArray	-12.899207
▁versions	-12.164869
▁remaining	-12.448511
▁Maximum	-12.999826
xFB	-13.917171
ctype	-12.789298
MUST	-13.996564
LINUX	-12.939152
krb	-13.280201
repl	-13.300896
download	-13.516413
ZIP	-12.984888
EXTRA	-13.039975
▁specifies	-13.109868
LEUART	-14.421444
dh	-12.636220
PyInt	-13.422479
NM	-13.068467
ecc	-13.302264
parm	-13.282710
hist	-13.088014
SUCCEEDED	-13.285671
book	-12.299501
allocation	-13.102581
▁threads	-12.941398
vel	-12.818182
vtk	-12.852957
ki	-11.940460
Syntax	-13.100226
Same	-13.610517
▁GLubyte	-13.767846
EIF	-13.720242
instruction	-13.221021
FFFF	-13.100275
filters	-13.499939
mit	-12.550950
cairo	-13.194119
shuffle	-13.480289
pause	-13.208878
bmc	-13.967693
CW	-13.310856
foreach	-12.799214
mail	-12.752843
strcat	-12.991142
▁Each	-12.525550
segments	-13.764724
Conv	-13.255315
setting	-13.030788
▁takes	-12.269590
▁chip	-12.911706
▁Creates	-12.964997
▁threshold	-12.896770
MIDL	-13.648327
▁temporary	-12.748414
▁PROP	-13.694860
floor	-13.450518
rval	-12.837556
SOFT	-13.168322
gg	-12.844229
▁drop	-12.638096
meter	-12.847389
xde	-14.472060
▁stage	-11.519473
Duration	-12.968069
▁calculate	-12.850819
Namespace	-12.951130
pch	-13.273455
REMOVE	-13.172222
PULLUP	-13.565587
CID	-13.313871
adj	-13.088600
▁script	-12.641267
prime	-13.010324
nbytes	-13.108494
cmdline	-13.110722
folder	-13.503552
Buffers	-13.071646
CSS	-13.311487
BSTR	-13.291400
▁configure	-12.976414
extended	-13.128884
Nodes	-12.977000
mapped	-13.147568
selection	-12.915116
▁interval	-12.872969
Includes	-12.811564
▁Print	-12.374467
Hook	-13.079070
▁sort	-12.553439
ide	-12.613271
formats	-13.564444
%%	-13.755616
Wrap	-13.076051
RTS	-13.190191
Console	-12.752774
▁First	-10.850357
NN	-13.029472
▁handles	-12.915127
▁shape	-12.541836
ssa	-13.030575
▁package	-12.019030
INTERVAL	-13.267014
quote	-13.077129
wq	-13.320090
finalize	-13.088125
▁mlx	-13.471424
▁GPU	-13.045307
▁transmit	-13.304959
pal	-12.742519
Curve	-13.136978
▁wrong	-12.209206
Axis	-13.045542
BINDING	-13.205448
NVIC	-13.428782
XMC	-13.664438
Rows	-13.109850
xBB	-14.500397
quality	-13.439613
DAT	-13.430126
ick	-13.073123
Entries	-13.058135
▁diagnostic	-12.536960
Break	-13.183701
▁LED	-13.011313
SourceLocation	-12.988307
TEX	-13.137752
cut	-12.808453
tests	-12.791295
▁logging	-13.014323
HA	-13.130617
▁bounds	-13.054558
NRF	-13.512895
SSP	-13.359359
You	-11.450382
...)	-12.885843
▁pages	-12.375457
Emit	-13.239858
DDevice	-13.451686
▁unknown	-11.936120
▁isl	-13.455484
team	-12.917122
е	-14.010333
▁desired	-12.752618
project	-12.626641
Sleep	-13.256426
ICR	-13.730982
FIXED	-13.224549
compression	-13.138532
▁OBJ	-13.416453
omp	-12.907456
Features	-13.011181
HEIGHT	-13.304114
Slave	-13.585771
Prepare	-12.906403
PLUS	-13.153282
▁xml	-12.636788
▁greater	-12.411358
echo	-12.755451
xdb	-14.392210
▁LEAN	-14.451307
TY	-12.803773
car	-12.128293
Visual	-13.291169
ron	-12.308331
good	-12.843196
reverse	-13.117927
jj	-13.326007
ALLOW	-13.024715
xeb	-14.378154
algorithm	-12.708162
UNSIGNED	-13.272864
Verify	-13.131800
xae	-14.459912
DIM	-13.448256
indexes	-13.865090
RESPONSE	-13.240057
DOMAIN	-13.273910
▁tables	-12.688486
mavlink	-13.710843
ped	-12.720517
▁replace	-12.671327
▁tensor	-13.141511
PCIE	-13.605565
hard	-12.797227
metrics	-13.488876
▁connect	-12.787880
▁EXTERN	-12.894408
blas	-13.495762
▁floating	-12.974554
Warning	-12.939264
▁represents	-12.634255
Tick	-13.073112
▁against	-11.005725
callbacks	-13.242897
WRAP	-13.307675
paint	-13.442211
Prev	-13.065634
Cpu	-13.254108
▁headers	-12.834936
Compile	-12.863440
*************/	-12.291411
Period	-13.347804
PAR	-13.148640
pda	-14.056139
GOTO	-13.347329
ABORT	-13.081144
wa	-12.199973
hints	-13.084243
PARAMETERS	-12.989498
▁esp	-13.282065
RESP	-13.417716
▁beginning	-12.240907
implicit	-13.890375
QT	-12.867055
hop	-13.373971
▁unique	-12.567553
OPTIONS	-13.084599
iw	-13.161876
RN	-13.111318
Particle	-13.082796
▁whole	-11.966686
plain	-13.331240
▁However	-11.584756
FFFFFF	-13.437489
▁freed	-13.018924
▁abort	-12.732498
▁parsing	-12.982405
▁Private	-11.851916
eps	-13.021423
database	-12.911540
refs	-13.001590
PPU	-14.613629
QSPI	-13.575922
▁unless	-12.566865
syn	-13.396891
▁NID	-13.306203
GATT	-13.375021
Literal	-13.056343
Extended	-13.449791
▁Whether	-12.844921
SER	-13.209138
exists	-12.923798
▁nrf	-13.427481
ted	-11.983891
HE	-13.875429
reflection	-13.455152
▁document	-12.458981
RECT	-13.180744
lic	-12.693561
PARSER	-13.101885
Filename	-13.176967
REFERENCE	-13.224980
▁parser	-12.731683
▁won	-11.347796
clineno	-14.034654
▁basic	-12.378650
vn	-13.229037
Allocate	-13.134767
avx	-13.667979
Comment	-13.107831
▁sensor	-12.955370
IVE	-13.086492
▁PT	-13.137543
▁ASN	-13.239967
results	-12.733553
Declaration	-13.333678
▁MS	-12.471204
GM	-13.136924
resources	-12.866908
reload	-13.470510
cells	-13.423529
uniform	-13.569752
▁rows	-12.846857
Origin	-13.072172
Composition	-13.629888
ata	-11.869613
Xml	-13.079451
▁opcode	-13.156896
absl	-13.242250
▁metadata	-12.930842
DU	-13.011565
Certificate	-13.291224
nullable	-13.251548
recursive	-13.044650
▁detected	-12.910875
loss	-13.044207
Im	-13.145374
EXTENSION	-13.288700
▁unused	-12.944477
Updated	-13.646730
Functions	-12.903971
selector	-13.367647
minus	-13.529590
▁Black	-11.125474
Tmp	-13.282786
encoded	-13.136921
Secure	-13.128089
ucs	-13.380984
uct	-13.762122
fake	-13.528261
flex	-13.227222
ACMP	-15.180857
sptr	-13.040838
commands	-13.012323
WC	-13.102625
Border	-13.079827
workspace	-13.267838
History	-12.715510
protect	-13.624016
journal	-13.102475
FOUND	-13.191639
SIL	-13.020828
SDMMC	-13.724203
kvm	-13.333121
WP	-13.206978
PQ	-13.086716
▁Blue	-11.462606
packets	-13.204913
▁SWIG	-13.096450
▁guard	-12.686614
▁crypto	-13.031206
PRT	-13.777527
IsValid	-12.942198
▁clang	-12.592755
AH	-12.939274
Download	-13.089837
partial	-12.467786
tion	-12.385576
Unique	-13.045045
BAND	-13.368883
pwr	-13.480112
xEF	-14.116142
Encoder	-13.157461
Revision	-13.007725
Finish	-12.879564
FLD	-13.415522
acpi	-13.198939
UR	-12.977089
since	-12.565939
HFXO	-14.344172
hba	-13.458751
pts	-13.284897
▁regular	-12.294859
▁face	-12.039084
)*(	-13.222427
tensorflow	-13.071350
▁tcp	-13.115616
NIL	-13.163009
graphics	-13.270567
▁gets	-12.413811
xcf	-14.318546
icmp	-13.423812
▁Has	-12.452239
pmix	-13.549682
▁volume	-12.579212
▁produce	-12.770408
WU	-13.811565
TW	-13.148151
coords	-13.357280
Selected	-12.857058
NONNULL	-12.626993
alarm	-13.627240
▁Now	-11.778023
Frequency	-13.129591
coin	-13.378734
HZ	-13.434887
Datum	-13.033326
degree	-13.663319
xFA	-14.192176
UM	-12.886451
received	-13.147970
▁pid	-12.966805
▁Wait	-12.732867
Folder	-13.095572
alignment	-13.137625
Role	-13.010358
air	-12.528173
did	-12.637484
ICE	-13.047893
CUDA	-13.103332
restart	-13.094720
UCS	-13.238861
▁encoded	-13.069646
CONV	-13.290904
SEEK	-13.268465
hdc	-13.309339
[])	-12.740327
prec	-13.099035
CCM	-13.575795
xxx	-13.067262
IZE	-13.075768
product	-12.812512
Selector	-13.060041
nonce	-13.430024
ath	-12.679145
▁graph	-12.882485
▁shader	-13.113203
Tex	-13.000667
Constants	-12.913861
LARGE	-13.095752
tsk	-13.155816
TLV	-13.465501
relid	-13.295269
radius	-13.078207
SDIO	-13.712402
CONTENT	-13.160497
Marker	-13.192456
tvb	-13.936188
BUILTIN	-13.303787
cms	-13.448277
▁indices	-13.036922
Guid	-13.138437
▁backend	-13.107174
Loader	-12.958371
XXX	-13.154993
Accept	-12.957675
serv	-13.331259
instancetype	-13.059018
unable	-13.800762
tgt	-13.486448
EXTERNAL	-13.312943
STRUCTURE	-13.522175
Big	-12.489532
submit	-13.207156
Skip	-13.134355
kafka	-13.389090
STYLE	-13.073224
deref	-13.482912
rotate	-13.716967
elog	-13.319471
Reason	-13.113449
▁Reference	-12.468231
XOR	-13.508327
Malloc	-13.294218
tuples	-13.168698
LVL	-13.607788
▁require	-12.151670
▁Project	-11.764768
CUI	-13.721362
DER	-12.966885
Fragment	-12.935584
PN	-13.178824
framebuffer	-13.235628
Family	-12.943868
OBSERVER	-13.108383
Password	-12.902068
strncpy	-13.400496
MENT	-12.559075
InitStruct	-13.315519
oy	-12.726686
easy	-13.320755
ans	-12.078492
▁testing	-12.437661
gemm	-13.741319
Comm	-13.274825
SIGN	-13.291017
AVAILABLE	-13.340199
▁dummy	-12.978654
▁parallel	-12.705288
xabababab	-14.460760
▁problem	-11.712270
ppvObject	-13.273309
htim	-13.303979
mmu	-13.343707
odd	-13.680175
mer	-12.146051
▁increment	-13.129490
cJSON	-13.523556
ARP	-13.235320
▁started	-11.832864
blank	-13.395860
==(	-13.210699
holder	-13.526173
))))	-13.509537
IMF	-13.137648
▁alias	-13.164916
Keyboard	-12.674285
indent	-13.045000
PEN	-13.529298
Me	-12.539549
▁care	-11.872218
times	-12.369192
scoped	-13.169952
▁entire	-12.265044
Authentication	-13.368267
COND	-13.372787
circ	-12.996786
clr	-13.345915
▁assume	-12.804588
Cb	-13.351955
▁SQL	-12.815672
Editor	-12.840063
mbedtls	-13.274795
▁creation	-12.540728
glfw	-13.219492
Logger	-13.014138
BV	-13.251818
BU	-13.281758
DECLSPEC	-13.355152
isr	-13.195089
MAVLINK	-13.831115
>();	-12.729914
sampling	-13.687124
▁**)	-12.967785
▁callbacks	-12.929252
▁instances	-12.914090
▁layout	-12.470503
▁llvm	-12.910752
invoke	-13.208279
UID	-13.174515
delayed	-13.536095
▁bound	-12.832228
Arena	-13.107109
WSA	-13.150117
Cap	-13.297505
Numeric	-13.288995
False	-12.705616
▁coordinates	-12.932564
calls	-13.210830
▁extract	-12.927606
PARTITION	-13.476190
▁swap	-12.961933
▁doing	-11.961520
revision	-13.715968
▁GrB	-13.105469
▁Pre	-11.427875
CXX	-13.023397
Two	-12.945905
FEAT	-13.410822
▁boolean	-12.535431
▁forward	-12.186031
Freq	-13.429285
HashTable	-13.173374
nxt	-13.360279
ALWAYS	-13.143918
quant	-13.570568
▁sending	-12.884042
▁LUA	-13.200663
gatt	-13.580269
LETIMER	-14.629366
pcie	-13.466224
Using	-13.564638
flat	-13.357255
▁ZAP	-14.455066
BLEND	-13.195534
prio	-13.395032
inputs	-13.234196
Resize	-13.214020
▁UnityEngine	-13.831490
THRESHOLD	-13.443972
snapshot	-13.207595
▁vi	-13.035845
▁unexpected	-13.357077
▁handled	-12.933742
candidate	-13.731684
▁accompanying	-12.826078
▁Operating	-13.159466
lun	-13.309180
▁SCIP	-13.370313
links	-13.146122
oe	-12.528526
▁PyUnicode	-13.255327
YYCURSOR	-12.745790
tra	-12.599889
▁btrfs	-13.350041
GTK	-13.366979
disc	-13.241782
NIC	-13.365521
Inputs	-13.147479
DIFF	-13.247164
Before	-13.054003
▁Some	-11.785337
objc	-13.127452
DESCRIPTION	-12.717694
NVM	-13.602335
▁sf	-13.505275
▁invoke	-13.456190
SIZEOF	-13.290903
ze	-12.040522
rdp	-13.486745
configuration	-12.890048
II	-11.709315
XT	-13.324965
▁processed	-13.034813
labels	-13.407255
SIMPLE	-13.323431
▁Must	-13.016995
ctrlr	-13.763662
▁previously	-12.249969
GLAD	-13.476578
XM	-13.361813
▁Internal	-12.578136
library	-12.916252
addtogroup	-12.708293
fffff	-14.335550
@@	-13.808075
Tk	-13.165247
============	-12.435704
sun	-12.828629
.%	-13.794186
iz	-12.433272
\",\	-14.492558
▁assigned	-12.706648
remaining	-13.135033
▁BM	-13.618415
▁turn	-12.249291
RK	-13.177354
checksum	-13.396677
softc	-13.357634
registry	-13.604718
QC	-13.251187
SAMPLER	-13.280669
PATCH	-13.125362
▁Tensor	-13.424155
POLICY	-13.355792
Shadow	-13.152183
▁Cyan	-12.163510
mnt	-13.501451
structure	-13.023999
▁flash	-12.867706
▁USA	-12.082987
scaled	-13.752828
EOF	-12.978668
-------	-13.138548
▁compile	-13.039077
ual	-12.844584
▁White	-11.225169
arp	-13.338414
qf	-13.642471
gamma	-12.544461
STENCIL	-13.368516
CHUNK	-13.382877
SCOPE	-13.262601
MLX	-13.538153
bond	-13.578350
▁Configuration	-12.787887
mtd	-13.522249
regex	-13.082286
pulse	-13.599896
▁/*************	-11.620023
▁physical	-12.367023
background	-10.993246
▁SL	-13.175765
Special	-13.174386
allowed	-13.136081
rtp	-13.492323
vsi	-13.641579
Man	-12.439558
▁makes	-12.045868
xnn	-13.936100
▁Magenta	-12.202076
CCP	-13.364163
▁Gets	-12.843764
▁aligned	-13.729776
Project	-12.546825
LESS	-13.051240
▁COPYING	-13.311691
]*/	-13.307608
▁enter	-12.827406
▁indent	-13.245798
pdf	-12.911081
SECURITY	-13.282990
browser	-13.418518
bot	-12.654435
sph	-13.270730
GH	-13.354143
spl	-13.195854
INTENSET	-14.007012
ips	-13.167095
NSDictionary	-13.069245
hub	-13.224297
OMP	-13.381718
todo	-12.858915
LAYER	-13.345996
NEG	-13.277131
GI	-13.267734
Unable	-13.448994
ffd	-14.122705
java	-12.360767
fire	-13.025399
▁DW	-13.319738
WINED	-14.077583
Touch	-13.133806
▁fast	-12.527403
cpy	-13.445215
▁vectors	-12.959049
constraints	-13.327773
▁Since	-12.093488
drive	-13.114217
▁Co	-11.310839
CreateInfo	-13.385608
LFXO	-14.534056
▁finished	-12.328781
counts	-13.436741
UF	-13.677316
Second	-13.085064
▁larger	-12.499409
ENET	-13.566657
prompt	-13.480216
rdma	-13.478271
Exported	-13.004317
qh	-13.520472
▁Should	-12.810626
spawn	-13.357592
evaluate	-13.871063
arguments	-13.077954
THREADS	-12.927052
HMAC	-13.462702
defs	-12.976838
Could	-13.392348
sad	-13.433598
ible	-12.323336
buckets	-13.346429
gem	-13.098966
▁KC	-14.388806
star	-12.494690
Hit	-13.396970
nonnull	-13.411579
Idle	-13.159902
HO	-13.280500
lws	-13.576775
▁constants	-12.810991
▁atoi	-13.154906
invalidate	-13.150265
steps	-13.681700
tot	-12.870111
square	-13.409212
▁Enables	-13.329913
vout	-13.674354
ASSUME	-12.648356
FILL	-13.449854
▁better	-11.653575
ALIAS	-13.335170
controls	-13.711601
protected	-12.086631
rename	-13.311233
ko	-11.908665
nand	-13.387287
username	-12.870381
rettv	-13.344075
▁governed	-13.059347
xdr	-13.647369
▁FOUNDATION	-12.893317
nargs	-13.353264
qs	-13.223840
BIN	-13.318808
notifier	-13.427070
Hdr	-13.418534
layers	-13.461255
▁performance	-11.471735
modify	-13.324476
▁Yellow	-12.029550
MUTEX	-13.198218
Coord	-13.368507
Sk	-13.082787
avctx	-13.523198
''	-12.613430
TRY	-12.948728
cout	-12.995088
Logical	-13.184217
geo	-13.375695
negative	-13.007998
▁occurred	-12.537222
gpointer	-13.070709
TAILQ	-13.397360
xec	-14.290061
▁Try	-12.533481
▁ALT	-13.707375
BLAS	-13.683296
*)"	-13.811631
ATTRIB	-13.419924
▁[%	-13.756992
Receiver	-13.141086
nz	-12.986146
','\	-16.352534
__))	-12.927272
▁grid	-12.922943
▁leave	-12.279037
parms	-13.516595
▁held	-11.430425
▁catch	-12.268973
viewport	-13.391531
RULE	-12.931152
vq	-13.611994
Amount	-13.189857
MGMT	-13.447799
dealloc	-12.911477
Ad	-12.855397
EXPECTED	-13.551197
Micro	-13.517693
▁simde	-13.749267
SOL	-13.406309
▁reinterpret	-13.455092
▁capture	-12.961257
Acquire	-13.054624
GLEW	-13.592811
LPUART	-13.804803
lvl	-13.516234
HSE	-13.669842
overlap	-14.068915
CTS	-13.467216
iq	-13.000161
sparse	-13.446476
▁phase	-12.531153
▁PGUID	-14.842546
▁pad	-13.012049
Codec	-13.241111
▁seed	-12.947773
▁mrb	-13.320785
ile	-12.451767
Viewport	-13.448808
YUV	-13.538421
ISC	-13.174327
sections	-13.557973
▁progress	-12.599419
fld	-13.473998
▁developers	-13.016000
PROXY	-13.335723
Conn	-13.032466
scaling	-13.992350
Unicode	-13.364123
dword	-13.485842
Tail	-13.339318
FVPROC	-13.261686
grow	-13.777688
CUSTOM	-13.265136
strong	-12.867808
Enc	-13.318182
HARD	-13.230419
press	-13.007630
BufferSize	-13.244139
Increment	-13.130571
▁CSL	-13.864547
validation	-13.822721
OVR	-13.907767
INFORMATION	-13.245301
hole	-13.210684
PSK	-13.486985
TypeError	-13.133876
Go	-12.663705
managed	-13.786315
msi	-13.361557
GIVEREF	-13.201542
statement	-13.063498
▁exp	-12.942266
▁invoked	-13.157208
multicast	-13.371033
clause	-13.423065
xda	-14.469005
LESENSE	-15.955020
pose	-13.657080
room	-12.391932
Final	-12.940488
phalcon	-13.876352
MINOR	-13.416521
amount	-13.053486
UNIX	-12.897676
illegal	-14.030878
Dimension	-13.148758
Agent	-13.194995
disabled	-12.960705
mw	-13.314882
tstate	-13.042182
▁performed	-12.106544
Inter	-13.136945
ENCODING	-13.276455
EXC	-13.263771
Dis	-12.895124
Ok	-13.035704
finite	-13.794754
wnd	-13.512704
FORM	-13.253449
strm	-13.295803
▁----------	-11.709394
Channels	-13.234530
▁Curl	-13.146365
anchor	-13.569376
DIG	-13.638210
▁jint	-13.850740
more	-11.928481
inp	-13.215799
▁DT	-13.244306
Alarm	-13.643146
▁whose	-12.205599
▁background	-12.111155
horizontal	-13.934034
▁instructions	-12.729348
EI	-13.260019
COMPILE	-13.212771
FETCH	-13.413716
▁components	-12.541951
PEND	-13.782547
▁RTE	-13.438106
exponent	-14.008901
KE	-13.474044
except	-12.853757
collision	-14.062529
OPERAND	-13.478047
OES	-13.365367
▁Run	-12.214517
OpenGL	-13.099011
Diff	-13.284373
▁references	-11.939937
initializer	-13.276484
lg	-13.145750
abfd	-13.485299
NSObject	-12.839322
sysbios	-14.274820
XP	-13.315505
MN	-13.391738
pins	-13.248619
OG	-13.014403
snap	-13.589936
Phase	-13.247942
SLAVE	-13.513479
glm	-13.477649
grant	-13.435327
CHAIN	-13.340965
visit	-13.334832
PMIX	-13.324145
bmp	-13.489014
WOLFSSL	-13.289497
Motion	-13.332731
prod	-13.139125
VB	-13.341112
▁stuff	-12.435177
vertices	-13.436978
WF	-13.357578
truncate	-13.272345
▁``	-13.240212
dsverifier	-14.388824
▁nullable	-13.299524
bitwidth	-13.460594
IW	-13.277965
spinlock	-13.065709
dac	-13.494845
▁outside	-12.067477
▁undefined	-12.947514
pairs	-13.981074
highest	-13.581630
ldap	-13.436760
PENDING	-13.386788
fac	-13.621776
▁fix	-12.828540
Seg	-13.467777
▁underlying	-12.825864
ofproto	-13.684267
▁world	-11.310219
piece	-13.329420
msr	-13.615236
land	-11.031471
SCB	-13.989017
SEARCH	-13.302652
▁addition	-12.014005
btree	-13.406080
ITER	-13.463735
zalloc	-13.444901
crt	-13.481034
ICMP	-13.354422
temperature	-14.098335
▁},\	-12.914277
▁Datum	-11.930213
could	-13.259944
unistd	-12.576634
fbb	-12.704792
PW	-13.106776
gw	-13.484692
click	-12.868740
▁creating	-12.595739
rtx	-13.513886
///<	-13.188005
LN	-13.389932
▁wrapper	-12.889865
Bin	-13.497873
vtable	-13.551201
▁starts	-12.738022
github	-12.777246
hz	-13.511158
Attrib	-13.425528
nsec	-13.609940
velocity	-13.930005
▁cos	-13.775173
▁ACMP	-14.275485
pol	-13.166220
▁classes	-12.403962
cannot	-13.276062
hWnd	-13.326834
Added	-13.062284
needed	-13.167527
separator	-13.193582
swift	-13.367345
predicate	-13.946459
EVAL	-13.107493
▁going	-11.487649
UNIFORM	-13.359221
gi	-12.332088
EventArgs	-13.619197
SID	-13.348682
hold	-12.842827
INTER	-12.943646
----------	-12.418545
matched	-13.735498
BIAS	-13.822438
optimization	-14.421535
▁TCL	-13.035947
RTE	-13.278201
STRLEN	-13.529406
elab	-14.149552
USED	-12.798178
▁Lim	-13.148834
Eval	-13.216196
▁nVersion	-13.334362
▁GPLv	-13.816431
▁intel	-13.450398
TG	-13.276620
optarg	-13.192484
joint	-13.850243
**********	-13.856960
connected	-13.058453
RELOC	-13.355382
CONT	-13.249967
ler	-11.836668
▁reuse	-13.274912
VID	-13.449001
ik	-12.115863
blaze	-13.133879
▁>>=	-12.951839
vdev	-13.488701
ord	-12.883209
▁tile	-13.306854
Original	-13.160649
Div	-13.254439
XR	-13.495416
LZ	-13.745530
Found	-13.225382
gsl	-13.777902
CRYP	-13.609211
▁menu	-12.781069
hmac	-13.606468
OPERATION	-13.395135
modifier	-13.274747
COMPILER	-13.267778
imp	-13.098056
▁three	-10.853858
filesystem	-13.693336
Need	-13.775200
isset	-13.331059
EMU	-14.094676
brush	-13.635996
combine	-13.779133
Sel	-13.201312
own	-13.095170
▁help	-11.479204
mean	-13.341983
TOR	-13.118372
eo	-12.344217
OA	-13.406926
ATOM	-13.383467
▁arrays	-13.031155
YES	-12.936730
Cached	-13.195640
▁restore	-12.997755
OE	-13.274077
son	-11.214525
answer	-13.638369
++,	-13.208638
Look	-13.585519
resolver	-13.498677
detach	-13.164282
SCALAR	-13.249443
printer	-13.622734
GPR	-13.607641
hot	-13.402879
rewrite	-13.811559
Buff	-13.345201
Patch	-13.172875
USING	-13.039845
▁Mountain	-12.211810
!");	-13.198635
dtor	-13.265893
Branch	-13.254587
Automation	-13.881637
FORWARD	-13.316481
Visible	-13.091621
nor	-12.800482
▁missing	-11.024382
xca	-14.462457
fraction	-13.973184
SMC	-13.674518
ka	-11.434785
PNG	-13.169791
claim	-13.449137
intra	-13.622841
▁stm	-13.473747
ffff	-13.869056
NOR	-13.495280
gint	-13.006177
odp	-13.513068
▁mean	-12.042516
▁retry	-12.876624
overlay	-13.289381
DCHECK	-13.129407
cbmc	-14.268546
dobj	-13.583199
▁rte	-13.617800
generator	-13.311549
fo	-12.772498
lab	-12.817435
capabilities	-13.819276
Mon	-13.379790
Inline	-13.221520
pybuffer	-14.445012
ten	-12.113353
▁security	-12.187970
COMPRESSED	-13.486683
▁policy	-12.024690
▁comparison	-12.811342
demo	-13.462148
admin	-12.874496
Standard	-13.066460
▁flatbuffers	-13.618739
RUNTIME	-13.175329
posix	-13.320441
original	-12.999981
decoded	-13.313841
▁native	-12.417765
Registry	-13.101667
▁hf	-13.859882
DIRECT	-13.564485
operations	-13.151241
▁retrieve	-13.166133
▁reduce	-12.931051
▁kvm	-13.665721
dai	-13.225328
▁duplicate	-13.115628
GLAPIENTRY	-13.428319
▁notification	-13.174333
▁little	-11.542680
mbox	-13.081858
▁fxp	-13.720900
RHS	-13.524782
---------	-12.862788
▁LDAP	-13.276410
▁returning	-12.784324
fact	-13.592897
VARIABLE	-13.285623
epoch	-13.940101
ged	-12.971003
strict	-13.617650
▁/=	-13.018912
Install	-12.959643
Payment	-13.172872
burst	-13.712131
tcg	-13.691458
hy	-12.949379
▁wchar	-13.446497
GRAPH	-13.233170
ess	-12.729240
inherit	-13.645933
mirror	-13.658389
YCH	-15.208516
account	-13.076501
▁equivalent	-12.627014
setter	-13.587425
vld	-13.948074
qc	-13.635868
startup	-13.338332
SLJIT	-14.099117
SIMDE	-13.699361
SCL	-13.767893
▁give	-11.733308
▁constraint	-13.197414
Modify	-13.468770
fwd	-13.458984
VO	-13.166050
BK	-13.342054
Mgr	-13.363566
▁vl	-13.640050
character	-13.155103
▁implement	-12.898530
THROW	-13.337959
Elf	-13.258633
IVPROC	-13.157089
BER	-13.304337
▁rtx	-13.579939
Cleanup	-12.909044
glVertex	-13.540578
thresh	-13.609287
HSI	-13.791883
topology	-13.793045
SORT	-13.340695
Ob	-13.425555
Sprite	-13.249902
▁bottom	-12.706212
RQ	-13.525879
▁things	-11.645558
▁bug	-13.376473
modes	-13.279309
:</	-13.323166
Sparse	-13.369391
Drive	-13.478054
irqrestore	-13.314580
xmit	-13.652622
glColor	-13.533503
▁occurs	-12.670699
Transition	-13.040985
IMPORT	-13.038436
ini	-11.776091
▁let	-11.883088
Round	-13.336760
outputs	-13.252489
▁decode	-13.164491
▁npy	-13.499438
▁TC	-13.108148
drivers	-13.741717
alert	-13.411491
OL	-12.843993
grab	-13.632184
tal	-12.473142
srna	-13.584935
Span	-13.365441
Given	-14.237761
ATA	-13.095003
TRANSFORM	-13.451472
▁various	-11.789456
even	-13.064615
StatusTypeDef	-13.619940
fout	-13.260773
Hub	-13.436419
prv	-13.412993
chrono	-13.283827
▁profile	-11.577571
Override	-11.906189
Drag	-13.416333
Allow	-13.298404
CAT	-13.185533
INTENCLR	-14.056494
neos	-13.891505
Fix	-13.738295
▁rather	-12.028503
▁features	-11.841222
mips	-13.488543
Pixels	-13.475040
ownership	-14.086890
Cut	-13.492657
xEE	-14.519111
Backend	-13.236332
▁GTLR	-13.499679
ushort	-13.579315
SCREEN	-13.368513
ffi	-13.416563
SMB	-13.593852
XS	-13.179994
Band	-13.304687
AIN	-14.006886
Unsigned	-13.233047
TRIM	-14.057266
▁surface	-12.342985
Recv	-13.423835
WEB	-12.402331
FPU	-13.678329
ETM	-15.048576
IMG	-13.438259
trim	-13.379897
▁general	-11.360480
ArrayRef	-13.335455
▁logical	-13.216057
Keep	-13.706941
EIO	-12.749653
<<(	-13.506008
▁boot	-13.035390
party	-13.249665
Minimum	-13.238044
nam	-12.968393
Public	-12.977273
INTEN	-13.880189
gpr	-13.651608
WI	-13.365819
▁Tx	-12.806992
services	-13.580406
yes	-13.041403
SFD	-13.799334
Browser	-12.747643
----	-13.339243
ccb	-13.838359
ous	-11.882873
sigma	-12.669881
▁TPM	-13.424777
FU	-13.091243
PJ	-13.351287
▁transition	-12.924780
DEVINFO	-14.227578
CURSOR	-13.331864
XY	-13.516012
phba	-13.504393
▁dense	-13.235477
BSP	-13.694069
▁higher	-12.168827
CURL	-13.561545
ens	-12.186051
Sim	-13.411394
▁EIGEN	-13.370283
mqtt	-13.637947
rates	-13.317750
ZCL	-13.718060
Bank	-13.293066
stb	-13.674472
strategy	-13.740697
ENCODE	-13.581069
drvdata	-13.425687
VE	-12.973971
▁board	-12.390108
dead	-13.083897
▁adjust	-13.241545
cube	-13.644619
▁METH	-13.790664
▁applied	-12.505048
oss	-13.029019
Capacity	-13.294109
hm	-13.010455
▁gamma	-13.711129
▁marked	-12.853004
▁Elias	-13.614404
most	-12.857362
bVar	-12.922052
PCR	-13.561870
▁Save	-12.769615
▁fall	-12.436968
QE	-13.783213
itk	-12.752153
esbmc	-14.397981
ashcho	-14.397885
▁PLL	-13.246090
▁Debug	-12.494076
delegate	-13.303247
TIMING	-13.791209
▁mapped	-13.335859
Methods	-13.308420
▁boundary	-12.892599
argvars	-13.590243
▁rect	-13.247095
▁netdev	-13.398925
▁converted	-12.902713
▁SAM	-13.657079
▁Functions	-12.449369
SX	-13.247212
NFS	-13.451829
Cor	-13.398847
ade	-12.692856
▁verify	-12.949117
middle	-13.768900
ics	-12.823831
offsetof	-13.666018
Place	-13.526419
SENSE	-13.604807
Bridge	-13.163970
STDMETHOD	-13.232861
Clone	-13.225582
MMU	-13.481559
extensions	-13.337332
NOTICE	-13.825153
▁visit	-12.491585
VDAC	-14.866117
VX	-13.589121
▁transactions	-12.960632
▁dis	-12.499622
immediate	-14.017528
▁had	-9.914106
Ring	-13.385079
VERBOSE	-13.211340
SDH	-13.316831
▁sctp	-13.528731
▁inner	-12.907902
▁allocator	-13.266408
▁jl	-13.659725
balance	-13.427128
SFR	-13.621537
HOOK	-13.256263
Rpc	-13.568344
decrypt	-13.509284
frac	-11.631571
must	-13.111382
ovld	-13.516432
ending	-13.080355
▁Gr	-12.563549
\"\	-13.877697
art	-12.472281
▁Delete	-12.935724
mpz	-13.781795
Nonnull	-13.836453
INSTRUCTION	-13.460153
Indexed	-13.510037
tun	-13.218040
Multiple	-13.523246
▁GLAD	-13.246154
NK	-13.212505
race	-13.250760
▁cdef	-13.239346
Analog	-14.323442
▁please	-12.451330
inject	-13.616490
---	-12.482412
meth	-13.299164
TNode	-13.856256
▁generation	-12.590953
CLUSTER	-13.512028
cor	-13.021380
Expand	-13.590258
destruct	-13.279214
capability	-13.885390
▁further	-11.744427
Arr	-13.316039
Specific	-13.505513
Par	-13.138268
buttons	-13.727631
Include	-13.777514
cospi	-14.675058
eeprom	-13.607065
OPTIONAL	-13.441187
▁positive	-12.283301
▁fopen	-13.359066
orientation	-13.698408
gz	-13.359849
FRAMEBUFFER	-13.394098
panic	-13.283805
LUT	-13.771040
Shell	-13.294782
NGX	-13.629393
endcode	-12.222927
PVOID	-13.104298
definition	-13.200752
▁Receive	-13.428407
LW	-13.192196
▁codes	-12.781364
libc	-13.141232
REP	-13.568187
exchange	-13.702416
remain	-14.022673
adjust	-13.380869
▁declarations	-12.714899
components	-13.164102
ZSTR	-14.096028
margin	-12.977211
IFG	-14.203799
Photo	-13.214176
▁pop	-12.172265
▁slave	-13.046893
neon	-13.746251
Ray	-13.225524
▁IPT	-13.794681
entropy	-13.931141
ISP	-13.694253
hb	-13.409727
Panel	-12.984826
Demo	-12.943475
mmio	-13.607279
ili	-12.956235
PyCFunction	-13.829809
cmds	-13.347734
Small	-13.377272
Paint	-13.044320
axi	-13.677298
ROR	-13.785314
Geo	-13.532710
▁CK	-13.371319
PCD	-13.641436
ew	-12.673112
Gui	-13.286969
folly	-13.331223
parity	-14.142841
regmap	-13.803330
▁nil	-11.796863
Tool	-12.821136
▁GCC	-13.027420
VOL	-13.265765
hyg	-14.360645
Board	-13.430591
ordered	-13.694251
Upper	-13.370079
aggregate	-13.978725
▁mesh	-13.218462
dbus	-13.443545
daemon	-13.310924
▁compatibility	-13.062654
visual	-13.446944
Clk	-13.647659
Isolate	-13.316338
-%	-14.017035
=\"	-14.031825
Try	-13.215092
regval	-13.458398
▁collection	-12.104504
peek	-13.632345
TAP	-13.640271
▁explicitly	-13.049079
ImGui	-13.697648
ash	-12.859107
PDF	-13.003370
▁contained	-12.777256
stencil	-13.523064
frequency	-13.349514
nrf	-13.616244
TSS	-13.589738
CLKSEL	-14.361902
stroke	-13.253895
NEON	-13.538123
▁Access	-12.453559
Sz	-13.346569
Initialization	-13.074129
Radio	-13.051612
▁External	-7.997734
▁MX	-13.173639
Pa	-13.194767
pseudo	-13.995219
▁UTF	-13.537969
THR	-13.538429
▁player	-11.242869
wo	-12.919611
kl	-13.142930
queued	-13.292545
Indices	-13.451662
▁batch	-13.199189
TBL	-13.851371
▁center	-12.946340
PHASE	-13.523149
BORINGSSL	-14.585476
Scheme	-13.411112
fuse	-13.495826
▁sleep	-12.718954
drw	-14.085349
neighbor	-13.948483
▁linked	-12.940827
▁fit	-12.870144
VD	-13.392762
HeapTuple	-12.951392
txq	-13.694897
mii	-13.650477
rst	-13.159960
Indirect	-13.449178
REQUIRED	-13.532215
example	-12.796210
▁MT	-13.333384
Half	-13.541935
qu	-12.666410
▁iteration	-13.202771
pkg	-13.217109
fixup	-13.637747
INSTR	-13.605843
opensource	-13.500610
JOIN	-13.709864
▁Eigen	-13.445305
▁GetLastError	-13.417684
Visitor	-13.092367
▁"<	-12.915254
▁psz	-13.475527
ero	-12.326415
DBL	-13.706457
encrypted	-14.019470
StringRef	-13.333171
bson	-13.391575
▁separate	-12.444881
FUL	-13.729062
mixer	-13.664845
Summary	-13.307471
upb	-13.831631
▁post	-11.751342
blocked	-13.824491
spell	-13.732664
▁BLAZE	-13.489757
destination	-13.344994
hdma	-13.546900
mn	-13.008994
pan	-12.752291
▁Qt	-13.469618
GATE	-13.427232
upload	-13.626921
▁Skip	-13.046139
Spi	-13.936997
Collections	-13.464092
TICK	-13.517872
theta	-12.826332
napi	-13.703116
Commit	-13.022831
launch	-13.735177
▁duration	-12.982051
▁card	-12.668184
▁Stop	-12.783068
▁coordinate	-13.222640
Columns	-13.286618
login	-13.263171
WINAPI	-13.571489
USHORT	-13.264645
▁camera	-12.885586
▁checked	-13.099492
▁expand	-12.955852
prof	-13.390894
Samples	-13.538732
loaded	-13.112436
ValueError	-13.274491
▁angle	-13.128415
OLD	-13.403571
GENERATED	-13.583611
Red	-12.782326
Preview	-13.518201
IDirect	-13.761055
Did	-12.712410
jiffies	-13.509243
UD	-12.858597
▁reply	-12.893253
deep	-13.517075
lk	-12.961812
▁helper	-13.139075
wh	-13.933111
Flash	-13.294829
wave	-13.202227
pxd	-13.889541
ATE	-12.841649
▁indicating	-13.071670
SPC	-13.703269
FTM	-14.042250
HB	-13.594316
▁Boston	-11.966783
LANG	-13.411006
compressed	-13.437217
backward	-14.086053
▁members	-10.932045
INPUTSEL	-15.197485
▁certain	-12.163305
prototype	-13.362017
▁High	-11.007426
▁writes	-12.947638
matches	-13.183123
lld	-13.838120
regulator	-14.000644
vis	-12.820128
▁wallet	-13.470905
SPDK	-13.722472
▁IMP	-14.117289
Maximum	-13.367287
▁processor	-13.367645
MIC	-13.561519
activity	-13.151953
Cpp	-13.324345
▁rotation	-13.136584
Fee	-13.296109
▁Library	-11.770404
anim	-13.469084
sas	-13.124013
standard	-13.074787
▁dimensions	-13.045551
EBI	-14.448072
▁Optional	-13.205993
algo	-13.489449
converter	-13.873124
hdev	-13.429422
average	-14.091487
AXIS	-13.652736
▁units	-11.932813
▁NK	-12.836372
GetCurrent	-13.356420
substream	-13.740045
geom	-13.476583
WE	-13.473258
inverse	-14.104003
▁consider	-12.482881
MSP	-13.495823
ative	-12.447226
beacon	-13.882691
drag	-13.748762
Collision	-13.426149
SPROC	-13.169097
package	-12.905955
▁tell	-12.257849
▁detect	-13.193880
▁engine	-12.575913
GEO	-13.789375
once	-13.032303
TXT	-13.494600
▁join	-12.743805
Share	-13.377043
▁nfs	-13.536511
readl	-13.552608
members	-13.145259
spaces	-13.618093
scanner	-13.795256
csum	-13.673507
offs	-12.968121
(!(	-13.438286
Team	-13.286855
COLUMN	-13.361544
▁password	-12.986374
Visit	-13.630534
Dlg	-13.480709
exe	-13.270704
ppp	-13.761009
traverse	-14.004683
Routine	-12.889407
dig	-13.250572
Hex	-13.282660
.*/	-13.617216
fxp	-13.864826
▁lv	-13.569382
OW	-13.616946
resolved	-13.872894
Based	-13.486969
▁expect	-12.614102
PERIOD	-13.726510
Nav	-13.426080
ATOR	-13.134313
Mutable	-13.392290
noop	-13.345093
TAMP	-14.369539
sPer	-13.566937
missing	-13.262375
FFI	-13.512340
mex	-13.584817
lut	-13.370994
parallel	-13.275509
rotation	-13.630325
vport	-13.750360
DVPROC	-13.424376
DK	-13.267019
measure	-14.020186
NEED	-13.307340
▁debugging	-13.172857
▁clause	-13.158088
▁CAmount	-13.472732
Additional	-13.992898
▁soap	-13.105087
▁svn	-13.329805
▁pins	-13.382296
chroma	-13.671034
NOP	-13.341327
GCM	-13.730619
popup	-13.457249
TOO	-13.419023
IDE	-13.123426
▁outer	-13.073361
▁visible	-12.917865
SINGLECTRL	-15.160386
▁St	-10.771105
ldb	-13.739925
▁rest	-12.217518
IRQHandler	-13.209326
▁hri	-14.710862
Rtl	-13.386621
▁Please	-12.442260
WMI	-13.588471
xed	-13.585023
Mo	-12.919024
what	-12.951718
MPEG	-13.557391
▁occur	-12.849665
AQ	-13.854713
llu	-13.907827
riscv	-14.287160
CRL	-13.761671
wcs	-13.685129
DOCTEST	-13.639782
SHIM	-14.102276
CPL	-13.722688
▁REDIS	-13.418676
▁supplied	-13.124521
MemoryContext	-13.123866
Analysis	-13.375645
▁NFC	-13.395704
▁children	-11.347293
▁readonly	-12.982552
▁ath	-14.424052
Adjust	-13.279620
▁CHIP	-13.405604
IInspectable	-13.559816
▁resulting	-12.677272
▁"";	-12.630054
▁taken	-11.938434
glMultiTexCoord	-13.666845
NORM	-13.548133
▁WS	-13.456432
MAG	-13.524282
GCC	-13.321644
▁probably	-12.240009
Ids	-13.409846
Builtin	-13.391230
Controls	-13.434561
near	-13.690683
▁firmware	-13.353466
("(%	-13.656449
AO	-13.300532
Rotation	-13.318296
SHOW	-12.953591
fabs	-13.809873
▁adding	-12.830060
lst	-13.358102
DIPSETTING	-13.848123
>{	-14.018798
accum	-13.774546
memmove	-13.658117
▁primary	-11.987281
▁Low	-12.731015
vv	-13.593313
Framebuffer	-13.409884
DICT	-13.494780
▁Power	-11.981220
Subscription	-13.434883
redirect	-13.685836
PROBE	-13.520585
▁refer	-11.075947
rho	-12.693844
black	-13.176524
ODR	-14.086273
Modified	-13.242275
fat	-13.506729
▁delegate	-13.355626
Usb	-13.571067
packages	-13.710265
▁meta	-13.020822
mempool	-13.590370
CLIP	-13.305852
▁SPH	-13.918615
detect	-13.451792
mailbox	-13.475121
gather	-13.872826
Site	-13.242479
Always	-13.966893
Actor	-13.384615
SMU	-14.224630
PTE	-13.917639
eh	-12.512606
▁diff	-13.173653
ObjC	-13.404716
▁SDIO	-13.799069
Headers	-13.254419
cw	-13.500184
Leave	-13.422510
QM	-13.706148
dependent	-13.369810
▁light	-12.008038
▁game	-11.289673
consistent	-14.376669
▁difference	-12.500070
FLEX	-13.932205
Variables	-12.957872
▁representing	-12.852228
LEAVE	-13.118104
▁False	-10.410456
regions	-13.516594
ass	-12.956885
TRACK	-13.464823
▁simply	-12.347165
ena	-12.204773
TypeInfo	-13.486988
QUIC	-13.509940
concat	-13.346715
SPR	-13.921880
Front	-13.270097
TU	-13.256817
vNV	-13.997569
yyvsp	-14.070938
mission	-12.776945
▁correctly	-12.955043
▁Purpose	-12.605187
▁acpi	-13.424708
▁compiled	-13.302734
ESC	-13.547811
▁SO	-12.693645
▁hard	-12.123705
▁branch	-12.697977
letter	-13.954478
lite	-13.245553
UIVPROC	-13.298383
▁outputs	-13.280580
▁CL	-12.955033
▁Python	-12.738873
EO	-13.601982
▁resolution	-12.786892
nxv	-15.240399
Outputs	-13.430218
cent	-13.028966
ARBPROC	-13.589575
canvas	-13.691265
▁attached	-12.863717
Pred	-13.729977
▁baud	-13.569094
stp	-13.662151
activation	-13.658536
elm	-13.594330
TransactionId	-13.324439
PARM	-13.593704
▁plane	-13.026971
===========	-12.801417
OPA	-14.320801
crl	-13.750201
CONTROLLER	-13.647246
voice	-13.153002
fan	-13.206356
userdata	-13.502525
GLX	-13.404644
hyper	-13.832182
normalized	-14.253220
VertexAttrib	-13.601521
▁validate	-13.300988
language	-10.836533
▁records	-12.014713
CRT	-13.516655
▁precision	-13.191301
▁title	-11.755247
Pull	-13.960163
rest	-12.818894
Cycle	-13.444600
IQ	-13.594260
reject	-13.939532
xCC	-14.494979
▁IID	-14.120916
▁strerror	-13.589739
InstancePtr	-13.597995
percent	-13.850259
TOK	-13.387334
==============*/	-12.342343
\"",	-13.653788
xCD	-14.768325
▁*)__	-13.826634
nTime	-13.261774
DECODER	-13.303555
upstream	-13.755429
Spatial	-13.651267
normalize	-13.311395
Sock	-13.321767
▁Invalid	-13.164036
▁scene	-12.694655
increment	-13.369145
ward	-12.847026
Score	-13.209110
▁smaller	-12.594109
glVertexAttribI	-13.663351
!!	-11.859026
Once	-13.683853
Poly	-13.082852
▁border	-12.420147
irqsave	-13.447718
▁EOF	-13.136567
PyTypeObject	-13.494636
▁words	-12.102870
Sw	-13.469653
strstr	-13.634330
**)&	-13.766300
▁generator	-13.248137
ek	-12.096572
qi	-13.209177
sorted	-13.424917
▁ACTIONS	-13.371076
PQExpBuffer	-12.862201
when	-12.994921
gradient	-14.009715
obliv	-14.450039
PEER	-13.589552
▁Rx	-13.488615
variance	-13.846666
Bluetooth	-13.995040
Instr	-13.603792
bandwidth	-13.983122
relative	-13.283965
consumer	-13.890407
registers	-13.438822
▁dart	-13.108077
▁sparse	-13.386240
▁jump	-12.884718
btn	-13.117412
stopped	-14.122677
xy	-12.901916
WX	-13.397764
redraw	-13.276798
watchdog	-14.185418
Protection	-13.990250
Mock	-13.024042
unref	-13.264510
▁statistics	-11.111121
▁named	-11.261914
▁zone	-12.875928
XCH	-15.066269
▁across	-11.903296
▁owner	-12.705722
*)((	-13.658456
▁AUTHOR	-13.360093
SWIFT	-13.618249
▁partial	-13.076227
▁increase	-12.496359
cross	-12.969207
Picture	-13.562362
▁Mark	-11.675383
subtype	-13.522869
Orientation	-13.395211
tau	-12.739925
▁tasks	-13.033370
▁drive	-12.814450
UserData	-13.713101
▁pair	-12.777389
▁IDC	-13.421128
padapter	-13.649936
Hardware	-13.848836
Resolve	-13.385559
▁SN	-13.420070
Cond	-13.242324
cdb	-13.720490
rivateFrameworks	-13.870692
CCMR	-14.332101
DIGEST	-13.626184
▁PF	-13.346326
▁APR	-13.288585
bug	-13.016112
fsm	-13.706158
▁Non	-12.065663
>\	-12.891130
GENERAL	-13.522113
lsm	-13.943441
typval	-14.021830
yield	-13.649664
observer	-13.921175
sbi	-13.591413
preferred	-14.099361
▁weight	-12.606091
secondary	-13.747900
IBM	-13.631225
sci	-13.487392
Jump	-13.508544
JNIEnv	-13.575324
gh	-12.842665
EFAULT	-12.881507
was	-11.684110
dropped	-14.010553
bParam	-13.575968
future	-13.295099
Backup	-13.435821
MICRO	-13.590158
cdef	-13.635755
wlan	-13.662009
▁bucket	-13.331524
▁holding	-12.698029
▁super	-12.340859
Parallel	-13.278670
SYNCBUSY	-14.501202
dct	-13.828774
divider	-13.637015
tyEnum	-14.401658
actor	-13.464960
Unexpected	-13.454240
▁MPU	-13.847655
codes	-13.197092
invert	-13.531687
nfs	-13.544609
BasicBlock	-13.419194
▁LSM	-13.861450
ard	-12.041514
Navigation	-13.088698
Callbacks	-13.370979
▁filled	-12.933141
▁iwl	-13.935313
Dummy	-13.416151
▁winrt	-13.913409
Toggle	-13.446103
Vars	-13.554712
▁holds	-12.710502
amd	-13.652339
tracking	-14.143408
ATTACHMENT	-13.521041
▁opened	-11.902326
▁Distributed	-13.070115
ZSTD	-13.828883
bone	-13.599254
OPAL	-13.517298
ACCEPT	-13.506876
HUB	-13.702639
vlib	-13.791929
RNA	-12.824275
()))	-13.249372
hide	-13.057391
qd	-13.798907
dwFlags	-13.561607
DSA	-13.646186
ERASE	-13.827733
WK	-13.592925
Bundle	-13.087465
NDIS	-13.642208
▁reverse	-12.961162
PSU	-13.808685
Anim	-13.446785
LAYOUT	-13.668400
je	-12.130971
visibility	-13.601659
BOUND	-13.566802
escape	-13.275224
fcntl	-13.077291
hcd	-13.699519
HM	-13.567427
sli	-13.712448
DECODE	-13.537972
▁Determine	-12.998362
fallback	-13.397230
subject	-13.308811
MCS	-13.724457
OVERFLOW	-13.523551
css	-12.876601
EACH	-13.729163
▁MZ	-13.541733
OPERATOR	-13.348724
)>>	-14.161318
▁BITCOIN	-12.973294
!=(	-13.666259
Interp	-13.631338
fptr	-13.546111
guest	-13.872258
WB	-13.640331
nlmsg	-13.642431
iterate	-14.259237
netlink	-13.547359
▁sbitmap	-13.178032
▁"=	-13.837263
LITERAL	-13.795348
assertion	-14.198683
enqueue	-13.580793
PRIu	-14.063537
▁LESENSE	-14.285287
estate	-13.357954
▁incoming	-13.310897
*>(&	-14.115134
Xfer	-13.553347
CMS	-13.701679
WHITE	-13.424105
qla	-13.895483
PRODUCT	-13.482801
arrow	-13.368152
INITIAL	-13.534581
Picker	-13.530453
editor	-13.172124
HINT	-13.610884
▁detail	-12.539419
eal	-13.031917
ZONE	-13.474825
▁PyArray	-13.557401
▁PH	-13.895349
Printf	-13.519546
STL	-13.478683
▁exactly	-12.617287
Registers	-13.281282
checkpoint	-14.253882
dsi	-13.819048
NaN	-13.459673
▁procedure	-12.763461
//////////	-15.050668
Signed	-13.460933
Accessor	-13.313309
▁But	-11.078272
fini	-13.188545
Major	-13.320960
Physical	-13.630126
Running	-13.241255
eax	-13.331991
Inv	-13.461897
ger	-12.278688
coap	-13.835325
▁absolute	-12.953069
PAUSE	-13.513303
SYN	-13.396714
ITY	-13.106183
miss	-13.433980
amdgpu	-13.654230
itf	-14.034736
▁WPA	-13.628845
gst	-13.659623
xCE	-14.806240
Help	-13.269508
TRANSFER	-13.673469
CTRLA	-14.632685
zlib	-13.547238
SWIG	-13.766147
▁(;;)	-12.501147
FSMC	-14.170374
PPP	-13.467480
xDF	-14.377006
manage	-14.324819
Inner	-13.510042
FAMILY	-13.588728
executable	-13.389466
mdb	-13.923865
***	-13.386478
xAB	-14.296270
▁worker	-13.100021
▁ssize	-13.011173
smb	-13.703741
ENODEV	-12.829974
STMT	-13.532536
LPCWSTR	-13.576696
▁%[	-14.238433
▁inserted	-13.261252
--------	-12.931178
"#	-13.885500
='	-12.680672
messages	-13.288497
plt	-13.458118
RTT	-13.749896
▁Ho	-12.419455
RSP	-13.720896
elapsed	-14.249155
BSS	-13.740143
ldr	-13.802455
emlrt	-13.999591
▁complex	-12.394699
▁considered	-11.999411
CONVERT	-13.634582
divide	-14.068994
▁similar	-11.963960
Chip	-13.903724
▁UV	-13.349771
▁cleared	-13.274138
LITTLE	-13.230399
Raise	-13.259477
Printer	-13.461061
▁Parameters	-12.265143
targets	-13.785108
accessor	-13.629587
▁Describe	-13.672983
WRAPPER	-13.501151
SYSCALL	-13.495216
▁/***	-12.669257
▁NIL	-13.287617
FRAGMENT	-13.646148
cch	-13.605020
quit	-13.117428
Activity	-12.922427
registration	-14.001895
Refresh	-13.280185
jmp	-13.572223
TCB	-13.680398
vers	-13.049032
ARN	-13.799890
sol	-12.987161
▁As	-10.652889
NAN	-13.436514
Sup	-14.365008
MIX	-13.301756
▁having	-11.685103
oh	-12.845489
▁implements	-12.975422
▁far	-11.917803
Locale	-13.447542
Tracker	-13.403448
LINEAR	-13.468484
NSInteger	-13.438013
siz	-13.858559
strerror	-13.401828
▁Im	-12.641760
Overlay	-13.532292
▁logic	-12.943767
TRANSPORT	-13.665543
ticket	-13.900771
transparent	-14.193298
Returned	-13.065319
▁everything	-12.269195
GAME	-13.240501
MTU	-13.709674
ompi	-13.658021
Gradient	-13.495647
PMU	-13.914546
Dist	-13.653328
RESETVALUE	-14.308280
GLsizei	-13.682748
Gain	-13.742265
vwsn	-14.513851
▁snapshot	-13.413449
DRIVE	-13.681816
▁slots	-12.775970
Jo	-13.904505
▁((*	-13.684753
▁scratch	-13.211283
GREEN	-13.445717
mongoc	-13.619353
kern	-13.505920
stdin	-13.297973
MDB	-13.524515
CONSTRAINT	-13.605858
▁hex	-13.505820
VPROC	-13.600426
Closure	-13.223480
subsystem	-14.282207
Solver	-13.571910
Attachment	-13.506471
qt	-13.348867
HFCLK	-15.046624
Del	-13.122616
VERIFIER	-13.507326
▁though	-11.828009
identify	-14.589491
SIGNATURE	-13.724922
spdk	-13.615991
REPLY	-13.623304
mvm	-14.078536
▁console	-12.728707
plat	-13.387032
locals	-13.427045
*((	-13.787502
attack	-13.641517
WG	-13.708471
hour	-13.259710
fft	-13.730075
surf	-13.807594
▁follows	-12.002985
TXD	-13.991359
xyz	-13.746275
▁fragment	-13.320427
Quad	-13.524975
UNSUPPORTED	-13.488413
▁Priority	-13.704301
OPS	-13.341674
xDD	-14.663331
eat	-13.781061
VISIBLE	-13.637496
TIMESTAMP	-13.470503
Resources	-13.167402
views	-13.329126
Contains	-13.385494
BOOST	-13.730623
Phone	-13.638563
stl	-13.530597
SSH	-13.421288
VTK	-13.625611
gettext	-13.582989
BIF	-13.823706
SPECIAL	-13.276950
ByteArray	-13.577580
NIMCALL	-14.546598
parsed	-13.548436
dpif	-13.931846
certificate	-13.618082
Shutdown	-13.234777
▁archive	-13.198022
tran	-13.652507
gevent	-14.180422
▁Transmit	-13.803470
Gpu	-13.658337
sion	-13.176408
ua	-12.535457
may	-12.935265
Day	-13.037959
GetItem	-13.788183
▁detection	-12.980424
LLVM	-13.538626
▁*)"	-13.838378
▁upon	-11.711833
▁%"	-14.370246
▁updates	-13.000449
Car	-12.919921
Generated	-13.425689
ENS	-13.781092
trunc	-13.758206
▁GLFW	-13.538844
gray	-13.571286
EID	-13.627881
HFPERCLKEN	-14.693245
Declarations	-12.813888
▁cached	-13.396251
named	-13.113114
PULSE	-14.295814
Pose	-13.681970
Framework	-13.426848
gram	-12.977858
▁management	-11.909417
FAT	-13.628443
SURFACE	-13.594285
NAT	-13.572917
▁computed	-13.316564
VG	-13.587848
▁loading	-13.334043
▁/*=============	-12.386261
Frames	-13.539941
xBC	-14.519023
▁MUX	-13.981259
oa	-12.561154
Chat	-13.574122
Disconnect	-13.427773
Connected	-13.372401
▁BSP	-13.563038
▁cover	-12.541989
magick	-13.474768
GAP	-13.779333
dependency	-13.264940
▁Verify	-13.243062
mass	-13.715872
MONITOR	-13.634658
DataSize	-13.572095
ARR	-13.734935
▁released	-11.594750
▁Linux	-12.686735
Utility	-13.310559
DISALLOW	-13.472719
Activate	-13.547476
FINAL	-13.239803
ities	-12.129638
Holder	-13.164313
APIENTRY	-13.714980
interfaces	-13.523349
adev	-13.594690
▁locked	-13.279393
▁checksum	-13.453922
FFFFFFF	-13.656824
ave	-13.223903
RECV	-13.579983
TAIL	-13.739952
matcher	-13.586167
BLUE	-13.190657
buflen	-13.459603
executor	-13.488890
serialization	-13.303382
sectors	-13.920062
▁restart	-13.143631
▁compression	-13.232285
FIT	-14.006569
VN	-13.540118
fin	-12.999392
JUMP	-13.391927
routine	-13.399463
")))	-13.528784
▁built	-11.666540
TION	-13.092853
Android	-13.428328
▁dictionary	-13.260162
vreinterpret	-14.477372
ong	-12.612197
tasks	-13.325565
cgroup	-13.667448
▁transpose	-13.723358
Phalcon	-13.651815
CAPTURE	-13.800089
▁CGAL	-13.352994
GetDatum	-13.621453
OO	-13.750669
LOOKUP	-13.744421
Tri	-13.330719
▁depending	-13.022420
Partial	-13.015111
fit	-13.246483
wall	-13.155515
pkcs	-13.798949
adr	-12.621274
▁linear	-12.938286
▁bpf	-13.775860
contiguous	-14.578779
▁FMC	-13.980728
▁few	-11.618185
▁connections	-12.978184
BODY	-13.208725
Plus	-13.440156
smooth	-14.079529
▁Auto	-12.597352
▁BKE	-13.898551
sizes	-13.201882
****/	-13.767256
▁gboolean	-12.487038
dpi	-13.782884
▁'.'	-13.634941
Weak	-13.348500
marshal	-13.897930
▁parsed	-13.431607
LOWER	-13.853075
added	-13.318148
Metrics	-13.364492
LK	-13.456379
iot	-13.308717
asoc	-13.749738
Take	-13.359340
▁combination	-12.965572
HDMI	-13.712810
Bottom	-13.364067
SRS	-14.086160
repr	-13.592354
clauses	-13.520656
STB	-13.793906
pmu	-13.818676
LDAP	-13.481565
bpf	-13.674994
elems	-13.714773
alive	-13.692709
▁PURE	-13.458429
Broadcast	-13.616815
IES	-13.230797
broken	-14.284445
▁bnx	-14.133923
pDst	-13.782597
IPv	-13.566911
unsupported	-14.151256
FIND	-13.528237
che	-12.546219
GenTree	-13.964046
pcs	-13.952242
Imm	-13.458640
ONCE	-13.624733
boxes	-13.897811
vif	-13.614674
coef	-13.921791
RXD	-14.059632
pj	-13.665745
Rectangle	-13.498537
FLG	-13.943579
//==============	-12.782233
Cookie	-13.226550
helpstring	-13.796032
repeated	-14.171626
IPROC	-13.497179
Cython	-14.130817
>.</	-13.878036
SDHC	-14.166007
BIGNUM	-13.769686
isc	-12.926099
Erase	-13.603781
▁Be	-11.606774
▁stores	-12.947826
Statistics	-13.374505
cxt	-13.572921
▁Google	-12.021537
▁construct	-13.417511
REASON	-13.638179
Caps	-13.609887
▁Other	-10.427710
DIAG	-13.694640
ou	-12.659226
asset	-13.647201
Prim	-13.544325
▁Definitions	-12.678910
PSM	-14.078437
RLE	-13.920497
peak	-14.205317
▁finish	-12.654172
▁direct	-12.460674
alter	-13.926832
dsa	-13.757422
including	-12.829552
tiles	-13.712117
Capabilities	-13.614912
Joint	-13.587930
HALF	-13.731156
Predicate	-13.503573
jo	-12.461309
PRIV	-13.659042
gps	-13.827113
▁described	-10.964842
Seconds	-13.487205
hip	-13.516406
leak	-14.213410
PROGRESS	-13.523295
attachment	-14.220727
Acc	-13.932590
CSI	-13.339309
Arc	-13.414447
SOUND	-13.426528
UIView	-13.316840
▁STBI	-13.280618
angular	-13.856980
conditional	-14.123368
VDD	-14.291010
nw	-13.514858
▁Example	-12.160742
pSrc	-13.735258
station	-13.561342
VkDevice	-13.676458
▁pSrc	-13.797554
▁represent	-12.804766
▁radius	-13.392859
WDOG	-14.505952
notification	-13.444806
modified	-13.358012
Reduce	-13.533117
equals	-13.214059
▁reads	-13.035159
zu	-13.087874
▁"#	-13.283950
▁capacity	-12.667636
SOF	-13.800933
ttl	-13.649157
PyList	-13.784207
Live	-12.782775
polygon	-14.214503
xact	-13.591043
kb	-13.492977
cgi	-13.692301
▁CRYPTO	-13.938065
Hint	-13.329286
Networking	-13.706840
AMP	-13.613992
cbc	-13.813548
mime	-13.462098
analog	-14.483224
units	-13.476980
pnt	-14.014829
▁hit	-12.510858
▁dt	-13.531221
PROGRAMUNIFORM	-13.655265
ada	-12.320240
Commands	-13.359153
▁systems	-11.925964
xBE	-14.578485
▁glyph	-13.591327
▁properly	-12.778667
dpp	-13.932423
rts	-13.500757
PRSSEL	-14.890286
Mul	-13.620597
NDRV	-13.875655
Brush	-13.517662
IRDA	-13.804906
Clean	-13.857537
▁computation	-13.290349
lifetime	-14.319600
MINT	-13.898776
QOS	-13.962189
fileName	-13.461077
Cmp	-13.720193
glob	-13.469262
Representation	-13.390809
sfr	-13.584412
hashtable	-13.631467
▁descriptors	-13.388484
UNDEFINED	-13.566141
usart	-13.793193
CCU	-14.073033
iommu	-13.796491
▁WDT	-13.797118
COMPAT	-13.359012
,"%	-13.804209
Caller	-13.503071
Timing	-13.519004
Detail	-13.391547
▁Java	-12.703021
Hi	-13.031498
DET	-14.153547
▁DNS	-13.439472
Gp	-13.673690
phone	-12.982475
proj	-13.658000
▁detach	-13.802777
SDRAM	-13.896085
▁ownership	-12.841081
▁cycle	-12.764865
▁calculation	-13.331268
det	-13.442637
▁vuint	-14.000207
▁lists	-12.423030
uck	-13.375706
minute	-13.564024
cdecl	-13.659244
Severity	-13.676715
▁TCC	-14.383054
______	-14.301781
▁category	-12.858475
Maybe	-13.737011
Parameteriv	-13.784085
▁proxy	-13.242302
glTexCoord	-13.798774
Soft	-13.650437
envoy	-14.426007
RAND	-13.688091
predictor	-14.419498
nghttp	-13.730241
TEE	-13.666371
SETTINGS	-13.593570
SY	-13.633312
Transmit	-13.792687
Define	-13.427918
ww	-13.724551
BSD	-13.121435
rdata	-13.561924
general	-13.256415
Tags	-13.433609
Extensions	-13.273557
▁Switch	-12.941131
bfa	-14.278792
measurement	-14.695206
GrB	-13.476124
nothrow	-14.009800
VEHICLE	-14.559120
indexed	-14.211600
Generate	-13.432695
mad	-13.293185
Quantum	-13.458529
▁vk	-13.928264
▁four	-11.384740
lParam	-13.765645
Large	-13.560621
gasnet	-14.054127
ace	-12.828491
Pause	-13.417005
bde	-15.586111
eu	-12.809850
▁fee	-13.249184
DTLS	-13.692887
Future	-13.540750
▁past	-12.090962
▁constraints	-13.140519
Palette	-13.628224
DISK	-13.613383
RTCC	-14.732344
▁sorted	-13.449947
constants	-13.495545
LAT	-13.793248
MHZ	-14.333366
SCHEMA	-13.706394
ALC	-13.829979
▁XED	-13.809345
compl	-13.685340
▁*****	-12.529355
▁estimate	-13.553921
CHILD	-13.611999
WAVE	-13.280291
foreign	-13.946674
▁USBD	-13.635552
Sent	-13.542065
uring	-13.061083
ISA	-13.379615
compound	-14.136037
corner	-14.346278
fmadd	-14.198597
CDTI	-14.952049
verb	-13.676499
Quic	-13.377484
ANALOG	-14.128926
▁functionality	-13.136961
dsc	-13.994545
Requested	-13.665465
▁symbols	-13.033776
ntDefaultHandler	-13.484826
OFS	-13.999958
solve	-13.837037
npy	-14.063731
Tests	-13.145663
PLANE	-13.843556
CONSOLE	-13.507590
tlb	-13.653177
pNext	-13.387480
arrange	-13.494337
PMD	-13.736198
Fmt	-13.784678
sdl	-13.842821
▁specification	-13.320348
pIn	-13.670814
HIDDEN	-13.621869
SIDE	-13.054250
indx	-13.761241
▁extended	-12.687238
▁riid	-13.440408
Voice	-13.527275
▁GLshort	-14.175408
PDM	-13.767637
▁STATIC	-12.701011
REMOTE	-13.619246
PATTERN	-13.665275
tegra	-13.916506
▁working	-11.799674
hello	-13.096805
mismatch	-14.694252
contains	-13.307065
Dot	-13.643612
xBA	-14.707472
KA	-12.971494
▁(*(	-13.691048
CEC	-13.886777
▁weak	-13.095925
dimension	-13.635170
sentinel	-13.561671
Reverse	-13.226977
Bitcoin	-14.394021
Acpi	-13.175240
)<<	-14.249177
NSError	-13.810273
relay	-14.210012
sibling	-13.634409
aarch	-14.060486
clients	-13.445127
Errors	-13.193283
FINISH	-13.538177
colour	-13.943615
▁LIBXSMM	-14.162354
▁receiver	-13.248213
Hal	-13.688646
pressed	-13.856137
RADEON	-13.924399
xBD	-14.658898
tan	-12.722228
▁dx	-13.785681
emm	-13.958824
mpc	-14.051668
Radius	-13.582089
Chars	-13.570935
When	-12.709865
trig	-13.621104
lpc	-13.905858
tle	-12.757082
circle	-13.721721
▁isolate	-13.625039
depend	-13.953609
").	-12.556959
ASF	-13.329991
basis	-14.267473
Secret	-13.426508
IOS	-13.271568
here	-13.206110
Missing	-13.131395
▁DESCR	-12.882122
SCHED	-13.616713
tries	-14.012762
CriticalSection	-13.309826
ADAPTER	-13.676803
MESA	-13.878514
KC	-13.629784
CELL	-13.532590
fflush	-12.997400
Behavior	-13.138403
Alert	-13.354671
wal	-12.900248
Alternate	-13.441512
Alt	-13.655855
т	-14.143592
▁Specifies	-13.773084
Attempt	-13.574583
FPROC	-13.542666
PDC	-13.816058
eng	-12.926156
sdk	-13.607231
▁referenced	-13.400659
ite	-12.320272
wrapped	-14.099507
nbr	-13.889372
▁SK	-13.402917
▁PFNGLUNIFORM	-13.505905
SECP	-14.114558
▁reached	-12.441940
SDA	-13.992879
plot	-13.291127
clinic	-12.917833
▁individual	-12.185524
▁lda	-14.013830
timespec	-13.493176
▁authentication	-13.296244
ja	-12.032047
PSA	-14.125336
terminal	-13.461427
▁'-'	-13.502405
bps	-14.164639
moving	-13.873940
INITIALIZER	-13.725265
RANDOM	-13.605865
Wire	-13.592017
MODIFY	-13.839384
▁Microsoft	-12.572902
highbd	-14.408736
pstate	-13.524839
Launch	-13.658200
MULT	-13.839890
FilePath	-13.505965
repo	-13.480120
▁applications	-12.482607
Seek	-13.596036
nodiscard	-13.811808
histogram	-14.243442
TOTAL	-13.734565
psk	-13.827078
scanf	-13.369620
Coll	-13.498108
SECURE	-13.766072
Uri	-13.516919
energy	-13.780855
/*!	-12.306510
SysTick	-13.851313
collect	-13.456633
compact	-13.932891
QU	-14.269966
fVar	-13.854014
dual	-13.870974
SiS	-14.696732
▁'/'	-13.570868
glDelete	-13.763796
▁[-	-14.260530
called	-12.939017
upgrade	-13.895827
*********	-14.424096
bios	-13.507595
series	-13.353674
Mux	-14.054655
PyArray	-13.920657
▁extensions	-13.032105
BTN	-13.796378
feed	-13.723771
SMARTCARD	-13.918441
remap	-13.822793
Previous	-13.716957
=============	-12.110720
Scoped	-13.547846
readable	-13.493610
Turn	-13.922691
sky	-12.261653
Popup	-13.754265
▁Ensure	-13.469119
▁SCTP	-13.676225
GCLK	-14.418016
BASIC	-13.455812
▁cycles	-13.487371
ses	-12.597123
via	-12.466261
who	-13.526326
▁thus	-12.366792
GG	-13.815309
interrupts	-13.814356
sysctl	-13.648833
Velocity	-13.637867
efx	-13.934682
HOT	-13.333511
ANDROID	-13.439122
Best	-12.649321
Groups	-13.127310
GX	-13.600565
highlight	-13.853510
symbols	-13.592570
STUB	-13.678072
mlx	-13.872088
incr	-13.671434
dreg	-13.990267
XB	-14.168576
▁multiplication	-13.463730
MIS	-13.819244
VIRTUAL	-13.612108
vin	-12.513714
lz	-13.515588
VOLUME	-13.714801
TLB	-13.844992
xAC	-14.547258
buffered	-13.622806
charset	-13.372253
Dependency	-13.538892
mbus	-13.630489
pCtx	-13.928634
unsafe	-13.728721
Crypt	-13.402126
Wide	-13.844683
consume	-13.492668
▁FreeRTOS	-13.755838
Suite	-14.173254
damage	-14.022474
DID	-13.787996
TZ	-13.603996
CQ	-13.713381
bssid	-13.877486
NAMED	-13.632041
Like	-13.499790
COR	-13.488689
▁users	-12.573785
EXTINT	-14.595738
rain	-13.624492
DOC	-13.188992
@@@	-14.623899
raft	-14.844265
respond	-13.913240
▁SYSCFG	-14.419468
CString	-13.459526
motor	-13.966901
triangle	-14.159313
ymm	-14.456667
▁dataset	-13.426447
IHTML	-13.727238
Padding	-13.583987
DAY	-13.179609
resolution	-13.570494
ROT	-13.731645
cstr	-13.625594
Just	-13.327526
ECDSA	-13.838614
▁timeval	-13.234511
Disp	-13.732295
EVSYS	-14.505731
fec	-14.185087
ADR	-13.899259
************	-13.462516
orte	-13.658955
▁happens	-12.915040
firmware	-13.632895
PING	-13.543715
POLY	-13.724855
iomem	-13.581478
▁schema	-13.367119
IFF	-13.639985
periph	-13.987998
tol	-13.314203
fine	-14.200637
CLOUD	-13.866272
iy	-13.423124
xhci	-14.047721
▁VTSS	-14.675255
▁MAY	-14.101983
Resolution	-13.609576
ATTRIBUTES	-13.534351
interpreter	-14.371780
'",	-13.736537
remainder	-14.404940
▁That	-11.580272
MACH	-13.769130
▁follow	-12.451432
Click	-12.921179
▁OSSL	-13.815833
ful	-12.253047
Leaf	-13.674924
zoom	-13.992799
raid	-13.698258
alloca	-13.653725
eff	-13.455686
MSVC	-13.632598
▁curve	-13.304570
▁NSArray	-13.650695
Rank	-13.672762
lpsz	-13.768201
UNI	-13.621313
▁protection	-12.628106
▁jlong	-14.234997
Canvas	-13.477351
propget	-13.923397
msm	-13.811877
supply	-14.220012
STAGE	-13.401624
Os	-13.020424
SRV	-13.757444
collation	-13.727658
Unsupported	-13.590034
far	-12.843709
ike	-13.379612
INI	-13.760474
BROWSER	-13.858920
▁VMA	-13.734181
hooks	-13.548838
States	-13.486186
nes	-12.352247
OMX	-13.832747
▁sidl	-13.761356
testing	-13.132673
Rotate	-13.633266
SPLIT	-13.688571
sheet	-13.177319
bindings	-13.547095
ndarray	-14.166502
AREA	-13.840977
▁ecma	-13.916769
known	-12.925064
▁htons	-13.713628
lev	-13.238910
RIS	-13.844089
JOB	-13.654717
Destructor	-13.184132
TOOL	-13.569940
Smi	-13.722997
Converter	-13.464889
Finished	-13.265719
Translate	-13.518980
Recursive	-13.503640
mmask	-14.023682
flt	-14.041839
xAD	-14.729455
establish	-14.117375
MACHINE	-13.465628
vect	-13.832576
▁extent	-12.944332
sdp	-13.898456
ATTRS	-13.695369
mos	-13.045105
Coin	-13.541267
deferred	-14.019705
PULL	-13.940581
perror	-13.097242
Finalize	-13.493027
variables	-13.492173
ise	-12.324569
EXPAND	-13.756425
kmp	-14.120500
lexer	-13.722877
Legacy	-13.838670
▁MKL	-14.978565
gdb	-13.694011
cpl	-14.006508
DQ	-13.719248
COMPUTE	-13.733249
Macros	-13.296183
▁UINTN	-13.105761
RETRY	-13.771515
EEPROM	-13.809900
pio	-13.490588
ium	-12.152449
General	-12.636173
Undefined	-13.464010
digital	-14.072984
wmi	-13.964990
RESTRICT	-13.781139
▁moved	-12.071479
pen	-12.933445
Remaining	-13.228883
HELPER	-13.683760
Contents	-12.645400
▁EMU	-14.319366
▁UniValue	-14.060932
▁Perform	-13.384636
Occurred	-13.660214
ecere	-14.946831
▁vget	-14.657443
▁Capture	-13.462673
PSR	-14.088651
deinit	-13.513071
▁CBlockIndex	-13.449328
RFC	-13.821611
...>	-13.956567
ANA	-13.503108
▁EGL	-13.758284
Under	-13.382554
Pci	-13.850560
DFMT	-14.311272
▁newly	-12.990447
transmission	-14.855593
ICU	-13.542810
ALTER	-13.472839
pwd	-13.632375
▁erase	-13.632519
directive	-14.385561
Polygon	-13.511440
SGIS	-13.823772
stamp	-13.891256
usually	-14.483021
replacement	-14.395877
Configure	-13.495334
sysfs	-13.653372
Persistent	-13.571688
------	-13.078341
Fire	-13.494351
ixgbe	-13.961555
BLOB	-13.739492
iterations	-13.583929
decompress	-13.863135
▁{&__	-14.598015
expansion	-14.629693
vaddr	-13.723717
▁NTSTATUS	-12.290219
:#	-11.374923
bufs	-13.477179
▁NoneT	-15.913054
SYSCLK	-14.029564
Python	-13.386221
ddraw	-13.887590
COIN	-13.569856
cdev	-13.560485
SELF	-13.650684
▁QSPI	-13.813603
psa	-13.837514
PARITY	-13.919033
IDA	-13.807721
DG	-13.367393
Opaque	-13.704587
upd	-13.783345
nim	-13.606365
▁authors	-12.412862
Validation	-13.357265
LSR	-14.208721
▁Indicates	-13.662741
▁Allow	-13.443135
rspamd	-13.887067
▁rtl	-14.060837
LHS	-14.022986
UNDER	-13.427676
▁NA	-12.935416
Returns	-12.987008
too	-13.297953
loadu	-14.322048
wParam	-13.815869
ran	-12.334414
▁states	-12.102085
}}},	-14.396636
GETARG	-13.848055
▁room	-12.231414
PAN	-13.733406
projection	-14.434413
EK	-13.806956
▁OpenSSL	-13.628441
glClear	-13.779880
dk	-13.447838
Functor	-13.618952
scb	-13.961200
Playback	-13.770936
▁Comparator	-14.087884
CHG	-14.113099
cause	-13.553721
MULTITEXCOORD	-13.711155
FUNCTIONS	-13.337308
cnfn	-13.737667
▁cross	-12.400803
TTY	-13.474971
Have	-13.281535
zeros	-13.514623
TPM	-14.027270
leader	-13.535657
vote	-14.103218
FFT	-13.805676
▁interfaces	-13.169536
▁SOAP	-14.001418
▁Ltd	-12.586187
sscanf	-13.968982
ENDPOINT	-13.821141
arb	-13.609001
Thr	-13.574507
Arm	-13.756083
▁BFD	-13.824151
Parm	-13.660157
▁ones	-12.823823
offload	-13.828875
Nv	-13.800557
BIOS	-13.662956
Unsafe	-14.099707
SHELL	-13.577203
audit	-13.950665
syslog	-13.621783
manual	-14.242392
MFP	-14.825187
QWidget	-13.348926
EGL	-13.855348
Tasks	-13.454145
AW	-13.512271
PLAY	-13.513377
ARGUMENT	-13.693122
Home	-13.016109
unset	-13.458557
Vendor	-13.623656
▁lpfc	-13.997248
supplicant	-13.877031
▁proper	-12.718075
ail	-13.516765
swig	-14.057456
UARTE	-13.792437
REQUIRE	-13.643483
FORCEINLINE	-13.643166
printLine	-13.104867
▁dead	-12.550573
▁Constructor	-12.797120
crop	-13.998697
Immediate	-13.618028
▁vertices	-13.516358
Nb	-13.757820
recover	-14.371329
Mass	-13.494148
UNEXPECTED	-13.786829
PEM	-13.858654
hwloc	-14.040706
▁choose	-12.784689
Lua	-13.518230
cas	-13.272962
▁REFIID	-13.438602
newline	-13.506191
▁nType	-13.875298
Theme	-12.979645
▁Implementation	-12.661971
planes	-13.480103
leave	-13.246503
▁rectangle	-13.544167
KEEP	-13.654378
FACE	-13.529522
Components	-13.230932
xAE	-14.768227
▁images	-12.551554
sal	-12.930490
BMP	-14.153659
rssi	-13.939438
tar	-12.728586
IOT	-13.809327
▁Serialize	-13.528194
▁CTransaction	-13.537462
SPL	-13.734988
Schedule	-13.797371
▁QT	-12.971162
wrong	-13.713497
opc	-13.897808
Instances	-13.800182
cmap	-13.818711
GLfloat	-14.221722
snmp	-13.882257
PCLK	-14.187828
Perl	-13.976781
bed	-12.873308
▁away	-11.750264
UNIVERSAL	-13.736078
multiplier	-13.757566
MAY	-14.326085
▁sector	-13.063839
BKE	-13.491971
Relative	-13.309364
linked	-13.360117
pmc	-13.846050
(_("	-13.554278
udev	-13.659689
Wave	-13.568419
▁EFM	-14.083551
GNU	-13.209971
cycles	-13.613982
finished	-13.307416
CWallet	-13.687282
▁declared	-12.711876
deflate	-13.776308
addrs	-13.550787
▁fully	-12.822685
bdb	-14.216831
hang	-13.439321
▁anyway	-13.043416
▁Unicode	-13.344865
Declare	-13.299480
prefetch	-13.781641
GOT	-13.669108
Interaction	-13.400986
Assignment	-13.262772
ied	-12.987792
LFRCO	-14.998473
locations	-13.811928
rounding	-13.759164
Calc	-13.556837
STANDARD	-13.499073
VkPhysicalDevice	-13.687478
xCF	-14.791304
DIGIT	-13.793021
CUBE	-13.702888
Processing	-13.720839
▁compressed	-13.614108
We	-11.697409
EAP	-13.848649
environment	-13.514343
usable	-13.953520
vkGet	-14.265610
overwrite	-13.673519
sRequest	-13.904403
rwlock	-13.865290
AsyncCaller	-14.817926
inflate	-13.685408
▁didn	-11.985702
ZX	-13.647327
IMP	-13.249710
alternative	-14.753127
TUPLE	-13.901048
DXGI	-13.487860
AFTER	-13.598645
efi	-13.676659
GU	-13.730294
Copyright	-12.864978
▁"+	-13.687339
cil	-13.202008
spirit	-14.080015
TORSO	-14.054570
CHANGED	-13.876026
IK	-13.465768
oap	-13.911252
Seed	-13.501637
CGFloat	-13.578551
LATE	-13.472016
)!=	-14.117500
COMPLEX	-13.489090
particle	-14.220816
ug	-13.050631
android	-12.458616
Performance	-13.711696
AVR	-13.856594
Children	-13.024282
READONLY	-13.776947
UnityEngine	-14.706541
tiny	-13.612640
Agg	-13.478784
SEED	-13.822277
propagate	-14.582941
((((	-14.675032
HFRCO	-14.813106
fpu	-13.913914
Candidate	-13.564536
PHYS	-13.828969
train	-13.356181
Let	-13.152498
that	-12.638038
Ops	-13.586189
Actual	-13.687775
DPLL	-14.354206
ey	-11.772639
embedded	-14.702263
Conf	-13.553244
SUM	-13.358872
Eigen	-13.695560
▁followed	-12.336659
KEYS	-13.683487
PFNGLGET	-13.809046
slash	-13.814279
division	-14.426353
)+(	-14.085502
▁Retrieve	-13.456199
lon	-12.626018
DTFC	-15.326675
MGR	-13.978003
▁encryption	-13.490535
▁trailing	-13.518023
TRA	-13.400439
online	-13.464604
PyBytes	-13.959963
Histogram	-13.714807
aio	-13.780999
Calling	-13.599677
Smart	-13.772321
dirent	-13.552193
DCDC	-14.480104
SPH	-15.104021
DCT	-13.904347
xDB	-14.584077
▁/*******	-14.127269
bstr	-13.832670
Watch	-13.142861
quick	-14.053500
Ack	-13.684337
Packed	-13.905191
Compressed	-13.775945
above	-13.759512
Bias	-13.766706
cad	-13.863027
▁//=============	-11.181874
composite	-14.165415
qm	-13.968649
Resume	-13.500297
CTRLB	-14.818756
replication	-14.430281
feedback	-13.993294
gra	-13.118290
HSTRING	-13.938371
masked	-14.174758
requested	-13.630109
SMBUS	-14.110371
credentials	-14.210351
email	-13.356475
RUNNING	-13.753707
Primary	-13.541984
STALL	-14.138532
subscribe	-13.430187
ij	-12.952376
PyThreadState	-13.751971
▁leading	-12.413867
VREF	-14.348940
▁"--	-13.570173
mDNS	-14.111698
lru	-13.910226
▁Does	-12.677247
subscription	-14.177488
hv	-13.643685
Gst	-13.782910
Attach	-13.557882
NMI	-14.056133
wlr	-13.998578
intrinsic	-14.405182
▁RFC	-13.251392
WHERE	-14.213145
bufsize	-13.650695
PLUGIN	-13.637072
Metric	-13.591073
feat	-13.405848
Union	-13.364480
▁OWNER	-13.624738
JNI	-13.929438
fy	-13.519832
IMX	-14.151795
Norm	-13.636264
▁third	-11.728265
RSTR	-14.571246
HELP	-13.516551
???	-13.612880
************//**	-12.773581
ker	-12.263031
integral	-14.262281
EventHandler	-13.785585
classes	-13.208520
▁Digital	-12.350628
▁creates	-13.173259
ish	-12.189787
ROLE	-13.726679
Ctor	-13.941090
IAM	-13.582223
▁startup	-13.353460
IOTHUB	-14.489419
▁HOLDER	-13.675861
testcase	-13.508511
Upload	-13.575471
▁represented	-12.502521
SCH	-13.902228
ach	-12.838192
WAKEUP	-14.054023
FRAG	-13.875458
)){	-13.576154
getenv	-13.682526
pure	-13.903921
▁IDs	-13.568150
▁Warning	-12.630362
XDMAC	-15.371995
BNX	-14.159393
eve	-13.377322
stable	-13.418704
USR	-14.050375
REPLACE	-13.638866
ndev	-13.592780
Sector	-14.013394
................	-14.107246
dependencies	-13.860815
JA	-13.108353
LIN	-13.535350
nan	-12.583572
mar	-12.228671
ceil	-14.047180
populate	-14.499701
▁terminal	-13.172271
ura	-12.192943
hcryp	-13.954175
▁derivative	-12.935051
INTFLAG	-14.924752
FREQUENCY	-13.926419
Rev	-13.574147
▁Flash	-13.144724
stddef	-13.003225
lazy	-14.108794
OWN	-13.695402
gss	-13.981814
glIs	-13.779919
kk	-13.271063
xfff	-14.225300
calibration	-14.771838
XV	-13.767255
uk	-12.241950
comma	-14.182537
nHeight	-13.721040
UTILS	-13.653874
raster	-13.616103
strength	-14.119284
":"	-12.552177
intf	-13.423991
LDO	-14.249196
Registration	-13.326995
LPARAM	-13.985959
BUFFERS	-13.769944
"):	-13.461920
LDMA	-14.984200
▁obtained	-12.552100
'))	-13.393634
▁purposes	-12.741368
AGE	-13.213088
hdmi	-13.970505
Logging	-13.499476
Repeat	-13.849470
tracing	-14.147812
icroelectronics	-13.764684
lowest	-14.624905
▁luaL	-13.792384
lease	-14.162474
OTA	-13.826816
guarantee	-16.044637
PTP	-13.916126
cts	-13.829482
▁solution	-12.441461
queries	-14.497247
bitmask	-13.791056
Unary	-13.770838
KVM	-13.923066
ABCDEF	-14.993713
delim	-13.631039
bat	-13.128046
coding	-13.928201
FTP	-13.551786
EZ	-13.708963
Strip	-14.016223
HOLD	-13.846158
Capability	-13.749167
outline	-14.057545
RenderTarget	-13.949876
EH	-13.576240
▁buflen	-13.737367
Walk	-13.774972
imx	-13.927215
▁COBJMACROS	-12.444290
created	-13.264489
GetValue	-13.775508
forced	-14.315683
NSData	-13.556253
drain	-13.944018
constructor	-13.450701
Poll	-13.808697
MCR	-14.078687
▁stbt	-14.343866
Steam	-14.214161
itemsize	-13.885309
altivec	-13.799257
gre	-13.219323
ERRNO	-13.642257
PIPELINE	-13.953119
RCV	-13.922549
Executor	-13.505797
xEA	-15.000967
fil	-13.739370
SSD	-14.022073
appendStringInfo	-13.591022
ensure	-13.591725
isa	-12.647669
verts	-13.816813
ENOENT	-13.268639
Activation	-13.927903
Encryption	-13.694458
▁CScript	-13.546088
associate	-14.632513
▁positions	-12.414991
xEB	-14.928393
charge	-13.583558
expire	-13.732203
UNIFORMMATRIX	-13.990763
nop	-13.127015
ObjectType	-13.654922
Ctl	-13.869789
notice	-13.265699
DEAD	-13.645715
wps	-14.012688
tain	-13.235490
Dead	-13.662754
BLACK	-13.322599
flatbuffers	-14.317314
▁trying	-12.228074
WAY	-13.776630
BaseType	-13.751953
oct	-13.930585
facet	-13.825460
INDIRECT	-13.772195
shot	-13.127669
hapd	-13.974195
MORE	-13.603982
lead	-13.989219
scal	-13.915908
msk	-13.865476
vval	-13.859803
RU	-13.284720
▁building	-11.897598
▁rendering	-13.428506
MCLK	-14.361434
Fl	-13.615662
isnull	-13.519045
rmi	-13.739290
FG	-13.391249
nest	-13.539013
OPC	-13.972262
logging	-13.292421
traffic	-14.421371
rdb	-14.022012
Lines	-13.427847
DEST	-14.026911
deserialize	-13.769095
vw	-14.105035
nRF	-14.242046
cdc	-13.961010
strchr	-13.847403
Gtk	-13.625698
PROG	-13.834146
SYSCFG	-14.431396
suppress	-14.245096
Guide	-14.294040
CYCLES	-14.564133
▁conflict	-12.832541
'\\'	-13.697976
Rendering	-13.783245
Where	-13.091629
ale	-12.546169
▁milliseconds	-13.633515
lgl	-14.220498
argp	-13.561611
indicator	-14.128344
▁libxsmm	-14.490600
dso	-14.076803
btrfs	-13.722507
ode	-12.879322
physical	-13.479005
▁clients	-13.074357
MCG	-14.115708
formatter	-13.818393
RESTART	-13.786080
LETTER	-14.595024
outgoing	-14.564822
QS	-13.775746
▁collect	-13.478954
▁May	-10.843233
ffffff	-14.344745
TWO	-13.524117
MZ	-13.951728
Gpio	-14.192641
battery	-14.152804
STK	-13.873071
]",	-13.665445
Peripheral	-13.873877
VFS	-13.809543
GIT	-13.759138
Transpose	-13.533091
hor	-13.385846
▁IXGBE	-14.008213
vhost	-13.919950
More	-13.390926
SEGMENT	-13.872998
▁significant	-12.334257
ddr	-13.936331
kcontrol	-14.187136
Dma	-14.128670
accepted	-14.588930
pOut	-13.870688
▁strchr	-13.732061
▁modes	-13.173114
cython	-14.071052
DYN	-14.053948
commercial	-14.812200
BTM	-14.045415
Example	-13.109401
Locked	-13.471271
▁Construct	-13.325995
RSSI	-14.123670
ATL	-13.842030
ALIGNED	-13.837842
Own	-13.991570
OBJC	-13.446515
EMR	-14.222789
▁EEPROM	-13.781001
SQR	-14.648766
UIPROC	-13.726089
▁expressions	-13.259864
Enumerator	-14.222761
▁Apple	-12.533956
▁affiliates	-13.320625
subdev	-13.988748
Msp	-14.841995
SHADOW	-13.793479
Polarity	-14.071569
zi	-12.522478
▁reported	-12.232880
OMAP	-14.014685
Deriving	-14.712655
SIZ	-14.019772
intersect	-14.390403
Completed	-13.619221
▁ovsdb	-13.910342
Annotation	-13.543494
RDP	-13.840461
VERTEXATTRIBI	-13.732094
Fun	-13.707788
design	-13.906550
GUARD	-13.729055
ndx	-13.826285
Suspend	-13.631124
playback	-14.116072
▁Ipp	-14.644417
ann	-13.428475
ALIGNMENT	-13.823338
DUP	-13.775248
Scheduler	-13.458747
▁<<=	-13.296661
tsc	-13.919757
▁APIs	-13.431154
fts	-13.588740
FIAsyncOperation	-14.384510
FEC	-14.142530
Coins	-13.559452
CTLR	-13.868798
exclude	-14.066242
▁radeon	-13.962122
bsize	-13.826542
transition	-13.470904
iscsi	-13.938509
sockaddr	-13.888005
▁destroyed	-12.938824
▁Will	-12.333546
beg	-13.562669
NFC	-13.777686
DIST	-13.663035
pst	-13.919283
TOUCH	-13.775695
PCRE	-13.862438
minmax	-14.263539
()));	-13.462640
▁IPPROTO	-13.681756
passwd	-13.721661
Email	-13.571963
quot	-13.871119
▁MICROPY	-13.610012
Balance	-13.335473
some	-12.588408
ult	-13.618783
xDC	-14.609219
qr	-13.791677
Diagnostics	-13.788435
Ge	-13.531819
eta	-12.438764
Stencil	-13.552291
expanded	-14.294003
Catalog	-13.414350
mut	-13.684322
oi	-12.855753
csi	-13.769832
unaligned	-13.846070
ji	-12.208795
▁replaced	-12.585997
MAYBE	-14.411353
CONTAINER	-13.874977
Physics	-13.758233
Amazon	-13.771314
Cross	-13.421737
days	-13.631215
want	-13.289600
▁crash	-13.351699
numberOf	-13.708506
MYSQL	-13.809880
processed	-13.636340
GetString	-13.745748
Detect	-13.730132
qpair	-14.236435
Tr	-13.510421
IGNORED	-14.295076
quantize	-13.905529
Digest	-13.587438
WiFi	-14.082936
rss	-13.844618
Xact	-13.700099
FACTOR	-13.884793
▁succeeded	-13.082705
▁signals	-12.784768
ACCEL	-13.730756
Undo	-13.552732
▁==========	-10.714292
Admin	-13.487079
//////////////	-13.455085
visitor	-14.183796
reflect	-14.057886
FromString	-13.589242
relevant	-15.292071
Measurement	-13.928625
▁communication	-12.781998
UChar	-13.954333
diagonal	-14.391060
PFNGLPROGRAM	-14.046861
▁(*)(	-14.119075
Here	-13.736061
ENTRIES	-13.869153
aq	-13.325593
lcid	-13.932340
Strings	-13.037049
plug	-13.940916
consumed	-14.350472
calculate	-13.676140
frm	-13.937334
Sep	-13.900342
DataSource	-13.675796
phar	-13.842919
EXCLUSIVE	-13.905699
multiple	-13.612614
gateway	-14.240779
tos	-12.829259
nfc	-14.101325
Written	-13.831784
▁(~	-14.029662
esc	-13.471872
qe	-13.882502
SPECIES	-13.698656
▁getting	-12.263508
enet	-13.911039
Descr	-13.923312
lookahead	-13.850262
thd	-14.490610
describe	-14.218174
dnx	-14.583170
Fence	-13.637423
▁contact	-12.584692
skipped	-14.693762
cpus	-13.708291
NEGSEL	-15.305071
ceph	-13.927589
▁changing	-13.020430
ware	-13.056615
ahead	-13.781178
Hold	-14.049321
STRIDE	-14.120122
ENCODER	-13.724557
architecture	-14.880100
periodic	-14.246861
▁NSNumber	-13.632576
TWIS	-13.771006
SHUTDOWN	-13.682623
SEE	-14.639845
▁making	-11.950074
GN	-13.502591
closing	-14.290712
ukernel	-15.095967
cctx	-13.843660
▁'/')	-13.637660
Guard	-13.556844
/*^	-14.114975
its	-12.352806
third	-13.331388
Implicit	-13.732645
Tracking	-13.648259
GetProcAddress	-13.971750
kwds	-14.099439
FOUNDATION	-13.917703
LITE	-13.554215
Pages	-12.910238
dfs	-13.838350
...\	-13.718721
XYZ	-13.797487
Busy	-13.808847
ification	-12.836407
ball	-12.386044
▁effects	-12.068092
obs	-13.501497
▁debugstr	-14.280519
tcb	-13.910064
KW	-13.792769
ORTE	-14.014474
pkts	-13.888535
debugger	-13.659062
cwd	-13.797047
Extent	-13.587726
tape	-13.813278
Ratio	-13.510970
coefficient	-14.799870
statistics	-13.544402
portal	-13.958330
pBuffer	-13.834201
gfp	-14.057747
memb	-14.150062
vg	-13.738987
midi	-13.820665
▁DISPID	-14.167012
east	-13.041795
abc	-13.696546
infoPtr	-13.945945
OCI	-13.915182
osc	-13.795558
HY	-13.612264
extents	-13.923565
xdeadbeef	-13.474282
rxq	-14.039870
▁animation	-12.973462
aead	-14.028192
fee	-13.687082
Phy	-13.599168
▁*-------------	-12.092279
BRIDGE	-13.784142
Probe	-13.667738
APPLICATION	-13.771784
▁assumed	-13.198385
▁sizes	-13.211390
Parameterfv	-13.939283
lsn	-14.032899
itr	-13.550365
writable	-13.758010
verification	-14.769970
CDF	-14.058467
PyArg	-14.139745
spa	-13.901528
▁decoding	-13.565822
SUPER	-12.949793
XFER	-14.062438
EAGAIN	-13.421627
wolf	-13.996002
▁accessed	-13.409542
▁internally	-13.610849
VNVPROC	-13.902521
WEAK	-13.610861
▁subsequent	-13.033964
▁smartlist	-13.693400
▁translation	-12.824090
LSE	-14.096384
Multiply	-14.375305
Po	-13.144833
__((__	-13.810741
BURST	-14.199912
xFFF	-13.395978
SCROLL	-13.829097
EW	-13.751217
Nested	-13.707298
IWL	-14.035946
▁recommend	-13.639654
PROV	-13.875854
▁tor	-13.605077
ptp	-14.012786
▁analysis	-11.684843
Vert	-13.372714
QObject	-13.411893
wasm	-14.136961
aspect	-14.386449
(){	-12.315289
LOCKED	-14.096091
Assertion	-13.708316
▁Floor	-13.558821
Mix	-13.686211
goal	-14.076935
▁typical	-13.590823
hstring	-14.047665
oob	-13.952136
tsd	-14.035494
und	-13.057060
ZZ	-13.609533
subs	-13.730484
▁integers	-13.561882
DETECT	-13.951551
verifier	-13.757765
xCB	-14.956589
replay	-14.332138
tracker	-13.786948
DONT	-13.846037
UPD	-14.294907
mega	-14.173522
reduction	-14.665927
vnet	-14.020596
ALERT	-13.953265
▁warnings	-13.346777
bsd	-13.816681
look	-13.662815
ransformFeedback	-14.058228
nvm	-14.050620
goodG	-13.577942
ALEN	-13.813917
Abs	-13.544131
xfffffffe	-14.683480
subtract	-14.537164
CAMERA	-13.827554
xAF	-14.757407
nonzero	-14.896287
▁owned	-12.796913
divisor	-14.596670
usbd	-13.946941
▁njs	-13.895607
lwip	-13.721383
desktop	-13.988189
effective	-14.278232
mh	-13.477785
Pkt	-14.044855
MST	-14.234124
Flex	-13.999045
HK	-13.683564
CONTINUE	-13.556815
quiet	-13.879853
exist	-13.762803
JP	-13.449574
rfc	-14.131520
pretty	-14.075564
mute	-13.864989
xEC	-14.820348
started	-13.394836
iocb	-14.196956
REPEAT	-13.989311
PyString	-13.964946
EFFECT	-13.783551
▁platforms	-13.110371
debugfs	-13.846844
kit	-13.258243
LUA	-13.670674
NOEXCEPT	-13.888902
Managed	-13.586747
▁Ro	-12.498160
Unregister	-13.667882
Renderbuffer	-13.835874
analyze	-14.341299
>>(	-14.069116
USBC	-14.870777
mpd	-14.091844
xmlChar	-13.640410
UPPER	-14.028572
xaaaaaaaa	-14.752567
QDEC	-13.777129
Retry	-13.785224
xfffffffd	-14.774790
CMedia	-14.485453
Triangle	-13.990852
SWI	-14.094996
conversion	-13.683178
ANSI	-13.738027
Reflection	-13.525401
shrink	-13.753509
IDL	-13.854149
mtoll	-14.218562
PCH	-14.045187
glUniformMatrix	-14.169075
▁others	-11.871721
sdio	-14.048007
NSMutable	-13.606503
requires	-13.414834
inout	-13.889214
CALCTRL	-15.261660
Divide	-14.519467
masks	-14.080276
pathname	-13.764260
stripe	-14.273417
▁hashmap	-13.871712
MIME	-13.812021
▁multiply	-13.487567
nondet	-13.759324
▁sources	-12.002282
PPS	-13.912364
will	-12.881378
Collect	-14.034061
passes	-14.677042
▁destructor	-13.415157
smc	-13.983963
HV	-13.748775
ular	-13.253026
limb	-13.746429
filtered	-13.999894
wsi	-14.030774
PAC	-13.743734
cdf	-14.233045
Quaternion	-13.938042
Foo	-13.394578
images	-13.181898
bli	-14.130527
shr	-13.817632
APIC	-13.918306
shl	-14.130880
MINI	-13.821065
Pick	-13.855944
sge	-13.984717
give	-13.613565
▁Cy	-12.923691
streaming	-14.339593
PARENT	-13.909359
▁FSL	-13.978163
decltype	-14.032959
ste	-13.077417
payment	-13.990571
recent	-14.556584
▁depends	-13.155034
btl	-14.362782
Quick	-13.745647
PRIMITIVE	-13.990223
*/])	-15.239903
GRAPHICS	-13.973314
needs	-13.584689
Cont	-13.638364
bmap	-13.948172
Dense	-13.816921
terminator	-13.722440
CST	-14.083057
receiver	-13.754850
Blk	-14.077369
▁several	-11.415845
decrement	-13.768093
hardware	-13.675275
stk	-13.947528
seat	-13.697740
stcb	-13.996831
▁-*-	-14.085618
har	-12.606578
▁triggers	-13.731656
modifiers	-13.763600
emplace	-13.931019
▁guaranteed	-13.542875
LEGACY	-13.827760
Attrs	-13.890620
registered	-13.572629
APPEND	-13.727001
FinishContext	-13.209053
RCT	-13.844681
OLE	-13.609183
reorder	-13.884123
###	-14.729625
▁Fifth	-13.030548
Quality	-13.717323
ana	-11.798666
quat	-13.999542
▁Franklin	-12.897603
WPA	-14.019697
tive	-12.920353
VERB	-14.061304
NOTE	-13.540024
FRC	-14.535307
▁processes	-12.803741
Sql	-13.486105
association	-14.289866
processing	-13.410745
ntohs	-14.007335
shmem	-14.016399
sup	-13.344163
cxx	-13.421952
uplo	-14.232603
prediction	-14.596046
]-	-14.127393
nVersion	-13.614132
RH	-13.580498
ric	-12.758932
las	-12.684075
ARE	-13.699310
gmail	-13.677752
Now	-12.934003
SECTOR	-14.116030
ffffffe	-14.779244
puc	-14.078332
adap	-14.114895
CANT	-14.126963
duplicate	-13.730048
ival	-13.585977
preview	-14.109519
▁Ethernet	-13.589227
unload	-13.733791
faces	-13.781913
pressure	-14.195162
wstring	-13.864549
EXTENDED	-13.938478
QR	-13.603313
Known	-13.738989
Diag	-13.699686
entities	-14.186616
Dirty	-13.346091
CONNECTED	-13.850288
Changes	-13.604014
huart	-13.855655
alternate	-14.722010
nearest	-14.770314
procs	-13.908382
▁together	-11.895881
fputs	-13.631444
Pg	-13.871035
tfm	-14.072059
▁pick	-13.147241
▁gchar	-13.513051
$\	-13.420008
Calibration	-13.922763
NTSTATUS	-13.818172
chosen	-14.768192
ARC	-13.520118
Aligned	-13.865459
SIO	-13.601342
PACKED	-13.702955
Lite	-13.579149
MASKWRITE	-14.668212
rio	-13.176839
COMPONENTS	-13.915232
FILENAME	-13.714748
glsl	-14.066297
mib	-13.874237
ising	-13.597447
▁(--	-13.518233
TASKS	-14.550647
chg	-14.012178
Hw	-13.910383
HUD	-13.864638
TRAP	-13.811325
halt	-13.848880
dvb	-14.073747
Java	-13.423219
WEIGHT	-13.947325
timers	-13.644980
wiphy	-14.320322
Assembly	-13.500395
MMIO	-14.116163
]*(	-15.540577
AOT	-13.999016
▁intended	-12.767020
QUAD	-13.885656
CHANNELS	-13.984235
VARARGS	-14.117361
wqe	-14.256710
DSS	-14.056488
vga	-14.074886
dimensions	-13.910216
▁responsible	-12.711636
FO	-13.533812
BAT	-14.014686
scanline	-14.056782
▁MagickFalse	-13.742004
SLOTS	-13.555701
constr	-13.948538
hashes	-13.986655
XTAL	-14.291300
▁vint	-15.049820
Vertical	-13.505221
Communication	-14.593451
central	-13.472437
ado	-12.679638
▁Initializes	-13.630741
ipp	-13.654131
El	-12.629017
▁circuit	-13.087565
SNMP	-13.860164
Arn	-14.210886
Iteration	-13.728126
WINE	-13.932984
TYP	-14.153586
contact	-13.546250
WAKE	-14.050243
dce	-14.277826
ndr	-13.958650
Regs	-13.965867
FMC	-14.437433
Jit	-13.892655
consensus	-14.277723
undefined	-13.509344
vy	-13.239775
▁Checks	-13.614484
DEP	-13.578730
ARGB	-14.083381
blocksize	-13.864474
workers	-13.754838
ILL	-13.532580
tee	-13.868087
▁triggered	-13.563143
]!=	-14.137212
DELTA	-14.122099
ras	-12.597360
▁lost	-12.067751
UNORM	-14.302049
Startup	-13.632167
RAD	-14.125559
SVC	-13.887210
NSMutableArray	-13.530076
requests	-13.635963
independent	-14.082022
SHAPE	-13.885124
MINUS	-14.019123
egl	-13.907313
Negative	-13.465822
breakpoint	-13.910697
Mult	-13.929771
Enumeration	-13.865935
quota	-14.189141
guess	-14.571202
hspi	-13.931766
conflict	-13.843827
deque	-13.770307
PUPDR	-14.864128
▁PPI	-14.131500
globus	-13.803380
Matches	-13.875682
STRICT	-13.832620
PCTL	-14.351505
className	-13.519795
DFSDM	-14.375460
XLog	-13.745931
▁They	-11.268870
Inc	-13.412211
transmit	-13.865031
▁possibly	-13.040452
LPWSTR	-13.769473
Xil	-14.282976
functor	-14.574668
Oc	-13.259509
Composite	-13.471054
darkskin	-15.029692
axes	-13.867382
mons	-13.621332
symtab	-14.007813
xDE	-14.854895
DATATYPE	-14.019556
.......	-14.751204
Critical	-13.529984
prm	-14.124309
AWD	-14.631920
COORD	-13.726002
▁become	-11.897862
monster	-14.333776
Simd	-14.191751
colon	-13.563874
▁((((	-14.613024
▁Chromium	-13.765486
getattr	-13.900728
guide	-14.090608
qemu	-13.822966
combined	-14.656394
ATH	-13.821009
Units	-13.721223
Horizontal	-13.585278
joystick	-13.881869
etc	-13.031053
NVME	-14.104413
Napi	-14.352852
▁however	-11.978030
ecdsa	-14.203345
question	-14.020142
SPELL	-13.941458
VARBPROC	-14.033623
Advanced	-14.182288
pinfo	-13.862879
grib	-14.259266
isp	-13.751031
FreeRTOS	-13.676943
Cipher	-13.796211
ina	-11.673394
lag	-13.116489
SetupContext	-13.936027
WORLD	-13.316490
kbd	-14.016828
-------------+	-12.742685
SharedPtr	-13.946578
theme	-13.674161
▁advertising	-13.163964
Stroke	-13.714105
▁CURLE	-13.563143
capa	-14.178669
FLAC	-13.882922
▁mechanism	-13.084464
Allowed	-13.795865
Anchor	-13.584885
Cat	-13.150099
Constraints	-13.673198
GetArena	-13.898433
PROTOTYPES	-13.193818
▁located	-11.625802
▁looking	-12.251978
decay	-13.952867
radeon	-13.914316
bsp	-13.831948
SECOND	-13.768074
▁relocation	-13.667095
apic	-14.065607
NPC	-14.271349
hat	-12.768810
Compression	-13.623144
ature	-13.439214
FreeBSD	-13.653948
nss	-14.040023
IsA	-13.806661
automatic	-14.532157
Secondary	-13.989490
checked	-13.630548
COS	-13.889609
maxlen	-13.822638
Creation	-13.835078
pivot	-14.527717
VISIT	-13.770008
CGRect	-13.856451
▁faster	-13.194551
concurrent	-14.297947
CURVE	-14.004442
▁operators	-12.868515
NTI	-14.389945
Calendar	-13.679019
Defined	-13.767888
SEQAN	-14.403527
Redis	-13.810099
compose	-14.340975
xCA	-15.054237
unary	-13.905086
PRIMARY	-13.862537
Sha	-13.432594
▁GBProperty	-15.047797
ObjectId	-13.813621
keylen	-13.884287
RND	-14.183753
KILL	-13.695313
composition	-14.358884
MIDI	-14.164760
SCK	-14.128643
fread	-14.040786
XMM	-14.401850
SLICE	-14.125082
ENCE	-13.497941
unwind	-13.855263
SHARE	-13.910463
TSEL	-14.601902
SAR	-13.928862
TreeNode	-14.020198
FSR	-14.357024
UDB	-14.841416
Callable	-14.088075
GEMM	-14.059010
prep	-14.026454
epu	-14.546732
NAK	-14.297291
WASM	-13.787597
Continue	-13.822787
lh	-13.695216
METHODS	-13.325538
km	-11.599813
iovec	-13.953029
OCSP	-14.130102
StringInfo	-13.569188
Wo	-14.098269
LWS	-13.885134
Comparison	-14.169024
▁Technology	-11.923527
fwrite	-13.986208
placeholder	-13.564065
(^)(	-14.256274
msa	-14.325580
White	-13.093091
CONFIGURATION	-13.889611
BITFIELD	-14.184547
Operations	-13.902379
TypeName	-13.829860
Tools	-13.562536
DIRECTION	-13.790398
UIColor	-13.696865
succeed	-14.561833
protocols	-14.228680
▁compilation	-12.559215
Lambda	-13.351177
sai	-13.369422
PRED	-13.922532
dz	-13.466187
ipaddr	-14.136013
Ins	-13.440990
▁seems	-12.418909
zv	-13.820486
waiting	-13.742996
NY	-13.317383
Slider	-13.803423
RXF	-14.193910
DMAMUX	-14.520380
formatted	-13.727176
>>>	-14.067542
BUT	-14.059162
WANT	-13.672714
Construct	-13.822238
PRESCALER	-14.552354
VV	-13.954482
▁Adds	-13.750220
▁ptrdiff	-14.222581
PROTECT	-13.715670
Are	-13.120007
SENT	-13.969116
PSC	-14.143922
RANK	-13.965392
partitions	-13.758863
▁Currently	-13.250606
PACKAGE	-13.631764
BUFF	-14.106834
fonts	-13.638687
Curr	-13.904827
rgba	-14.343866
▁LLC	-13.271183
CEE	-14.007321
construction	-14.637530
expired	-14.580015
Ns	-13.609757
))));	-13.961534
symlink	-13.865011
Advance	-14.390189
FMA	-14.231855
Diagnostic	-13.746504
legal	-14.060466
dataset	-13.760560
▁goes	-12.640500
Cols	-14.007318
dissect	-14.444662
Exists	-13.677217
under	-12.852546
UNPACK	-14.004608
routing	-14.458855
Separate	-14.025205
Prescaler	-14.212373
coded	-13.649900
JMP	-13.897987
Detection	-14.212897
Dispatcher	-13.818191
CANCEL	-13.808966
AML	-13.797615
Feedback	-13.655659
delimiter	-13.726569
Defaults	-13.604649
WIDE	-13.907655
▁shouldn	-13.399810
PTHREAD	-13.802166
deleted	-13.699734
Masternode	-13.855962
▁important	-11.837791
xfrm	-14.091245
ZE	-13.620502
MIB	-14.027756
garbage	-14.887237
locator	-13.885460
Alter	-14.067429
Mar	-13.271843
hostapd	-14.131189
TCL	-13.846518
sip	-13.589820
▁GST	-13.878317
Coordinate	-13.862579
servers	-14.067524
macros	-13.406116
Asm	-13.894781
Most	-13.958746
without	-13.377999
Margin	-13.601471
vha	-14.140909
GOOGLE	-14.803499
ntohl	-14.097882
SIGNED	-14.042452
▁receiving	-12.999409
SPIRV	-14.136186
ung	-12.186765
▁assumes	-13.670377
els	-12.728888
NSURL	-13.729957
▁XXH	-14.365908
spent	-14.572387
efficient	-14.635716
Terminal	-13.944613
QL	-13.847411
Tcp	-13.843030
OptionsT	-13.968614
xDA	-15.126257
Threads	-13.618448
Strategy	-13.665850
PAYLOAD	-14.124912
SAADC	-13.948679
LOS	-13.863145
IEs	-14.183631
EXECUTE	-13.999360
YA	-13.502489
tro	-12.962312
▁OMITBAD	-12.614866
mddev	-14.028928
PyTuple	-13.963124
NW	-14.025999
ask	-13.633624
PORTB	-14.198123
SVG	-13.788362
DUMMY	-13.860224
STARTED	-14.108556
require	-13.489896
NSNumber	-13.701059
octet	-14.086214
CGAL	-13.982329
KL	-13.632234
DCH	-14.063390
HFCORECLKDIV	-15.760810
ulation	-12.903240
GTM	-14.195506
MQ	-13.997718
reports	-14.346772
CLKSOURCE	-14.347594
PyModule	-13.808772
Consumer	-13.785453
declaration	-13.700078
outfile	-13.829014
INVERT	-14.061534
severity	-14.568351
provision	-14.795916
trust	-13.980268
unlocked	-14.190522
attnum	-13.987345
SCU	-14.408441
GenericClass	-14.873998
********	-14.482010
SWP	-14.952308
Topic	-13.773976
MIXER	-14.143700
paddr	-13.851227
blockSize	-13.862175
TXB	-14.373155
huge	-13.873937
PFNGLTEXCOORD	-13.898178
▁clib	-13.928206
dram	-14.089321
sweep	-14.043580
+-----------	-12.877288
WN	-13.848378
▁"\"	-13.888599
lba	-14.020306
OPAMP	-14.650519
Decimal	-13.827580
Duplicate	-13.695637
health	-13.970648
Neg	-13.770752
safety	-14.421512
▁gives	-12.553198
▁coefficients	-13.580928
imap	-14.029647
getType	-13.662116
▁requirements	-12.663957
QI	-14.176762
bitrate	-13.978682
AUTHOR	-13.819329
WWDG	-14.373938
fullscreen	-13.926829
locate	-14.440839
▁runs	-12.597685
SAS	-13.714603
DAPM	-14.195316
whitespace	-13.676090
ified	-12.960474
dwc	-14.259432
correction	-14.771657
putc	-13.682982
LPM	-14.357491
PCS	-14.310808
LFB	-15.128219
sphere	-14.035476
▁(+)	-14.196370
▁enumeration	-13.658061
bypass	-14.488969
intermediate	-14.848647
TODO	-13.526186
SizeOf	-14.053879
▁/********	-13.751957
tell	-13.478938
scp	-14.005703
scatter	-13.937734
arithmetic	-15.009858
PyNumber	-14.256363
Invalidate	-13.734837
?$	-15.414179
BTRFS	-14.103780
~",	-14.706381
replica	-14.595675
MIT	-13.212018
hda	-13.985228
typmod	-14.081939
▁pointed	-13.222106
AXI	-14.323723
IMXRT	-14.631745
▁determined	-12.656041
Cube	-13.523821
VALIDATE	-14.000038
▁come	-11.674786
▁EZRADIO	-14.310836
kh	-12.980086
GMP	-14.160564
BZ	-13.892593
▁PGNS	-17.037821
tabs	-13.535254
Simp	-14.663190
lval	-14.017165
▁therefore	-12.431202
ECP	-14.091447
▁calculated	-13.179502
trial	-13.781744
izer	-13.109820
perform	-13.624606
Workspace	-14.234568
▁kGTLR	-13.890278
Compact	-13.905098
AGC	-14.291494
DBGMCU	-14.829680
ofp	-13.579925
Invert	-14.009389
FSM	-14.147252
Chan	-13.891068
RTW	-14.214608
cfs	-14.066785
ALARM	-14.167425
▁normally	-13.302513
GetDevice	-14.073292
PyDoc	-13.857758
▁applies	-13.383457
ku	-12.648566
ANIM	-14.288842
Press	-13.463080
Explicit	-13.853625
FOCUS	-13.869070
Firmware	-13.915087
rend	-13.762913
dictionary	-13.543350
zo	-12.548026
PFNGLBIND	-13.869874
kmem	-13.950502
CheckExact	-14.205322
Sender	-13.797786
psi	-13.065159
])))	-14.589864
Fifo	-14.138392
(~	-14.324327
/////////////	-13.995062
HASHMAP	-14.012961
Expect	-13.555424
typeof	-13.588605
filt	-14.202794
wildcard	-14.412444
BlockSize	-14.074220
radix	-14.015399
AGG	-13.774481
LIT	-14.032633
TRIS	-14.607765
ADI	-13.960365
interpolation	-15.032194
▁"../../	-13.726586
mdio	-14.141761
▁matrices	-13.480112
Messages	-13.429922
▁***/	-13.180080
SAT	-13.682633
Pitch	-13.895027
Perf	-13.936354
symmetric	-14.198378
MODER	-15.003382
lda	-13.714956
HU	-13.843851
Created	-13.170499
outb	-13.915792
initiate	-14.829246
IVectorView	-14.770113
ubi	-13.578408
confirm	-14.069424
CYCLE	-14.102653
blit	-14.096036
Router	-13.653635
Too	-13.645088
Serialize	-13.767532
lpfc	-14.060839
btf	-14.460951
assignment	-13.900969
▁JNICALL	-13.736052
QualType	-13.837374
-----------===//	-13.019316
RPT	-14.429049
WebAPI	-14.720906
learn	-14.067772
flight	-13.489080
fits	-14.239272
ali	-12.788002
Colour	-14.000430
htab	-13.995651
LIBRARY	-13.709641
hypre	-14.195566
PyLong	-13.913800
CATEGORY	-14.020777
▁passing	-13.050481
duplex	-13.954419
GW	-13.785618
kr	-13.256976
msec	-13.995796
SQLite	-13.730453
ossl	-14.213108
Streaming	-13.799785
▁USCI	-14.343046
mtk	-14.125880
ecma	-14.191630
canonical	-14.226800
GRE	-14.436321
bbox	-14.147567
DevicePath	-13.953957
Developer	-15.077112
msp	-14.209879
relaxed	-14.112178
Internet	-13.818909
ark	-13.309132
virtio	-14.028934
Lsp	-15.279678
VGA	-13.955741
discovery	-14.170518
!!!	-13.163061
GUC	-13.956365
unformat	-14.216349
GEOMETRY	-14.038660
▁UPB	-14.658629
loff	-13.930152
Convolution	-13.929887
transpose	-14.052226
CAR	-13.807128
WIDGET	-13.911147
▁Cortex	-14.124620
fgets	-14.042758
VECT	-14.484250
▁onto	-12.893538
▁corresponds	-13.637833
▁completely	-12.699702
▁----	-12.946764
DUAL	-14.094717
tune	-14.023467
retries	-13.859289
mesa	-13.981087
PixelFormat	-13.999846
Coeff	-14.193587
▁jobject	-13.867590
SCM	-13.965472
uio	-14.114267
▁implementations	-13.417993
tmr	-14.067672
Mapped	-13.896478
spot	-13.760156
▁decide	-13.308166
proof	-13.810918
boundary	-13.892955
algorithms	-14.629549
stdbool	-13.161092
ett	-12.773360
distinct	-14.297490
Projection	-13.866793
▁why	-11.973007
cifs	-14.088750
Gate	-14.062172
IsNull	-13.723801
unexpected	-13.887715
BARRIER	-13.884059
IoT	-13.832624
Flat	-14.025185
RTP	-14.003843
how	-13.329093
STARTUP	-14.134286
specifier	-13.901097
Extend	-13.793586
strtol	-14.107578
Eterm	-13.794175
IDENTIFIER	-13.861698
dwarf	-14.543893
uy	-13.773909
robot	-14.320004
SEPARATE	-14.126032
mtime	-14.041835
secs	-14.001840
NSS	-13.955595
^(	-14.021217
mip	-13.982487
bz	-13.857193
IMETHOD	-14.217190
SetWindow	-14.031763
FPGA	-13.999250
▁/**********	-13.010735
Reject	-13.948769
Hard	-13.924311
nsI	-13.932270
dout	-14.195100
swapchain	-14.290075
▁arbitrary	-13.448863
GetEmptyString	-14.284131
zh	-12.995595
NAMES	-13.828746
▁CYDEV	-14.312921
intersection	-14.654447
functional	-13.200469
Should	-13.551560
▁copying	-13.633315
Spacing	-13.977264
MCO	-14.451480
SSC	-14.244140
fdt	-14.092441
MARKER	-13.592480
BOLD	-14.306485
Watchdog	-14.070411
offer	-14.359516
▁"$	-13.370355
Para	-13.733034
completed	-13.706174
avl	-14.195961
ASSEMBLY	-13.755439
Nothing	-13.894868
MSVCRT	-14.097283
Irp	-13.930555
epsilon	-13.231948
alc	-13.858379
Measure	-13.461190
ELEMENTS	-13.959120
FileSystem	-13.766567
Credentials	-13.912449
lrd	-14.619537
EFUSE	-14.411962
HOME	-13.372879
logic	-13.421088
cst	-14.145783
TRG	-14.489366
pmap	-13.818726
glBind	-13.879978
FREEZE	-14.818854
CLAMP	-14.017474
Star	-12.779932
▁OMITGOOD	-12.673738
FAN	-13.847820
EML	-14.401310
related	-12.058628
flg	-14.067918
generation	-13.492485
predict	-14.432011
FIELDS	-13.839609
lreadyInited	-14.297561
TRANSACTION	-13.958505
Magic	-13.835134
HIT	-13.887617
SSID	-14.144686
ElementType	-13.952676
TESS	-14.040888
freeze	-14.043660
efree	-13.343877
RDMA	-14.133370
BLOCKS	-14.057051
unc	-13.665298
pcap	-14.115576
Scaling	-14.048743
VALUES	-13.999034
maximum	-13.788001
*)*	-14.227319
BKP	-14.400446
prepared	-14.397679
RSS	-14.022152
HCLK	-14.415701
nats	-13.799107
neigh	-14.170734
water	-12.533976
ANGLE	-14.079127
Gl	-13.598214
POLARITY	-14.489986
emsg	-13.914290
RDS	-14.324246
Publish	-13.873165
weapon	-14.194548
patterns	-14.297091
los	-12.903154
Actions	-13.494534
Logic	-14.044786
ssi	-13.568688
NVIDIA	-14.071035
kobj	-14.103035
characteristic	-14.848950
overload	-14.542029
▁displayed	-13.265383
Foreign	-13.607784
▁causes	-12.948217
PrettyPrinter	-14.814123
brk	-14.105100
Phi	-13.274714
bta	-14.246877
mixed	-14.185137
Permission	-13.741777
PORTS	-13.925527
ETHER	-13.929466
clocks	-13.754056
TEGRA	-14.059257
assembler	-13.898958
notes	-13.542216
sParam	-14.266605
wpabuf	-13.914034
opr	-14.021310
COLL	-13.857398
▁mxArray	-14.018381
Ranges	-13.745626
dense	-13.829012
wanted	-14.593842
▁fHelp	-14.106833
RpcChannelBuffer	-14.407126
PhysicalDevice	-14.528837
pay	-13.874176
▁Steve	-12.365049
sts	-13.235199
caller	-13.904782
▁UDMA	-14.266943
Org	-13.979216
PORTA	-14.296566
SLOW	-14.051681
ethtool	-14.067379
TITLE	-13.633299
Voltage	-14.029117
Periph	-14.204114
tga	-14.291744
Pulse	-13.846734
atan	-13.772262
PUB	-13.829300
wdt	-14.027807
vprod	-15.003384
▁meaning	-12.688514
msc	-14.246497
RESTORE	-13.800707
tablespace	-14.076686
pNew	-13.954207
DCB	-14.321982
Login	-13.444331
trivial	-14.287832
SPD	-14.283769
mcu	-14.240112
PERSISTENT	-14.332284
clipboard	-13.836350
bra	-13.059170
icate	-13.993381
stereo	-14.353255
aries	-12.855564
WORDS	-13.893593
WPS	-13.979301
Grab	-14.240493
Boundary	-13.736571
frontend	-13.927394
CALLBACKS	-14.027109
ole	-12.663713
minimum	-13.763897
xcccccccc	-14.855963
▁becomes	-12.683185
GPS	-14.136436
STRIP	-14.005498
clazz	-14.011786
cpuid	-13.991142
RedisModule	-14.208186
Uart	-14.244633
HYPRE	-14.294085
dss	-14.220316
sgl	-14.149441
OWNER	-14.015243
ShiftMask	-14.637513
ute	-13.382152
uip	-14.152577
SLCR	-14.477221
ECHO	-13.816617
ANCE	-13.316331
Vulkan	-13.922092
ECMA	-14.100287
Lang	-13.601910
Updates	-13.557571
ari	-12.468711
ADT	-13.875214
potential	-14.747061
Divider	-14.259985
rings	-13.943635
HH	-13.802125
FILES	-13.734983
SUSPEND	-14.060823
Vehicle	-13.972837
Clamp	-14.044514
models	-13.647653
memview	-14.258537
NSUInteger	-13.808826
MEGA	-13.850601
FZ	-14.718203
connections	-13.637746
semantic	-14.635924
SIDL	-14.137565
California	-14.344901
Terminate	-13.731236
Green	-13.189804
ddrc	-14.289207
Unused	-13.840007
Streams	-13.965203
istream	-14.085148
vrf	-14.413100
tupdesc	-13.970130
======	-13.683998
▁statements	-12.987079
CHROME	-14.335867
Pic	-13.926031
Restart	-13.814305
DEXT	-14.361162
Vm	-14.023717
ompletionHandler	-14.873996
FromLong	-14.045059
Checked	-13.786431
marshallOut	-14.473295
NETIF	-14.137444
ended	-13.697973
Hot	-13.643532
▁Limited	-12.971243
MISS	-13.872567
OSCENCMD	-15.070742
dispatcher	-13.972607
Outer	-14.034719
SendMessage	-14.228806
merged	-14.414341
xffffffe	-14.909557
Exchange	-13.912213
residual	-14.733134
mpl	-13.469794
▁Reads	-13.842176
▁performs	-13.610807
Starting	-14.194354
STP	-14.251901
EXCHANGE	-14.027859
TCR	-14.332719
vkCmd	-14.481449
LBL	-14.122174
Will	-13.212830
ital	-14.008568
ABC	-12.953065
Hide	-13.615491
▁Semiconductor	-13.738488
Characteristic	-14.070671
Vote	-13.606218
bsl	-14.008314
Allocated	-13.968024
spc	-14.164332
CREAT	-14.102398
DCR	-14.657071
ftnlen	-14.250483
▁vpx	-14.580491
ReceivedHandler	-15.154070
EXTICR	-14.833699
density	-14.278910
arity	-13.864426
toString	-13.247596
yyval	-14.211519
MPC	-14.058348
linker	-13.924209
KR	-13.574538
VIS	-14.144532
Calls	-13.753077
loopback	-14.036785
Formatter	-13.937930
Plot	-13.734076
pem	-14.126083
PHYSICAL	-14.158388
▁suitable	-13.265600
Tbl	-14.129973
PERM	-14.176542
deg	-13.772318
DLC	-14.007348
OutcomeCallable	-14.323458
Checksum	-13.990567
ich	-12.781970
FIR	-14.084202
LAN	-13.510625
estimate	-13.817246
USES	-14.116235
],&	-15.649252
plist	-13.749695
KM	-13.542821
NACK	-14.091275
ROS	-14.277559
MATERIAL	-13.728177
attention	-13.194563
redo	-13.593888
STDC	-13.841482
****	-13.480695
EFR	-14.583339
lsb	-14.262730
Encoded	-13.988767
IZATION	-13.537458
fcp	-14.243439
ota	-12.942189
Wasm	-13.950366
)|(	-15.093626
nvmf	-14.270742
samp	-14.220284
Aggregate	-13.924264
deallocate	-14.020640
dapm	-14.365906
remarks	-13.209203
OVF	-14.385722
SHM	-14.025335
uninitialized	-13.953714
MCA	-13.653880
[\"	-14.934315
conj	-14.244743
▁JNIEXPORT	-13.731551
FALL	-14.326169
getopt	-13.957089
cij	-13.833607
DSL	-14.202673
Maps	-14.038699
Barrier	-13.983199
libinput	-14.004991
Possible	-14.404683
updated	-13.700233
Blue	-13.060601
Needed	-13.814193
▁Le	-11.545198
ORINFO	-14.335135
compiled	-13.866306
CLSID	-14.302339
RENDERBUFFER	-13.865977
▁storing	-13.771094
LG	-13.468773
CBigNum	-14.058655
BLANK	-14.130005
Google	-13.426776
Debugger	-13.802934
BAUD	-14.395108
//!<	-13.847730
▁maintain	-13.201955
hdf	-14.225750
ima	-12.678643
datetime	-13.730429
Effects	-13.648945
prom	-13.929049
'>'	-14.023099
otg	-14.400644
Acceleration	-14.118050
DTYPE	-14.158325
Arch	-13.601618
publish	-13.982639
inactive	-14.498307
GetProcessHeap	-14.041790
Serializer	-13.756994
dequeue	-14.046950
FFS	-13.988629
MonoMethod	-13.765813
ahd	-14.547263
zd	-13.541345
PDO	-14.059452
▁palloc	-14.101791
vehicle	-14.753337
spacing	-14.166910
sqr	-14.325952
subtree	-14.114868
setsockopt	-14.225995
corrupt	-14.858349
aborted	-14.864840
CDB	-14.088701
ANG	-14.349172
▁':'	-13.904733
=========	-12.796984
Vertices	-14.057782
EDMA	-14.568938
BED	-13.969404
equality	-14.750501
vst	-14.362328
broker	-14.288023
MenuItem	-13.873237
DIO	-14.040809
RCU	-14.319631
Mailbox	-14.294615
CLEAN	-13.980904
GPIOA	-14.173775
ably	-13.247439
validity	-15.012766
LPCSTR	-14.143005
CMSIS	-13.939303
н	-14.386392
COMPILING	-13.873650
qualified	-13.985799
embed	-13.929762
nulls	-13.910923
mds	-14.346240
NUMERIC	-14.045428
Testing	-13.857664
optind	-13.749568
cop	-13.705175
'?'	-13.888878
mcs	-14.263281
▁EFIAPI	-11.848595
Vol	-13.123588
kHz	-13.970804
movs	-14.228781
LWIP	-13.974279
▁manually	-13.586804
},{&	-19.154086
AIF	-14.390898
IDENT	-13.263872
▁internalformat	-14.550702
Initialized	-13.692802
IEnum	-13.993582
Absolute	-13.558946
ner	-11.775216
ecx	-13.809030
tmpl	-13.994389
verbatim	-12.857672
▁lfirst	-14.084776
nav	-12.815087
TID	-13.985595
RISE	-14.285712
▁locking	-13.738578
Assembler	-13.919652
BORDER	-14.050350
Joystick	-14.009222
Raster	-14.027766
ADA	-13.781387
DSR	-14.644701
Reading	-14.035050
committed	-14.475809
GIF	-13.860957
▁MODKEY	-14.526810
latch	-13.963899
asc	-13.715854
[...]
